[SEP]
[
]
a
b
c
d
e
f
g
h
i
j
k
l
m
n
o
p
q
r
s
t
u
v
w
x
y
z
##l
##d
##o
##i
##n
##g
##c
##a
##t
##e
##r
##y
##w
##s
##h
##p
##m
##q
##u
##b
##k
##x
##v
##j
##f
##z
th
the
##in
##er
##ou
##es
se
##at
##ed
##nd
sep
##re
##ll
##on
##or
##is
##an
##en
##ing
##ar
to
##it
##as
you
and
in
wh
it
##om
##ic
##le
of
##ot
##ow
##ut
##gh
##et
that
##ve
##al
##ac
##us
##ay
be
on
##ad
sh
st
he
my
is
##ur
##id
##ir
##ld
##os
##ith
for
##ion
with
##am
its
##ght
##ch
as
##ke
##ly
##oo
##ill
ch
an
we
but
de
##ent
##im
##ce
re
so
##all
##ers
me
fr
your
li
##ess
his
was
they
##ight
when
##ust
##ra
not
or
##il
##ro
##ct
##ere
##se
ne
this
im
at
all
##ver
##ant
##ri
are
##un
##ome
sp
##est
##ould
ha
##ter
##um
##th
##ge
her
##ont
no
##ck
pl
##pp
##ain
##ough
do
from
sa
su
##ol
##el
bl
##ack
##ast
##ak
##ie
##ist
##ul
##ore
##ate
##op
if
ca
wor
what
can
will
##nt
##st
she
cl
tr
just
le
##ine
##ound
by
fe
##ig
##ard
##ose
like
##art
ex
##ake
cr
one
fl
go
##ick
##own
##ind
some
con
##and
##ation
br
##em
##ab
##ous
##ff
pr
##ue
kn
al
our
com
##ood
co
##ite
##ach
out
##ame
now
##one
then
ar
##ish
##ell
who
##ive
have
##ink
##ap
their
gr
##ook
ab
thats
up
said
qu
##ud
##ep
bo
##ans
say
dis
##ong
sc
youre
##ath
ad
were
##ace
##ect
##ass
##our
##ag
##ree
lo
##oth
us
tw
##pl
dont
though
would
##ys
am
##out
get
##if
sw
##ost
en
##ings
pro
dr
##reat
##ort
##iv
##ies
##ide
call
##ice
has
##ase
##ile
un
##res
##ip
##qu
hes
##ure
man
sm
there
see
well
##ich
##are
ro
bu
##ade
too
had
more
theres
gu
##act
ill
##use
##ear
ac
##av
##ks
sl
thr
##pt
po
where
##ally
##ance
know
##ime
may
ive
##ft
##ned
make
old
##og
how
jo
word
theyre
day
new
##ity
te
##ble
ag
off
could
##aw
##ry
down
look
##age
app
##ought
##ang
which
em
##ph
need
##ail
mo
##eth
him
wr
che
got
should
##int
##cl
let
##ise
ever
##igh
think
car
##ions
##itt
di
##ps
pe
##ash
##ub
##fe
##oss
way
##ress
each
sin
##iss
##ens
been
##ical
cant
pre
##ment
sk
made
great
##ors
##ark
cle
##air
ke
des
bre
gl
them
##iz
##way
good
while
fir
##akes
##les
id
back
per
quite
two
comp
youll
##ool
mu
might
##nder
##its
##te
##ock
those
through
find
than
##able
##ull
##ian
right
##ia
##nds
##orn
spe
sn
##ious
once
take
##ows
##ert
##ves
ple
##uck
str
these
every
play
must
##ved
ho
##au
##gg
##atch
##ons
called
since
wont
int
##arm
af
##urn
##ars
##ave
ph
##ful
seem
##ts
##ord
##pe
res
##led
long
shes
much
time
cont
use
##rain
##ix
fo
first
feel
bet
##ery
end
##od
head
never
##wn
##umb
##erm
cause
##amed
##ven
##ence
found
##ount
did
sure
##ign
bar
##aking
##als
##ib
att
here
exp
##ered
work
best
##ank
cur
##ire
act
##ting
hell
##ving
##ty
part
over
##ild
name
##ats
keep
such
means
##orm
##ness
##ze
why
still
any
high
##ush
##ied
##bs
##ng
gra
ear
##ater
##ial
ins
##less
life
love
ey
want
tri
most
ass
##ots
swe
big
sur
##be
youve
##pped
##ym
show
hel
whats
##anc
mean
both
##ict
##ug
##ee
mar
pain
tell
gre
start
try
dec
please
come
##ead
##ird
##ather
som
young
##ines
##red
thought
##ope
##ew
bec
night
makes
ask
hard
cut
cho
##uff
clear
does
##ates
rem
bel
def
cre
frie
del
give
##ouse
##irl
fun
##ets
##ange
##ott
##co
ser
ant
eat
##amp
##ents
last
##ition
##ale
conf
##alk
add
bad
##day
comm
##ics
##ife
plan
named
##ins
light
fine
dri
place
##ated
red
pass
small
imp
into
##att
##ump
dou
acc
left
oth
about
##ning
rep
read
care
sch
cons
many
##ears
##ures
##que
cour
god
after
##up
##ists
far
##ling
##oy
##ult
dre
only
##itch
yes
##ms
dead
##atter
##ary
##other
##oun
oh
sound
put
run
##ory
##aim
air
##olog
hed
without
away
fol
says
words
aw
##ber
hand
used
black
##uct
dra
##ily
##imes
cra
##vent
beg
##per
##ude
##ined
##ants
el
girl
lim
ste
##ids
fre
soon
things
sweet
##ne
true
bed
very
really
bro
##ote
seems
##oud
col
heart
turn
dear
near
##cc
fear
##ax
##bt
help
##ations
rel
three
face
bra
##ject
##ten
##lect
inst
hear
##icks
##vers
##imp
ap
ref
miss
tre
##uc
##ah
##ands
##xt
someth
##used
lets
##ittle
cor
tra
##rop
##iew
##ways
till
even
home
yet
##ane
pay
stre
known
bit
free
today
##unk
sou
##ills
round
##oc
##ute
ball
hot
set
mind
dist
##zz
peop
rec
coll
##dy
##ried
drink
lear
bef
dem
##rie
bur
##ones
fell
fish
art
er
less
expl
under
##ives
fact
##ait
mus
fall
sho
kind
little
##ern
guy
es
wife
inf
char
cal
heard
##gs
blue
people
bird
book
own
##dd
something
ind
came
##ny
##bb
poor
went
met
chr
##ike
div
##lf
form
thing
stay
folks
grow
always
##aught
##ically
again
often
heres
aff
##ught
full
whos
##ner
flow
##illed
##br
wo
war
dev
pur
##unch
##cks
eng
count
lad
food
sub
rest
##vel
ed
beh
##ams
##ene
before
supp
told
##uss
bab
##ract
stri
hair
##ared
blood
dad
sle
sad
##ause
stud
guess
mom
##man
fin
wed
##ored
world
dam
law
##ung
##aps
view
##aid
sal
##ns
white
short
friend
##gr
##umm
##ier
squ
##ains
eyes
##hing
##so
##aves
rh
disc
class
dep
##ric
##ues
ret
##we
##kes
##uth
ones
ext
lar
stop
better
deep
det
sing
##els
men
buy
land
tur
hold
##unt
abs
stra
##ond
isnt
##az
whose
##aut
adv
quick
##wh
##aster
##ient
fight
av
past
stuff
water
##ward
hal
real
line
took
##ides
done
par
##ield
##oney
grand
win
##der
##ize
nor
other
##pect
##king
cry
##read
brain
same
flo
conc
nice
scre
treat
cell
simp
whole
##ob
state
exc
top
four
cold
watch
##pr
cat
pers
##ls
gone
break
gen
hor
##amm
inc
claim
lead
perf
mon
##essed
##oke
asked
bright
seen
cross
##ips
ten
bell
##ating
##ired
around
bill
##ased
lack
##idd
making
pres
reg
##pping
fly
hope
arm
sun
term
##gn
gave
min
bi
##rect
lot
spr
##ised
weve
op
pol
wom
##und
wear
nothing
house
youd
also
##ape
lost
cy
stand
dark
tree
wait
son
##oms
##ual
eff
##ames
next
##uit
##eds
##ular
##atic
##oid
goes
gets
ang
##oph
tast
hum
##ced
earth
writ
da
ob
fair
yell
instead
star
comes
point
low
##esh
inv
wish
looks
belie
ev
pet
sy
bring
wrong
sign
##de
den
fool
##ron
green
pri
ve
being
cond
prof
fail
town
few
eye
skin
forg
##ressed
doubt
school
sex
course
wall
decl
feet
comple
ble
cert
ma
ty
und
limer
adm
##cept
##pper
beaut
##rib
##ened
##na
##ple
fat
obs
king
##ments
##ged
mad
child
aint
##aint
##ek
##iff
fle
happ
speak
##ative
shell
days
fast
##not
side
thus
wind
##he
##bo
##by
##ians
ter
years
##ether
##row
##aced
strong
##ask
trans
doct
because
ban
##ium
gold
ent
bow
que
##ism
boy
hit
shed
year
ast
cook
eas
rather
##iver
##iness
inter
ground
walk
fam
ann
##play
large
pick
##ret
friends
##ouch
game
creat
meant
theyll
cow
odd
ra
##uce
saw
wood
certain
bal
##ops
leave
compl
##ection
cir
pen
##nch
##ards
fore
beat
case
##af
live
##ained
times
door
fa
meet
late
##old
guys
rhym
half
cool
pow
##ilt
slow
job
##ger
##ution
##acks
fel
har
##yl
##let
pat
##self
dog
doc
check
##ible
doesnt
##ured
##erse
clean
numb
##eal
death
##irt
##iled
sell
const
##cle
##ense
##ffer
ru
##aces
disp
hur
mis
plant
dig
##ason
##end
##ese
##irth
cast
##yle
pot
pray
cried
##ique
shows
ach
##head
med
test
##land
tom
##asure
cap
mark
heav
mess
##amb
knew
##sw
using
sight
##oon
kids
##fer
prod
six
dry
wonder
##ention
ce
teach
bud
##oop
sol
##ove
##alth
##etic
##urch
sit
vis
room
caught
##ift
boo
shar
cloth
feeling
din
appear
tried
##ey
##ither
##ept
sen
##ingly
leaves
##ology
bus
pie
##sh
straight
simply
##ces
sea
die
money
dro
needs
mine
close
kill
repl
sleep
smell
display
agree
date
##lish
prot
giv
arch
desp
##acked
shot
change
turned
##lly
flat
enough
fit
##ked
##ils
list
##ided
elect
lab
takes
##ren
write
##ler
bear
##oof
others
deb
rock
egg
fill
mag
desc
boss
jud
breath
christ
cro
sil
shr
chance
##igned
aut
##ole
mil
ign
rom
##ores
##ief
worth
build
sat
sent
talk
prom
##ider
##ific
didnt
song
deal
arr
##outh
##ature
knows
cash
nose
##like
##orts
draw
equ
##ility
##avor
lord
sec
##owed
##ales
spec
cost
##ized
hop
leg
learn
cent
spl
##ork
brown
horse
mother
rul
answ
fil
##omb
church
hands
##ums
ge
catch
reach
##une
##tend
vo
rare
unt
spread
brought
##uly
##inal
##osed
joh
pret
eight
rev
##raph
##ges
inside
corn
gives
##ries
prov
dar
##ests
fix
##ias
##uts
dance
mist
tight
##cy
dish
##eric
beer
cand
##astic
##ails
pull
farm
##haps
##ister
lau
lots
##osis
note
##ours
maybe
sir
getting
caused
loud
move
##attle
fire
##lic
##oup
mix
ner
shall
##enty
theyve
##ocks
choose
don
gree
alth
delight
having
dress
bag
warm
lif
perhaps
south
##eness
##ays
crit
kiss
##ipped
##rol
gal
##me
stick
music
burn
requ
##istic
cannot
damn
rich
ya
##ky
body
bought
going
gun
ok
tem
works
succ
although
hey
crow
space
blow
five
##erg
##ices
##ently
##aff
worse
foll
ben
##ital
shout
##ume
expect
felt
wine
bott
sick
sky
meaning
##ites
spot
someone
couldnt
##ience
aim
##arch
cop
wasnt
plain
trees
mor
##full
bull
news
french
soft
court
wild
##lo
##io
trou
bas
##iet
pos
easy
luck
pal
##ae
##erst
##ison
##ying
##key
least
##ween
fruit
coun
taking
bee
cover
##itting
tough
##ads
spell
direct
fur
sold
box
taste
fame
ur
roll
birth
ep
mer
drug
design
pub
##ued
chem
##imm
sounds
mass
sour
emb
complete
amb
##aughter
enj
wrote
double
laugh
blo
bank
##ceed
truth
doctor
age
somet
##well
##otic
clim
pretty
ver
girls
scr
pra
##ken
##ction
##ished
between
##ograph
strange
##fully
bare
hy
##ony
##app
##ruct
looked
become
sense
style
hu
pap
smart
sometimes
lay
sus
til
mod
foot
floor
##ball
lives
train
ele
hon
##nding
##ision
ir
##ds
##ett
##usion
quest
gas
opp
baby
band
street
john
##iny
smo
drive
believe
la
butt
glass
ring
##ited
caus
loc
##claim
broke
ris
##ging
comb
##rief
person
base
bound
##erous
##aken
longer
avoid
effect
mal
##urs
meat
##ably
clearly
circ
rule
alone
born
whe
theyd
nation
dise
bread
##bed
charm
##uel
attack
ren
fresh
lady
matter
proble
mate
##ration
lie
boat
behind
port
##ral
##iction
##cond
force
neigh
capt
##aped
none
occ
sand
likely
surely
cam
rain
chick
##onic
weight
block
shock
##aked
looking
speed
lines
##ering
##ploy
ways
pair
##roll
##aving
played
dream
ice
tot
##iful
started
share
##ched
surpr
thin
drop
ran
defe
##tered
prefer
truly
appl
common
power
##erk
prop
##gress
thick
price
fate
front
blind
open
sor
##omes
heat
arent
##ement
neighb
pop
west
##ator
key
##ma
reason
neat
press
limerick
rhyme
##urd
sail
dread
ease
##oring
writing
city
gro
##itten
##ugg
##osing
ens
filled
gar
wide
##ana
wee
plants
begin
jack
val
##ding
bree
##the
kid
##gu
##otion
##ina
crack
cou
der
due
##her
imm
smile
fing
sort
tall
fellow
##ted
##ancy
field
hide
mount
verse
lose
path
##cent
dism
helps
fan
learned
anc
resp
birds
voice
americ
ber
##bl
##oles
conn
card
##go
##ware
size
sens
##ades
##raid
ah
germ
##ees
brings
twas
books
family
summ
##ters
##ayed
mem
##ounds
swell
stone
##ural
keeps
cheese
enjoy
cart
mr
##col
arri
##angu
hate
##ases
##aled
deg
hole
dim
dest
danc
post
##omy
##aws
english
hang
camp
kept
stuck
sharp
pan
##ech
##ror
above
enc
buck
##iddle
brit
bold
rub
##con
blame
study
later
another
suff
brother
differ
playing
tax
tech
##fl
##iced
shape
trick
teeth
flowers
seek
bone
dent
##ior
chang
afraid
favor
pink
##ipp
seemed
cos
##eed
second
##cked
group
north
clothes
sque
touch
##zy
appro
store
crime
joy
died
bac
dumb
hus
##off
##oned
##undred
rout
tong
##illy
queen
aunt
##icious
proud
color
shame
##asts
##cover
esc
forget
plus
replied
duck
##ss
bite
cu
pure
##ining
tool
##aged
phys
cup
dy
led
ship
lies
bod
unf
cream
norm
pa
##ann
sugg
drunk
confess
perfect
aud
main
prep
nat
butter
underst
disease
harm
##eral
tog
mel
##ints
explain
until
fig
je
lat
morn
##cess
##acious
quickly
club
##ems
##awn
##cles
ought
trust
##ashion
bat
##ama
cheap
serve
object
number
rules
est
gard
langu
rose
##side
##ker
women
yellow
lifes
##gy
##gar
held
pract
mouth
##iding
##ident
chair
father
hundred
alas
throw
park
board
diss
tea
##ashed
parts
bay
names
paid
sigh
##to
grows
##ages
cheer
glad
##what
success
bath
fac
mere
##rit
stock
upon
snow
cute
limericks
##wed
self
incl
##empt
##ively
eating
else
woman
dang
suit
twenty
acid
husb
together
terri
fut
tail
##oses
grace
##arent
##get
##mas
##eless
type
dut
hat
beach
chest
colle
buff
du
hall
ye
thir
##iling
save
employ
thanks
choice
mach
pig
sym
##oot
grown
prec
poss
along
gods
given
tv
##iant
##ring
##bit
##vin
arg
cells
answer
spir
prin
happy
greek
huge
jump
counter
##ners
##pes
##frie
health
frank
goal
alm
##others
ju
##idge
grass
control
daughter
fif
search
##ley
soul
##aze
reve
##ested
sav
techn
race
##sy
send
##asc
stink
shoot
advice
business
##iest
became
bes
tub
firm
beautiful
bore
fer
##men
##bod
sto
safe
uns
heaven
judge
tick
bon
ut
wre
##arr
ate
phr
express
trip
turns
follow
gri
##rew
joke
appeal
dust
gent
hung
##ever
##ata
##itys
plate
flu
wouldnt
attract
absurd
beauty
source
fal
mill
oil
##oh
##omp
fort
cred
cock
appears
account
##ec
##ches
feed
##action
thinks
##ension
nut
##rees
##ires
fem
rob
comput
##ox
order
flight
surv
divine
milk
match
##dle
##ening
fright
peace
crowd
trouble
dom
non
pu
ride
##ru
##uring
measure
doing
##ney
hurt
bush
dough
living
##agr
decided
ears
hook
##eng
dan
##hip
week
liqu
##ript
speech
jew
tit
##val
planned
bust
pants
ton
invent
crown
pin
rot
won
whether
step
below
spring
ale
host
mans
master
wise
anim
weak
##geon
##ults
wearing
eggs
rad
##uous
##itions
##aded
thinking
purs
loss
push
vol
##cer
##rent
stress
neck
legs
##ipe
bey
##irm
within
soc
##ived
gee
meth
curse
bomb
mut
story
ash
hist
built
##gged
language
ax
##oes
##mon
boys
charge
okay
cad
##kin
threat
##elf
ready
vict
score
##ected
served
record
complain
##fish
##ading
coff
needed
paint
mid
mention
##ising
##itive
##ety
feat
coming
road
##ances
##verse
perform
lunch
##iles
##vern
knees
skill
beyond
pun
sim
support
fab
##of
##tern
crew
gall
math
rough
chap
##ager
bang
gain
kick
wet
##gl
##rel
worst
cloud
contin
consider
##gen
##vy
beware
scene
acr
clever
action
lovely
plane
children
breeze
##aud
stars
##ander
uncle
##eres
##orous
##osh
##rod
alb
##apt
boot
unc
simple
ancient
pack
##bles
##ises
stew
apart
human
rate
table
party
grew
visit
rude
wit
##ray
##arian
##ths
##izz
demand
incre
east
horn
taken
third
##inct
##oul
##isc
whom
pride
##aph
impress
brand
toss
sport
##airs
wanted
trying
maj
link
pitch
##iers
shop
##roph
bob
saying
remem
lacking
sorry
bones
either
##ien
##ta
seven
super
##itted
hors
mud
able
glo
return
piece
gle
##iqu
##ton
toes
##oming
concl
team
showed
dreams
vir
infl
gh
##under
report
##ounce
admit
##dom
##kn
##aling
sheep
knock
cust
##ities
dece
conce
##ample
dinner
biz
dare
##ares
##aly
##alled
frown
##uls
##ached
chew
country
##omet
anth
pred
among
thrill
define
paper
aer
auth
bun
##oint
##bing
whis
##vey
renown
dull
tal
##gan
##erv
asp
ange
##uced
phrase
##orge
likes
spo
track
accept
tend
curs
starts
remain
giving
surprise
tongue
sought
##ially
beast
rece
##ession
##sel
loves
dressed
##ization
passed
ends
tiny
##rap
dogs
phil
folk
calm
against
suggest
##orce
##ribe
letter
shoes
condition
achie
##line
##ually
##ims
reb
lift
discover
acqu
slight
growing
vers
##erve
arms
broad
praise
garden
rise
wings
##ius
##ino
##reme
stat
ord
##antly
leaving
joe
heads
wal
spent
result
##ode
question
husband
eur
taught
##een
##ories
cult
gut
pill
vac
##oe
##xic
stage
exh
moon
funny
collect
bout
fed
lit
tour
seat
##ette
myself
##thing
##elps
contr
impro
declared
##friend
fashion
lass
ol
van
##just
##osc
##ledge
wants
began
mistake
understand
aust
bark
mood
##umps
##str
thank
behav
syst
bul
battle
brief
fans
yield
##aters
##aker
twice
calls
driving
subject
bor
hours
##ality
##ching
##sect
suc
loose
swear
keen
phot
describ
ec
gift
##oll
inn
meal
##ther
##olic
grin
quit
##ified
facts
ling
tar
vi
exam
letters
polit
drain
fred
span
insist
dwell
rum
##bon
whate
shown
##athers
##ailed
diet
pee
plays
beef
different
ahead
bene
##oops
spin
cab
##agn
process
brew
expert
schem
views
priest
cure
##ster
##onna
##ppy
cake
twel
smoke
carp
##ission
resist
indeed
bot
bent
##light
##ai
##tle
##iting
##urred
repe
##room
##aks
log
loved
bug
drag
present
problem
american
river
##ients
##wl
plot
poll
poet
##wards
fingers
chicken
favorite
au
cous
##bble
##reed
plans
##asty
##arted
flash
phone
correct
var
married
serv
booze
bib
iron
##work
tow
cher
scar
role
respect
brains
morning
##rys
##yr
alarm
##arsh
##pend
worked
protect
mot
tale
##ye
thous
weather
ath
##olf
disgr
reflect
cub
##cul
strain
france
neither
suffer
cars
carry
finds
laws
public
honey
##jo
storm
waste
blast
text
afric
faith
terrible
cott
psy
##vere
##any
##aring
pros
embr
thoughts
##atters
genus
product
shut
chief
outside
sweat
suppose
sadly
aqu
tears
ven
sed
stood
lived
doll
sup
cru
knife
keeping
##ummy
drugs
mort
##cr
##orse
##ential
cave
alive
sne
surf
creep
running
fet
##ex
seed
##anks
##otes
chin
##arts
##ival
join
##itty
recall
twelve
male
net
sister
##asing
heed
height
chose
govern
twist
film
remember
parent
sees
tooth
states
##aming
spoke
clue
trade
guard
written
chocol
missed
##idden
cel
fancy
tor
##wood
##how
##zed
##inate
stands
##che
##riage
leaf
apple
lust
nine
seeking
broken
certainly
##zing
##utes
havent
brass
code
enter
barb
working
ignore
college
whatever
mat
sam
##lands
wealth
brush
coat
rocks
poison
lawy
teacher
future
tonight
dub
wore
##yn
sever
wash
neath
##antic
##ooks
knowledge
##teen
spend
prize
bol
batter
rush
##uses
flies
compet
acts
craft
strife
creatures
hill
hue
vote
##arre
##rage
crash
bride
ide
insp
yelled
##thats
cod
attention
mac
oce
sink
##vation
##ury
##irk
yours
runs
drinking
##where
terms
christmas
smooth
bits
##aver
##ped
stir
##ament
swall
bucks
##ogen
##ensive
passion
subl
square
verb
jerk
pict
##por
debt
##roy
amaz
##otten
edge
summer
almost
hour
laid
ox
##rom
thro
##ination
##erent
##ester
sue
clown
##assed
command
soup
absol
screw
obsc
split
position
method
coffee
lou
##lt
blues
project
complex
succeed
aid
##lers
bend
stro
impl
blank
pron
prim
disapp
phelps
feels
##ugs
remo
ess
label
suspect
task
##eg
lips
clock
##ples
deliver
lands
mur
seas
##ician
##cend
chef
remark
relax
##board
wonderful
covered
##rupt
foul
maid
row
##iance
rear
suck
amph
bugs
fond
attempt
extra
bottom
##body
credit
horses
bum
cats
eth
rat
tim
##wise
##bled
##inous
doom
lover
frequ
sales
excess
regret
walls
flee
fault
cath
civ
mic
##no
##bre
##ero
exist
whod
contract
squee
bump
nuts
rab
##gre
##itz
frust
##udge
science
ago
earn
##velop
points
##ength
bass
bord
gay
jail
mum
##come
##wor
##erc
beans
chain
react
yourself
gray
shouldnt
balls
metal
holds
doctors
hun
killed
##aur
chuck
sore
spare
##umber
insane
hardly
travel
salt
famous
cas
##gin
youth
##acing
champ
places
prob
desert
##otted
flower
determ
screen
secret
psych
bind
bored
wa
##right
##my
thri
##ara
insect
##icate
herb
##olved
##ulous
knight
himself
speaking
reading
aware
ladies
advance
causing
risk
chocolate
bills
dip
opt
##using
truck
defin
brave
galore
captain
middle
##ipping
##net
##set
iss
bran
swing
designed
breed
glow
hearts
refer
failed
lake
##ik
##rate
meas
skills
dropped
major
bask
ped
##ault
##uits
##fort
##oma
chat
alt
abst
quar
offer
pleasure
winter
problems
sublime
dir
dawn
nar
pad
rome
vent
##eter
##oser
reject
neg
adore
##ounced
##ocr
watching
cosm
bid
cough
hip
page
range
##hood
shaped
##ffic
coast
drown
unless
pleas
crap
raise
nature
rank
tun
##uv
toast
##asion
##amps
##vert
cann
coal
scra
calling
##anced
creation
confused
despair
system
ba
dw
grief
gonna
##gers
##onse
##acy
sugar
##aste
assist
tells
lights
career
##ologists
##dden
annoy
heavy
causes
false
ment
site
##do
##iate
##bers
oft
##osp
holl
begun
extreme
cryst
belly
market
building
wheel
fu
hen
vill
##over
##lets
stare
##urned
whenever
prime
mov
higher
approach
hits
kings
pale
##time
##illing
notes
placed
early
bizarre
kin
nude
sits
##lin
##yth
##ldom
sple
spouse
bond
##icted
consum
device
discuss
##bye
mir
pour
##och
##born
##ille
worn
somewhat
conv
moved
species
bitch
naught
##cus
##hand
blessed
##ounded
alph
accord
students
despite
apt
cattle
ham
tales
seldom
fee
crude
unlike
nearly
stopped
cig
ms
pool
tip
##ency
##ivers
prev
grab
err
devil
singing
declare
rhymes
mixed
barely
length
##here
##xed
##form
##itor
wheres
shun
staff
hero
example
##iform
teen
snee
##ibly
inspect
belong
mission
falls
romance
escape
tear
##ipper
##but
##zen
##cell
rele
feast
fears
flag
switch
root
slip
listen
george
scratch
merely
##cher
organ
attend
except
crust
swift
breast
current
address
turning
stret
##cing
forth
##anth
trad
flood
##ague
##iving
emp
reply
freed
subst
damned
invest
chemical
bloom
##claimed
machine
gentle
dot
event
pil
rage
sang
tab
##back
##enn
##asy
forms
flesh
distress
burst
subm
worlds
single
claims
profess
disgrace
cin
cit
tiss
##ov
shy
##ulate
grant
enth
everyone
starting
silver
degree
mamm
nasty
##for
select
##ede
##itis
##omm
##allen
allow
spark
amount
jokes
curt
marriage
fools
author
dirt
fib
gn
piss
wake
##oys
##atory
inh
bees
shore
anap
develop
blond
sword
intent
hearing
purch
wedding
special
az
fuss
hom
noun
oper
pest
vain
seeds
##itude
##usc
clay
abound
snake
fung
##ologist
streng
flying
raised
numbers
features
et
thumb
sets
flaw
proof
rod
empt
##inese
bitter
review
mouse
tap
tune
##iar
##apped
plight
sudden
apply
fold
inform
construct
tempt
changed
fav
fills
silly
##iac
##bol
##fast
station
chic
weird
##ulation
##opes
concept
##ological
##uction
excuse
daily
paul
computer
cousin
core
dys
data
games
mail
um
##nday
##isp
beet
imag
##akers
convey
##andy
knee
boast
buzz
diam
acting
showing
##vention
moment
float
bottle
glee
parents
cops
gang
sides
##gly
##tic
sticks
chill
cav
print
arc
defined
concern
hopes
defeat
arrived
ara
aug
jour
losing
##house
##ule
##chant
##sters
flair
serves
produce
cele
utter
dun
fits
faces
##itter
##esth
noise
scot
agreed
##bbed
critics
climb
totally
strength
max
oed
tone
chinese
sole
##udes
guide
tex
struck
content
mostly
missing
affair
final
claimed
evil
creature
selling
angel
cere
faster
maint
pope
punch
rings
##rons
arth
##ify
enem
energ
drawn
supply
strike
medic
describe
shrink
neighbor
sensation
several
ocean
batt
cord
dick
dash
jell
rid
rent
##lor
severe
##iment
fro
##rob
worm
tricks
cruel
grim
useful
steep
##ification
ghost
hay
wax
werent
reck
sauce
bless
crush
unique
foe
fox
colon
helped
##bby
meeting
fifty
across
fant
fake
jer
##you
season
##asp
bean
##ilar
proceed
grave
delicious
buddy
provide
completely
grip
pound
pear
trop
yard
##rum
deer
haw
bloke
exact
disg
swim
goods
meanings
decide
consid
muscles
shoe
engine
belief
terror
debate
reached
rarely
respond
response
british
prince
african
bake
cows
dump
hol
holes
nin
tact
vot
vast
woo
##li
##erves
beau
click
lean
flor
goodbye
holy
becomes
holding
typ
connect
practice
throat
bou
mart
tum
tied
##car
##rous
##icy
forced
frog
cla
coach
roy
##aved
results
foes
anti
guessed
crypt
prayer
fixed
cursed
thousand
ace
hunt
vine
##erate
##esus
##utter
bears
shakes
stun
##umn
##iveness
##ography
absolute
frustration
mas
pir
waves
yer
##free
##ato
beck
challen
##outs
unw
office
famed
gin
rope
##mans
##ench
itll
weed
flows
##ache
##udd
proper
offered
surgeon
chrom
scream
routine
technique
service
gown
gals
sar
wave
##gle
##ux
##ka
##erved
sports
plenty
bliss
crim
##elled
desire
marry
fully
blooms
oppos
applied
latin
civil
eg
mc
##ators
pole
commun
relief
instruct
musical
leads
army
standing
message
##known
eve
lying
nur
pier
tent
##foot
##isy
shirt
stead
soil
slim
##anged
snack
resem
girlfriend
flew
bald
temper
bri
hack
pity
pills
wink
##esis
sale
trash
gross
quiet
uses
joint
ended
finally
detect
##ammer
cycl
total
rash
rib
russ
saint
##mo
##met
ships
myster
weigh
lip
worry
goat
hasnt
roots
moves
partic
pains
greet
student
songs
candid
thirty
juice
frequently
dine
dav
eats
fare
tort
vow
witch
##iot
##nam
##can
##aa
##anes
##acter
anch
wel
liked
##umes
plastic
##ifes
breaking
##gging
##lessly
steel
drinks
explained
regard
##ophob
blew
interest
walking
magn
##iety
ensure
destroy
figure
history
cotton
fought
lest
nest
roof
sons
##iation
##omach
wears
crook
fled
scary
pock
##anger
carbon
prey
growth
hoping
neighbors
aph
ded
od
om
sings
wing
ze
##rical
##vous
thigh
toward
blink
bron
gran
##ivity
manner
prevent
esch
medical
couple
vacation
beneath
embrace
bast
boring
dude
jap
junk
ta
york
##azz
##kind
##onym
##isms
shad
stiff
weap
##imate
spy
level
##eps
bog
seeing
dire
grey
function
formed
depart
stops
easily
talking
nerves
chemist
degrees
dirty
disgust
during
hi
ske
##cast
china
deck
spain
dope
##apes
load
prove
strict
nights
remains
relig
suppl
syn
picked
modern
liquid
aver
dess
grain
lame
patter
sly
theory
##ado
##illa
##ppers
disgu
lock
joined
peas
skull
rights
create
burned
artist
##ground
tasty
bleed
pulled
local
danger
dutch
spirit
survive
discovered
scheme
eager
obt
rig
waters
##ront
##vest
stomach
island
##isters
troops
fever
convin
bridge
##iferous
offic
cheek
barn
planning
steam
priv
displayed
dismay
dancing
cac
cries
kitch
nick
pace
##fly
shake
cha
chor
anal
##ctions
##ouses
##quet
finding
mary
import
learning
cuis
bin
hub
mult
raw
vess
##era
##usive
##osph
abdom
slick
##aux
intense
surr
telling
passing
strip
dads
powers
natural
dur
dame
hidden
poo
tang
tank
ugly
##ios
##po
##uch
##arant
intend
shine
##eling
blight
##ulf
cancer
cran
flavor
abh
boom
##itters
diagn
earned
tries
drift
indian
fighting
banned
hyd
preferred
german
bacter
basket
dessert
hers
sitting
##ras
##rot
##yd
##zer
beats
##ula
trace
added
impressed
drew
colors
##ucle
divorce
england
months
happen
forever
shrub
center
darling
susp
precise
austral
government
japan
aur
bach
dow
faced
sum
##iam
##cut
shade
lib
##ags
##agle
roast
moving
mighty
crazy
treasure
babe
conduct
golden
roman
pressure
custom
oedil
damp
gig
hatch
ken
munch
ow
pit
pause
rap
sac
tie
##night
##ho
thor
fried
brothers
coin
abl
mold
glance
cutting
belt
puts
refuse
##zzzz
capital
solution
birthday
##gypt
female
behavior
viol
pup
##tw
##owing
stup
##oster
chir
chart
socks
##olution
prone
mob
handle
finish
schools
cease
appeared
direction
further
finger
possess
achieve
cens
goo
tack
zero
##look
##boy
sting
reign
convers
carn
##rained
retreat
pete
astron
eschew
hood
puff
tin
wifes
zoo
##rant
##win
##mat
heck
##keep
ants
depend
##rog
blad
lee
altern
copper
abuse
##phal
cheat
remove
handy
bowl
candy
farmer
request
laughed
based
econ
egypt
gate
matters
signed
ted
vile
##port
##rete
##itation
stall
##idence
worms
flame
brill
brick
##ability
gramm
upset
scared
##aret
perm
adding
moms
tastes
signs
walked
eleph
disappear
anapest
mall
rack
##gest
##cil
##edly
##omas
blows
bru
boots
lovers
amp
guarant
ideal
actions
anything
steal
colour
stays
affl
affect
purple
breaks
month
admir
digest
budd
silk
required
soldiers
hyp
honest
mountains
yeah
animal
gear
jar
tired
thread
sevent
##oric
chore
chop
cliff
lew
##abl
scale
sway
enh
actor
repair
lacks
created
drops
honor
defend
route
tools
lawyer
considered
cards
hence
nav
pul
##oons
##cs
##bits
thes
##enes
##oman
asc
rejo
##sem
##aine
canad
willing
exec
convention
loan
jobs
preach
##zzle
buying
breakfast
genes
waiting
angry
forgot
checked
##olete
circum
beginning
sighed
duty
probably
eu
ere
guts
jesus
marsh
pump
rice
##ials
##reh
##owl
shir
stressed
frame
neur
##tery
pluck
bloss
##iece
flour
conj
disaster
scient
proved
drank
##ortion
guest
slipped
skies
fired
strugg
surm
meter
bloody
absor
opin
police
balance
drove
secure
talent
celebr
dil
fence
jim
jaw
jane
map
toe
##ald
beard
shel
stones
##urb
forty
anat
clerk
wholl
disd
drill
cares
##ression
cuts
antic
distinct
presc
slowly
critic
##selves
squeeze
splend
empty
maintain
nurse
stupid
crop
ech
fart
hint
homes
mush
mothers
ore
pi
rip
##bling
##inity
##reet
itch
##amin
web
##cel
orange
##rier
##umble
##elt
##uded
boil
progr
bubb
greater
greatest
sniff
string
struct
##umbled
##bey
billy
winds
constantly
pieces
include
title
abhor
oedilf
baw
dies
faint
lamb
oer
pine
sack
wis
##down
##orter
##inge
##icians
stroll
myst
##osen
notion
clo
##ational
brook
arts
progress
assume
greed
behold
##raction
deny
obsolete
docs
vision
guns
effects
facing
europe
surface
tissue
bish
bail
bait
bike
coo
foss
mich
rust
wan
wick
zone
##ean
##bur
##erly
sew
tops
##leep
myth
chicks
chips
cabb
prison
dram
curve
decay
awful
##berry
evening
stream
minds
afford
treatment
wheels
perfectly
symbol
revealed
improve
blonde
bere
lump
pip
packed
rail
wra
yo
##law
##bor
##vet
##orph
##chan
flush
alg
comic
comfort
thrown
aggress
moan
decor
##coh
##attered
begu
fret
demands
depressed
##ship
##imming
campa
anthrop
repeat
insects
narrow
bunch
nucle
pose
##arks
##omic
deed
sod
atl
spine
novel
leather
somehow
congress
##athered
unb
##ption
mole
glory
compan
##iously
contain
painting
decision
trait
horri
##ribly
woods
smells
legal
oppon
idea
swallow
hills
lin
motion
vit
wid
##ros
##pa
##zes
##rep
##asm
whee
whale
deaf
orch
spect
##olar
flock
prose
aber
tender
##enses
##gger
assum
access
careful
craw
feared
woe
##ready
denied
nerve
copy
arrive
normal
substance
gather
##ded
##iable
##ram
##bird
threw
##arse
##omed
notice
saved
##olve
crick
##ables
quote
##aging
slice
##away
pref
##erman
esp
president
bible
spray
polite
humans
ignored
ambition
fabric
tossed
borrow
pissed
opposite
cope
ell
fern
##ini
##orys
asleep
chim
chagr
sheet
alk
grade
bubble
poly
cheers
attacks
greens
somethings
##azed
bells
cooking
prompt
lucky
groan
natures
stroke
cer
eld
mild
##lings
##nes
##nie
##tes
##water
##zo
sem
sty
forb
liver
##unction
spots
##they
caes
##stone
guests
acet
wherever
highly
relations
trail
pays
charl
chris
behave
hairy
model
kitchen
ak
sans
tan
##dra
##iel
shared
forest
spite
closed
feature
goose
brid
##abet
alert
already
emotion
mock
##ethe
perch
drives
##aughters
lawn
fleet
patient
answered
burning
mountain
professor
dat
ult
##hold
##onian
chase
anx
meets
##uster
clar
grou
advent
##ifts
acclaim
dipl
pregn
feelings
becoming
badly
traffic
calc
##azy
towns
teachers
bearing
magic
breathe
value
ordered
measures
freedom
disdain
campaign
bars
baked
kate
loo
mates
wow
wary
zeal
##nal
##gue
##fic
thief
##atoes
stories
chances
washing
##ument
blade
caps
scan
adjust
##aceous
joints
apples
##ggy
##lessness
##otto
distance
studies
concert
leader
leaders
perfection
speaks
electric
equal
expected
urge
shocked
encoun
suffered
slightly
political
picture
imagine
tropical
groups
fier
vet
voc
##aic
##uish
##arf
stole
stocks
##iday
##osition
##thy
##ste
clin
prices
ard
grind
scare
pretend
keys
ending
attacked
serious
dried
awake
rhyth
incred
lower
condem
complained
tomor
prepared
expression
social
gloom
renowned
sneeze
jelly
ditch
fuel
lur
nations
pits
##esc
##itar
ink
forces
##lys
reaction
##rooms
crunch
##elling
adj
adam
##agon
knowing
older
resear
focus
assert
surre
marks
steer
##neys
##uces
corpor
demon
stayed
suffice
hungry
orders
golf
hid
lun
mater
nap
pard
ward
wand
##rem
##oted
hem
weep
deft
render
fruits
dod
blown
lend
conqu
scant
env
strings
delay
draft
freeze
collection
falling
foods
returned
paris
ruled
handsome
bacon
murder
fog
hind
##ois
##nic
##isf
shrie
stub
stern
ank
liz
haul
##umin
nobody
clam
extend
someones
##aches
acad
skip
spending
adds
streets
straw
forgotten
types
constant
produced
bodies
wreck
fortune
##oscop
cruise
waist
cuisine
thorough
dates
ga
nun
##atically
whack
##idae
suits
##akin
##ulent
exch
alcoh
grad
scul
loath
##place
acute
snap
##type
eaten
##aneous
explore
divide
concer
kissed
burns
combine
baseball
mrs
dimin
tube
million
botan
dying
furn
james
nic
os
rac
wool
##lock
##gic
##kers
thy
##itic
##itious
##osoph
clos
##aper
scoff
lond
##quis
gotta
backs
pert
stray
##ixt
endure
attached
counting
viewed
decline
foreign
protection
christian
crops
greeks
weeks
thirst
hunting
tradition
derm
gem
gym
jam
mos
nary
pipe
##onds
##more
##bes
thou
##rets
##onia
ital
##icle
chow
alle
##rian
doors
cable
disag
##orted
emph
breasts
asking
remorse
screwed
cyst
humor
writer
sexy
window
##iums
cooked
answers
occurred
germs
panic
spirits
alex
royal
bil
poop
##rid
##uation
##erb
##lla
##orical
toy
anne
allerg
##istle
##ounding
exceed
flip
flav
brood
groo
scott
twin
##ilet
perple
remind
defense
accident
putting
awe
souls
##ocent
character
banks
circle
clothing
nervous
southern
fields
frankly
computers
clouds
prospect
issue
quarter
criminal
bom
dorm
fert
gum
gained
muse
sorts
##cious
##eem
##pose
##anas
##iring
spice
dol
dock
aband
##agger
roam
carried
glue
exper
surg
settle
charles
finished
jeans
verses
enthr
ape
bats
giant
gaze
hired
torn
wire
thunder
##atical
stem
habit
crimes
locked
peak
active
insur
##zzy
kinds
minor
profound
fails
observe
happened
breathing
occasion
hanging
reveal
spanish
bladder
sculpt
couch
hosp
moth
rav
##ok
##ih
##rus
##with
##hes
##bow
inj
##icity
##lete
chip
depl
soap
noticed
bland
crass
drum
ponder
peers
everything
partner
bigger
##ancing
serving
confirm
corp
##bris
devotion
hairs
grandm
treats
persu
events
veget
odds
solid
latest
disguise
bash
daw
fest
pork
ray
rant
##gra
##aust
##word
##orious
deem
depe
pled
subt
flirt
scorn
scots
ads
twe
##ysis
rode
hadnt
slide
##angle
compound
intell
confusion
readers
error
muscle
##ummer
vegg
patients
football
glasses
wheat
dismiss
dye
healthy
liquor
similar
fungus
cri
daughters
ly
lent
naked
ot
rates
wars
##eks
##pass
##oust
##ari
##utions
##vell
##alt
cham
##that
sunday
brut
smiled
needing
carr
passes
begins
fishing
slee
paras
waiter
angle
dense
miles
arrange
farmers
require
scrub
##rolled
machines
witness
branch
movie
pocket
fierce
tomorrow
gour
gau
mons
##uke
##bra
##nders
##alo
sher
chlor
image
spit
cape
cling
feather
ars
##iph
emer
glob
expand
decree
remote
damage
fights
general
minute
busy
masses
dentist
changing
radio
thrive
arab
rejoice
bereft
bos
bunk
easter
fiction
mike
ov
pic
pizz
sid
tis
##aft
##uity
##ndr
##iter
sham
meals
allowed
##unct
##then
##ols
blush
trump
tracks
disord
scent
unable
smash
skirt
anyone
conserv
await
braz
trap
infection
babies
studied
winning
gener
sexual
shooting
invented
##iques
energy
apl
cot
dating
oak
ram
tut
wound
##ris
##worm
##pered
##bel
##fashion
toil
##ete
shift
itself
reward
mechan
lied
##opl
canned
##stand
leap
excell
exclaimed
crisp
flaws
script
swore
enl
crawl
corps
sett
educ
bringing
astray
marked
satisf
candle
location
taxes
pursue
conclusion
cass
ding
dice
luc
terse
##book
toll
shield
stain
chosen
debris
##esse
caf
flick
pressed
coc
abb
boost
manners
##ogn
gotten
choke
freak
affairs
warn
squir
writers
##ribution
windows
heavens
killing
promised
hoped
films
dishes
designs
immense
britain
predict
received
tower
removed
definition
developed
london
dandy
file
hitch
mour
nurs
pant
vital
##now
##vity
##fore
##icient
##leg
##idents
asks
##ili
##istics
##ules
trunk
crank
adject
proph
manage
throne
##awk
##phem
desper
compare
trial
painful
antib
godd
crave
trem
todays
formal
squirm
belle
terribly
filling
arrest
darn
eleg
prepare
animals
records
walks
obscene
##greg
stretch
suddenly
horrible
chagrin
rhythm
academ
agh
cul
grie
gamb
ira
lap
vic
vib
##ups
separ
##orial
##ompl
##ower
stitch
heal
fract
hail
##geons
clut
##oodle
grasp
quart
adop
loving
usually
therell
tends
descend
compass
addition
paying
explains
##bbing
daddy
grandma
fourth
crossed
lacked
entr
penny
##ended
eighty
bags
embarr
charms
charming
##ription
simpl
philosoph
bibl
athlet
determine
neglect
bart
dab
mens
nail
nons
ros
rife
ts
upper
yach
##cra
##rue
##most
##ano
beasts
##irs
chol
plates
sake
##eled
blur
fluff
coy
##ortun
unst
rooms
diff
graph
steak
apost
trend
warned
classes
winner
blend
transl
sleeping
autom
troubles
rolls
sympt
increase
describes
obscure
cabbage
coup
dict
fist
hound
les
lone
lazy
##lam
##den
##nel
##wing
##vas
##fall
##filled
##inc
##iner
##orr
##etics
shelf
sperm
crumb
proclaim
slack
tease
hoot
attest
painted
refers
shopping
engage
discreet
turkey
##eyed
benign
climbing
questions
launch
personal
cuz
employed
victor
virgin
exhaust
lawyers
methods
pronounce
diagnosis
wanna
pardon
bane
paw
tig
verm
##aire
##bell
##fit
##inch
##inth
##ica
##icit
shrew
aside
deeds
##ilty
saf
##asters
lect
cracked
alter
arter
##athy
amaze
enchant
drool
unp
shoulder
intr
barrel
sweep
march
planet
crab
demise
infer
admire
banana
popular
objects
dangerous
conclude
knocked
spoken
cherry
mystery
aghast
bess
cz
cakes
dime
dug
erect
fid
hoo
jun
june
lick
mile
pac
tart
vice
wolf
##iat
##cre
##bound
##anch
##asia
##uted
beak
forward
fry
##ablish
##inks
scenes
##ago
wrink
##aired
desk
themselves
parties
doub
relie
charged
purpose
monk
efforts
obama
ceiling
protest
blowing
##immer
members
audience
crystal
##fashioned
dive
fulf
gosh
hike
rug
vall
virt
##nis
##gment
##four
thomas
##ences
towards
##itution
##acc
##cha
##ante
fling
flatter
##oused
prick
boats
##oured
##agged
tween
swine
smiles
##actyl
poem
plea
##peare
barg
curves
earl
creed
series
confuse
slept
treated
##ammed
sunny
writes
vex
##hearted
##headed
displays
drawing
followed
dental
ducks
clubs
jews
chemistry
brilliant
elephant
research
ay
dud
hog
hank
hips
harsh
overs
patch
riv
riding
san
##gon
##gie
##ora
bew
assem
##keys
chau
chann
analy
##enth
revers
fries
alleg
nod
plac
plaster
subs
exotic
somewhere
abd
unknown
roads
slave
company
assault
choosing
related
affection
advised
parade
watched
crossing
earths
raising
labor
romans
succumb
courage
danced
millions
accounts
behavi
pleasant
fantastic
shakespeare
grammar
cort
fade
gently
lout
obey
rud
ruth
rotten
tuck
wig
wives
##cers
##cular
##aunt
##mate
##based
##field
##zym
##isions
##aries
##unts
william
leak
feathers
ark
wholly
seeks
guilty
oldfashioned
chees
checks
deserves
steve
refused
queer
hurry
castle
sentence
inclined
husbands
femin
domin
domain
lingu
important
lewd
thesis
bishop
brazil
iraq
bamb
fanc
lark
tu
##lorn
##ij
##yp
##yll
##sp
##ham
##ba
sends
##isk
##etically
##ada
shark
chatter
##unks
noon
cage
sheer
exerc
cruc
##ffe
arrow
slo
agent
##pec
trips
courts
awry
##ucing
distract
democr
editor
persist
fairy
bleak
harry
catching
##appy
irish
occurs
applaud
groom
dancer
fluid
robert
jewel
continue
walt
exhib
logic
border
dwarf
welcome
intended
opponents
depends
ais
cask
fund
goss
hues
mice
mars
oy
pile
tame
tails
vest
vel
via
wag
wins
##oqu
##rated
##hips
##ville
thee
##arn
##icing
##acle
beating
shred
##ional
##estic
##olves
blocks
clout
tract
justice
conver
brow
unse
teens
cheeks
carries
afar
reside
expressed
driver
accompl
limbs
explos
salad
deeply
foolish
profession
famil
promise
greece
critical
publish
camel
surprised
connection
bucket
attractive
culture
described
dollar
inspired
drowned
cannib
diamond
texas
surmise
splendid
biblical
bing
hug
houses
kicks
lam
latter
mol
rats
sant
##gard
##ef
##rine
thorn
##oral
##otch
shots
stores
heap
fork
weary
mexic
libr
orig
spur
spider
##ously
prote
scoop
guitar
ills
acne
##ava
##ogy
ages
carb
theme
##fulness
##oded
actors
hello
assign
defect
delicate
schm
consult
trapped
underground
formation
topic
leading
syll
sharing
auto
enjoyed
changes
virus
status
caveman
pictures
##green
according
release
supplies
average
alcohol
auss
loop
wiz
##obe
##rich
##ses
##inter
sequ
##atives
##itors
inqu
##icles
stout
stark
islands
##iders
withdra
webs
noted
imb
##anted
noble
plat
plum
sucks
##oli
##stop
crud
flames
bred
brits
comed
##itect
abide
quaint
##agne
drac
##ques
gull
poems
teams
appe
appall
sins
perce
##erty
actin
antip
warning
stuffed
exciting
effort
daisy
appearance
replace
crock
lords
johns
corner
applause
geek
uncouth
bunny
bolt
amphib
ninety
voters
thighs
bastard
fossil
ultimate
exchange
cree
eagle
fiddle
nit
sib
witty
##oom
##ipl
##gets
##cue
##cence
##ais
##ya
##haped
##point
##made
##uing
##bu
##inent
seal
##rec
whore
##icular
##uter
onto
shirk
isle
##osity
chess
chum
reh
sooth
frag
noth
org
doz
leis
goals
twins
enge
newly
##class
peer
confl
driven
##ouncing
awoke
limb
stealing
setting
demean
shoots
calcul
chronic
woes
purse
##weight
advise
minutes
wishes
boyfriend
dispar
mister
##heads
draws
provides
papers
button
difference
butterfly
buffalo
stinks
midst
sneak
compete
funds
religion
convinced
private
pregnant
aft
bic
gap
horm
jan
lace
mirth
num
oct
tips
vicious
##rac
##rition
##pers
thw
whirl
##ication
beam
beers
shiver
shapes
stake
chains
##unting
sap
cler
clients
lem
alien
loot
therefore
illness
pond
poker
needle
sket
skilled
##ixed
workers
curious
##beat
reads
carefully
corrupt
##zzled
calf
absence
crying
daft
involved
buds
architect
bench
palm
spelling
sorrow
jumped
fifth
pursuit
increased
receive
yields
essential
movies
purchase
abdominal
hospital
bost
bisc
ego
gifts
lion
mont
pist
pout
porn
pounds
rang
rays
tas
tad
##dled
##rick
##year
toxic
##ota
shiny
stol
##osaur
forlorn
mell
frost
liber
herd
lemon
conve
coins
covers
##ishing
##elle
abys
##uddle
twixt
ample
offers
moist
prem
goodness
afl
grape
assets
accent
balloon
indul
shorts
singer
opened
womb
##box
transm
complaint
dispute
ache
delights
director
rolling
smoking
combined
sailors
rubber
searching
appealing
steps
linked
spoil
cabin
altar
prevail
pilot
neighborhood
crushed
bouquet
aesth
bir
cach
duct
hides
jones
jung
nag
sung
tape
##gal
##eer
##faced
##enc
##enic
##asons
ing
##icide
stamp
##kew
fragr
##ctic
##unning
dozen
excl
##inded
brash
cogn
arose
##agues
prol
unaw
guilt
dial
peep
peek
ski
pleased
##atched
tribe
sweets
defl
consp
refrain
##ahs
coron
shove
devout
details
screamed
tense
cyt
anger
##ophil
##ophag
obl
declares
queens
penned
powder
patience
potatoes
provo
merry
##ettle
##friends
victim
victims
mathem
brandy
mental
challenge
weapon
vessel
exercise
bard
balk
cue
dart
gorge
lime
sample
wat
##gian
##cere
##matic
##aria
whys
##utation
##usions
stated
##urity
##amas
reverse
franc
lil
##sell
allure
blunder
worship
clot
claws
nowhere
bov
adorn
enzym
##quit
mankind
roar
##earing
jolly
agl
ende
harder
relate
fellows
squat
extract
larv
tennis
grounds
ignor
shouted
##balls
national
pairs
princ
volume
superb
photos
thousands
labeled
henry
alphabet
purchased
enemy
typical
pirate
david
multip
cricket
veggies
goddess
yacht
ae
dana
hamm
lament
maker
na
pies
pages
rand
roses
tons
uk
zest
##walk
##pet
##erving
##oux
##ena
##asant
##ader
shant
stance
stash
##osa
fraud
##rial
spill
spoon
spotted
client
coarse
grub
scored
adored
swiss
smack
thrust
emerg
shoulders
player
resort
highest
assured
imper
award
buried
fella
absent
halt
concrete
believed
syndr
harvest
spreading
sticky
physics
unfair
estate
esteem
savor
##bodys
wrecked
punct
angels
washed
amazing
champagne
opera
favour
masse
econom
desperate
leisure
bip
dh
eb
fasc
gab
hose
hipp
jazz
mig
mama
pots
rick
si
sis
tones
##nut
##aque
##rations
##uate
##vis
##za
whine
##icts
##lex
##otions
online
##osure
asian
askew
##rogen
##ieu
cale
sheets
clog
closer
trous
cramp
crooks
somebody
conse
##andal
knot
grate
gracious
quack
entered
slope
appalled
wrist
wrath
sincere
glam
compared
muck
players
defines
antique
deadly
ballet
distressed
factor
calif
divers
strive
strikes
concur
screams
armor
suns
springs
skinny
flex
picking
cleaning
digital
sixty
teaching
array
tightly
requires
sailor
garb
understood
thirteen
pigs
products
annoyed
##ophobia
nickn
concerned
dozens
bim
bapt
ced
dal
dum
dah
hunch
hitting
kent
owe
sisters
vig
##oids
##rict
##wich
##hen
##mith
##mouth
section
mend
orn
##ila
##una
blamed
conven
boon
bonds
drought
drama
slang
stranger
heading
##ymph
drip
elation
broom
hotel
bury
devils
friendly
grandpa
armed
peter
profit
splash
pulling
nerd
follows
shouting
enjoys
element
circus
powerful
tricky
auntie
precious
fabulous
horns
describing
innocent
experts
carpet
august
chorus
blossoms
symptoms
bour
cush
dave
gore
gene
hammer
lic
laughter
native
rides
##ikes
##ends
##mark
##mber
thatll
##acity
stalk
stored
##idity
chalk
dew
dean
deals
##imal
##ceeds
athe
dove
trout
coke
usage
amen
swoon
peru
exposed
curved
smaller
awk
limit
sooner
apr
##umming
obst
vein
annual
circles
shares
killer
electron
buildings
basic
modest
buffet
heavenly
expertise
reflection
rabbit
inspection
reckoned
wisdom
elegant
californ
cement
dots
ecl
gast
gag
haste
nu
sust
##lad
##com
##ckey
##wear
##mates
toad
##otomy
stack
##irts
##char
rever
hiss
##aining
sails
blunt
clan
clip
claw
trim
arise
scales
ador
locks
unre
bund
##fty
diffic
greatly
glut
glare
holly
intest
phony
contra
##umbling
##uffed
instrum
traits
affirm
retire
##idding
region
obsessed
astute
harp
prayers
tomb
croc
promote
soldier
trained
occur
chickens
applies
preparing
figures
practical
gladly
precision
##ternal
kicked
##ometer
ecst
dragon
wealthy
mammal
exactly
anchor
euph
wrapped
nuclear
caesar
bows
dated
hates
mines
males
ps
pas
pals
vap
##die
##ii
##uh
##ban
##kins
##erie
seam
sending
sealed
##nda
##rels
toys
inher
whit
stable
fores
anem
soar
sock
##road
##uments
outcome
upt
loaded
swimming
##ivorous
apparent
appoint
throughout
attic
functions
serge
committ
planes
awfully
beds
refined
owner
depression
monarch
presidents
regular
yearn
hurts
casting
costs
central
lifest
massive
blocked
sailing
ancest
proudly
bodys
attraction
invention
chewing
##oscope
ideas
stirred
abstract
mirror
##handed
blessing
steady
particular
micha
dramatic
alkal
excellent
ail
bile
cuss
cases
dc
dor
kl
lance
loser
moo
pall
rue
rivers
sos
viv
wail
zing
##rest
##writ
##five
seats
toot
inject
##alm
##addle
heel
##ithe
frail
allows
spa
spied
plumb
##pple
##ola
fees
flute
##ousing
usual
##ifty
##iche
acanth
slur
thrilled
append
carved
pea
peach
contact
##ody
actually
choir
edible
striking
vexed
dining
specific
voices
movement
delighted
neatly
widely
physique
maine
establish
conceal
##ulsion
various
implies
remarked
tunes
unlikely
cigar
bleeding
bachel
astronom
##ableness
global
valley
stolen
aj
eh
fi
hated
hiding
jet
mask
nib
nails
oo
por
##lines
##oos
##nies
##wide
inch
stan
heated
atm
doe
saus
##istically
##ulting
league
##anda
knack
##aching
##apse
unm
union
##ogue
mug
##ucks
chopped
confusing
reader
apology
fallen
staying
salvation
discern
extinct
detail
forgive
announced
##retion
prayed
judges
autumn
dealt
revere
richard
crowds
##affe
aims
moral
palace
circular
camera
berries
mutter
deceased
aspir
achieved
dollars
delivered
doomed
micr
determined
curtain
weapons
australia
downt
satisfaction
awkward
ald
ack
aye
bs
bert
bands
bern
fathers
gam
girth
kills
lumber
ratt
tony
wander
##dog
##nish
##aus
##rup
##west
##mm
##bar
##fight
##esome
##oray
whiz
items
##legged
##ador
chaps
weeds
rely
herbs
sailed
clues
lex
brad
scold
aden
swoll
guards
thrills
agn
##anging
##ressing
prez
skins
everyones
mustard
useless
endorse
grapes
defining
confessed
commit
accused
repub
courses
kindly
infect
former
babys
depos
strand
advis
concent
profits
failure
##ribed
happens
transform
boob
electrons
##load
trains
dynam
tourists
twisted
pronounced
herself
opinions
structure
encountered
chamber
boston
difficult
dand
il
jac
jacks
lamp
lung
mint
moss
nay
roles
sank
##lim
##iotic
##cin
##tr
##yg
##ws
##pan
toilet
##itate
stab
stool
##idly
chord
flop
brute
cob
##ishly
managed
joan
cheating
##ensions
deserve
phase
contempt
reports
elastic
nearby
coral
peoples
recently
recogn
chron
restaur
financ
depth
pasta
grandf
monkey
mineral
cyber
signal
shells
internet
rhyming
equip
##ographer
layer
johnny
physician
mainly
beside
celest
louis
catholic
villain
cigaret
scotland
pattern
lungs
insurance
sleeve
##craft
trousers
barm
bah
cly
gy
jaws
jury
lore
lens
matt
riddle
tide
tatt
##ruit
##hh
##min
##upp
##face
thie
##ania
todd
##ita
##omin
##omatic
stairs
ante
butcher
recl
reasons
##roit
area
##unes
spout
sphere
##umen
sage
sund
##olk
caj
cane
clad
clich
grat
abo
abund
##eph
disarm
drastic
une
slaughter
sliced
mayor
glum
##ucky
contri
contest
##odes
barber
expensive
insists
repute
##ologys
stepped
brav
##ropri
bites
explo
flowing
engaged
deter
##while
nicely
statement
perfume
angles
obsess
fleas
wooden
##loat
##immy
avoiding
pathetic
melt
pinch
paintings
performance
sneer
thumbs
temperature
vessels
canadian
bombs
shrewd
gossip
aard
bh
dag
diction
dactyl
eel
gory
hym
iv
ire
july
mim
pian
puss
rag
sip
sunk
yank
yanks
##gent
##gled
##yes
##uk
##escent
sect
##reement
##arily
whip
##usk
stal
heels
ford
fors
meek
##roid
##rix
haz
plug
##opia
##ardly
flap
brun
##empl
alf
comments
grouse
abate
abused
adren
loads
##yster
unit
smith
bully
tele
##angled
email
moll
glands
snakes
##pee
foundation
baron
barge
barred
tripped
marvel
decre
antim
lightning
doubled
consume
tragic
streams
distur
kinda
calam
counts
floors
##proof
cyn
humble
transport
cookies
election
judgment
romantic
satan
dealing
darwin
warming
jacket
memory
northern
argue
supreme
inspire
village
journey
destroyed
navy
charlie
condemn
italian
disagree
education
nonsense
aisle
creek
swollen
dair
fen
fizz
gor
gush
len
louse
lane
lurch
ripe
wits
##cat
##aits
##tem
##eel
##rh
##ross
##ygen
##wr
##upt
##bred
##fy
##edes
whim
##veled
shaft
hears
##amel
asia
chant
spree
crus
prud
alp
outs
##ella
abode
discl
twitch
slime
aged
appet
mode
diver
contains
attorn
expense
activ
triple
bother
airs
blacks
broker
##ropos
explode
indust
##mann
excit
sprout
##underst
wished
evidence
conditions
failing
transp
ruined
dropping
replaced
archaic
debut
silent
silence
kissing
bottles
council
epic
ranks
##ugged
##covered
chairs
axe
##ometers
resistance
poisonous
##ogenic
landsc
spleen
construction
diamonds
cerebr
opinion
bubbles
anxious
incredible
perplexed
bers
bant
bounce
baker
cors
cunning
hast
hunk
jul
murd
nil
pops
rye
tag
vamp
vary
##coming
##rors
##piece
##mal
ther
seize
##atics
##arians
item
##omen
beaver
##ura
##chem
chal
##ighted
##sels
##verb
##olent
cracks
brace
grill
##uds
disin
scrap
adapt
adieu
##resent
poke
applic
emper
wrest
chewed
cleans
fires
snug
intention
contro
betty
wanting
assess
antid
lightly
limp
dearest
disting
fishes
classic
excited
presence
fewer
fatal
observed
entire
tests
magical
loudly
expecting
embry
combat
destruct
tongues
unfur
fifteen
performed
deceit
acquired
target
spinning
bibli
fetch
maiden
cinch
arthur
pearl
brig
russian
farewell
japanese
guarantee
enhance
thoroughly
mosquit
aplomb
safety
organs
baking
dit
dose
dna
fad
gad
gest
gel
lair
mish
oath
pyr
rows
ties
troll
##giving
##ture
##watch
##bi
thump
##rehe
##onge
whales
##etical
##acles
##urate
aster
ascend
##lyn
##illes
revel
atoms
##ria
dogg
saving
blas
##asting
caper
canvas
clap
clover
crows
flatt
ali
coco
arb
##inkle
scope
##agers
amid
proced
##ipt
##ipes
throng
howl
however
joes
jock
newt
neednt
pepper
##mented
gloss
glorious
backed
##tends
strut
afloat
##ods
actress
##eez
defer
consc
elite
apropos
burgl
lesson
espec
charges
sleek
squash
extr
pastor
income
darkness
obv
veg
maam
entw
cooks
capit
arranged
secrets
bullet
rolled
sources
capture
senses
##flow
jean
throwing
colleagues
hunger
nutrition
societ
whiskey
schemes
ironic
motor
entert
submit
information
pipes
vitamin
prefix
disorder
lonely
czar
mellow
michael
berserk
cs
ecc
hord
kil
lush
nas
raid
racing
wield
##ev
##eight
##rise
##mn
##jack
##fact
##inlaw
##ream
tob
inner
##utive
stur
stared
stacked
##kee
chased
hare
##uminous
blu
##aky
##isted
feeds
##igent
##inder
swam
buys
snoo
pharm
foam
betr
acted
insult
shower
reduce
column
fearful
##version
trek
treas
biting
disturb
collapse
engra
finest
classical
signals
##ception
potential
ceased
electrical
##ificent
urine
climate
training
western
values
gardens
hundreds
firmly
feeding
talks
repeated
cousins
essence
branches
inhib
beetle
beetles
frogs
##zzzzzzzz
closet
exceedingly
separate
cannibal
coop
dall
fount
faux
fowl
gist
goof
hull
jake
ker
kitt
mound
overse
serm
wrap
##ders
##due
##oft
##noon
##tin
##tail
##rust
##making
##fire
##inas
##oning
##aser
begg
shops
styl
stems
##ida
##iron
##osy
##cephal
reap
##esses
##rif
##rift
blister
##opic
worried
sheen
lexic
crashed
##icker
congr
brat
bricks
scor
scree
amuse
unh
illeg
poets
howd
cheered
##inters
ident
compact
compounds
mull
mule
snore
hooray
curb
grabbed
assure
##eaded
hearty
##ocy
recomm
babes
stripped
detest
avail
minus
bikin
standard
angl
petals
beaten
dispers
wondering
despise
christians
worthy
dressing
aimed
##etti
diseases
portra
berry
encou
yeast
frightened
decidedly
society
stewed
concealed
systems
subjects
dubbed
swallowed
##works
reactions
crystals
consumed
concerns
responded
bacteria
customers
##two
##keeper
scientists
surrender
pizza
nothings
republic
especially
batch
bount
cate
cuc
dung
gir
gills
jest
lac
lions
mitt
nab
pel
pets
sow
tummy
vul
vert
votes
##obs
##gage
##apping
##eys
##rim
##hs
##hyd
##mer
##mes
##fa
therap
##erd
##eded
whites
##icion
##urg
##kel
charts
friday
liar
lily
##raint
##roach
neut
spat
spun
habits
nob
clocks
##igs
excel
brim
knives
alask
arist
arrog
abort
bobs
encl
unus
##quite
smashed
smirk
poetic
offense
##angs
empl
gland
compose
controlled
##venge
actual
earning
##uffs
antis
afternoon
awesome
bedroom
helping
##imple
recent
collar
artists
owners
chrys
retired
bio
biology
polish
priests
happily
patrons
checking
visions
diner
smelly
hopeless
legit
candles
positive
spelled
##ettes
rising
malign
sandwich
immers
hangs
approached
unfortun
argent
juan
links
politicians
dwelling
poetry
measured
hollow
released
mammals
journal
medicine
chromos
synth
owned
struggle
wicked
emphatic
scottish
prospects
enthrall
monster
cocaine
clutch
entrance
channel
syndrome
ecstatic
lifestyle
jay
kit
nile
tint
##hi
##hill
##passed
##master
##ui
##vi
##ingle
##arious
##asis
heir
##amous
dext
##cending
sob
##ustered
##raged
atom
alley
##acking
##oped
##igation
##ickers
cone
alumin
outdo
abn
upst
quer
proclaimed
unple
appra
moder
firms
snail
endless
##umbles
assigned
choices
remained
##coll
confront
drivers
imply
elf
tread
burnt
explan
##white
otherwise
astound
raft
lately
sells
solved
ignoring
spreads
climbed
suggests
oughta
argument
safely
ticket
talents
##cules
oxygen
blanket
excessive
negative
frozen
dumped
holiday
challenged
resembles
candidate
strictly
alternate
aggressive
wheeze
shriek
stubborn
deemed
reversed
engender
unfortunate
baz
cine
dome
dens
dared
hire
maps
nud
nigh
pins
ramp
raz
vin
vault
##lain
##oly
##cons
##yre
##put
##med
##bal
theft
##onious
##iser
##isation
shines
shades
churn
butts
##iments
##antage
spar
caution
caffe
clums
bye
brist
##abs
outd
abe
abr
quiz
##athe
ammon
amorous
##ifer
##ifting
enf
enlight
droop
uniform
smitten
offend
carl
carol
muff
stride
barr
cured
marine
conform
commerc
sweetly
##neath
cork
county
finesse
cellar
genetic
genius
waited
invite
veins
##hea
##boys
queasy
cookie
balm
complains
descent
arrested
##iasis
embark
effective
thinner
commonly
garlic
dismayed
sighs
halls
possessed
inflamed
amazed
removing
diph
issues
holler
tables
arcane
proceeded
##looking
buddies
absorb
orchest
corporate
##oscopy
dermat
corpse
embarrass
pacific
rivals
fragrant
unaware
sergeant
committee
atmosph
obvious
beth
bened
gates
hounds
jur
jimmy
kh
lard
nave
sie
sums
tid
tro
yog
##ige
##ga
##case
##yed
##minded
##bish
##fo
##fed
thug
##arter
stale
##amic
chump
chilly
delect
##enter
rect
soak
mead
##three
nope
sulf
bled
bluff
sheph
troop
exquis
flown
golly
convert
prints
arse
boiled
disk
scandal
swarm
smear
guile
##actic
acoust
slap
sloth
hows
emotions
wrought
dizzy
percent
sounding
steed
colours
freely
infected
##bbled
lads
discon
depri
retrie
landed
advanced
reality
writings
evolution
##boat
##boards
entry
creating
oddly
harbor
posh
laughs
eleven
risky
neighbours
berlin
cartoon
duke
possibly
pushed
pushing
volcan
demanding
impression
impressive
faithful
heights
nouns
solemn
jerks
granny
levels
conversation
buddh
mushrooms
##theyre
##stein
groove
brutal
bargain
imbib
##yearold
gorgeous
random
sausage
aar
aids
cact
dips
era
fay
gems
hass
ll
lure
piled
tire
uh
zip
##dish
##nine
##hole
##ping
##inals
##atious
##oner
##anny
tox
topped
inept
whist
##omorph
##etime
bem
##adle
##aders
stump
##iration
butch
frolic
impe
spilled
sponge
##term
##umns
##ulus
canoe
##stick
##igate
goats
brisk
knit
aroma
##ishment
boards
scour
adult
loaf
##pled
swamp
enorm
##ipse
##ogical
agreement
##ittin
##ensed
strang
contend
##ibility
attire
earns
insert
survey
grease
decades
confined
addressed
addiction
commands
committed
repose
consol
consumm
stealth
rounded
underneath
##bbles
counters
strips
depths
departed
extrem
landing
paste
stuffs
cyan
invited
entice
cowboy
ruin
solo
shrug
provided
temp
morph
spells
##immed
portray
ranch
derision
unfold
tubes
following
##riptions
buns
examine
battery
poured
cinnam
magnificent
bronch
bruised
beguile
feminine
unseen
larvae
princip
bachelor
exquisite
ari
baff
bicy
cuck
edd
fou
gul
hats
motto
nost
tout
tonic
vag
##dont
##ozo
##ca
##spr
##vable
##enny
whistle
##ican
chub
dee
degr
##entric
##cends
fray
##ereal
spies
sax
saves
caval
lege
crest
flipped
##ements
alice
cox
outrage
ups
quake
##uding
scal
scars
scatter
adul
##pless
amiss
amber
illusion
appropri
moose
letting
cargo
glows
hoard
phen
foc
barbe
attach
grav
marie
decomp
antig
antif
reprod
careless
consist
sounded
awaits
columb
##ropic
devour
countrys
edward
##pective
monks
presume
regions
polar
bleep
stronger
bananas
announce
deaths
rocket
gender
reaching
daring
pulls
donkey
plainly
merc
hugh
suspend
##heres
america
americas
americans
familys
colorful
graceful
stopping
titan
midnight
gainst
authors
insisted
production
existence
referred
extremely
belongs
crustace
tissues
guaranteed
pulp
program
incredibly
surgery
favourite
marvelous
fats
fitting
jill
maim
ron
rump
rains
tension
wip
yan
##oir
##nat
##rist
##rows
##hop
##bone
##bered
##ford
##front
threes
##icien
##alist
ster
stunt
chaste
deploy
rex
rein
reeling
fris
spurn
spike
spaces
plank
##asted
canal
exclaim
bruce
alight
align
gram
booth
##agg
proves
unkind
acrob
slipp
agrees
peel
##ashes
##feit
backst
backwards
##iah
resour
attain
curren
eyel
surpass
showers
nightly
##uffle
##conds
serene
impact
repent
consent
brake
install
instance
infin
forming
purr
depra
floats
presents
fairly
pointed
inviting
admired
##iffed
transfer
intern
creates
digging
budget
arrows
eighteen
provoke
mistaken
dresses
benz
basis
furry
smoked
member
squeal
cups
terrific
princess
reveals
nonstop
hooked
liquids
whispered
bulb
photo
protects
venus
attempts
microb
borders
abstain
##borne
selection
##ommod
amounts
dunce
hawk
stunned
##uddled
##onymous
obtuse
basketball
anatomy
lurk
material
lizard
grandmother
gauge
adjective
arteries
santa
withdraw
numerous
endeavor
multiple
garbage
aardv
abnorm
cet
cess
cym
cents
cities
gib
lakes
mast
mcc
mute
nix
ode
rif
sass
sally
session
tors
void
winters
##lot
##fried
thong
##eria
##aning
##inger
begging
shook
shod
shaking
stor
##irst
##imum
fraught
neph
atop
alls
spear
spins
##things
noone
plots
##olt
blah
##style
critters
als
outfit
whove
abroad
lod
loy
twit
twould
unl
mane
wellknown
rover
##active
agents
agility
appreh
needles
pean
skunk
glac
thems
snoring
intact
folly
##ermost
curled
anymore
highway
##bster
asses
##ancer
addicted
conson
##berg
begs
sweeter
brawl
trends
distra
artistic
mete
metaph
saddle
##manent
larger
quicker
grandmas
opined
daff
fatig
obsession
quell
##shaped
closely
##rence
shroud
equals
positions
ambig
praises
propose
##guard
arguments
savings
coffin
booty
botany
oceans
verbal
breeding
alpha
swiftly
surround
affliction
shelter
anatom
diplom
dolph
abandoned
carrots
aussie
##rehend
societys
unusual
unpleasant
caffeine
aide
bc
bis
bung
cater
fates
gathered
jab
kat
lyn
mah
pious
wage
yaw
##iology
##gles
##gling
##mic
##bly
##bert
##ona
##onies
##orth
##arys
shack
##osers
chasing
chili
anew
##entive
heroes
plump
plural
sul
blog
##opter
clause
##abol
coh
##ourse
drone
drums
##acters
throws
pod
joining
peril
snot
rescue
betray
funeral
planets
accus
freud
colored
apoc
##zzling
indig
woke
edges
worldwide
parad
catal
cyl
cycle
yelling
wallet
admin
flea
dispatch
markets
sites
##shine
archae
mistakes
bagp
bulls
basement
hype
iran
camer
weeke
berth
##blood
membr
##ipple
physic
searched
puzzle
crowned
continued
horny
pitcher
##ometry
broadcast
tourist
bulk
pollution
hamlet
taboo
citiz
arthrit
claire
obtain
shirts
brooklyn
soda
styles
encounter
intellect
mexican
original
jungle
calend
consequ
dairy
distraught
dup
fuse
gents
gale
hone
hush
mes
mare
masc
owl
punk
rapt
ropes
va
wipe
##gia
##pent
##uent
##bys
##beth
##backs
sel
seconds
##onal
##orate
##arp
whil
##oting
##acon
bea
beagle
shorter
stim
stench
##osal
anoint
weave
revenge
oration
spices
hav
##thr
noah
nobodys
trite
tramp
cris
flunk
prost
knocks
aligned
alchem
abrupt
qual
disco
adept
##asses
logs
amused
##ifies
swan
procl
##iverse
##resp
roared
bub
acro
accl
slug
joys
joking
perpet
rightly
everywhere
##auc
##ggers
headed
exped
curly
eyed
tribes
sweater
surgeons
##eeee
tryst
reputation
##ologically
hedge
crabs
relates
installed
distant
erotic
studying
viewers
salmon
##weed
extent
singular
##obia
##prit
billion
bias
##atively
miser
misle
##ending
aches
medie
debts
magician
bosses
security
files
geese
louder
warmth
shouts
newsp
##loving
designer
verd
layers
irate
malt
maligned
circuit
escap
physical
drunken
practiced
survival
busted
returns
acquire
improved
drained
attempting
casual
erratic
##ennial
rodent
informed
enemies
beliefs
odor
convince
pulse
echo
atlantic
assumed
abandon
##grand
dismissed
emerge
eastern
athletes
abyss
financial
clyde
tobac
employs
whilst
bumps
cory
casc
doo
dors
dign
ditty
fie
gert
hops
jose
kar
lag
pouch
paws
pomp
races
sire
sacked
taint
tanks
yawn
##oise
##iod
##eur
##ricks
##his
##pow
##books
##eday
##rey
##ener
##enced
##itudes
##eters
begged
shocks
##irms
##amy
##cho
chills
chores
wept
##usters
##unc
plag
##elp
##ulations
caut
cluster
exit
crotch
brack
##employ
##ishness
##ello
boiling
adams
manic
##aven
slaves
agr
downs
diaph
##mental
permanent
compreh
snar
snout
foil
bets
barley
attitude
curry
triv
##ugal
cutie
confident
commission
lighter
represent
craving
limits
freight
helpful
brag
collaps
erupt
exploded
characters
metals
division
counted
edit
supposed
slender
finer
rhet
avow
concise
treating
brightly
regal
poles
prior
terrain
harb
misunderst
planted
tested
situation
droll
protected
arrayed
laund
mixing
morals
boxer
models
renew
memories
confession
revealing
besides
increases
governments
macbeth
primary
##araoh
cannon
scrape
stunning
sarge
russia
zeus
bronze
shadows
analysis
alternative
execution
conventional
mystic
##birds
alexander
surgical
pledge
conservative
##standing
unstable
tiger
behaviour
bamboo
familiar
hormones
cachet
hollywood
instrument
fiery
grandfather
cigarette
thieves
aboard
consummate
medieval
ai
aven
ailing
brie
bummer
cic
cum
cze
cerv
gim
hick
lined
lax
mand
noses
oops
pc
pith
rated
tally
vat
wales
wench
##girl
##cont
##ype
##witted
##hoo
##hard
##xie
##onom
##oria
##inged
##iti
inte
inches
##utz
##acular
static
##ido
sober
meg
##ilitys
##rig
##unge
spiders
sug
canine
clark
clod
brides
ours
coats
arbor
quiver
boor
displ
scores
twos
amassed
swings
swept
unite
units
unex
universe
acres
moh
moz
##clock
##ubber
##issions
perk
introd
pharaoh
resent
curl
trif
marg
younger
scholar
##itches
elbow
fren
brah
apolog
reform
recruit
factory
bloods
damaged
screaming
persian
generous
claiming
prized
undone
##nae
yearning
slowed
potato
tome
sights
sixteen
sleeps
electro
magaz
autos
worthless
movements
palms
directions
urban
buttons
rises
kidneys
dyed
objective
sporting
superior
contrast
examples
correction
towers
towel
chefs
waits
knights
narc
rejected
rejection
assistance
naughty
errors
stretched
empire
tempted
cavity
battles
colonel
candidates
hubby
companys
prefers
ankle
botanical
##worms
adopt
wizard
rehears
nickname
blasphem
eccentric
nephew
airl
bong
bale
cest
cite
dul
faded
gout
hyster
kitten
lists
loses
nom
niece
ovation
pud
rook
randy
riot
siz
tou
wounds
yummy
##lord
##dad
##iw
##gun
##ele
##rr
##rays
##your
##wind
##wife
##hot
##hire
##jud
##oubt
##atus
##acement
bever
beads
shave
heather
healing
##idal
chis
chilled
anagr
whence
##see
atomic
##them
nov
##ppings
sult
##eline
##elike
blaz
trading
alc
outl
grouch
ampl
swirl
##iva
acids
whereas
tee
moons
cheated
##cloth
carriage
idle
backward
mund
plead
phones
overly
choked
clearing
delusion
confer
commander
schol
awh
awed
collision
explor
##ernal
charity
divided
restraint
##ussed
squad
turk
fighter
floating
##obi
persons
bellow
sprung
believes
bowels
constitution
solve
geor
nerds
critter
riches
moron
counsel
##ographic
combust
captains
captured
swelling
enjoying
suggested
explaining
dissent
includes
survived
threats
maths
returning
##ulsive
rumor
##lights
pollen
cottage
projects
complexion
definitions
glowing
quarrel
flawed
##esthes
cereal
floral
martin
tumor
sarc
pockets
religious
patterns
officer
surrounded
hydro
shelves
pigeon
greedy
beguiled
ferns
elderly
washington
allergic
experience
subtle
fluffy
trendy
protein
demeanor
birch
aglow
emergency
atheist
tattoo
aa
aunts
boun
dj
dummy
fatter
gains
kitty
lous
lav
lymph
mating
ooh
pam
packs
pension
sard
wines
wires
yore
yup
##life
##equ
##rin
##rics
##yard
##wa
##wash
##hr
##hem
##pid
##best
##burn
##view
##fold
##asingly
init
##aying
##adays
shining
##ental
##celer
wasting
wasted
##rah
##rock
##erel
##unity
safer
blab
##uled
clink
closing
tray
crate
broth
brittle
altered
alright
comment
cobb
abol
quality
##udgeon
disl
disarr
scout
enqu
proc
ung
unner
slob
aging
downed
##ethats
caress
##ressive
skirts
desired
##orns
snacks
curls
overhead
grands
insc
painter
remarks
default
deli
commend
reduced
sched
columns
##brush
moments
salute
detract
buyer
advances
advantage
pastry
grandp
concede
##obic
excuses
horiz
miner
minister
bowls
pickle
foreb
potent
rocky
croak
revolution
delightful
##rolog
expects
softly
banker
laure
property
dismal
cardinal
##colored
destro
destined
touched
cheaper
futures
duties
fervent
phrases
dusty
nutrit
jewels
muttered
ashamed
albert
##rophe
custard
lingers
storms
attempted
cathed
crystall
pilots
swords
tempting
dickens
properly
mysterious
shadow
precisely
egyptian
seventeen
fleeting
vocation
enthralled
enlar
neglected
doubts
professional
sketch
spagh
deposit
excitement
sturdy
##spring
tobacco
czech
bould
bak
dich
dusk
ew
fable
fatt
gi
gus
gaz
ie
lid
lith
lyr
mit
mong
nook
owed
ply
rave
tib
tush
tires
vect
wil
##lest
##nuts
##gone
##tick
##rates
##hib
##pian
##uer
##bows
##xy
##fter
##fits
##inn
##inet
##iners
seiz
##arium
whipped
##icul
stif
##chants
asth
chur
chunk
anom
rept
reef
soy
##raine
##robe
necks
spurned
##umph
##gee
plague
##olith
##olate
bling
canon
##indle
conch
congreg
brom
##emic
aloof
covet
outr
##ishes
##apers
abstr
quad
##epend
##iven
##iper
manh
acron
slain
popped
makeup
agg
##ensation
##ensible
glide
glove
snag
snapped
hobby
longing
worker
bestowed
sweethe
##ictions
defence
deform
delir
accommod
schism
drench
airpl
##uctive
apes
travell
collected
demure
burden
factors
restr
guessing
mommy
menace
sunshine
fatty
speaker
friendship
baloney
foret
cleaned
shrimp
dealer
reaches
fixing
mistress
requested
mercy
elements
borne
neighbour
breezy
cracking
sensitive
technical
jewish
inventor
radical
pursued
uncom
aspire
spoiled
linger
venom
louise
removal
remarkable
temptation
froze
reckon
flora
cryptic
pirates
community
instructions
aphrod
deduce
disgusting
shrubs
hatched
violent
astronaut
elephants
digestion
structures
molecules
lincol
aberration
clinic
rendered
hauled
fertile
grandmothers
gourmet
mechanic
settled
vicar
launched
website
tasks
liberal
prolific
ignorant
cedar
obstruct
california
celestial
murdered
unfurled
treasures
explanation
delectable
loyal
joseph
bif
dood
ect
fath
gust
hust
hock
jig
jeez
lux
mummy
nant
nate
nause
pint
panc
rival
tuss
tilt
ul
vom
vowed
wack
wages
yen
##dles
##great
##ender
##rill
##rums
##rued
##ha
##makers
##vings
theat
seaw
##onys
##enous
##iture
inane
whoop
##uting
##ala
beams
shaken
hect
##urous
forests
##ioned
##aments
chast
chops
chomp
buts
reed
sopr
lique
liking
allot
##very
##terior
herald
sauc
blouse
##ulse
##opy
leech
flutter
knuck
nowadays
abac
disqu
adoles
twirl
amend
amusing
swims
##ostic
##ivation
manager
smiling
thereby
robbed
acceler
##avers
slumber
monday
peaks
breeds
speeds
snort
snoot
##ggle
exposure
partake
marx
someday
nightm
askance
anten
antel
reds
##umpy
dragged
dearth
fearing
reluct
bragged
apoll
lesser
divor
diverse
affected
flowed
engines
suppress
discount
discretion
statements
excite
fourteen
incess
obese
yells
evolved
denotes
undressed
queue
creator
misch
testing
produces
producing
description
talked
centre
providing
aiming
hyper
##etta
ringing
bounds
occup
camels
weights
##rolling
defeated
valid
##going
summers
sufficient
approval
bathing
hallow
wreath
wrench
pupp
speeches
mastered
chapel
december
whisper
rebel
contrad
creeping
disappoint
sucking
salesman
excessively
aptly
holmes
beckoned
ribs
##aaaa
supplied
disappeared
blossom
algae
nuns
traditional
perplex
tweet
sheriff
mourn
sloppy
schmuck
appeals
conflict
aflame
indulge
crocod
acknow
ilk
piano
distinguish
destruction
burglar
snooze
illegal
cactus
currency
aes
akin
bb
bure
binge
cull
dic
feds
goth
gaffe
jets
kay
moses
masters
miffed
nought
oz
pact
rou
ruse
sine
tether
vide
vague
wret
##cation
##tim
##eeling
##rants
##wo
##pie
##mart
##ua
##bet
theories
##ati
toms
inert
beep
bends
bemo
stained
##urst
##ami
##oooo
chime
wels
soot
frantic
##rag
orth
##iloqu
spra
spines
spores
haze
nove
plains
sag
blades
cros
flask
brus
##eman
outlook
arach
theirs
scam
advert
lobster
twill
amoe
swish
progn
hash
smut
buoy
offensive
caring
diale
diarr
preced
compar
##ucket
hockey
resolve
founded
expound
expose
expans
expire
bestow
curv
hells
insight
trials
triumph
##bee
##beh
##yme
##ictive
delayed
antiqu
dripping
passions
impart
replete
relent
relation
refine
trench
musics
wonders
avoc
realm
parrot
##obile
sprayed
opens
starred
##ribes
bowel
boyfriends
hitler
intertw
largely
misled
digit
boobs
senate
elected
satur
drawer
equally
centur
filter
dishe
shallow
lifetime
critique
sticking
musician
musicians
damnation
temple
ambitious
##ographers
smarts
paired
derived
fanatic
normally
cheerful
facial
beaches
buffoon
dupl
employment
feroc
unsur
tickle
matches
##engers
visiting
##izzard
cultures
rumors
auk
aux
##cross
creeps
##check
rushed
implore
squeezed
trucks
pleasures
fuzz
approaching
granted
fungi
concepts
dashing
resemble
pooh
aura
ablaze
reigns
companion
perchance
conquered
##words
embarrassed
syllables
inquired
april
restaurant
##ephal
arrogant
clumsy
acoustic
cinnamon
appropriate
nutritious
bitten
dast
dak
dined
ein
ety
eternal
fash
fidd
hump
ick
jug
jeal
lor
leth
lays
lumps
oven
pand
pans
pests
tess
tel
vor
yum
##nys
##gi
##gate
##rils
##yan
##wled
##part
##pear
##uet
##uition
##ucc
##band
##brew
##fect
thud
##inos
##ince
##edness
##asive
ingen
itching
##etting
##alf
shattered
stomp
chamb
ana
rearr
atro
##uns
spacious
##umed
##uman
plow
##aints
doff
dolt
blurred
##ulk
willow
##stones
clone
traces
fec
flak
converse
brine
prow
coax
cocks
whoa
ability
bobb
##ansas
disre
twent
enig
wells
roost
slog
slash
##ptic
##ogram
joker
##awed
##angular
moor
carve
carrot
peck
breach
compressed
snows
##iousness
##ertain
contrib
contempl
betting
##odyn
partners
gravity
insults
delish
antit
repet
hearse
streak
freezing
##dder
induce
restored
sadness
##grown
squawk
discard
avian
monkeys
tenor
opine
##oidal
starch
syrup
madam
transf
bowling
pengu
##lette
media
sharks
builders
specs
costume
farms
troubled
verve
praised
irre
malice
##ursion
freshwater
##ugging
kidna
crackers
paths
cartil
arrives
dimension
dancers
##offs
audition
audacious
melod
oughter
trusted
mouths
grasses
technology
techniques
unsound
gripe
accounting
puppy
hooks
losses
geezer
ashes
historical
##rophy
gloomy
customs
suggestion
lifted
version
statistics
litter
fashioned
briefly
africa
prosper
screws
succeeded
optim
swinging
venture
mentor
umbre
terrorist
greeting
preacher
aggression
novels
width
assuming
promptly
acetyl
vocal
surreal
conquer
appalling
thwart
bovine
unreal
recognition
overseas
stylish
bounty
benedict
microbes
shoddy
saturday
jealous
auction
bage
bony
dile
fudge
fumes
gird
gears
humming
jot
mop
mash
mature
oint
ood
pail
picks
piles
ration
troy
wides
yall
zones
##dys
##iop
##ioc
##gies
##rome
##yt
##mia
##brained
seaf
##atures
##onics
##isan
##arine
tots
##icable
##iculous
##lee
##utin
bead
onions
shin
shamp
stains
stamps
islam
##urt
##urance
##illo
wend
livest
##ilation
##section
haunt
hailed
##uma
plunder
plumber
plaque
sucked
##olis
cans
##igan
##igence
cradle
flout
aloft
outer
##inky
gramps
grumble
abu
aback
disem
scur
scum
##pling
##plus
drilling
united
manure
guides
slides
slips
agape
offspring
downhill
moans
cleav
backing
composer
strate
everyday
trigger
##ugn
telly
decrees
##ottle
##coal
passengers
accurate
schn
aircraft
relish
demol
burp
caly
meters
diving
wares
devoted
deplet
turd
cellular
catast
persp
horror
##ammy
##amming
womans
dais
petite
veh
bleach
##please
aston
interp
balanced
penis
penchant
faults
feline
##ylon
achrom
tomatoes
wondered
solutions
boozing
listed
##ificant
drawers
equation
equipped
kisses
sickness
soften
software
basil
ambass
laughing
blokes
verbs
gases
surprising
population
ensl
squeak
figured
thanksgiving
almond
tickets
females
robust
pursuing
mutt
threatened
performing
packing
gloat
influ
inflamm
whisky
lasses
grinned
lingo
varied
scarf
scarred
reflects
mortar
celery
poisoned
projection
seasons
thrives
reference
scrabble
fuzzy
discussion
feeble
investors
curtains
intentions
cavort
##youre
pearls
vowel
interesting
shady
grains
peasants
rapidly
admiration
celebration
symbols
atlant
opponent
emotional
anxiety
calcium
condemned
dodge
flavors
fertil
prophet
junior
relieve
syllable
disparage
biscuit
moisture
aesthetic
mathematic
enzyme
grateful
bundle
adrenal
attorney
controls
entertain
dallas
recommend
hassle
enormous
##iciency
aardvark
crisis
magazine
spaghetti
nantucket
halloween
welsh
cind
cuff
colog
crib
doth
dale
dual
font
fated
fitted
gums
hens
hints
ii
jailed
maw
mums
makin
oils
pent
pung
posed
pony
vows
wri
yor
##dr
##iors
##nn
##count
##comes
##top
##rically
##will
##wright
##pro
##uge
##vo
##va
##vs
##fined
theater
##erce
##edge
##rene
##rench
##isin
##anqu
toff
toler
##itous
andy
whiff
##leys
bending
stell
##amble
##chool
asper
aspect
chel
chock
##entious
ree
soaked
meats
alliance
spam
spawn
##this
noisy
dolly
blitz
##isting
##istical
##ulas
caves
cabo
sheath
clamp
trice
flare
brink
brows
##abby
comfy
outof
grades
abbre
##udder
boasts
dissect
adrift
lofty
##ysix
amm
amass
ambr
swoop
uncon
unemploy
##ipher
smug
roger
rods
guff
slut
slam
popp
agon
appell
##angles
##phone
lett
##ubs
desir
composed
pleading
##ggin
##ordinate
##peak
resides
resolved
overt
whyd
crem
passage
smallest
accuse
handles
crappy
eliz
dearly
trav
payment
learns
demons
feller
erud
countries
stripes
salty
##grass
squares
discord
largest
fours
regrets
womens
tasted
invade
transgress
cowed
harv
##letter
aching
dinners
judged
dishon
mixture
bullets
epid
epith
chemists
truths
prair
attacking
blocking
coul
suffix
harmless
successful
facet
possible
savour
ferment
falter
matched
frightening
hooker
mansion
weakness
socalled
featured
crews
chapter
kicking
accepted
lifts
acquis
acquaint
cultural
succeeds
examined
dwells
scarce
fetus
codes
amazon
maidens
sucker
frequent
##worthy
tunnel
investments
citrus
selected
operation
printed
utterly
vinegar
pierre
tenth
##footed
chaotic
duress
decorum
wandering
gymn
deplore
emerged
compassion
athletic
crumbs
placid
tucked
waltz
comedy
perceive
fragile
watery
naive
sustain
inherit
uptight
lexical
infections
vampire
kittens
sermon
vulgar
aluminum
outrageous
storage
meteor
cautious
misunderstood
sweetheart
etym
oodles
aub
averse
cephal
ds
dos
dill
duel
eject
huff
icy
lice
md
mused
meds
niche
pus
puck
pave
rut
rake
rants
rattle
von
vod
voy
yards
zoom
##long
##laid
##da
##dling
##catch
##rost
##war
##hy
##pread
##ming
##mpt
##uished
##bas
##ja
##fig
##fare
##fied
thugs
thered
##inian
##eding
##orig
##itute
ingest
##iculate
##otal
##eto
##etes
stings
stung
isra
##urer
##amo
##amics
##illion
chile
socc
frig
fraction
##unte
sped
herm
dole
dover
saul
##olics
crme
##ickle
##inding
brach
bristle
##abit
##abeth
coma
comical
artery
##elly
##inking
quir
quant
quoth
boll
scat
loans
##plant
amate
swill
swagger
##quets
rogue
hades
guine
aces
appare
##ething
cheery
carving
divert
sinister
glued
glitter
background
snails
muster
mustnt
##anky
activity
highs
trib
biggest
delib
badger
doubles
dreary
runner
airy
refuses
corresp
balloons
distraction
burgers
musk
info
charcoal
engross
ladys
discom
discipl
cello
perspective
regime
##ophile
involves
eyebr
declined
admon
admitted
childhood
transcend
enters
astr
coward
lively
fauna
halfway
labels
ignite
splat
succinct
directors
boxes
agenda
opportun
locale
speedy
couples
connected
natives
jeff
bathroom
suitable
besee
fluids
cocktail
peaceful
domestic
volunte
bombard
muddy
thrilling
pillow
logical
protecting
suffering
mortal
sneered
barbar
crafts
clowns
rabbits
earnest
##world
drowning
annoying
reviews
davy
anchors
##ophobias
hiking
binary
suspicious
suspicion
racket
cliffs
bishops
borrowed
chimney
forbidden
bridges
adventure
botanist
moths
vegetable
trumpet
gambling
inferred
behaviors
accomplished
library
downtown
pharmac
portrait
alaska
principal
legend
torso
weekend
citizens
proclivity
gimme
disarray
prognosis
fashions
dilem
livestock
bist
bums
cack
cuddle
dac
eph
ewe
ig
jos
ko
lull
mant
mack
mous
nam
pt
pim
pitt
rit
rails
ripped
sash
saints
tet
wats
yon
zinc
##log
##lins
##liness
##overs
##iere
##nas
##cock
##cup
##haired
##pit
##uz
##bearing
##van
##fr
##folk
##inthe
##atile
##orically
##asions
andor
##utable
##alph
stair
stacks
hex
hebrew
##chal
##lyph
chil
butler
reel
reass
##rily
spicy
haird
nobel
suited
blot
cany
##star
clash
clair
flir
flint
flaming
flustered
##icked
##icken
##icking
conco
brats
##abe
##about
prest
prank
alge
coot
cocon
arbit
gruff
quits
quotes
boa
bobby
adores
sworn
envy
proven
unra
smugg
smarter
poise
aggra
##ailing
##cled
diabet
peg
cleft
comprehend
spends
pleases
everythings
beta
##odo
##ibles
expenses
surly
helen
decry
##angel
confirms
comma
##ulture
draught
sweetie
bede
bedding
brakes
apace
distill
shovel
poorly
diva
subd
discer
singers
menu
terminal
effl
##amese
earthly
pointing
involve
vend
maf
undoubt
speakers
bowed
cowboys
raises
forecast
##after
document
medium
capric
budge
shrill
milky
century
churches
catches
corners
merit
embro
embell
papa
laying
sandy
proposed
groans
##blue
ahem
norms
facility
elsewhere
duch
pigment
symph
possession
besm
fortunes
flights
puzzled
danny
rotation
radiation
axis
unclear
deceive
aerial
authent
curses
contrary
motif
##joined
implied
ethereal
##break
travels
consumer
discussed
conviction
prevails
enthused
constructed
scotch
engineer
sarah
vowels
peasant
tangled
suspension
teddy
permission
canada
scientist
prescribed
cooper
yonder
unbear
concerning
persuasion
gourd
awaiting
stitches
simplistic
exhausted
fulfill
bingo
conspir
eclipse
plumbing
established
doeuv
concentration
equipment
exploit
hymn
prudent
emperor
beggar
bikini
queried
shepherd
bicycle
infinite
arthritis
fiend
pudding
toupee
forebears
crystalline
manhatt
lincoln
dialect
elizabeth
correspond
dane
dazed
faw
fused
hilar
ket
lon
lud
lining
lava
makers
oun
pes
pont
pyre
sane
sams
yep
yarn
##nia
##corn
##aise
##tles
##ext
##rach
##wall
##woman
##hed
##pot
##uan
##bons
##xual
##inction
##eros
##esy
seab
seams
##atin
##anne
##asian
##acent
bender
shores
stumble
heirs
##uria
forso
asunder
##lym
anus
deject
reco
##ilant
spac
ploy
platter
plung
doze
##olving
blat
##oret
##oreal
##ately
##opod
ifs
cauc
canary
canny
trough
##igraph
exists
external
cram
flakes
##ema
knots
arn
arctic
##elles
disrupt
##ongs
scattered
ado
adults
##agles
amyl
ensh
callous
smid
guid
sling
slouch
##ogr
daylight
downward
apprec
##anges
mocked
##etheless
diets
desist
glitch
##izations
perth
comply
snatch
snuff
hover
##urnal
contag
curm
overnight
overweight
overdue
graft
##bec
marge
marred
decid
decreed
decisions
creations
lasting
constern
##ultural
##berries
drab
craze
crazed
limited
limricks
rounds
lessons
indo
index
metrical
ladder
editors
dames
viewing
squid
discont
buyers
turtle
##price
monstr
billions
miners
lotion
spruce
standards
petty
observ
banner
entom
rapp
cleaner
numbered
hurled
praying
tomato
##ambles
solar
senator
listening
builder
ruling
eighth
morose
boxing
oppose
charmer
dreaming
preference
opening
dreadful
immature
germans
encir
rubbed
##flies
##ippers
escaped
dyes
savage
bonnet
cockney
accountant
##oxy
nonetheless
titles
continues
gloves
virg
duller
rebu
statue
contrite
austere
barking
drains
presented
polls
alarms
disgraced
cubic
network
torment
samples
dubious
battered
##worth
psychology
cosmic
assistant
mirrors
attended
attending
submission
silvery
favored
tactic
hunters
instruction
regarding
rigid
analog
conductor
violin
eschewed
permit
bruise
threads
wiser
fossils
moaned
ardor
demonstr
wandered
diminish
sleeves
smashing
generation
management
wrinkled
virtue
bewitch
exhibit
velvet
explosive
ingred
francis
license
ancestors
##mannered
therm
application
entirely
procedure
vertical
synthetic
baza
commercial
eddie
chubby
scalp
suspended
yankee
frisky
peanut
unexpect
mozart
mundane
scholars
##esthesia
unsurpassed
disregard
shampoo
cleavage
cologne
watson
forsooth
aus
cmon
dumps
eels
fug
fists
foster
gaw
gait
hut
hicks
hither
iamb
jog
kidd
kilt
laps
mould
mul
mick
mite
nome
nip
naps
naming
pion
pep
pars
puls
pimple
ridd
ridge
tac
vie
yak
zig
zool
##got
##cys
##eous
##rison
##hell
##pal
##mine
##meal
##itas
##omple
##adors
shipped
stoned
##urally
##idian
##irled
##amus
chass
chort
chimp
anac
anna
anec
dex
##imo
##imb
fridge
##rops
thistle
herds
herring
suite
##olute
##elia
##uline
##ulty
##opat
##opath
capp
cancell
cancers
##storm
clump
clams
trot
feign
feathered
crims
flore
flung
flaunt
prude
alack
##oodles
##oneys
graces
abras
quail
query
##uda
adverb
##agus
loom
lobby
twain
amus
amour
uncles
##ipation
##quette
robe
##acts
slot
slay
slices
thrall
joins
dayd
downst
needy
##ethat
evergreen
pew
desires
glib
##izzy
idol
perverse
period
compensation
pleasing
hobb
resign
firstrate
##ermans
barrels
graves
gravy
##ateral
assent
marital
marched
painfully
defy
deflect
confidence
##days
commence
lighting
##atted
conscious
##upon
##aryn
##otherap
runny
elix
girlfriends
limrick
apric
refres
##ocation
hotter
burg
burrow
felled
infant
charter
india
indians
growl
affix
flowering
##brown
devices
##ummed
##ummies
squall
classy
retribution
extoll
detected
turf
strait
avant
stuffing
screens
cellul
termites
angst
vey
declar
madness
entreat
interests
forehead
faze
harass
hurric
planting
digits
castles
##ference
dinosaur
promotion
ruler
farming
succulent
bases
urgent
ambul
gasp
opposed
smokes
freshly
ensue
ensures
ensued
valu
cracker
memorys
posts
##omyc
boldly
suffers
touching
audit
melting
futile
tailor
jumping
beset
bonnie
utmost
puke
hostility
volt
cadaver
complaints
puns
increasing
increasingly
##know
gutter
olive
moods
bulge
bulbs
cherish
seduce
torch
##woods
barbarian
strokes
suspected
murm
hunts
##aurus
youthful
##uvian
consumers
switched
sparkling
fiber
##iacs
enemys
jerry
hawai
shakespear
particle
torture
granite
skelet
disguised
gigantic
sacred
affects
shirley
flushed
widow
forbid
environ
gaily
furniture
reminds
intelligent
prickly
aussies
lilies
enzymes
##laden
gyps
contrived
industrial
conscience
horde
repeatedly
outdated
gulp
adulter
titanic
slippery
perpetual
lousy
cathedral
abstruse
telesc
cartilage
lettuce
apparel
undoubtedly
aka
bribe
bakers
duff
fangs
ger
hott
iq
kang
kidding
las
lusc
messed
ned
ness
nig
nour
nub
nancy
nailed
nymph
ouch
olym
pag
pater
porce
rite
ticks
tides
wilt
waving
zen
##dri
##oved
##iast
##good
##call
##tails
##eaux
##rad
##high
##maker
##uals
##bul
##buck
##bones
##bolic
##volent
##from
thre
##inqu
##ateness
##isons
##anous
ands
inve
whacked
whims
##veling
stag
##chair
##chee
chad
deh
soaring
friction
fritz
##sex
nef
neater
allay
sparks
##estation
##ainty
sues
blanc
blaze
##ulates
cafe
clav
clusters
trs
tranqu
feck
feud
feces
exs
floss
##anders
bry
##abel
ourselves
coch
coined
##ells
grunt
abre
abut
quo
quirk
scents
adap
lob
##othing
enn
dru
##respect
rooster
##earth
slate
##pty
##inton
##cling
clem
kevin
glaze
##izer
backp
perched
compelling
spew
phe
contained
endured
##odont
baro
partys
grapple
assass
helm
chooses
clearer
reduction
imposs
accum
dregs
awl
awash
elbows
steaks
colt
instant
strewn
distrib
exploring
muscular
birdwatch
independ
purge
englands
laden
restore
supple
slew
finance
retort
extensive
deeps
landlord
parall
cataly
horrid
perforce
monsters
armad
angi
anglic
##ophy
##opher
earthqu
invaded
invading
wishing
petes
signature
denial
denote
fooled
profuse
undo
admits
madly
strongly
astounding
picky
penn
pencil
ruins
hurting
displaying
debon
equator
secured
splitting
filthy
baggage
sickly
fury
bankrupt
irrit
malicious
propri
garn
immune
sensible
enjoyment
tricked
bodily
dissolved
printer
juices
ferv
unsure
robin
robot
surviv
survives
stresses
mentioned
frowned
whisk
vanish
behaved
targets
alarming
carrying
aquatic
supers
twisting
torrent
##amental
##ogenous
fleeing
fleece
champion
binding
options
pedal
cosmos
dwight
scratching
floods
gentleman
fibers
flawless
conveyed
considers
ninet
typically
gowns
slimy
detective
##ophobic
synonym
officers
official
duration
pooch
tangle
australian
roasted
achievement
pigeons
programs
bawl
cloak
##burg
spectacular
tanned
clarity
adjour
allege
flavour
museum
injured
arrangement
arabian
quartz
lectures
inferior
cheeses
casket
families
soothing
lemons
sioux
convenient
##charge
revered
ireland
disclose
cerebral
hasten
strangers
resources
abnormal
fatigue
cylind
tibet
uncommon
disquiet
ointment
stellar
vodka
mafia
consternation
anecd
crimson
cd
cider
dans
dally
fax
fift
fickle
huck
hann
hugs
jon
kettle
lu
lis
losers
mun
nash
nosh
pens
pats
pears
pudd
rape
rasp
sic
sut
sipping
tink
tues
taut
vatic
wimp
xray
##dis
##dash
##oin
##iary
##iations
##nce
##core
##talk
##ea
##eon
##rating
##wort
##bag
##eration
##erys
##onous
anders
##oteric
##acs
##acys
onion
##ados
shag
shatter
sta
stu
stunk
stages
hein
myr
isles
##amation
asym
##ooch
chit
chipper
weathers
dend
soles
framed
##ighty
##rapped
##seye
nect
alloy
##rious
spaw
spry
spiny
spikes
##gel
herr
sands
##elm
blubber
##istine
##ulant
##ople
cair
worsh
clunk
leaks
exert
crescent
flake
goin
aliment
comics
grotes
grudge
abortion
abbey
quot
scowl
##athetic
adip
adher
twists
##plan
amn
swap
enact
slipping
chevy
dipping
##uber
sinful
keith
glimp
idiot
compunction
##arma
contents
##eryl
endowed
##bean
greg
cutter
beloved
defiance
cret
delhi
commod
reddish
accomp
dreamed
relative
missp
missile
corros
trape
##ocate
##riend
burial
artific
infernal
calor
affront
##brid
baboon
##weet
extol
detroit
strands
parli
norwe
concord
incomp
mini
sprouts
polished
stares
evo
syl
childs
banish
banquet
bowers
cooling
dispens
digs
senior
replies
labelled
fillet
croon
shrunk
worthwhile
hopin
untrue
bottoms
basin
epiph
merge
strangely
gasped
risking
portion
raining
shocking
kidney
deriv
immort
hideous
ancients
##black
campus
##flower
bacill
audio
understands
##erald
batting
twentyfour
chester
duh
symmet
stinking
methinks
supporting
package
inflation
accepting
suggestions
collector
repeats
cuban
embraced
seduced
creepy
leafy
sinking
delivery
bumped
bordeaux
sorely
##ochem
organic
professors
##uscule
favors
hawks
tumors
unwind
resembled
tortoise
preventing
department
cuisines
cranial
bacterial
munching
economy
seventh
neurotic
aberrant
politely
elder
zealand
lurks
##lysis
deftly
ankles
furnace
accidental
occasional
squirrel
cranky
fracture
vermin
sweeping
##creen
overst
chaucer
architects
skiing
provoked
bipolar
vigor
adorned
foresee
gamble
jacques
bravado
obsessive
mimic
disturbing
crusade
entwined
betrayed
upstairs
extremes
dolphin
##blooded
calendar
newspaper
awhile
soprano
liqueur
antelope
acknowledge
november
umbrella
widespread
luscious
glimpse
bakes
bals
berg
dank
dainty
erod
fud
faking
fals
fins
fades
fawn
farts
gaps
hark
hives
ivy
jes
kite
lenses
mace
mog
nifty
oclock
pate
porter
rer
rar
tant
vase
vint
wry
wired
yester
zits
zipper
##liest
##lasting
##dam
##nity
##nels
##gence
##tor
##taking
##ran
##rite
##rans
##ww
##mall
##ufact
##bott
##bugs
##ki
##vil
##vette
##fing
##first
##zers
##lle
##onents
##enot
##enger
##arius
##itus
##asms
##asma
##omat
##alysis
beque
beij
shipping
shudder
stank
staged
forage
##amine
asl
chaff
anaph
decks
##imation
notions
##antine
##rip
spi
##estrian
##onto
plough
##oughs
##oline
##olite
blan
##ista
caust
wills
clerg
claud
tram
leon
leapt
bypass
##igious
##artes
exor
cramps
##icky
##abled
output
grime
gramp
abus
aborig
quint
quix
quib
quips
scoring
##athery
adhere
##acea
##ectomy
##othed
##plate
amnes
##ifers
enrich
unrel
unrest
acar
##avy
slopes
thrash
jockey
newborn
molly
carib
peaches
##ube
sinner
skis
greatgrand
brewed
themes
perks
compelled
mugs
snide
snugg
strayed
##ggles
afore
phall
phosph
resc
headache
barry
attrib
##irect
overwh
assoc
assessed
##yman
cleared
delph
serf
confed
confection
repay
repairs
careers
airport
handed
dragging
coloss
refusing
traveled
##ropod
ballistic
collide
burger
eros
erase
infested
woven
sleigh
wedded
salts
classmates
abscess
##azi
floored
colder
watches
preserve
polic
waitress
angled
daze
lowest
significant
mae
maze
kingdom
##hey
interven
pickled
cower
##opsy
slower
felicity
patrol
disputes
tommy
messy
ceases
diners
archbish
magnet
milit
prominent
splits
filing
voiced
darned
southwest
galax
urn
merchant
verte
##ographs
##ographical
locals
circums
commonplace
ensn
mounted
berate
##blown
connipt
panache
rubble
##annies
yellowish
selfd
terrier
wrecks
attracted
daniel
buster
hosts
geeks
mutual
##kinned
threaten
apartment
majest
gleam
vacu
collective
tarry
scarlet
athlete
##ivalent
competition
competitive
passionate
pronouncing
remarkably
##breaking
chuckle
option
bagh
marketing
pouring
cigars
previous
lengthy
heroic
flags
stretching
chemicals
fungal
folded
chicago
dysp
boasted
jello
reckless
pounding
engineers
voted
communist
weighed
skew
stomachs
##poken
customer
coinc
tackle
defendant
plucked
itchy
mystique
atlas
container
crawled
relationship
adventures
##oscopic
nickel
oscar
tutor
grieve
plastered
succumbed
jewelry
accomplish
##build
calculus
provokes
hammered
apparently
appointment
pallid
##writing
pussy
landscape
mosquitoes
fountain
immersion
outdoors
modernday
razor
meadow
toxins
scourge
focused
rifle
sulph
bagpipes
trivial
laundry
trifle
aggrie
bureau
video
arachn
dastardly
prairie
israel
soccer
algebra
manhattan
smidgen
curmudgeon
bazaar
##omplete
avantgard
kangar
porcelain
debonair
nectar
bequeath
beijing
bm
cud
cia
dour
dunk
dues
eerie
filed
hive
icon
kab
kong
kaz
latch
lug
laced
mesh
mason
mites
moneys
nests
nett
nixed
oats
pawn
roo
ross
raving
ralph
ss
sated
tam
vene
wad
wart
yolk
##dies
##cake
##comp
##tons
##eff
##eons
##rade
##has
##pin
##mar
##uations
##bin
##bro
##flo
##function
##inine
##inates
##inations
##rens
##inges
andro
##omancy
##icc
##alc
shaved
stap
heaps
##urious
##cht
##child
chand
anarch
anonymous
##entially
reek
sofa
##ightly
orph
##ilian
spont
spore
spade
spuds
haute
##thew
placing
sued
##elong
wors
canc
##sticks
cluck
trance
traction
exams
crane
flamb
gob
##inda
convent
conjoined
##empor
prism
alms
comet
cocc
outta
aromatic
abc
upward
disj
scen
adel
loon
swung
enraged
proceeds
prohib
unch
univers
manufact
smother
##actions
illust
acry
slant
moat
cheering
pecul
##ensity
clears
keel
##izing
backside
perc
composition
snig
stricken
inters
phon
resigned
reserve
longs
endear
endors
##odox
barrier
expired
assu
marrow
grec
greasy
hardy
antar
##alet
drivel
impaired
accust
accost
consort
dreck
drape
steals
brawn
brazen
reflex
treason
ballad
recipe
learnt
burd
burs
artill
eric
explored
##bbly
devised
restrain
eden
behaves
supper
##ussion
babb
stripper
sadistic
wedge
shortly
##grade
eyesight
deeper
##which
parish
##prints
catfish
horribly
brighten
sunlight
minimal
policy
cycles
peters
forgo
completed
certified
##plend
creative
##opsis
##ilton
harang
digress
potion
drying
ceil
visc
appearing
debated
breathed
shrine
costly
unto
revol
wildly
##iolet
epist
merits
##appin
buttocks
personality
malays
camou
speeding
surprises
proposal
immoral
respons
sensations
postp
physicians
jeer
jeers
mornings
##aciously
futility
alongside
juicy
attracts
axes
complaining
demanded
glean
concealing
aspers
lifting
walter
collecting
liter
lassie
oliver
gifted
politics
draining
barbie
crafty
inspiration
##ogenesis
bumble
ethnic
timing
existed
rabbi
##working
hunter
psychotic
psychiat
pools
fearsome
bursting
sparkle
authority
ump
medicinal
battal
tropics
voting
wooed
connections
instructor
taunt
cacoph
hydrogen
libido
censure
##keepers
afflicted
scientific
struggling
distinctly
mushroom
european
mythical
accessory
furnish
parasites
squirms
academic
adopted
translation
victorian
tigers
wrinkles
chauffe
analytic
librarian
hormone
cabinet
##osaurs
flexible
kentucky
intestinal
toddler
abundant
stalks
brigade
pyram
procedures
vegas
hordes
available
encourage
categ
catech
chromosome
enforce
enlighten
bemused
physicists
plagued
destroying
seaweed
hector
wretched
diarrhea
lethal
pungent
amateur
tribute
engrossed
coconut
embellish
besmir
nefarious
baroque
peculiar
cn
cache
dere
ephem
fading
ginger
hos
humb
housing
ic
ip
jen
jolt
kim
kenn
lows
mink
mien
ny
nos
narr
nudge
ost
oui
pon
pix
pique
pads
pumps
poodle
ranc
rural
rags
sill
ugh
vouch
viet
waff
wager
waved
zap
##lar
##leness
##laws
##dressed
##iol
##new
##ti
##tar
##ties
##rals
##rane
##rosis
##ridge
##hee
##bos
##bill
##bury
##vance
##fin
##inx
##inence
##edd
##oration
##isive
##isible
token
##itable
##asse
##aseless
italy
##omer
##oter
##otum
##otte
##alis
##ayer
shap
shaw
stove
heave
##urable
##ositions
asbest
dele
deuter
rewards
soph
soggy
fran
fruition
orbit
nell
nears
##verts
##antial
##unctions
spiel
##estion
hag
noose
##ppled
sabb
##ieur
caul
shear
clique
cluel
clutter
tromb
tresses
lev
lees
leery
exempt
crumble
cringe
fla
flim
flocks
##owned
conned
##aby
##ousness
aloud
cog
coz
coals
grants
grilled
abated
abusive
abomin
adverse
##agog
loft
swerve
swapped
envelop
probe
##ortions
unve
unimp
unhe
##iped
##quer
manif
mangled
roe
robb
guided
slop
slander
olden
downing
wrists
chev
carrier
peppers
prejud
skate
skitt
deserved
glen
perennial
composing
snub
snaps
##ertime
playful
hoax
intri
##fuls
resplend
##oding
##umbers
highness
highland
gravel
paints
nightie
belts
anton
antith
antlers
confine
drips
redund
accrue
##oyd
aired
begr
elm
elope
elated
steers
steering
##neum
braid
refute
missiles
traveling
yeti
fellas
esprit
calvin
christs
formerly
##bridge
devoid
rests
##eney
babble
stripping
dada
salads
deterg
excursion
incomplete
brighter
armour
minuscule
biological
lottery
household
sonny
daunt
starvation
invasion
syc
wrongly
denying
eyeballs
doubtful
##iffs
potter
produc
sleepy
smelling
silky
brownish
churchill
warmed
copies
morse
directly
bloated
##welling
laud
thicker
pressures
carte
arrival
posted
##ippy
approved
cupboard
dissed
bathe
included
dangers
acidic
argued
stoic
bonus
flux
mutation
ashen
album
humanity
majestic
globe
concluded
inflate
inflated
reporters
conceive
versatile
broadway
statues
pillows
barked
yielding
varies
variety
servant
aquiver
sinks
bassoon
boredom
coughing
baile
consumption
scratched
solely
ghosts
tactics
brian
deduct
bogus
skulls
spiritual
chaos
tacky
conversion
carnival
hoods
enhanced
##omania
executive
circumst
flourish
struggled
talented
websters
boiler
sniffed
bawdy
wicker
sewing
linen
orchid
elders
bridle
electricity
##agonal
weeping
experiment
subtract
parasite
arabic
picnic
abbot
quarters
bewild
cortex
cheesy
distracted
thorns
withdrawn
gullible
appease
clerks
biscuits
pistol
##osaurus
nagging
##encys
endeav
economys
clogged
glamorous
dalmat
ornate
vapor
astronomers
nibble
commitment
jackson
ivory
disturbed
##tember
##tempered
churning
atmosphere
disconn
nostrils
phenomen
barbecue
crustacean
cessation
collapsed
integr
sizes
acronym
theatre
reluctant
einstein
fecund
concoct
unravel
diabetes
enshr
indoors
valuable
grotesque
avantgarde
camoufl
aper
aeg
aversion
bp
berm
bouncing
cout
coss
cept
cudd
dd
dint
dons
darts
ery
eau
eagles
fettle
gon
gur
grop
gape
hoop
ike
jub
jars
jumps
kore
kud
kiw
lapt
loops
mi
mn
mime
mau
merm
mated
oat
oily
pamp
rally
rained
rider
tapped
vass
vines
wailed
wounded
zo
##lit
##lined
##lier
##locks
##don
##dry
##oed
##afe
##tailed
##range
##yer
##wit
##was
##wal
##some
##she
##har
##horn
##par
##maid
##uine
##bear
##birth
##vish
##force
thres
##atient
september
##onk
##onically
##isse
##ingles
tore
##itone
##itals
##icated
##ications
##uto
##usks
beeth
strol
stutter
myri
##iry
##osin
##amer
##amen
##chin
ascending
##ooey
##illin
chan
chatt
chums
ans
dems
decept
delet
##imps
recover
##allys
franks
##rand
##iler
##ilib
sph
spasm
plunge
##ppin
docks
suave
##olous
blair
bluish
##opathy
cleric
clipper
crue
crater
flound
flab
flicks
gobbled
somebodys
conject
##emper
prance
knell
knob
kneel
alps
cole
coag
arith
aroused
##eller
##ooked
abject
upright
quay
quaff
disbel
scab
adequ
drones
bugger
acre
slid
slump
slurred
slapped
##ptuous
pox
##ogamy
aggl
appar
##angered
emails
cheater
carri
carouse
carne
carcin
wayne
sinned
##ensively
deserving
descends
perv
pleaded
phleg
resulting
conting
controlling
context
##odic
##umbo
##umbered
barbed
expelled
curvy
anywhere
##ancys
bothers
marching
##eads
chopping
crete
delta
funk
funky
serpent
##ologic
foli
awaken
blackand
craps
craves
eloqu
traitor
payments
##ocus
##zzie
recy
befuddled
burgeon
faction
kindness
esk
calab
owns
indisc
divinity
affinity
warri
squab
squirt
discrete
retain
singles
strap
avar
perse
crosses
bellows
cynic
darker
effic
anguish
dapper
lowly
believer
denies
veal
maids
unders
##notes
doctrine
entails
entrep
shedding
astrol
astounded
grounded
##ouche
cowardly
beatles
harrow
patent
patri
##ealing
tomes
teaches
visits
protr
bearer
debating
descartes
sentiment
##ifications
browns
benj
furious
epit
merchants
climbs
barefoot
honour
irk
locations
malaise
portug
rainy
popes
garage
breezes
derby
fanny
cardboard
cardiac
cartoons
destination
routines
purely
unfit
creamy
melon
melts
objection
including
savvy
stinky
expressions
fluke
bushes
inventions
hostile
volumes
bombay
axi
bangs
banging
cloudy
continental
albat
tossing
remembered
aspar
receiving
versus
improving
vanished
brewing
carpenter
resistant
flashes
flashing
cherries
cubes
strained
crux
guarding
dublin
##avery
stirring
swallows
screwing
##itzer
mumble
awareness
definite
middleaged
quarry
paddle
cosmetic
convict
teeny
sneezing
gnaw
rodents
buzzing
maximum
maintains
ridiculous
severely
leaning
connects
bouquets
claude
antih
stunts
##manship
particles
ominous
blinking
kitchens
surrounding
chirp
bladders
celebrity
prescription
lumpy
##escence
corporation
extended
chowder
emphatically
scotsman
carrion
scrubbed
radioactive
bosom
nurses
nursing
nursery
adjectives
antibiotic
coyote
automatic
lecture
fidel
wrinkle
abduct
fanciful
crucial
democracy
published
proteins
thwarted
conveys
oblig
imperial
sincerely
cushion
glutton
intestine
instruments
vivid
injection
reverend
aspirin
stabbed
mattress
cajun
disarming
forsaken
appetites
cocoa
entwine
##zzzzzzzzzzzzzzzz
neutral
sparrow
diphther
impecc
cuckoo
cameras
intellectual
havoc
mislead
pompous
grandpas
airplane
fathom
vomit
snooty
apollo
expansion
chambers
optimistic
schnook
inflammation
gymnast
opportunity
dilemma
unbearable
arnold
##arynx
elixir
shakespeares
tuesday
trapeze
bigh
bison
bounced
catt
camb
cds
dv
duly
etern
fiss
fave
gator
gazed
hight
hath
hatter
ions
jed
java
kirk
lamps
mope
mined
mores
mashed
mikes
ni
nir
nie
nah
naut
nanny
ome
ostr
pike
pounce
rus
rim
ramb
ranger
raging
svel
sores
tens
tug
tipped
tumbled
violet
wakes
wane
wagon
zomb
##lia
##dist
##dem
##oen
##ovation
##iree
##iards
##cate
##cap
##cuts
##ez
##eating
##ril
##rayed
##pir
##park
##power
##may
##mad
##mel
##bad
##bie
##vals
##jan
##fas
##fitting
theology
##inis
seals
seated
sections
##atable
##lled
##orum
##isingly
##aned
##anna
##eno
tote
##iterate
andes
inver
##ico
##icting
##icidal
##lem
##otom
##uten
##uttered
shri
shone
stations
stoop
stumbled
heath
##urge
##osite
##osia
forum
##ionic
##amist
##kempt
##illas
chi
chimes
chancy
chabl
anast
weas
weld
dement
##imet
reind
soared
friar
lig
##essions
notch
##ilate
##ctive
##unter
spared
##estro
hagg
##thand
##thought
##theres
##geois
noises
suz
##olit
##olas
##olation
blizzard
##ulin
##opt
worries
cancel
willyn
##ston
clings
clare
clatter
clipped
lech
exempl
flage
flats
braces
##emia
##ffl
prun
knave
knitting
knickers
alum
alib
alike
cozy
arre
arct
graced
grumpy
abounds
boff
disrespect
##athan
adroit
##othe
twot
amy
amar
amel
amends
swed
swind
enamel
proverb
unr
unjust
unwise
unlaw
unkempt
##quest
##acty
acup
acerb
slugg
slammer
##ptions
newton
tending
agric
agony
apprent
carc
cared
peeled
sinners
preten
##orship
keg
descending
compute
righteous
snip
snappy
hoe
hoarse
afgh
longed
contention
bared
barrow
barren
cures
anyones
triangle
marble
marines
decent
decides
deciding
serial
antir
antist
accents
accrued
repel
reporter
console
farce
elves
elusive
stein
nearing
reliance
braw
##lectic
apron
traged
evenings
distribution
fishin
lessen
shopper
charred
calories
metre
wond
laddie
resting
restrict
behoo
striving
sleuth
sleaze
momma
squashed
depressing
##rician
##uthers
detection
turb
absc
abscond
straits
##who
##whe
##when
##whats
realistic
param
parks
bellig
minnie
minimum
pointless
petal
profane
blem
underse
admission
##ribing
madame
transition
##nchron
faulty
meetings
felon
patron
rugged
dispense
casts
archim
shotgun
listened
labour
debau
builds
sentences
sentenced
equations
legion
centers
revive
dares
tights
donor
donald
bengal
morale
frenchman
##loaded
directed
boxers
urged
embroid
blooming
bandit
locus
malad
##rational
occasions
dreamt
proportion
pressing
valent
summon
panel
buckle
taxi
approve
routes
escapes
forgetting
ledge
prepar
dissension
cheerle
selfs
hatred
chestnut
symbolic
tvs
almighty
uttered
falcon
credits
cocky
##oxide
surviving
matching
##engths
danish
titled
pinned
springtime
historic
victory
recorder
simon
banged
gaining
##glass
uncont
prediction
gardener
europes
cultured
vacc
collects
collections
federal
understanding
respects
respected
motions
cube
blasting
seduction
surfing
brushed
bolts
crashing
timid
contracted
issued
venting
rejects
##uva
discussing
prevents
shunned
teenagers
crusty
currents
investment
gnu
specialized
applying
##iacal
augment
contented
punched
medication
shrinking
battled
blessings
fantasy
wooing
florida
acephal
absolutely
becky
pierced
winked
ribbon
magnetic
omn
sync
slyly
locker
officially
violence
google
carnivorous
##keeping
admiral
hypoth
jargon
seventy
neurosis
conjug
surmised
celebrate
bawled
mystical
orchids
spectrum
gathering
grinding
scanty
alexand
fertility
tweak
parasitic
monsieur
expanding
lucy
philosopher
graphic
fidget
licking
bargains
earlier
##fields
##iju
tractor
cannibals
mexico
consulted
platform
plumage
dracula
soothe
afters
janet
barmy
darwinian
transparent
banter
emperors
enclosed
orchestra
buddhist
aaron
degrad
gravitys
sterile
depraved
cetace
consonant
ambiguous
anatomical
rhetorical
rookie
beverage
sarcastic
grandson
restricted
venomous
hustle
leeches
voracious
unemployed
guinea
discomfort
subdued
unexpected
daydre
##otherapy
parallel
garnered
staunch
archbishop
vacuum
baghdad
artillery
##ranean
clueless
myriad
entreprene
portugues
albatross
chablis
willynilly
bade
bores
bidding
cil
cues
dong
ditt
dives
dilly
dashed
eug
fum
fission
git
gulf
goner
hams
hamb
ion
ja
jal
kale
kern
luke
mitz
nan
nim
null
oph
pines
pneum
ripple
sate
sig
sown
ti
taw
tux
vp
vets
yah
##la
##low
##done
##dress
##oil
##nin
##gow
##care
##cert
##comb
##aiss
##try
##rose
##rice
##yles
##wan
##hat
##holes
##hoot
##horse
##prod
##mus
##mont
##mast
##mond
##ulet
##bath
##kings
##zin
##onium
##oras
##orant
##organ
##isal
##anim
##anse
##anity
##arial
toiled
##itars
inex
whined
whining
##ombs
##icates
##leaf
##aler
shill
shabby
stow
storys
hee
heinous
##idel
##idation
##idious
##ira
##chet
chate
anam
deleg
soaking
mein
froth
livin
##rable
##raints
oral
##ilight
##root
##rode
nepal
spart
spher
##umines
##thesis
sages
suing
bluster
##acker
##istr
##ulars
##open
cavern
##stem
##stock
leaps
byte
feats
##igo
exal
expend
extends
flog
flagr
flinch
goon
gover
congl
brimming
britches
##emen
alab
coven
##achie
outstanding
arouse
grit
abi
abra
upside
quip
boar
bogs
scouts
adi
users
twilight
swimm
swayed
drugg
##ivious
manor
smacked
roach
acclaimed
slugs
poised
##fts
agri
##phones
##clad
##isexual
thinker
diast
diaper
peac
pepp
skipper
glint
gluc
pern
compr
##ully
rightwing
phd
contribution
foiled
endangered
##oderm
exposing
hellish
grabbing
assort
surge
showy
##eek
decimal
##atherine
chond
choking
defensive
crept
confide
finely
broch
brocc
broads
relatives
bragg
instinct
treach
trails
homeless
distortion
##zzles
demur
muslim
esoteric
charism
charging
booked
indict
chrome
dividing
growled
flowery
devise
devious
engaging
strives
sadder
salv
squaw
squint
discou
discourse
depress
##astern
treatments
stately
genuine
flynn
sprink
cyp
sonnet
##ophone
obamas
starving
invites
believers
##dec
condoms
profs
eyeing
shellfish
##asket
banal
banished
bower
internal
compliance
faade
##ylum
##yland
seller
constell
constrict
miscon
medal
capri
##amba
boozer
##shore
labs
labors
sentry
rulers
expectations
basics
##aean
urges
epig
scroo
praising
##ographys
##etto
##etters
combines
forceful
camps
rainbow
appliance
frontier
keyboard
valve
##centered
##blind
cardi
arriving
dances
rubbish
northwest
squeals
baton
parked
dissim
succession
selfish
suitor
ferry
##oxin
nonchal
radiant
bombed
caddy
recorded
punishment
##ofthem
galleons
roughly
continuous
conclusions
conceited
suggesting
achieves
rebell
rebuke
gardeners
pillar
vacations
contrition
vanilla
innards
innovation
resisted
bibles
cherished
motives
straining
blasted
textbook
sweaty
venice
heeded
competing
oxen
throats
primitive
ethn
rabble
herbal
majority
altru
dirge
coastal
##uvial
approaches
listeners
dotty
eventually
pilgr
azte
maxim
medicines
colonial
jerky
##youll
tumble
witches
crooked
bronx
disgusted
obtained
cheeky
surrounds
giggle
tiniest
##winning
tedious
anapestic
honestly
naval
pumping
pumpkin
conjunction
diesel
rusty
wraps
comfortable
aberde
chagrined
mocking
pregnancy
concerts
envision
diminished
diminutive
millionaire
grooves
confirmed
dawns
veggie
arson
arsen
fictional
trumpets
mechanical
crispy
cafeter
descended
additional
blended
bessie
erected
flattery
channels
analyt
veloc
shredded
converted
molasses
inquire
amphibian
corruption
lemonade
unawares
extracted
glamour
hissed
monarchs
klutz
wailing
ajar
oozing
microscope
agnostic
restaurants
brunette
cynical
appetite
attorneys
embryo
capitals
unhappy
nabbed
therapy
immersed
chromosomes
wiped
maneu
membrane
cumul
nephews
airline
bakery
lyrics
asthma
drenched
knuckles
incessantly
occupation
intertwined
ingenious
atrocious
kidnapped
interpret
deliberate
hilarious
dexter
vatican
artificial
norwegian
colossal
laptop
svelte
reindeer
pretense
entrepreneur
aig
bally
bids
bashed
cf
cus
citys
dudes
dagger
ebb
ether
fain
fag
gol
gps
gyr
jus
jess
jib
jugg
jester
jenny
kos
kra
lures
lager
mow
moles
nets
oaks
overe
pell
poth
pav
porr
rind
ruff
tb
tul
tents
tai
veter
vogue
wy
wails
xrays
yew
##lived
##din
##opping
##iks
##iates
##iative
##iples
##nest
##nings
##named
##card
##auth
##take
##tures
##rug
##went
##wig
##hap
##hands
##pots
##uld
##bies
##bug
##bane
##xus
##vag
##vens
##far
thine
##inse
##inary
seized
##atis
##onant
##orable
##enance
##inging
toots
##itud
inquis
##lement
##alg
##alid
##alous
##usa
ons
shimm
shifts
stere
stig
##idi
##idays
forge
##aman
##americ
asy
ascent
chame
chink
chute
chiff
chests
chunks
chedd
weaving
##enta
rend
soars
friv
frock
noting
##ilk
##sey
##sequ
images
atone
allig
##antes
##rians
spills
hazy
##think
plaid
plasma
blithe
capped
whatcha
cana
canines
cland
trink
traced
trunks
lends
exting
cray
floo
flann
cones
congen
##andals
##abase
pric
codd
coating
outcomes
abj
quid
quilt
quipped
boos
scall
scans
scoot
##assy
##agu
##placed
##ifi
enra
proct
proving
dross
drummer
drunks
calligraph
unsh
##iptic
therein
guitars
sled
poppy
##ogs
##ogens
howard
agar
##ango
emerald
moe
moot
cheats
shoulda
carter
dix
diat
pecs
##uba
cantank
sked
keats
idi
peruse
##teenth
##ucking
playwright
hopping
##augh
seeming
resin
longest
endlessly
##ermen
barium
attitudes
curving
curios
helluva
parted
partly
namely
##ushi
graze
tripe
assail
sweeps
meanwhile
harden
remed
defiant
creams
##otta
antin
lasted
reduces
faraway
drear
runners
handling
craved
lims
broach
heartbeat
nearer
reliable
homemade
setter
distaste
district
burly
fishy
article
erased
inde
warrant
warfare
devot
supports
striped
##manned
extraction
larg
deepfried
wince
concave
excused
##prone
sunset
mining
ministers
pointy
##eship
##eshaped
invaders
evade
synt
fooling
greenish
vegan
maize
maestro
beauties
madder
childrens
##heim
entit
interred
annie
cowp
baltim
powd
##ylike
constit
construe
dispatched
misbeh
achilles
sixth
visited
roommate
booed
clothed
dinosaurs
straighten
replacement
smelled
archer
despond
breathless
breathtaking
satin
drawl
drawings
geoff
geometry
catcher
voil
revise
fixation
mistook
donation
donna
lifelong
workshop
poster
palin
##keyed
beeh
designing
pubs
massage
scramb
##apple
honors
iris
irons
irrational
risks
effectively
wheed
charmed
renaiss
lieuten
defending
thicken
grope
ensuring
##anais
##guing
sorted
responds
swells
dimwitted
destiny
encomp
bucking
britains
tonguet
audi
gardening
dangle
symp
spiral
utility
expressing
fluores
fortress
cocktails
nutty
frightful
pinched
pursuits
neckl
ashore
##etype
gallons
albania
muddle
deceived
conceit
cursing
philipp
achieving
statistic
euros
boutique
touring
contrarian
##strong
innate
innoc
grinning
quitter
spaniel
benefit
benefits
brews
bugle
poetrys
publicity
textbooks
embraces
sedate
superst
mortgage
surfaces
recalls
governor
codger
debtor
catholics
##breasted
contracts
bumper
reacted
referring
mentally
tearing
currently
empir
bursts
submer
inhabit
anapests
emptied
folds
conceptual
imagined
caviar
printing
unwanted
egos
pierce
regarded
regardless
departure
caca
##points
bacteri
suspense
owls
pitiful
##hopping
mobile
possessions
censor
economic
stalls
lewis
marsha
maple
bearded
##burst
companies
crawling
caesars
relationships
trailer
##holders
ardent
murderous
loathe
pertains
sculpture
otto
witnessed
sherry
arsenic
shifted
abbott
##iliary
simplicity
rosy
apostroph
dictator
proclaims
vermouth
wiggle
fancies
explosion
lambs
sequence
perceived
clerical
convex
abysmal
transmission
fragrance
mathematical
larva
puncture
bourgeois
electronic
ooze
transformed
sundays
hazard
decrease
wrestling
arboreal
wielding
sermons
screech
republican
giraffe
larder
disconcert
faye
##ozoic
cavalry
cavalier
consonants
paradise
masculine
miserable
escaping
dignified
bracket
margaret
detractors
saucy
ferocious
enslaved
yorks
quirky
pimples
deciduous
discontent
apricot
hurricane
ennui
pheasant
nineteen
##planned
eroded
caustic
percussion
harangue
battalions
asbestos
resplendent
camouflage
nieces
unlawful
portuguese
hambur
velocity
porridge
chamele
cantankerous
renaissance
avert
bd
bribes
cen
cay
cain
corm
citing
dote
ee
eer
ferm
fines
fusion
gable
gord
gimm
gosp
gawk
hamp
hier
hacked
hoof
hmm
jenn
jammed
kvet
kansas
lan
licks
lasc
luminous
mints
mabel
nast
natch
natter
nooks
oars
pom
pare
poul
rene
sot
silt
tat
uter
wot
wade
wowed
wien
wurst
yar
yoke
##lics
##des
##dings
##dock
##nor
##cal
##cale
##crew
##tow
##tos
##tys
##eenth
##rs
##yx
##wow
##wart
##worn
##hamm
##pace
##bub
##brain
##kh
##kill
##vre
##vah
##fur
##food
##erds
##requ
##onial
##onomy
##oran
##orrect
##isance
##enas
##enne
##ingo
##arg
tock
whips
##icat
##icose
##icial
##lexic
##utt
##alia
##aca
##acas
##aya
beel
shamed
shaving
shaky
stashed
stagger
healed
isa
##urus
##uration
forte
##chn
##kees
chants
anise
deign
##cels
frayed
frilly
franais
##usted
orb
orient
orbits
neer
spong
spons
spouses
##estine
##estone
haught
##thro
noct
noahs
plush
sable
suicide
##oled
blather
blimp
##istas
##ulum
caprice
cloy
trashed
traded
trinity
lever
##ardy
likewise
cranks
cong
##ando
bras
brooks
##abbit
prune
pristine
coppers
arra
grac
gritty
upl
quarre
boister
disple
scri
sciss
scroll
scribe
adh
adhes
##aceae
##agen
loos
twitter
ammo
##ifl
enam
enfor
##reated
caller
unz
unle
unbe
unatt
unwell
unending
bucc
guv
slough
slav
slows
wherein
##oglyph
jokin
newf
teas
teasing
agitation
aggreg
downright
##clusion
thinkin
##ossessed
prevention
skipped
cleopat
glazed
percept
compares
compuls
comprom
components
speck
sno
snicker
strung
hoist
afoot
##peck
resound
endow
bary
expel
explet
expanse
curd
highlands
assa
assumes
bigot
##ymoon
marys
mariju
teller
decayed
##irds
##inesis
antiques
committing
commotion
lighten
passenger
impure
impulse
impatient
dougl
godaw
airborne
wordsmith
drapes
draped
craz
sweetness
brock
heartless
brands
instantly
##versed
##xtrous
trauma
homework
souffl
##zzi
recon
fisherman
articles
undergo
calib
indirect
purpl
foodst
subdue
rested
sleazy
sadd
finch
lawns
salve
rhino
classified
deport
##ricate
##ricular
strauss
paralysis
northe
floppy
##obias
catap
flyer
termed
angus
anglo
##ophobe
humour
daunting
dazzling
staring
invested
invisible
wishin
believing
evolve
complement
blends
tyrant
undress
windy
banjo
yearly
easier
interview
famine
pickles
cowl
woodland
woodwind
pennies
##olds
cooler
harps
constipation
disput
potions
potty
capers
dryer
solids
##eptic
##shot
despicable
cropper
promises
promotes
dealers
geology
prett
tighter
doncha
baggy
warmer
lifeless
bulldog
beech
epis
designers
embalm
ambide
ambitions
doubleb
verge
prague
irres
causation
attackers
portrayed
dreamy
defeats
dreaded
##guess
deride
aha
summertime
sharply
bolder
secondhand
joyful
colorless
audible
melted
melanch
chairman
parking
boarding
yea
franken
frankie
almonds
grips
appealed
femme
danes
busting
rotting
mutton
historys
simps
gallop
acrid
unclean
uncool
uncertain
##arianism
muddled
gleams
virility
ghana
aerob
bunnies
whiskers
tracking
receives
philology
euro
cultiv
vanqu
photographer
eccles
viking
insisting
insistence
auld
athens
africas
chocolates
enterpr
brushing
screwy
murky
mickey
contraction
squeezing
casks
casino
champions
deserts
ventured
tunnels
scrawl
scrawled
baa
villa
villains
alphab
inspected
inspecting
organization
investor
blondes
azure
dyslexic
energetic
steeple
crushing
challenging
criminals
egot
egad
mcd
temperatures
brio
russians
weighs
greeted
tavern
##osphere
abdomen
tango
boomer
drifting
libert
owes
rapid
sacrif
egyptians
stallion
coloured
admiring
ascetic
circumc
neurons
absorption
abhorrent
progressive
wicket
sewer
nucleus
crickets
database
adjusting
napole
wardrobe
clamor
allergy
characteristic
hospitals
pondered
corpus
persuade
festive
flirtatious
sherlock
warnings
hitched
panties
tremble
lapse
separation
simpler
cholester
lesions
##orrhea
relieved
oversized
assembled
subsc
ruthless
exhibition
tracts
assignment
sequel
nitrogen
engenders
biceps
stampede
##selling
aeol
esteemed
fascination
consecut
bimbo
bourbon
adorable
retirement
inherited
anemia
bernard
##fighting
advisor
dynamite
gratitude
unease
telephone
landscapes
mosquito
flattened
aliens
inhibit
lexicon
portraits
##obsessed
nudist
byebye
embarrassing
yoga
volcano
imbibe
maimed
eyelids
depravity
consequence
karl
comprehension
snarled
sugars
sugary
frenetic
rehearsed
dulc
chisel
anagram
turkish
initial
boulder
vectors
stifle
aphrodite
abacus
nightmare
divorced
mischief
brussels
cindere
caboose
acquisition
pavement
eyebrows
canyon
duchess
rapport
cancelled
ambulance
olymp
abreast
armadillo
parliament
confederate
flimsy
skittish
##walks
strolin
foliage
persevere
proverbial
belligerent
undersea
douglas
aaa
bt
bj
bact
bors
bism
bosh
catherine
doss
dork
fj
gil
gop
gong
gash
gaff
hans
humm
hasty
jol
jills
jama
josh
janes
junction
kook
kinky
ls
lact
lash
lye
lengths
miam
og
ou
omen
pm
poof
pints
panda
raves
rites
rinse
ses
sous
tamed
tah
tern
tiff
tours
trod
vas
vino
wi
wes
wann
wisc
wavy
##dal
##date
##opp
##iard
##name
##nets
##nik
##gt
##cos
##cant
##cule
##tob
##eas
##eard
##race
##rots
##winded
##hic
##haw
##hundred
##pur
##pants
##mys
##mens
##melling
##masters
##bus
##bud
##fu
##fry
##felt
theore
##erian
##oure
##atio
##eda
##llen
##oni
##onn
##onaut
##aro
##aras
##arous
##ito
andrew
whoo
##icos
##icits
##icrous
##otically
##otroph
##utch
##etr
beets
beacon
##aday
##addled
shifting
shorth
shtick
stating
heating
##urist
##idate
##idium
withered
withstand
##illary
chary
chained
champs
chilling
chasm
weath
dears
decked
##imeter
reun
recept
soiled
soils
frills
freds
fruity
liv
notorious
necr
spears
spurs
spurred
spilling
##thes
##there
herman
sud
blob
##opus
##optery
cables
canv
##stead
##struct
##stream
clang
clasp
leaking
leuke
byz
feasts
##igration
##ardi
crin
crom
crot
criss
crump
crimp
flur
flops
##andered
bray
brunch
##abi
prattle
alan
alve
coed
coil
coated
coerc
grins
uphe
quas
quoted
bohem
disen
disks
disinter
advers
##ections
##assic
loll
loam
loch
looms
twiddle
tweed
##plitting
aman
##ifully
swag
enable
props
drows
drills
##ortune
unearth
manly
managers
bux
buffer
slit
sliding
slicing
thrush
thromb
polly
oldtime
daytime
teap
agog
downy
##phr
shouldve
caramel
diab
dipped
preco
skim
skates
cleave
glas
glade
##lesque
idyll
perky
perception
##ndered
snoop
snatched
intimate
##armed
##order
resur
reserved
##rainer
foots
heady
nevermore
##encephal
barter
barbs
barney
attained
expands
curds
partial
overl
insuff
surve
helmet
tryin
##eworm
nighttime
belize
crep
delivers
seren
lasts
addend
commas
commut
doug
consign
courting
blackberry
drake
drags
cravings
##neous
cola
fearless
relies
bragging
##lection
apoth
traff
traps
##occo
baller
recount
##dyd
befriend
demonic
demurred
artwork
articulate
ermine
exploding
indiv
indec
##bbling
divul
devast
devote
countenance
##velops
viewpoint
shortage
shortlived
##grow
classed
deprec
extension
detach
detailed
turds
##azing
avid
avoids
pasty
halo
topics
catac
generate
horrors
brightness
register
bios
efficient
dazzle
starry
evils
syd
professed
eyeball
forged
schooling
bleu
mais
typh
##boats
goldfish
bowler
astounds
eases
easing
interrupt
cowork
balder
compliment
forebod
harness
patently
dispose
misgu
mediter
capacity
marking
ceaseless
booby
archie
fitter
debates
croat
crochet
ignores
untold
pretentious
candor
candies
nero
spotty
copious
morsel
courtesy
basically
posit
countered
covert
covering
furrow
uran
bloat
bankers
climber
hybrid
elev
avoided
reno
weighty
propel
propert
pricey
breech
derri
derided
dismem
connois
cardinals
sensed
carts
camping
panned
naturally
suitably
twentyfive
dukes
employer
employing
savior
ferr
##bodied
unsung
ticking
gripping
plateau
robber
##ruits
hostess
histr
histor
recording
lunches
punish
supported
fabrics
considering
linking
pitches
conceived
chewy
##ometric
predicts
calmly
contrac
vanity
##oscopes
austin
moody
carpets
botch
dragons
flashy
correctly
services
cherub
motors
athen
prosaic
chiefs
venge
cruising
fetching
toothless
brassiere
barbers
samuel
dubya
inspiring
smoothly
suspects
relaxed
suckers
extravag
timbers
regrett
bumpy
reacts
bravely
abstraction
##ocracy
miracle
bitchin
shuns
addressing
traditions
citation
##forward
developing
homer
etched
dysfunction
texts
claus
unwilling
bastards
blighted
diagnosed
hatchet
guarantees
marshal
prescriptions
maintaining
bawd
michelle
bunches
sodium
wheezing
pretending
materials
hindu
shrieks
hauling
nicer
racial
raven
chlorine
expanded
##uncture
blushing
##oplasty
##oplasm
predictions
fractions
philosophy
automobile
troublesome
##falls
##icitous
enchanting
intrud
fido
##ablishment
doubly
fulfilled
earliest
patches
assembly
dominion
linguistic
democrat
exhibits
oysters
spurious
defective
johnson
siblings
fragility
##ophagous
oblique
multiply
hippie
siamese
cramped
baptism
socket
astronomer
porch
cobalt
recline
##wrought
alpine
blacksmith
julie
embryos
gadgets
mishap
misheard
extraneous
##flowers
insulted
##conscious
bristol
orchestras
shepherds
toxin
whistles
stumped
butchers
resource
lodge
apprehension
honeymoon
displaced
abolish
unnerved
vector
tussle
antennae
centuries
disheart
seafood
catastroph
mathematician
travails
dishonest
voyage
beseech
ludicrous
ounce
recoil
guidance
ingredients
ausp
pioneer
invective
feckless
impossible
accompan
vintage
aboriginal
kangaroo
##effect
spontaneous
accustomed
malaysia
trombone
bailey
cruelly
benjamin
asparagus
wondrous
broccoli
##ofthemill
clandestine
baltimore
haughty
godawful
cinderella
wannabe
wiscons
connoisse
aort
aure
buss
bier
cc
cp
cis
dn
das
dimple
fined
feral
gw
giz
gild
hater
hoops
ib
jive
jost
jee
jiff
jerse
limes
lute
lisp
lashes
mam
mids
mills
merg
mamas
noodle
nappy
obe
pis
pau
pug
pimp
raced
ripp
rasc
rugs
roused
sord
sals
simmer
sushi
tarts
trophy
vim
vind
vulture
wuz
xx
yelps
yelp
zed
zany
##lies
##lah
##dler
##drew
##oi
##oco
##oken
##iated
##iams
##gressed
##city
##cery
##crow
##cils
##tt
##rat
##were
##waters
##hound
##pour
##mit
##mail
##bush
##bread
##bler
##bags
##ko
##kas
##kate
##vant
##vies
##vins
##viate
##vania
##fifty
thail
thunk
##atas
##atum
##ndo
##onent
##orh
##orize
##isor
##itosis
inward
whered
##omon
##omething
##icuous
##otrop
##otype
##owered
##utations
##eton
##etter
##etts
##aloo
##alian
##acial
shilling
shifty
stalled
stammer
myopic
##urf
withdrew
##illions
chape
anon
welf
weaver
deod
dewe
delete
dehyd
##entimes
rears
reigned
recoll
sox
sobbed
##role
##rove
##roint
atw
alluring
##rium
arena
spock
spank
sparse
##esthe
##umatic
##geal
nond
nodd
plast
plaint
plums
##ppa
##ainly
dogged
sauces
##olph
##elic
##elcome
blam
blust
blisters
##opoly
cauld
cancan
willy
sheila
clinton
byron
fey
exalt
goy
gogh
gobble
conical
##andering
brambles
##abil
coher
nows
aris
aroun
##elli
gruel
grumbled
abel
disav
disney
discharge
adon
##aginous
lox
usa
user
twine
twig
amps
amuck
amok
##ifiable
swank
swears
ency
encephal
##ivable
unions
ungl
uncovered
##ipate
##quat
smir
smelt
robbing
moreover
aced
acumen
sliver
slacks
ponds
pods
mayo
mayonna
oldest
jove
offended
##rypt
##phen
##ethey
writh
wright
##ittingly
diac
diapers
diagonal
peeling
pebbles
sinus
preached
##aires
firs
perp
compend
##erto
hobo
aficion
resume
longwinded
contusion
fonder
endings
barack
barks
##orman
grabs
assim
sweats
helpless
##anca
bothered
marian
maria
gren
decipher
remiss
defra
##otters
##coated
adder
commute
redeem
impass
impunity
repast
reproach
runofthemill
handc
handled
elim
elab
elicit
steamed
steven
freaking
##neck
dearie
hearth
missions
trepid
corinth
paycheck
ballot
distort
recite
recession
artif
esther
indign
indiff
formula
behead
babel
sadie
studs
damsel
salon
shorten
##grounds
##growing
rhin
extinction
larks
detached
turks
strapped
aval
parach
parrots
norway
##obl
incense
billing
presum
armchair
minions
biochem
biopsy
sprint
sprinkle
opaque
waiters
efferves
angling
angler
humorous
invo
evap
evangel
##deal
veil
mauled
tyr
observing
sidewalk
entra
yearned
interf
annette
##playing
bali
cirrh
##ylvania
patty
patrick
constrain
disperse
disposition
##eseen
capac
messages
##ooned
teachings
budding
solvent
situations
visual
arches
despised
fitness
listing
debased
maggie
christopher
silic
silken
milking
ignition
romes
specim
filth
geography
cornuc
tighten
southe
benny
wilde
##lov
##loved
troupe
palind
##aea
spellings
furth
urgin
emboss
truthful
scrotum
huh
papal
susan
honored
smokers
locate
sandals
propag
ensues
garg
garner
garments
taller
fanatical
dimensions
campfire
encumber
buckets
rube
trickle
dentists
joyce
bodice
pauls
perfected
harmful
melody
jeep
objected
estates
languages
practically
boarder
sighing
##ritus
incline
twentyone
counterfeit
juven
savory
##ascular
besp
besotted
tickled
grizz
miller
accountants
robes
robins
computing
puzzles
animation
luncheon
skillful
packet
rudely
brandnew
reporting
anthrac
predator
amongst
aerodyn
philip
reborn
acquies
##inois
questioned
pillage
exhort
literal
improper
austen
thankful
bulging
swearing
##ollar
viable
whatevers
repeating
cubs
strains
stormy
aqua
aquarium
venue
matrix
competitors
louie
seaside
rowing
bottomless
baskets
cosmetics
scraps
hollered
convicted
errant
teenager
inspector
tearful
switching
traders
bloomers
gentlemen
informal
gangs
printers
energys
shrinks
sensational
riders
fronds
martyr
martini
beckon
chromat
steadily
steadfast
snacking
resembling
hacker
grossly
ribbons
lipstick
aphids
##onyms
religions
abdomin
libation
liberty
##osterone
census
carniv
puffed
dependent
affluent
ascension
eucl
euphem
marshmall
struggles
splendor
abhorred
##downs
##burgh
improvement
railway
ceramics
forbear
charlat
clinch
rhythms
demonst
##oiselle
lizards
extending
alcoholic
museums
lyric
ott
shameless
generals
mechanics
corpses
squirrels
mourning
prophets
culp
gambler
fractured
bartender
dabble
choler
discreetly
##inchief
hooves
licked
virtues
virtual
assemble
allegiance
fancied
sloven
persistent
browse
santas
carbons
cruddy
pistons
premature
ducts
coroner
syndromes
desperately
nicknamed
sustained
ailment
cussed
slurp
nibbling
transformation
chords
grandfathers
villainous
cigarettes
abundance
alfred
decreased
gushed
activities
corset
scraping
flatten
nasa
##rified
scorned
aristocr
sobri
moderate
navel
retriever
crustaceans
unlucky
diplomat
apocaly
flunked
abruptly
verdict
##powered
avenue
hickory
pithy
narciss
hysteria
novice
sultan
combustion
laurel
giants
travelled
gothic
sprawl
amoeb
avocado
penguin
penguins
bagel
girdle
perspire
ambassador
##country
appellation
desirous
cremation
erudite
scarcely
igneous
ritual
aggravation
authentic
doeuvres
pesky
dejected
plunged
blatant
contagious
demonstrate
chortle
florence
abrasive
cellulose
earthquake
propriety
fifties
immortal
reruns
clergy
erosion
aggrieved
scenery
grecian
burdens
chauffeur
besmirch
begrudge
dalmatian
couture
kiwi
mnem
adequate
phlegm
blackandwhite
eskimo
efficacious
ostrich
unruly
carcass
archimedes
##achiever
glucose
pernicious
rebellion
kosher
largesse
syntax
scrambled
quarrels
boisterous
consecutive
upheav
glasgow
mediterranean
avers
bam
boud
bitters
cinder
dirk
eul
euth
eased
fos
fife
farted
gail
gunk
han
hart
hib
hilt
hester
iced
igu
kap
lint
lanc
latt
loun
lugg
lotto
mott
midd
mounds
mowing
nou
nuff
nether
oe
ole
py
pong
pics
pours
peps
puddle
rs
rah
riled
ritz
ragged
surn
taps
ure
viz
vern
yay
yam
yod
zit
##lie
##dep
##oirs
##ioux
##too
##rades
##rato
##ych
##wer
##hall
##hoe
##pay
##post
##pool
##ports
##metic
##uj
##uette
##bil
##bri
##both
##bark
##vol
##vised
##vils
##viet
##fruit
thither
##inus
##esian
sean
seth
##edged
##reuse
##llis
##onne
##eny
##enza
##arney
##itan
##itrant
input
inlaws
whores
whizz
##omys
##icans
##icip
##icillin
##otas
##otine
##otax
##otropic
##ali
##alism
##usively
onet
sheds
sten
stam
hep
heft
heaped
##ithee
forfe
foresh
asthen
##ooh
chen
chas
chard
chaw
chug
chaf
chipped
chih
cheney
anor
anesthesia
weaves
dell
deans
deity
deuce
deacon
##entials
reeds
reaper
rewr
soviet
##erson
meow
frazz
liable
lizzie
wasp
##rax
ordeal
##iline
##sea
neon
nels
spel
spans
spilt
spinal
spades
spheres
##estr
##establishment
haven
##gey
heron
noggin
doin
##olin
##olia
##eles
##elph
bligh
blasts
blotto
##atee
##opot
##opian
caud
caber
clans
climes
clicks
clumps
tres
leo
byr
feathery
crone
cronies
flue
##andp
##ousal
prithee
kno
knelt
kneeling
copp
coex
outward
outermost
arty
grating
abed
abuses
disent
dislike
disaff
scow
scint
scares
loosed
loading
loosen
##othy
twoth
twigs
amorph
##ifix
swapping
swirled
enrolled
drat
drudge
##ipede
##quin
manusc
buggy
acl
acorn
##avin
slurs
slosh
sludge
throttle
poked
poached
howled
wording
teem
agin
agile
agency
needless
cheet
cheque
##cloud
diary
diagr
dixie
##ensis
cantal
prel
skipping
goodwill
perpend
compart
compost
compress
comprise
mucus
spewed
snare
hopped
intrig
intricate
resolute
betw
betters
endurance
##odies
barre
barny
attent
workplace
curric
partially
overre
overcome
overwrought
highways
insides
lovemaking
asset
surpassed
surfeit
mares
decap
comely
youngest
cutaneous
defies
defenses
delve
funnel
anted
antil
antich
antics
confound
addle
commode
planks
reducing
passers
leftover
readings
##oyant
handmade
blackened
crabby
beget
begone
begonia
steves
freaks
bedtime
turner
apathy
misses
##aha
##ahu
corned
soups
distrust
befuddle
burr
burlesque
shoppers
esth
birdie
metall
divides
format
warp
subsequ
edition
behest
baba
finale
finances
wednes
weddings
lawrence
discol
extrac
larry
larval
##unters
pasture
halitosis
##ielding
winners
concurred
treaty
treatise
excret
persists
##ammers
incident
brightest
bellowed
bikes
##undy
##unders
cyto
cybers
effem
angrily
humid
earthy
fairer
fairies
yellows
denise
veer
forgets
declaring
complet
obser
observes
childish
happiness
happening
windm
transc
quebec
astro
astring
astroph
annivers
annoys
slowing
harold
checkered
hurrah
mislaid
misplaced
castor
medals
capn
ceo
solving
visage
boohoo
arche
fitz
elections
labored
##renic
rockets
crocus
shrugs
chancell
autobi
promoting
equilib
browned
geologists
cornet
provider
misty
gala
tempers
morb
morocco
basal
posterior
tougher
urs
ambush
scramble
##ographically
##etted
bandw
ringo
persona
boundary
##ursed
circulation
freshman
shocker
droplets
defender
garment
immun
mounts
carton
campan
panacea
encroach
britann
shapely
cupid
dyn
pauses
butterflies
harmony
melons
latrine
trusty
batty
parker
dissu
dissolve
cheerfully
colleen
colleague
duet
duod
macho
spiro
princes
ferret
judgement
gripped
flighty
danas
crowns
performs
performers
##gency
albumin
albumen
uncons
steward
##iscop
pitched
##ienced
superfl
knocking
anthem
receiver
rebound
slightest
resulted
improves
bulgar
photons
ecology
rumble
benevolent
processes
resisting
plotting
variation
reflected
reflections
sediment
seductive
seedy
celtic
tonights
crafted
inspir
##ogeny
commanded
absolution
phelpses
timber
microw
##eroids
secretly
secretions
pedantic
chatting
coughed
tuna
dwelt
annoyance
heavyweight
##door
henrys
consuming
sneezes
belonged
##anthrop
investing
gentlemans
distressing
homo
etiqu
tapeworm
boasting
arabs
auger
augur
dunn
texting
ceremon
ridges
ghostly
marty
hunted
masks
pirou
unwelcome
chromatic
quietly
weighing
odors
omission
functional
skept
feverish
barnacles
flavorful
drifted
desserts
kenned
birthdays
pupils
chartreuse
egypts
malls
affecting
absorbed
prescribe
bubbling
coolly
sewage
molecular
espied
prompts
groaned
styx
adjustable
leadership
socialist
hemorr
drafted
hindi
shrieking
shrieked
stubble
thoroughbred
graduate
##locked
closest
allergies
bomber
minority
sculptor
sculptures
injury
vegetarian
festival
intelligence
witnesses
bunker
picass
pizzazz
leaping
trembled
culprit
vibration
quartet
entranced
philosophers
engagement
safari
drooling
intrusion
pacif
vexation
hanker
shakespearean
crucifix
persistence
marsup
converge
defects
ninetynine
fossilized
##built
nothin
aflutter
provoking
bovines
hammock
awarded
punctuation
clogs
elementary
ailur
injected
appendage
appendix
microscopic
lumberjack
stranded
dynamic
contrive
hymns
hazel
gorilla
activist
asteroid
amidst
glossy
nasal
identical
bikinis
mittens
therapist
aristot
outdoor
engendered
cinema
bristles
abeced
ammonia
uniforms
sieve
sulfur
deprived
retrieve
volcanic
##omorphic
surveyed
baffled
dolphins
lynn
physicist
cascade
aground
swirls
conference
wacky
incessant
roulette
bemoan
curvaceous
icky
vehicle
influence
frigid
astride
flirty
capricious
conspiracy
caucasian
virgins
riddled
zigz
chassis
amusement
gypsy
tranquil
independent
anglican
heinie
myrtle
amnesia
bureaucr
nettles
disjoint
assuage
responses
pyramid
bermuda
kudos
mermaid
flounder
bothersome
burgeoning
warrior
nautical
lecherous
arrears
afghan
degradation
spherical
treacherous
scrooge
altruistic
cafeteria
analytical
taiwan
##american
curiosity
devotee
entitled
encompass
necklace
submerged
hamburger
scissors
ambidextrous
miami
teapot
precocious
individ
sydney
contracept
jersey
thailand
welfare
interfere
gargant
manuscript
subsequent
aural
bn
bop
bidd
bards
biling
bival
bicker
bisexual
dink
dott
dimes
dams
daint
dyl
dither
dotted
ek
ez
eard
fars
fait
fume
fisc
gou
gurn
gathers
hulk
jut
jord
jude
kelp
kelly
lumb
laser
larynx
mia
mastic
mumbled
mingle
noo
oaf
pach
piv
pence
potted
pyth
ri
ruck
rating
siss
sipped
tay
tir
takin
tagged
udder
vandal
vamo
ware
waf
wider
yuck
yvette
zer
##lash
##oa
##iad
##iels
##gm
##gos
##gum
##gars
##gular
##gments
##tra
##tie
##tta
##rance
##rative
##ridden
##yse
##yled
##wares
##hum
##hild
##hounds
##pound
##pits
##pah
##packed
##pole
##pipe
##make
##mong
##mod
##bery
##fif
##zel
##zie
tho
thaw
thirt
##esan
seb
sewn
##atry
##ativeness
##rell
##orah
##isement
##anza
##ingue
##arly
##arth
##arried
##arthy
toile
topping
##asement
##assem
##icides
##icative
##leans
##alation
##alike
##acid
beige
##adas
stakes
steroids
heats
##ldsp
##oscent
forsw
##amins
chipp
chanced
chutz
anesth
##entry
soaps
sofas
frat
frugal
orleans
##iless
##roved
##rope
##roads
nein
neural
thisll
sputter
spelt
##esting
haunting
##thood
##thirst
pla
plod
pliable
dop
dozed
dodec
sapp
##olo
##elie
##elines
blest
blames
blurb
##ievous
##opr
willie
williams
##stro
##store
##stage
##stool
sheik
clack
trow
trish
trimmed
lease
leek
##inee
fend
feist
fender
##igans
##ardo
##arters
crouch
crested
crummy
crammed
flings
flail
flub
flank
flaps
flaky
flapping
congest
##andd
bront
##emer
##emat
##emark
##abra
prowl
ales
alger
coqu
coord
coordinate
whopping
whoosh
gras
grams
abal
ably
abashed
quaking
quizz
bozo
disse
disli
dissection
##ongued
scamp
scler
##aths
##athic
##ourt
##agos
##agra
##agogical
loco
loony
twee
amer
amyg
amalg
gettin
swipe
proff
progressed
unin
unab
manhood
##ichord
rog
bucol
guill
guise
illinois
acrop
whereby
joey
agron
offering
appal
emily
emission
moxie
cheaps
##inte
##ittles
diane
dioc
pees
pretends
skimp
skips
clevel
cleaver
glor
goodlooking
firing
idiotic
compel
##ocket
findings
snook
snitch
snob
strum
strata
hovel
hopper
hoyle
hocus
##arms
afri
phant
##people
longago
longdist
contends
##odate
headaches
founder
barf
##ibleness
attentive
herein
hereby
overrated
grail
earls
tribal
triangular
sweating
surplus
showered
marquis
marvell
greased
deco
decrep
chole
chopper
clearcut
creak
##coat
##itioned
##alem
addled
badge
commune
##inster
dries
##atedly
redress
accip
repart
readily
schiz
godf
##ultures
##attery
airt
handic
elk
elong
elvis
steered
freck
bedev
nearest
hearings
apoph
refract
missus
corv
corks
correl
freezer
souven
ballroom
distilled
distorted
recalc
befitting
burgh
artich
erg
erred
underwear
factions
muss
##erno
indones
mettle
affable
affright
affixed
warns
behaving
babbling
bloodthirst
daddys
finn
damasc
salami
##grad
##gram
squig
squared
classroom
depicted
##uesome
retract
##uther
menacing
##why
##wheel
parole
parcel
norse
floated
##print
catar
persians
generic
genital
incon
incur
incurred
incentive
incorrect
belles
bellies
preserves
flyers
armaged
biologists
soninlaw
angie
angular
##ophyll
tasting
humility
fairness
evry
condom
failures
skinner
forgiveness
doubtless
wallop
declaim
bleat
blender
tyke
undies
admitting
beauts
madonna
##notic
transpl
bowlers
astra
astaire
penns
construed
dispos
##enders
heavily
sixp
budwe
sitter
##ifted
##eye
senility
killers
replacing
despots
filler
descriptions
bossy
silently
romant
saturn
talkin
costumes
legions
splashed
revoir
cornish
cornered
darj
criteria
requiring
oklah
temples
meaningless
copied
basque
furt
meringue
embed
##wells
vera
hygi
smarty
footwear
bandy
smokin
combination
avoidance
meaty
circuits
pairing
proportions
thickly
blinded
blindness
neighboring
dreading
grocery
jackets
deranged
##century
dismant
sharpened
rubbing
dentures
paj
preposter
buttery
cheaply
##ritical
snowy
selfde
##emption
suitors
employers
employees
counterc
tuba
unspeak
ticked
bonk
##arrows
gentry
fortnight
##ensional
frighten
crowded
nonpl
rotund
stephen
masterful
radi
radar
supporters
fables
gallon
wetter
continents
branded
ghast
sheeps
aeros
##ervation
cursor
beastly
versa
photography
politician
drainage
spanned
benefic
##agnetic
processing
brewer
bentley
auf
varnish
servants
texture
psyche
shuttle
dolls
fete
toothp
celt
torrid
lustful
barbary
prizewinning
oxford
implored
disappears
essay
essentially
clockwise
fondue
fondness
creditors
ratings
contractions
travelers
binds
thrift
thrived
thriving
thrifty
##ika
measuring
cannab
discussions
bitching
##anthus
trader
flooded
freedoms
substitute
shoreline
operas
vainly
##uscular
reviewed
folding
constructing
gangsters
dunes
rented
jerome
hawking
terrorists
ninth
woolly
florist
typing
connecting
claust
routinely
particip
tortured
dedication
odious
hij
skeptic
steamy
privates
hubbys
##ospheres
sacs
pupil
chirop
possesses
astronomy
puffy
brilliance
bruises
colourful
affections
hypocr
enhances
navigation
thesaurus
preaching
farting
programming
mythology
piper
congressional
companions
prompted
semic
forestall
bridal
mountainous
clarinet
scanned
##steins
adjud
assertion
hemp
graduation
racist
scoffed
flavored
accidentally
quarterback
ravenous
##okinesis
vegetation
vegetables
dawning
pledged
fiercely
ova
conservation
aplenty
enlisted
settlers
vibrant
blurted
dictates
victorias
intrude
hooch
juniors
fulfilling
duds
hogs
assembl
courageous
ruddy
dominant
publisher
origin
draconian
perceives
fragments
sneaky
montana
conveying
cognoscent
peeping
deflate
deflated
conspicuous
##ophilia
##ophagus
clientele
absentee
baptized
californias
intestines
psalm
alkaline
##writer
contacts
astronomical
bernie
rattles
dandel
cobwe
abundantly
bhut
mollusks
distinguished
doggie
dispersed
cucumber
girly
##urgical
nobrainer
argentina
appraised
rampant
enlightened
muffet
commercials
consolation
vaginal
legends
reproduce
reproduction
mercury
yankees
deployed
acrobat
nixon
apprehensive
peanuts
glacial
ambiguity
apocry
##onalds
qualms
acclim
misleading
newspapers
tainted
trivia
brahms
sultry
explorer
martinis
tattooed
abolition
processed
inscription
boulders
lyrical
churlish
reptile
accommodate
foretell
astronauts
nauseous
antenna
mischievous
puppies
crocodile
lorry
rearrange
roosters
bagels
islamic
abuzz
depleted
entertainment
abbrevi
transgression
##catching
quantum
hairdo
ketch
pontiff
iambic
zoology
downstairs
consciousness
telescope
hottie
adjourn
municip
blanche
exorc
quixotic
unrestrained
caribbean
ceilings
psychiatrist
phenomenal
diphtheria
impeccable
russell
pneumonia
chateau
misconstr
aberdeen
maneuver
tulips
cheddar
apostrophes
compromise
purplish
mcdonalds
napoleon
borscht
fjord
necrosis
buxom
thrombosis
idyllic
resurrect
wisconsin
connoisseur
sordid
cauldron
mayonnaise
trepidation
juvenile
lounge
perpendicular
betwixt
passersby
gargantuan
chutzpah
longdistance
recalcitrant
hygiene
municipal
awn
aute
bw
bens
bays
cim
cumb
cune
cumin
dl
dion
dach
dune
dosh
dagn
ditz
dasy
doodle
eun
eaves
fop
fand
fide
fences
fauc
goop
gales
gays
gaud
gasket
hic
hots
hating
jason
jugs
jaunt
jingle
kits
kah
karma
lank
laz
mp
mire
morm
mired
masts
noodles
nazi
nathan
oar
pse
rio
raged
raved
sacks
sallys
tand
tile
tamp
vs
ves
vien
waking
watt
wily
xs
yess
yidd
zs
##lon
##len
##length
##doms
##oven
##ofl
##iose
##iatic
##iator
##iker
##nom
##nosis
##nothing
##groom
##cill
##cum
##cars
##cott
##cution
##cooked
##tale
##times
##earted
##rush
##ruff
##wick
##wait
##hour
##hops
##pents
##prop
##pric
##pocus
##qa
##bard
##bite
##bour
##base
##vana
##jacks
##fat
##fro
##fol
##zt
thames
##inia
##ouc
##oupe
##escend
seep
seattle
##aten
##atar
##ndown
##reas
##only
##onite
##orus
##orthy
##isl
##ingling
##ington
##arin
towed
##iters
##itations
androm
andean
inks
whacks
whipping
##omph
##legs
##utian
##aless
##algia
##aco
##usal
beamed
bequest
onus
##adic
shuff
shucks
shuffle
std
stork
stony
stagn
stilet
ist
##urers
##urbed
##iddy
##ithec
forks
wither
##chs
##chen
asph
asex
ches
chapp
chlam
weeps
dees
deade
##imer
##imbo
reeks
renders
##alls
meph
meager
frol
frater
fringe
orator
##ilas
negl
allen
##uncle
##uncular
spook
spire
spasms
##estible
hah
hairl
hapless
##tha
##than
##thalm
##gean
nois
plent
plied
plume
pluto
##ppe
##pps
doves
sauced
##ela
##astical
##aki
##istan
##istant
##ulated
canard
canopy
##step
clime
trades
leop
leeds
levy
feldsp
##igree
exult
croup
flam
coney
congo
britt
brunt
braced
##emn
prat
knitted
alto
aloe
comf
comrades
copped
##achron
outm
outland
outfits
arid
aromas
grates
gruesome
abrog
quark
quench
boils
sayings
disf
disast
scound
scrib
scads
adl
loaves
logger
loomed
lobes
uss
wouldbe
amin
amino
swat
swig
swamps
ench
enchants
drub
drilled
unhing
unho
unplanned
##quarter
manger
wellt
roars
acer
slush
poe
##imey
##ogether
##ogamous
jocks
teamm
emma
mond
everlasting
thinkers
dizz
diabol
##ensitive
##icals
skit
skys
skids
desm
glenn
backup
backbone
comport
muhamm
##ocking
##iana
snores
strad
phoned
philly
phoe
phoen
seemingly
resists
resorts
fodder
enduring
headlines
didd
##ignon
barons
attrition
graff
grazing
trio
trike
assailed
sweaters
##bees
##being
pained
decade
##eady
youngsters
hardened
hardworking
cuttle
clearance
belch
defunct
crepe
delux
deluded
delusions
antep
antiv
antio
addict
dribble
smallish
accede
reprie
afterno
##uple
farf
farth
deadbeat
ohio
handful
blackjack
sweeten
##never
bedside
bedazz
bedded
bedrooms
bedbugs
brokers
heartfelt
##cca
relic
relinqu
apo
##ucent
trailing
roundly
ballpark
hotels
recur
recital
recruits
drinker
burrit
fishermen
factual
shoved
infraction
infamous
bookb
induced
divin
wobble
wobbly
warren
warring
devoured
purred
countless
ladders
behalf
supposes
##ussy
salacious
##ummys
classify
deput
depict
deepest
detention
detox
detritus
absinth
quicken
parched
horatio
incont
monument
crosssection
tenness
tenacious
billys
regards
armored
biom
lotions
sprat
humps
humane
humpty
starved
evoke
denounce
denmark
condone
skinned
bleeds
blending
maur
typed
unden
madem
fasten
sidebys
##heet
##heart
##heeled
doctr
bann
banners
yearns
cookery
interference
compliant
circling
penning
rhymed
##ilted
hares
harried
##ylic
dogma
documents
cleanse
sellers
hurl
hurried
misde
plantation
##endous
tombs
capo
capuch
visible
##shield
agreeing
agreeable
archd
descript
croquet
autod
autocr
ignited
romp
satir
equine
secular
churchs
revived
corny
cornell
provisions
sirs
##licts
donned
donations
warms
critiqu
##meat
requests
temps
tempor
expectation
bottled
frenchmen
poses
posth
palp
coverage
furs
epile
epoch
eponymous
massed
scram
tiles
irks
oppress
oppressive
opportune
bandage
located
bounder
malcol
##uela
renamed
renounce
portal
portable
portrays
rancher
thicket
groin
ensured
derive
sorta
fanatics
##goers
summit
summation
degen
posture
encased
ruby
rubes
suffices
taxation
##flung
cosy
##zyg
physically
harms
harmonious
jeered
latitude
trustworthy
objections
estr
mouthful
facile
twentytwo
technician
businesses
besie
ticker
utens
wreak
fortun
##ecution
nonce
measurement
bushy
hookers
rotating
pushy
bombastic
axle
midair
##ofthe
continent
albino
stews
visitors
thirds
##iscus
remembr
ghou
custod
frowns
##ulsed
predicted
bungee
aspired
receipt
rebels
acquit
versed
tourn
boron
boris
rumours
botched
botox
##aijan
storming
superman
caveat
chinch
recalling
heightened
lusty
dubai
boliv
batterys
rushing
hillary
macd
##royce
amazingly
succeeding
strove
strode
pronoun
primord
frequency
frustrated
##worked
reactor
determin
psychic
definitive
pedant
##uvre
mentality
oftentimes
prevailed
errone
devilish
##formation
sneezed
##butt
releasing
feasting
scratches
attendant
attendance
exception
exceptional
fleshy
##ova
shyness
curtail
gnome
inhale
azerb
proofs
tapes
conception
buzzed
journeys
cords
jerus
proceeding
florid
connectic
clapping
clauses
marrying
opposition
opposites
civilized
polemic
communion
winks
welcoming
roofs
zebra
blinked
prevented
skewed
analges
cranberry
sumptuous
libel
##hopper
moldy
carnal
##matically
dependable
hypert
ascertain
canadas
execut
circumf
pumped
##rehensible
plucking
conjure
distinctions
echoes
oedilfs
oedilfers
strolls
strolling
cloister
baited
michel
moaning
unbelie
horrific
espy
espress
espouse
ceramic
styled
charlotte
datas
datum
diploma
zealous
capsule
ardour
lurking
asserted
warden
foggy
ankyl
waistline
gaul
gradually
loathing
racco
alleged
pooped
exceeding
characteristics
dormant
experienced
apex
rodeo
##velled
ramble
staining
predictable
prophetic
tremendous
academia
grievous
apostle
apostles
translate
rollsroyce
symptom
intrusive
##cream
hankyp
allegorical
assaulted
arkansas
distractions
democrats
irishman
applauded
publishing
thorny
gullet
sibling
disparate
disparity
numer
tipsy
liberation
##encies
stamped
cognition
prolong
##ophilic
mathematics
##seller
adorning
ignorance
napping
##mouthed
convenience
cushions
stalking
nukes
appointed
ailments
soso
scolding
deposits
contemptible
tattoos
##minute
cajole
uneasy
dictionary
chanting
gadget
gesture
bluer
betrothed
engraved
inhibition
oversexed
beggars
congrats
identity
##ocyst
recommended
encouraged
republicans
laconic
argentine
journalist
queries
daredev
outdone
atmospheres
rectangular
meadows
imbibing
consistent
columbus
plankton
rifles
glaciers
daffy
daffod
diplomacy
paradox
catalog
cylinder
dorsal
harbour
bambooz
boorish
narcotic
rehearsal
conferred
constitutional
lavish
enquired
ungainly
horizon
##rologist
destroys
fervently
enlarge
airplanes
restriction
pancake
contradiction
aesop
##between
orthodox
crosst
comparison
poohp
rearranged
contemplate
repetitive
irregular
haunted
strateg
daisies
tolerate
travail
acquaintance
##figure
chilean
bistro
dacry
pittance
clairv
flirting
aggrav
monstrous
bewitched
voltage
catalyst
irritation
cylindrical
asympt
spawned
cretaceous
corrosion
incompet
sylv
bacillus
yesterday
abuser
quibble
unrelated
overwhel
vertebr
circumspect
conniptions
orphan
cancerous
conventions
acrylic
ephemeral
waffle
detergent
producer
endeavour
enshrined
cuddly
korea
vassal
disbelief
nirvana
alibi
preparation
##animous
overex
alligator
blithely
extinguish
flannel
wheedle
gordon
gimmick
lascivious
yarns
beelze
cleopatra
marijuana
vanquish
boomerang
lsd
whoopee
sudan
crisscross
flurry
balderdash
misguided
ferrari
dewey
blameless
disavow
unglued
entrails
cirrhosis
cornucopia
upheaval
luggage
chihu
barnyard
wednesday
etiquette
kennedy
dylan
toilets
cheapskate
hocuspocus
marvellous
repartee
darjeeling
preposterous
ghastly
pseud
tandem
##priced
muhammad
deluxe
azerbaijan
ave
aene
aided
bough
bans
bide
bav
billed
baud
batters
cj
ces
cib
cten
casing
deth
dats
dene
dante
euc
ebon
fom
ful
fard
fives
gill
gand
gase
gizzard
hacks
iii
jams
jitters
jih
jagged
kle
lill
lich
lang
lah
lait
laces
lama
lanes
mt
moust
mules
mmm
nich
nuth
nettle
oc
oasis
ping
pash
ports
qed
rouse
rages
rauc
sere
sart
sips
simm
tits
tars
tuff
teds
tsh
taff
tizzy
ub
vinc
vlad
viper
wren
yang
yale
zoos
##lay
##lore
##loss
##laced
##lims
##dig
##dong
##dead
##oad
##ocl
##opped
##oever
##ocephal
##iably
##gas
##gots
##gingly
##cro
##cous
##cia
##cents
##caps
##coms
##casts
##course
##tte
##tod
##eb
##run
##rists
##wy
##wrapped
##hu
##hou
##hon
##hol
##have
##hung
##pate
##pod
##paid
##pox
##marks
##uble
##uence
##uates
##blo
##baked
##bucks
##fires
##finding
##zan
##zilla
tha
##inness
##erp
##erity
seer
seating
sewed
segment
seething
##atri
##atist
##atrix
##ediate
##lli
##llum
##llite
##onet
##ori
##isia
##arb
tol
topple
##itory
yous
intends
inbetween
whines
wholes
whiter
##lear
##level
##otive
##oward
##utters
##utche
##etal
##alom
##alty
##alds
##acia
bej
beings
##adian
shush
stint
stature
stowed
##urin
##idine
##irus
##ldt
##ospor
forfeit
##amines
##chus
##chuck
chanc
churned
anis
anore
anothers
debb
demented
deception
##iming
##imeters
##imensional
reception
meld
mels
meander
frau
##usts
##raging
oracle
##ilion
##ilize
nev
neil
necess
allnight
##anti
##unty
spake
spud
spits
##estinal
haph
harem
haunts
##umer
##thal
##thorn
heros
heretical
node
plotted
plugged
dodo
dolor
blanks
blazed
blarney
blimey
##uli
##opods
caver
caved
willin
##staff
clots
clips
clustered
tru
truce
leer
leger
fez
crist
crink
crates
crony
crutch
flit
flax
flips
flashed
flanks
flacc
##owness
##ande
brooch
##emon
##abad
pranks
compt
cove
coif
coiff
outa
outback
##ishoo
##inked
gris
grits
grange
grump
##ooking
aborted
uphill
quen
##udent
disuse
disob
disrep
disorgan
adver
adumb
adolf
##agic
##agons
lobe
##otherm
twelf
twaddle
twinkle
##ploid
amort
getup
swive
swans
swede
enabled
progen
druthers
callow
unqu
unche
unmanned
##ipus
##iparous
##uretic
manna
mangle
smold
wellbred
roams
roaches
buge
guiding
guinness
illum
##eared
acme
acroph
acorns
slum
slaught
slither
slipper
slavery
thrice
poach
pokes
popping
poisons
wordy
offhand
offends
downcast
appended
emu
emits
emetic
eminent
emissions
moi
mobs
mocks
##ethis
##cler
carbs
carmen
diap
pend
peered
pegs
pending
##feed
sinning
##enser
##ensiveness
cantor
preh
cleo
clef
clement
kev
breads
breached
brevity
glimmer
##izen
perusing
compression
mugged
mugger
thanked
##iances
spewing
snickers
musty
hoff
hoots
##avement
phew
resolution
longterm
##umbing
foundations
barring
barrac
##also
expos
bested
overth
overblown
keeper
##iality
insom
eyew
assures
assists
assurance
##been
##beats
##beating
marri
marbles
margin
nightcl
hardest
cuter
choppers
choosy
belg
belgian
deficiency
cren
crease
antagon
eaters
confounded
commences
commerce
lighthouse
passive
##attack
accol
reprise
repulsive
caret
schlock
farflung
awards
els
lima
freaked
bedlam
colic
colomb
brags
apop
##xtap
corb
cores
coroll
roundabout
##ocal
recre
collie
colloqu
demi
burt
explicit
muses
muslims
fallacious
shopped
kindle
ester
infants
infirm
infrequ
calv
calves
formally
##bright
wove
woken
subvers
restrained
eddy
edgy
editing
##ussian
babyl
strippers
haircut
sleet
dammit
salary
saloon
shortened
##ieres
squire
discons
discrim
classics
classmate
depiction
depicts
turkeys
absinthe
quickness
fighters
linear
parity
parades
winston
brainy
concession
##obacter
excus
excrete
fourletter
catat
persever
breakdown
genie
genetics
incite
tenant
billow
preserving
regain
armies
gavel
mince
biker
sprang
polo
cypr
cyrus
darken
effete
##ophore
##cedes
earthen
daub
starfish
petrole
wrongs
##defined
denim
greenery
condo
condensed
unduly
undeter
limeric
sideways
winding
##byes
territ
transplant
bowing
astrolog
walker
annas
annel
annul
announ
pickin
##rette
raisin
woodwork
baltic
balancing
complacent
penicillin
foreman
foregone
##gerys
felons
harassed
checkout
numbing
dispir
misfort
pottery
prays
capacious
sixties
solace
##ships
straightforward
protons
protested
despot
debit
filly
croiss
shrugged
milks
##orescence
equiv
equestrian
legally
centipede
browning
motherinlaw
voll
revolt
fixin
donate
donkeys
baguette
critically
##rology
##archy
moronic
morgue
morris
bullies
courtroom
##loads
##loading
palat
counse
directs
boxed
rollers
mercedes
banking
climates
climax
hugging
smartest
trainer
elevation
honcho
butters
brokendown
malaria
breadth
captures
sandra
weighted
blockage
surprisingly
propitious
thickens
blindly
sorrows
##atorial
neatness
enscon
jackie
valves
valued
breeches
immunity
immediate
berated
##blance
##blank
sensing
germany
summoned
memorial
hateful
campbell
britons
rubs
taxing
pinks
pinkish
secondrate
aunties
escal
ducky
ducking
shipment
unfor
confessing
auditor
practicing
boarded
facade
facets
stockings
dutiful
##biting
juxtap
stopper
unsightly
bona
expresses
followers
fluor
femur
robotic
divinely
frightfully
bombing
threatens
threatening
recordings
##oface
galls
gallery
apartments
pitching
shopl
##iquitous
reported
predicting
aeropl
whispers
remaining
rebuffed
versions
walnut
briefs
eclectic
peeved
cabal
scheming
logics
presentation
polluted
poetical
towels
motel
disgrunt
reflecting
cuba
embracing
chinas
networks
heedless
filming
severed
batteries
ideally
stirs
commanding
primed
removes
amphip
ethi
ethics
civility
rabid
basso
bordello
caspian
probation
determines
psychologist
glower
pedestrian
padding
padded
##uvium
falsely
hollers
##ochond
convicts
##formed
heroin
teenage
releases
organized
forthwith
empress
substances
submarine
cincin
##ovs
##forth
selections
sparked
gnat
gnats
fussy
fussed
constructive
temptations
augmented
celeb
maintained
arthropod
supplying
seasoned
gravely
pearly
exacting
ninete
martian
martial
##carbon
royals
vinegars
eggh
hacking
detector
mysteries
thirtytwo
anchov
magnets
deduced
odes
omitted
tapping
privile
privacy
chafe
crani
cranium
diagnose
##yderm
roasting
##hoppers
ablution
possessing
stingy
stinging
puffs
puffing
##matode
permitted
digestive
chopsticks
defenders
thespian
conjunct
##urban
bubbly
strolled
mystics
prisoners
affords
railroad
decorate
wheezes
prosecution
crawls
elliptic
chimneys
polyg
acetab
akimbo
tanning
spiteful
campaigning
arduous
jellyfish
ditches
adjut
adjacent
dodging
drafts
hinder
hindus
loathsome
furnished
thirsty
gemstone
disagrees
bilge
annex
exceeded
aweigh
##ocentric
dormouse
tornado
sculpted
injure
deplorable
persuaded
persuasive
crippled
arrangements
gourm
clinging
bosoms
disorders
scented
##oplast
dinghy
shields
vitality
trembling
vibe
adopting
tsar
tsun
upperclass
blurry
unsteady
diffuse
enchanted
unpaid
##creation
doubting
membership
valleys
placement
rudeness
feminist
linguist
webster
imbued
limbaugh
octo
##person
sketched
sorrowful
rangers
exclude
exclusive
shanty
imperfect
harvesting
leisurely
bipart
miguel
migraine
baptist
atheists
swooned
gastroint
gaggle
bundles
euphoria
vapour
endorsement
##hhhh
sundry
deterred
deterrent
mollusc
calamity
scraped
wrestle
strutting
deference
conscient
congrat
##ocyte
bountiful
malignant
sandwiches
appraisal
ammonium
embarked
siege
tidy
yogi
smeared
cartoonist
lloyd
morphine
bronchi
wiping
transferred
international
bisque
yawning
indigenous
indigestion
administr
bertha
membranes
havana
##through
alchemists
cervix
pharaohs
adoption
anagrams
blazing
moonsh
bouncy
sardines
cobblers
unnerving
schedules
horizons
minerals
ewes
asthmatic
congregants
deformed
travelling
foretold
luxury
nauseam
knuckle
adolescence
contradict
disappointment
##iloquy
intertwine
auxiliary
twenties
mathematicians
wrigg
ambrosia
erudition
harvard
facetoface
auberg
hermit
discipline
volunteer
ptole
pitts
discerned
doeuvre
longh
appreciate
burgundy
extolled
entreaties
whimsical
adapted
druid
fervor
torrents
asymmet
miniature
derivative
##fingered
grampa
military
ensnared
majesty
##building
kazoo
veneer
intersect
endorses
antarctic
revolting
ostent
vietnam
deleter
abominable
unheard
intrigue
sycam
oatmeal
conjecture
arithmetic
carousel
eloquent
indiscreet
hightech
weasel
swedish
apprentice
cetacean
daydreams
jalopy
nimble
golfer
stigma
floozy
enrapt
powdered
lieutenant
chameleon
hieroglyph
nocturnal
assaults
enterprise
sacrifice
circumcision
theorem
leukemia
divulge
vengeance
encycl
writhing
aficionado
elaborate
marshmallow
ottoman
stamens
nelson
intrigued
antedil
superfluous
feisty
artichoke
bloodthirsty
armageddon
nonplussed
chiropract
eunuch
yiddish
asexual
plentiful
outmoded
outlandish
scribble
unholy
afternoons
sidebyside
hankypanky
jihad
haphaz
flaccid
unchecked
slaughtered
undeterred
gastrointestinal
bz
biv
bich
bots
bates
cw
cuffs
dt
dost
durn
duc
doof
daph
dacty
eater
eider
fs
fak
fakes
filt
fester
fiance
ging
hs
hong
hilly
huddled
iow
ich
js
jaded
jigs
ka
kel
kath
koh
liss
lave
lids
lops
latters
lotta
marm
maz
midge
milton
nous
ogled
ogling
pere
patt
pane
puce
porous
pelt
pugn
rast
rach
rations
ricks
rowed
sittin
sammy
tums
tags
tumbling
upp
udd
vee
valet
wils
wolves
ys
yow
##lass
##lots
##del
##dwelling
##oic
##note
##gings
##god
##gotten
##cony
##aul
##town
##tings
##tub
##rank
##wre
##warm
##wins
##wigs
##wurst
##son
##hid
##hog
##haft
##pen
##pull
##milk
##minster
##uf
##bat
##ben
##bian
##kis
##kies
##killing
##var
##fasts
##zheim
thurs
thunderst
theorys
##inic
##erom
##erus
##eries
##oule
##outer
##ourage
##eses
sez
seor
seash
seuss
##atize
##atetic
##atisf
##educt
##reements
##llas
##onius
##onomic
##orb
##orized
##isth
##isans
##isthen
##anos
##enos
##enia
##arish
##ario
##arthe
toke
##itives
##itarian
whey
##ominate
##otent
##uteness
##eta
##veau
##acons
##usky
bev
beeline
##adles
sha
ston
stad
stee
stamm
storing
heist
heater
isolation
##urine
##urists
##irty
##ione
##ionics
##chand
##chilling
ascends
asinine
asylum
##kels
chuff
chumps
chatters
anad
anab
weaken
dey
deuts
deux
##enters
##ima
reag
reins
soire
frill
frying
frances
liars
livers
##essive
##raising
notation
##ilic
##ilts
##ilized
##rox
##seven
neuter
atkins
allied
sprain
spats
spittle
spiff
spoof
spiced
##estruct
hale
##gear
nox
plop
plows
plumm
pliers
plugs
##ppie
doh
dopp
doyle
saff
sullen
##elier
blub
blared
blaming
blanch
blenny
##astian
##oper
cah
whatll
canes
##string
clen
clank
clones
clung
clove
closes
clench
claret
clammy
trill
trots
tracked
trumps
trounced
leaked
bytes
feigned
##igerous
##iguous
exe
exits
exterior
cric
cress
crpe
crowed
crises
craters
crannies
oneeight
goil
##inders
conund
bris
broo
briny
pry
prunes
##ueur
alco
alumn
alzheim
coales
coval
outline
outlaw
##ellike
whopper
grid
grays
abatt
abiet
upgr
quota
##udi
boe
boating
booms
bonding
bobbed
booster
disun
diseng
disasters
scy
scut
##athing
adri
adios
##aceut
##again
##agration
loins
looming
##othered
twink
twinge
##plat
##plasia
ami
amor
amic
amore
##ifically
swimmer
enunc
probing
dray
drumming
##ivities
callip
unity
unne
unfl
unthink
##rescence
hesitation
smothered
wellr
rogers
##earse
acy
slots
poking
pointer
mayhem
##fta
##ogist
howling
howls
teat
teases
agath
downfall
download
whichever
eman
embe
##phil
mover
chez
cheques
##intz
carth
carroll
caraway
caresses
peed
skid
skiv
skint
bream
glares
glitz
glimps
peruvian
compounded
snor
snorted
plebe
pleads
struts
playboy
hoc
##ggs
phyll
phooey
pherom
##peed
longlasting
contort
contests
controll
contrap
foyer
endearing
endemic
headline
##umbent
##umbler
diddle
didactic
baring
##ibus
atten
workin
curling
actu
overfl
overachiever
overworked
##zee
stillness
##bsp
gravey
eyep
assy
surgerys
##ymor
##ugo
starters
decad
decant
comeback
thoughtful
hardhearted
choppy
reminis
defame
defile
deficient
cretin
deline
delays
delinqu
##otti
additive
addictive
badm
commens
drizzle
impugn
##atta
accursed
carelessly
schoon
schno
cours
godiva
godzilla
##oyal
##oyance
deadline
putz
rung
handing
blackness
##uctions
begat
elan
elps
eluc
elmer
elicits
limbo
freakin
sweeties
brogue
##otechn
##cci
##axis
facebook
##teness
apathetic
treble
corral
##ocative
ballots
ballads
mindless
recip
recalled
recipes
drinkers
##onese
artful
fallow
infinity
caloric
bluegreen
indies
indicate
indisp
indolent
##bbin
wok
deviation
purp
edwards
finite
worldly
salam
saliva
shortcut
##group
rhe
rhine
##ricts
retard
retail
extant
extras
holder
##azoo
advoc
advancing
avuncular
pastime
halves
parch
grandd
grandiose
floe
screed
excre
excise
catty
breakers
horned
perfumes
monastic
crossword
bellicose
billiards
regale
regimes
armstrong
##gnet
minn
bige
biff
opines
darkening
efficiency
##uited
##ophiles
humors
humding
oboe
starve
lowered
invasive
eval
evac
evanes
syring
prizes
profusion
wallow
declining
completing
maul
maud
tying
madoff
flet
fleab
happier
sidewalks
windshield
##hex
strongest
transaction
transcends
transactions
entre
enticing
entangled
friendships
raj
woody
woodlands
compliments
penins
pencils
casey
doorway
faust
felines
felonious
docile
constr
disport
mispr
testament
capable
markings
heaving
messes
wonderfully
visa
buses
##shell
archers
##idedown
rocker
maggots
bosss
judy
christened
christmast
crooned
silicate
silhou
romancing
arranging
secur
secrete
legisl
splinter
brownie
horseback
reviled
revulsion
provision
province
##cyst
nerdy
donuts
dresser
bagged
bagging
criter
burner
tempo
skyd
morass
morality
courted
##loom
troubl
troubling
urging
urbane
episcop
merrier
embl
embar
ambled
ambivalent
prag
papara
layered
irrig
oppressed
locality
combining
personnel
boundless
diseased
liege
portions
forceps
camph
cambridge
speedily
iceberg
commonwe
blinds
grovel
groomed
garish
garnish
crackle
immem
pathway
cardio
cartridge
cartesian
destin
posters
panels
squeaks
tongs
colorblind
escutche
##ssss
norman
drunkard
buttercup
trusting
batrach
practise
practices
namesake
baths
##ritis
selfre
piggy
##ootie
possum
jumper
grassy
soulful
fermented
tickles
bonn
bonap
bonny
utopia
##arrh
expressive
credo
cockat
robots
puree
pups
puzzling
bushs
weekly
aleph
masterpiece
wisely
animosity
stressful
geez
geeky
geezers
methane
mutts
cadence
punning
bangor
albums
tableau
impresses
majors
pitchers
##rophobic
inflame
thriller
spokes
acceptance
acceptable
lovesick
calmer
rebuff
rebirth
moonlight
collectors
fedora
##strings
loosely
vikings
freddie
peeve
spinach
cabaret
smokey
##aik
presenting
corrected
irony
athena
publicly
productions
aquar
aqueduct
sedan
cruised
mortician
fetal
malevolent
guarded
celib
luster
sampling
rushes
oxymor
implant
primal
primate
essays
salesmen
civic
chucks
probes
probly
altogether
abstention
abstinence
ranked
scrapes
creationists
dwindle
##doing
fuels
convictions
flagging
switches
forthcoming
substantial
submitted
enthus
selecting
fibrous
gnus
specialist
etch
reviewing
dysph
gleefully
dunno
oedipus
punches
rental
wormwood
fantas
tropic
engineering
boule
coaching
masoch
beckons
civilians
nurture
detects
cyclone
rashes
##moving
eagerly
rigging
rigueur
cacod
nicked
imported
tangles
boomers
##ydia
conducting
hatches
hatching
rapun
sacr
##hoots
finishing
gooey
eschewing
bowlful
grammatical
upsetting
mallet
monthly
##ablanca
enhancing
conjunctions
absorbs
celebrities
anticlim
distinctive
oregon
sniffing
abhorrence
fainted
bailing
prisoner
molecule
liner
widget
##rospect
orchard
assumption
ellipt
polyps
prompting
eldest
forbids
##holder
adventurous
diplomatic
campaigns
crunchy
lunar
strawberry
exchanged
botanists
nicole
italians
alleys
cystic
bilateral
flavours
brooding
deplored
dawned
flirted
otter
scrubbing
gauze
gauche
shaman
blushed
generates
##belie
scripts
settings
satisfied
dingdong
boosts
nursed
grieves
vicinity
descendants
yachts
blurt
coyly
coyotes
apostrophe
dictate
victoria
virginia
##bellum
hoover
vexatious
chauvin
chaucers
analyze
nodes
subsist
subside
unknowns
##aunted
bambi
tuition
##spread
distracting
shreds
explosives
foolishly
rehearse
octogen
octopus
premier
cognitive
dialysis
obligation
balkan
adorns
principles
lamented
grubs
ebay
ebull
migration
cramping
dumd
mended
ornament
ornamental
convene
electronics
gastron
nuance
nuisance
unrefined
occurring
euphoric
vapors
whitish
anemones
uptodate
ancestor
lancelot
##restrial
##writers
specificity
rattled
rattling
##fighters
lexus
recognize
financially
exploits
sects
forsake
mollusk
cynics
twitching
transpired
julius
vampires
disinfect
intentional
doggone
deferred
burglars
capitol
nutritional
entertaining
pharmaceut
tinted
dextrous
##collar
confronted
implying
stubbornly
denser
density
razors
vinyl
carlos
diphth
embarrassment
deprive
##yearolds
fouls
upsidedown
barbec
announcement
ronald
##natured
steroid
##aggered
backstage
withdrawal
aardvarks
mccain
surroundings
jabber
accusations
freudian
administer
weekends
honeys
rapture
beaute
prostate
##eeeeeeee
gertie
lagoon
siren
rhetoric
renewed
mohel
introduced
frenz
apologies
bloodsucking
##seeing
amplitude
awhirl
georg
bouncer
pamph
sardonic
cobbler
schedule
scheduled
horizont
mongst
tiresome
seizures
reptiles
reefs
congregation
delirious
ulcers
adolescent
sufficiently
disappointed
amoebas
precedes
insightful
dakota
stomped
twentysix
contribute
contributions
repetition
melodies
strategy
demolish
catastrophe
ambassadors
wriggle
poppa
quirks
glittering
mantle
mousse
sashay
hairdress
fawning
##ograms
monstrosity
observation
encircle
ingredient
cappucc
murmured
hawaiian
skeletal
environment
nourish
nubile
lobotomy
birdwatchers
survivor
hannib
puddings
puddles
raspberry
alimentary
evokes
yesterdays
##bottomed
rescued
overwhelm
southwestern
vertebra
conniption
sulphur
ciao
prohibition
illustration
snigger
aspersions
bumblebee
nyet
sabbath
manifest
robbers
redundant
bewildered
##bearer
beethoven
carcinoma
##demain
tragedy
blemish
embroidery
vaccine
mitzvah
satellite
tiara
exalted
abraham
braggart
charisma
constellation
constrictor
dissimilar
nonchalant
pilgrims
canaan
trinkets
priceless
skedaddle
beehive
philippine
gospel
kvetch
buccane
foodstuffs
ogden
weatherman
byzantine
unearthed
foreboding
properties
historians
athenian
gizmo
jostle
atwitter
tyrann
charlatan
lattice
oeuvre
##ujah
scintilla
cantaloupe
completion
anniversary
bilingual
jordan
pachyderm
vamoose
amygdal
bucolic
cleveland
schizoph
damascus
transplanted
budweiser
unspeakable
cannabis
dagnabbit
chesape
disastrous
mademoiselle
malcolm
primordial
gaseous
raucous
legerdemain
grisly
twelfth
petroleum
cincinnat
october
antediluvian
saffron
alzheimers
plebeian
troublin
aird
bight
bate
bolog
bries
boughs
cq
doses
doric
dimmer
dummies
eves
earm
eton
egreg
erode
fames
fumble
fathered
gored
gators
goli
hir
hil
hosed
hiring
hummer
ian
jag
jup
jumble
jasm
kal
kir
kool
kais
lt
los
lol
lind
lars
lanky
ming
mage
mord
mik
nair
nines
naz
nipped
nipper
nuke
oyster
pang
pigh
pund
paces
pept
pores
piers
piqu
pester
piety
poodles
ric
rere
reth
raking
rots
rents
raim
racks
rift
racked
rotted
rumbles
sik
tints
tingle
varm
vultures
wah
wading
warts
waver
yule
zeros
##lan
##list
##lob
##dust
##drops
##oose
##oire
##oosh
##iour
##ieth
##iastic
##iosis
##iological
##nals
##nox
##gut
##gur
##gery
##gently
##grained
##comed
##aide
##tz
##turn
##trap
##each
##ride
##yo
##yeyed
##wax
##harm
##hats
##hued
##hara
##harp
##pri
##press
##paper
##mere
##mite
##math
##mothers
##mata
##breed
##kull
##xia
##vic
##vir
##vill
##jac
##fisted
##zh
thai
theoret
##inf
##incl
##inology
##erer
##erence
seared
##atl
##onance
##oris
##orative
##oraph
##isers
##anol
topper
toads
topless
##itant
##itance
##itical
##itian
##asper
##asana
wharf
##omal
##icorn
##oto
##otation
##otrans
##eted
##algic
##acled
bein
onward
onlook
oncoming
shm
shan
shoo
shaker
shalt
stoo
stumps
stella
hectic
hefty
##uries
##urient
##oso
##osi
forked
##amide
##amatory
##change
##chief
##chlor
asw
asphal
##lyss
##illation
chach
chich
chte
chats
chanted
anachron
ween
deems
develops
##ente
##imuth
##iminal
##alley
##ersand
mew
lik
notable
notably
oranges
##ilities
##roe
##roch
nebr
ather
atoll
ally
allium
alliter
alluvial
##anto
##rio
##riers
areas
##uned
spor
spunk
spying
spindle
##esters
haik
##those
platters
##ppling
dob
dox
dodd
dooms
dopes
sakes
saggy
##elian
##elujah
blake
blare
bludgeon
##aka
##ulence
##ulator
cag
caw
cance
##strip
sheaf
clann
troth
exagger
exterm
excels
cradles
flipp
flutes
floyd
goble
gobs
goget
##induced
connot
congeal
##andra
brer
##emaking
##abilitys
priss
pricks
knead
knaves
alar
alope
aloh
combo
comrade
coe
coad
coel
coiled
coding
cobra
coquette
outcl
outright
thence
arom
##ellow
abig
abodes
quaver
quorum
bok
bode
disb
disab
displease
disabled
scaly
scandals
adobe
##agasc
lovin
wouldst
##ysh
amble
amary
amended
amigo
##outi
##oute
getaway
swab
switzer
##osters
proxy
drup
dredge
##ortic
unful
unwed
unrem
##quick
##quare
##quacious
manila
smog
smudge
wellp
wellfed
wellversed
bugg
##acting
##actly
illmannered
illiterate
acetic
acoly
slith
slings
slums
slammed
sledge
mayors
joc
wordplay
daybreak
newer
newbie
teak
tequ
##blem
agam
offence
offshore
##aware
lookin
looker
appr
apprehend
##pha
moors
hims
cheval
carous
carav
carpe
carols
carousing
##ittal
dioxide
pegged
pews
##ashing
##feathered
canton
preempt
greats
greatgreat
dese
glances
glories
##izable
goodies
compat
composure
compulsion
muy
muzzle
##tee
##tebr
snive
snared
##uckle
hod
hob
intents
intensity
afro
phoney
contorted
##odd
##odon
barque
barkeep
baritone
attila
expon
##ankind
curlic
parting
overlook
overgrown
stills
earp
##aterial
insure
insulting
insulin
insanity
triangles
surfer
marit
marina
marches
greets
startled
decon
decamp
decuss
somber
youngster
nightsh
defied
creamed
creeds
antire
eatin
confuc
badder
badgers
commiss
redemption
impr
impuls
impede
impolite
accur
accretion
lefty
othello
repell
carefree
##quee
dreads
airhead
##ologies
##ologize
hedges
awak
##berrys
eliot
steaming
sweetened
broc
colons
relating
reliant
##tenance
institution
apse
apert
misshap
##ucive
corals
##roportion
homeward
strew
##unked
mindset
distinction
recede
collateral
befell
burb
burke
artfully
explores
explodes
underwater
underwent
infert
charger
calumn
calais
calico
calisthen
bluegrass
birders
booking
##bbish
meticulous
chriss
formations
flowered
warped
purlo
purvey
subpo
subordinate
restless
beheaded
babs
baboons
babylon
##ractions
stripe
guesses
salm
salted
##ummox
squads
discs
retch
retro
##weather
extortion
larch
largo
deton
deters
detain
turtles
advising
advocate
avo
avowed
grandeur
winnie
concedes
##obo
excision
fourlegged
colds
persecution
breakfasts
genre
##ammable
incand
incons
incision
incensed
monot
crossdress
tenure
preserved
armless
sunrise
sunbath
biot
biking
biologist
sprays
pols
standup
darkest
##uitive
angers
##ophones
humph
obnox
starlet
invalid
petting
signing
profile
profund
schoolboy
certific
undes
undet
undead
madrid
madagasc
childbirth
fastest
##asked
enticed
hitter
interject
intervention
annals
annih
raff
balmy
balcony
complied
forecl
foremost
halfs
cooled
coolidge
harlot
##ylate
numbs
deathly
deathbed
constrained
rupt
disposal
hurdle
misuse
misread
miscell
caste
castiron
achy
medics
meditation
messing
visibly
dino
##shed
replac
replaces
protozo
arched
archety
despotic
flatulent
electrom
rocking
rockies
judicial
breaths
cropped
autop
autonom
promisc
specially
specified
legacy
splice
brownn
##tended
cornwall
darlings
fixes
candied
##licting
mixer
benighted
sicken
meaningful
bullied
bulldo
bullseye
##ieties
birthplace
epoxy
merlot
chemically
embassy
scrunch
##appers
senseless
modes
honed
smoky
laura
buttress
ringer
risen
risqu
mattered
blockhead
preferring
sorcer
popul
popcorn
reasoned
grooming
breez
crackling
coupled
coupling
derail
derailed
fingert
mounting
pathology
fanned
respiration
berke
ahm
summons
swelled
enjoyable
degl
hanged
##conn
differing
taxonom
techie
denture
grouped
groupies
approx
bacchan
prouder
shameful
escort
paree
paunch
prepares
jeh
batman
dissip
##toend
bathy
bathys
bathtub
##ritic
selfimp
dangled
suitcase
chestnuts
dupe
grownups
argues
spirited
jumpy
counterint
franklin
goalie
fifi
bespe
tuber
tubers
tubby
unscr
bonanza
gripes
genteel
attracting
cockroach
nutri
##oxic
domic
domest
##rups
doughnut
doughnuts
danube
bustle
inventing
crowning
pinn
rotor
radish
pushes
volition
stressing
methyl
bombers
cadm
performer
puny
chapters
continu
packaged
impressions
brandish
##iency
anthology
aeronaut
angelic
spoiling
statutes
walmart
toured
austrian
bulim
battlefield
photon
photograph
photographs
innermost
examines
freddy
insistent
dweller
flashlight
bibulous
motive
sufferers
wasteful
aquam
supine
##crumb
sneers
sneaking
creeper
fetter
chinook
parental
torped
leaflets
barbarians
matadors
##ynine
##ynthesis
bolster
battering
crashes
swallowing
verbose
debtors
##romous
projections
blankets
delivering
murph
relaxing
ethel
ethical
cathode
earnings
basset
chuckles
casinos
casablanca
screenplay
psychosis
insecticide
herbivorous
knighted
dipter
opted
optics
truckin
##iki
quarks
narration
coughs
pleasin
tuning
systemic
dwind
assisted
falsehood
mentions
##osperm
paleont
mirac
accordion
hamlets
crudely
erratically
rooted
stretches
##anthem
flooding
bloomin
##ovens
granting
##ommun
fibre
gnawed
inhaled
specialty
tapest
paula
cavi
arcs
journals
##ulean
celebs
strengthen
texan
batten
cordon
##robes
waxing
seasonal
dumping
holidays
typo
martians
civilization
piercing
baldwin
detectives
cyclical
cyclops
##iotics
aphasia
winged
zeke
departing
hiked
skel
officials
cacc
chaise
importance
hubble
multipl
abdomens
slicker
tanker
intending
hydration
giggles
coinage
molding
achievements
censored
tackles
##matical
##rogens
leeks
disappearing
ampersand
afflict
jarred
repairing
defended
canadians
preachers
shirking
dilated
##urbation
hinted
cloven
cloaked
artsy
progression
rustic
##orphic
comfortably
unbowed
vitri
vitamins
##repared
accessible
copycat
ella
clarion
adjusted
adjunct
corporal
clamber
gradual
racers
pertain
mosaic
italys
bilious
broods
groovy
reminder
dorms
dolich
experiments
thunderous
habitat
chipm
depending
subtraction
crikey
lyin
brutish
ovum
disorderly
conservatives
##oplastic
excelled
scriptures
mourners
adjectival
arresting
elegance
grieving
vibrations
stitched
grasping
philosophical
##orran
crumbling
arterial
enchantment
purposely
protesting
reversal
affectionate
cortic
linguistics
tufts
##ypical
chattering
democratic
aisles
funding
winsome
molars
spurts
consultant
websites
comedians
gulls
amphibious
sibs
rehab
conflagration
janus
calfs
pornography
ingrained
deflation
conspire
punctured
biped
dharma
glamor
vigil
cushy
licensed
gastric
reverent
hissing
contraire
affirmed
psal
foresaw
foreskin
appointments
lifestyles
alkaloid
dorothy
oozed
aspiration
brady
stools
barman
gypped
reclined
spouting
bravo
daguer
hazards
smiths
lenore
whimsy
outsiders
industry
varying
chalc
chalice
cleansing
antidep
unfurl
gadz
gestation
thumping
newtons
bulletproof
raiders
lexicographers
anglos
batches
giraff
enclose
hopelessly
rafters
nudists
vincent
clumsily
droopy
carolina
barracks
##foil
rectum
scandalous
swarming
solemnly
aarons
llama
butchered
inserted
surveyors
tempest
ariz
gravitation
acrobats
slippers
backstab
bulbous
gibral
mccarthy
sassy
##guarded
katie
cohort
perilous
betrayal
broadcasting
arthritic
calendars
mascara
vaude
selfe
stimulation
alchemist
discovers
expedient
dignity
karate
diaphrag
commissioned
harbors
harbored
##control
scholarly
electroencephal
blasphemous
hysterical
sizable
beverly
grouchy
teehee
explorers
georges
dislod
procure
ungulate
dichotomy
seizure
anomalous
canonical
outrun
accommodation
radicals
aphrodis
obstruction
bifur
luxurious
pancakes
pancreas
ulcer
chomping
heraldic
marxist
bbc
sprawled
crosse
brusque
buoyant
disheveled
dakar
fiddled
calyx
astonished
aspects
chockfull
outofdate
guffaw
etymological
doleful
volunteers
hebrews
prestigious
arbitr
draughts
bedecked
discerning
vendor
embroider
dialects
plunging
scalpel
parsley
refresh
declaration
##omycosis
hawaii
telescopes
feudal
independence
deepsix
sutures
tinker
worships
adherence
##uberance
calorie
evoked
symmetry
fuddyd
rarity
aslant
spiky
quintess
phosphate
attribute
policeman
circumsc
arachnid
venez
##floor
staple
##children
worsen
university
postpone
categorical
rancor
envelopes
unimpressed
prejudiced
confinement
sycoph
guru
groping
mauve
beethovens
sphinx
dockside
slumped
agglutin
carnegie
harrowing
sentimental
eternally
zombies
dementia
##thanded
suzanne
twotiming
acupuncture
agricultural
turbulent
valentine
cheerleaders
conjugate
brochure
salvador
cumulative
jibe
inquisitive
chiffon
coddle
abjure
indecent
despondent
tonguetied
fluorescent
cacao
poultry
isaac
orbital
aggregate
northeast
catapult
woodwinds
irrespective
aeolian
bactrian
jamaica
sesame
##onnay
quasim
drowsy
##phrase
apothec
traffics
ceaselessly
dismember
auspicious
gwen
jeeves
blustery
impassioned
eliminate
parachute
embossed
grizzly
forbearance
bittersweet
fostered
kaput
nouveau
surname
chardonnay
chafing
cabernet
trespass
teeming
##clouds
attentions
metallic
extracur
effeminate
chancellor
bandwagon
unconscious
ceremonial
hemorrh
picasso
marsupial
bivalve
fiscal
abalone
amalgam
pajamas
aerosol
toothpaste
cognoscenti
vienna
stilettos
feldspar
cuttlefish
farthest
remembrance
erroneous
jerusalem
connecticut
beelzebub
disobed
infrequently
ethiopia
anchovies
pittsburgh
deleterious
lopsided
thursday
##artheid
noxious
octogenarian
chesapeake
pigheaded
raiment
onlookers
stooges
nebrask
outclassed
misshapen
miscellaneous
aet
aque
bq
bk
bv
bitt
bian
bau
bons
bire
bunt
boney
bering
bitty
bummed
cb
ck
cults
cede
dk
dard
dought
dows
dents
dicks
daves
dund
dative
dander
derel
dusky
eons
eco
evers
eek
fens
faut
gp
gat
gan
gins
gander
gorse
giddy
hool
heter
humbled
hinge
hinges
ionic
icing
iota
jade
jamb
jitter
jumbled
jesse
jumbo
jilted
kith
kant
kine
lant
lite
lather
lup
lashed
lester
lumines
minks
maven
naw
nape
nae
nipp
nada
nosy
nylon
oll
ocular
pter
parm
paved
paean
raked
rummy
rita
sired
sized
sizz
samba
tch
tud
tect
tins
tory
tiers
tims
tipping
tattered
tipple
tardy
ug
uv
upped
urologist
vu
vied
vases
wally
wows
wiles
wisp
yere
yammer
yknow
yioux
zack
zod
zuc
zapped
##lams
##living
##dit
##dition
##dlers
##oce
##oving
##number
##gill
##gree
##giv
##given
##cur
##could
##cans
##cool
##cats
##crap
##court
##aids
##tel
##true
##eld
##eep
##rough
##round
##rone
##rink
##rings
##ruc
##ramm
##rism
##riment
##would
##wits
##week
##hair
##houn
##hams
##pse
##pins
##puts
##mb
##mind
##much
##uice
##bation
##bang
##bable
##bats
##bitten
##boned
##bitty
##kary
##kids
##vie
##vision
##jon
##fest
##fired
##faction
##fallen
##fusc
##zi
##infl
##inarian
##inarily
##erick
##ouri
##ouble
seethe
seville
seclusion
##atur
sept
##rend
##llo
##llab
##onth
##orist
##orned
##isable
##ani
##anian
##enest
##arity
##arral
toen
##itall
##itist
##itism
##asch
##asped
andre
inns
inaction
ineffect
whad
whir
whitt
itd
itches
##ompt
##omme
##omination
##icer
##icant
##icula
##oti
##oty
##otics
##etra
##etops
thatcher
##alp
##alor
##alas
##alot
##alfa
##acer
##acic
##usiveness
bele
beards
bevy
beaks
beaming
beaus
beadle
beavers
onc
onstage
##ady
shi
shingles
steth
stats
stym
staked
staph
hemat
ism
##urbs
##idy
##idic
##idently
##irons
##irrit
fords
##chel
##christ
asse
asap
asiatic
##lying
chall
chins
anath
weft
dei
##imos
##image
##cee
replay
recovered
sovere
##alling
##erspir
mezz
meandering
fri
frames
hispan
##ilians
##rov
##roots
##rodden
##seed
##seek
neb
nept
atishoo
alloch
##unition
spaced
sparrows
##este
##estep
hails
herpes
nobles
pli
plowed
plover
ploys
##ainting
doggy
sappy
sagging
saudi
suction
suicidal
##oler
##olks
##olutions
##elter
##eliness
##elastic
bloc
##iste
##istans
##ulary
##opyr
##stre
##stan
##stall
##stri
##state
##start
##stress
##steps
sheared
clitor
clapped
trud
truff
truman
lef
lepr
leathery
feint
##igial
##arte
exes
exwife
fluster
goons
##ickkn
##indul
conked
##andah
##andgo
bric
bratt
bracts
##emas
##emakers
##aba
##abolic
##abaloo
##ousand
knish
knickkn
alma
coer
coerce
coauth
##achian
##achio
outlet
arguing
grated
abates
abusing
abrac
upd
upand
upbeat
qua
quill
quakes
quitting
quiche
boone
bolly
booming
boggles
bogey
sayin
disro
disown
disquis
disestablishment
scion
##athon
adrian
##agging
##agogue
loons
logo
logging
lovable
loquacious
usur
##plings
ams
amish
amster
##ifier
##ifying
swerves
swindle
##ostat
##ostics
enm
enroll
enables
proffer
procreation
unass
unapp
unload
unnamed
##ipid
##ipers
##ipel
##ipatetic
##quarters
manx
manned
mania
smud
smacks
thereafter
wellbeing
roaming
haddock
guzzle
##actically
illf
illogical
illtempered
##avored
pover
olde
joked
newts
teet
agu
agro
agoraph
##ryl
##rym
downhearted
emit
emir
emanc
##phaly
##phobia
##ailable
wrangle
##clim
##click
carot
carrie
carbo
##ittance
diuretic
##ubst
##fee
##issa
##ensical
skater
skyl
skimming
skunks
greatness
greataunt
kegs
desolate
desicc
brett
glist
glock
gliding
glaring
glauc
##izes
goodbyes
backers
perish
perversion
peripatetic
compels
comparing
composers
##oola
##teous
##tender
##uller
##ornis
##orning
spender
snit
snark
snowed
snags
strump
hoary
intones
intrep
afire
phobia
resid
resident
residents
contender
contempor
foxt
firstclass
endocr
endtoend
founding
##ounters
barth
barrage
##ibilitys
attired
attests
attribution
expounds
workouts
highbr
highlight
highlights
##lesse
lifeform
bigamist
meanie
marily
marquee
painters
decried
comeupp
##irdup
##eworthy
hardware
hardcore
choker
rembra
belied
defor
defaced
deficit
defensible
defrost
creaking
crewe
delt
delim
deluge
delicat
server
seraph
serpents
antia
antism
antenn
antiph
antoin
confetti
conflicts
badmouth
commons
commuting
dripped
redheaded
smallpox
imped
impair
impale
impeded
imprison
accr
reputations
schle
afterthought
##upulous
runt
airing
airbrush
airports
awoken
crag
crabeating
##venth
eli
sweetest
##nex
##nees
##need
bedou
bedrock
broil
##ouded
relics
bravery
##versial
##impaired
apod
apache
apartheid
refusal
##ahua
corrob
corrug
traverse
traumatic
##ropy
homeland
##aneity
streaks
bituminous
freezes
##ocial
##ocene
##ocaine
##ocarp
distended
reciting
collars
burm
burma
burgle
artic
articul
artisan
erad
mussels
kindled
esper
essex
infuse
infidel
calig
calms
caliph
owning
indel
indias
metric
metabol
growths
affine
##bras
devon
purist
purists
puritan
engulf
restraints
eds
edging
edgar
supporter
##ractive
bloodlet
finland
viewpoints
shortest
##grate
squish
squander
squalor
rhesus
discurs
retains
extir
detested
singin
holdings
halter
parlor
##kington
flopped
concret
conceded
##obics
##obber
coldly
catwalk
catarrh
persia
breakin
genetically
monet
crossbow
crosscountry
tenants
armpits
minors
minnes
biota
sprite
sprinter
polka
polonius
angina
anglers
humidity
humerus
dazzled
starter
inveter
invitation
involving
peta
synchron
foolhard
##ronic
##ronym
veep
condign
condense
condiment
profl
eyecatching
schooled
walla
bleary
mapping
undis
fastened
##boiled
transist
golds
entree
entrench
bowdler
astig
interconn
annes
announcing
picket
oddlooking
rais
razz
complac
penit
penet
penance
forens
foreplay
doorbell
halfassed
constraints
##clean
##cleaning
disputed
disproportion
medusa
prodigious
buddle
solit
solomon
boozy
dinah
senators
busily
straightaway
diem
killin
proton
protests
archery
archives
listless
debasing
rocked
fillings
magist
magenta
christen
croaked
silks
##olets
##oresis
talkative
dealings
arrh
equivalent
secre
legume
splutter
splurge
brownies
filched
handsh
geomet
geologist
catchy
eighteenth
revised
revision
##gesis
cornmeal
darwins
##cyon
delightfully
galoot
richer
yapping
sickle
sickening
skyhigh
coping
morgan
courtiers
epil
epau
merchand
chemo
ambly
doctoral
climbers
scruff
praps
hyg
sussex
irs
gasping
opposing
smoker
locom
combin
combinations
boundaries
breadcrumb
dreamer
propelled
proposition
fronts
frontal
blindfold
sailboat
##ugger
weevil
beginner
valiant
validity
##thearted
##inaire
derog
imminent
fielding
##centric
berl
##blow
##block
connote
sizeable
ahab
ahmad
swellings
englishman
encounters
taxis
taxman
dente
dented
dentition
grouping
squealed
joyous
bacc
cupids
dyin
bodacious
##annas
confessor
harmed
harmonic
figger
objectives
esters
parka
dissolves
bathrooms
stockp
snowman
selfcentered
tailors
pigments
piglet
saviour
stinker
boreal
unsav
dusting
millie
millenn
fortified
bushels
earsplitting
hooky
titus
rotary
alec
hosted
purses
axed
midwife
##ofth
chaplain
chaparral
clouded
continuing
uncanny
##aphrod
impressing
remembers
superfic
gleaming
ghoul
##knowing
custer
deceiving
predest
predile
predators
aspires
spoons
calming
statistical
pillars
lasso
vanishing
barker
##strung
bulky
subjected
keenly
tarzan
examining
politically
politicos
spaniard
rumin
dieting
peeves
carpenters
polled
variations
towering
respectable
protector
protective
motivation
reflective
##join
stormed
faiths
chiefly
sedative
mortg
sneakers
fetched
heeding
torque
torah
##checks
barbara
workingclass
maturity
brushes
bolshe
bridegroom
ideals
inspires
coded
macs
macar
projectile
complexions
implants
murk
rowdy
extraord
ethiop
ratio
timep
existential
bumpkin
rabies
frustrating
basses
huns
chucked
deserted
branching
##ikers
paddy
cosmop
biddy
cannes
cannons
annoyingly
holland
hollowed
bonded
##ochrome
inspections
relevant
##anthropic
trademark
empath
empathy
pilkington
mamma
authorized
inhuman
specialists
azimuth
homest
emptor
##iarist
imagining
buzzard
momentum
gangster
cavil
contentment
punching
waxed
foxy
griping
leaned
royally
civilian
mcgee
cycling
cyclist
davis
##naments
welts
welcomed
deduction
odour
bastille
averred
##flying
chaet
binoc
slickly
blighter
conducts
conductors
dampen
munchies
censors
antsy
cheatin
permits
bruising
amput
amply
admirals
hypnotic
hypnosis
cliffh
repaired
execute
flourished
diligent
maples
sheltered
echin
echol
mushy
sniffs
structural
cloves
bailiff
michigan
rustling
##burse
mythic
comforting
##represent
deafening
alkyl
bubblegum
polyp
polymer
mildly
disdainful
concerto
clinical
clinician
scarecrow
##escript
adamant
maternity
dodger
envious
sternum
clamorous
whacking
diminution
diminishing
nickels
osama
racer
closets
londons
gemstones
alleviate
disagreement
cysts
thundered
insurers
ravine
ravage
corpulent
dawdle
ranted
subtly
footballs
dismissal
cripple
chloride
enlist
educational
dingy
lucille
freaky
mourned
goddam
rhythmic
academy
grieved
healer
fractures
clutching
bartlet
mensch
nonsensical
tsk
translated
translucent
automob
coupons
virginity
exhausting
##inthew
czars
erection
junctions
wolfs
reliever
protestant
dudgeon
oversupp
analyst
allegations
cortis
obeyed
rudy
tucker
linguists
tuft
persistently
dwarfs
fundamental
wagons
explosions
##otchy
schmoo
comedian
draculas
antiperspir
creeks
siberia
calculate
butterflys
octave
whirls
shivering
clerics
lemur
sketches
ranges
tasman
toxicity
frosty
premise
premium
transmit
aesthete
aesthetics
jungles
dialog
##ophilous
##ophagy
watered
francisc
ignoramus
alphabetical
hammers
ukraine
gabby
hippopot
diversion
dumpty
vigour
vigilant
ornith
obstet
gastropod
adoration
psor
sockets
sergeants
alkali
##writings
bachelors
unmarried
aspirins
alderman
lumberjacks
infectious
concentrate
chamberlain
dandruff
jacu
contemptuous
chronically
gratis
disarmed
glumly
aardw
daggers
stalin
forsook
alfalfa
calamitous
transported
transportation
condemnation
##written
disclosed
bantu
hunky
juliet
bracelets
disinher
cleansed
assessing
deceitful
gelat
pyrrh
trolls
revelation
nascent
wields
bluest
swami
hullabaloo
blistered
lexicons
scorch
screeched
identify
##ocytes
dispersal
cucull
noblesse
brimstone
alaskan
arrogance
journalists
upstream
ramparts
abridge
jurassic
troopers
deprivation
brisket
enormity
stealthy
exquisitely
cuckold
vagina
countryside
exclaims
acrobatic
eyelid
benzene
glacier
metaphorically
lynx
yawned
##orthodox
bloggers
indigo
archaeoptery
membranous
citizen
consequential
comprehensive
representing
regalia
priority
bridesmaid
displacement
introduce
resentment
brahman
airlines
bongos
duluth
blazes
grandsons
commendable
potentially
laurels
enlarged
mitosis
churl
anomaly
quadrup
loyalty
doodoo
gusto
tussles
sopranos
saucer
adolescents
nightmares
crocodiles
vaguely
##better
refinement
duplicitous
ferocity
lorraine
fecal
contemplation
unrealistic
scurry
scurvy
demolition
demolished
achromat
atlantis
fertilize
yorick
browsing
ammunition
discordant
coulombs
inheritance
pucker
admonition
barbaric
barbarous
pharmacist
koi
nameless
flamingo
smuggling
symphony
ounces
rebuild
mulish
pione
chimpan
pagan
threep
backpack
assassin
landlords
##ophytes
propriet
suture
anderson
shaggy
myrrh
worshipped
adipose
gregor
corrosive
affronts
epiphy
tantrums
spiked
exorbit
quixote
phallus
intervening
dyspeptic
coincidence
chandler
adelaide
endearment
babbitt
enlightenment
humbly
humbug
shaping
flaunting
prejudice
dauntless
chattel
deceptive
deleted
apparatus
carriers
contingent
squabble
avarice
abducted
obliged
rambling
zombie
##maybe
anastasia
##imetry
sluggish
behooves
uncontrolled
fuming
hamster
kernels
tawny
##monde
shillings
flagrant
swimmers
comprises
assortment
aztecs
ballyhoo
shimmering
stereo
frivolous
congenital
remedy
geoffrey
bourgeoisie
uterine
uplifting
enforced
unattractive
snobby
expletive
harpsichord
simpson
cholesterol
bismar
tahiti
##toback
shorthand
insufficient
addenda
histrionic
barbershop
extravagant
regrettably
xxx
nondescript
handcuffs
indifference
specimen
palindrome
mnemonic
ureth
forfend
##estruck
knobbly
coexist
diagram
pacifist
aristotle
abecedarian
gurney
##monger
sebastian
trowel
coordinates
sclerosis
proffered
decrepit
cholecyst
handicapped
pennsylvania
oklahoma
furtive
apocryphal
ketchup
auteur
gaudy
kitsch
mormon
reprieve
farfet
tennessee
misdeeds
posthaste
irksome
degenerate
tournament
espresso
incompetent
nuthin
sartorial
taffy
ubiquitous
nevada
getupandgo
progeny
marriages
disconsolate
catatonic
nineteenth
aubergine
sycamore
haphazard
wilson
thunderstorm
stammered
deutsch
conundrum
wellrounded
badminton
christmastime
emblaz
embargo
pragmatic
commonwealth
immemorial
elliptical
beauteous
frenzied
bologna
kaiser
canceled
gogetter
amaryllis
unfulfilled
tequila
maritime
nightshade
avoirdup
obnoxious
replacements
jehov
cadmium
aquamarine
miraculous
antidepress
gadzooks
gibraltar
crosseyed
quasimodo
aqueous
tudor
##llabic
abracad
amsterdam
highbrow
comeuppance
rembrand
delicatess
bloodletting
inveterate
pilkingtonpie
archaeopteryx
avoirdupois
ain
aas
aro
aeth
aides
aok
avenge
aaaaa
bg
bx
bair
bign
bails
bidden
bumming
bumbling
cm
cx
cv
cun
cem
cites
ceter
cipher
dm
dau
ef
eure
eee
eey
euch
fm
fon
fow
fust
fang
fah
fiver
ferg
faker
fudd
fags
fesc
filet
fdr
gary
gels
gerb
gagged
gyp
gopher
hess
homet
housed
iod
iber
ili
jf
jays
jimm
jasons
jinx
ky
ku
kurt
loth
lps
lub
lithe
mide
mumb
mists
mains
mops
mds
molar
ns
nugg
nige
nipple
nappin
oj
och
ops
oiled
okey
pust
pak
pore
pied
punt
paving
pining
qs
rans
rote
rund
rooks
ripper
rational
roux
sri
sys
souse
ters
tys
tina
tann
tiring
tensions
tugged
tinged
ulyss
vous
vix
vagr
vader
vandals
wen
wol
waged
wags
yv
yucky
yolks
zat
zipped
##lide
##lied
##lene
##dable
##dah
##dressing
##oz
##oide
##occ
##oints
##iole
##nu
##nake
##nation
##nab
##nee
##nosed
##nias
##niest
##game
##give
##gents
##aj
##aam
##tus
##tops
##tipped
##even
##rer
##rack
##rams
##ratic
##rotic
##yst
##years
##wain
##wears
##wah
##sink
##han
##had
##home
##hires
##pter
##pink
##path
##pired
##mical
##mother
##ugh
##bent
##bare
##bought
##bank
##bory
##bah
##bills
##billed
##backed
##bomb
##banks
##binding
##kum
##kiss
##vat
##vine
##vents
##vably
##vety
##fre
##fal
##fill
##fil
##fathers
##zone
##zels
##zai
thar
thal
thebes
##inav
##inians
##eri
##oum
##oung
##esco
seag
seeth
sext
##aton
##atra
##edra
##lling
##onc
##onical
##onias
##orama
##isph
##isively
##anial
##enh
##arge
toting
todo
##asus
youths
andr
inad
inse
inked
inmate
whin
whelps
whoops
ith
itty
##omerate
##icem
##oters
##uta
##eting
##etop
thatch
##alin
##alay
##alos
##aloe
##acill
##adonna
shab
shiv
shorn
shank
shined
sherman
shiner
stoke
staging
staggered
heaves
heidi
myc
##uras
##uroy
##urations
##idos
##idingly
##idges
forwards
withal
withhold
##chic
##cham
##church
##chini
ascar
##lyt
##lyns
##ooper
##illess
chac
chth
chak
chie
chine
chag
chym
chives
chesh
chyl
chias
chases
chitter
chante
chaser
cheryl
anz
anas
anter
anhyd
anvil
butlers
deph
deoxy
##ented
##iman
##imony
##imonious
reich
reapp
sodom
soiree
mending
frond
frocks
fringed
fridays
wasps
##usting
##rages
##rably
notices
notwith
noteworthy
orbs
##ilies
##ilious
##ilocks
##roids
##roding
##ctomy
neville
thistles
atax
allusion
##verted
##riv
##riot
aren
spool
sporran
##umane
herded
hertz
nods
plaud
##ppes
##ppet
##ppina
docked
dozing
suds
##olity
blunders
##ulative
##ulums
##ulatory
##opithec
cages
cauch
caulk
cahoots
wort
canker
willingly
##sto
##still
shears
clon
clint
clipping
clashes
tril
trudge
trimming
lender
leveled
leavin
fevers
##iger
##ardom
exac
cranes
crumbled
cringed
flan
flack
flits
flared
flitting
flirts
flammable
goad
##owners
bract
brutes
##eme
##abor
##abull
pratt
priced
prancing
prancer
alist
alias
alky
alters
algar
comat
comically
coasts
cohes
coitus
##achus
##achable
outf
outgrow
arf
grann
grunge
abash
abbe
abey
abiding
upro
quacks
quince
boc
boz
bobbing
disad
disable
disclaim
disbar
disassem
scones
scoops
scifi
scuba
##athome
##atholic
adage
adheres
adele
##ectic
##assion
##agraph
loin
loggers
twose
twits
twidd
twirled
twerp
##plane
amet
##ifice
swiped
##ostomy
proles
##ivist
##ivate
calli
##ilee
unaf
uncover
unbeat
##rescent
##iputian
##quel
mange
manmade
smoo
smite
smock
thereof
wellheeled
roamed
roaring
guer
guano
guzzled
##earold
acin
acaud
acuity
slag
slaw
slabs
thrace
##ptive
##ptious
##ogg
teased
teaser
agit
agate
agap
##aways
lookout
apportion
##anga
ember
emend
empor
emulsion
emcee
mooned
wring
wrang
wracked
cheep
gotcha
##inted
##clack
thinkings
cary
carm
carafe
dibs
diurnal
peat
pecc
peels
pecan
##ubles
##feld
sinuses
canto
preen
preys
precl
##mentioned
keister
desi
desec
breather
glared
gloria
glitches
idols
backhand
backbreaking
backbiting
perps
twod
compos
compell
compiled
composite
##text
##ianc
specks
sniper
strays
playground
musta
mustache
hokey
##aund
##ggered
intoned
intensive
intuition
phylum
##ordained
resh
resil
resounds
timehon
contused
contortion
contamin
foal
foibles
bett
betel
betta
endures
##odus
##odorous
headmaster
headfirst
##wny
##ermore
##ermint
##venient
didger
##ignment
barbit
barcel
barfed
attaining
expulsion
workout
overc
overall
grander
insured
wanton
triggered
assay
assid
assorted
bigoted
##beit
##beam
##beck
##beard
##beans
##ymmet
helium
helsink
##ancers
##uga
marc
marig
marvin
marcel
martha
painst
tellin
gregar
decret
decider
nighting
hardw
hardwood
chondr
belittle
belted
defuse
defiled
deferent
crev
creases
creaky
deliqu
delaware
##cob
##cold
lastly
confided
badab
baddie
comme
commie
##insky
lighted
drier
redhead
smalls
impose
imposed
imprec
accidents
repr
repelled
repossessed
carelessness
consul
consists
##uresis
courth
afterlife
aftermath
fares
farther
deadlines
deadpan
##attering
runway
runaway
hedonic
handel
handwritings
blackbird
blackbirds
drakes
begets
elaine
limo
frets
##neg
brog
brooms
heartstrings
neared
##axon
braves
braking
bragger
##lected
##lections
##imply
apic
refuge
missin
trev
trent
##ahed
corrod
corrid
##ropolis
paychecks
streaming
freeing
##ocol
##ocard
##ocide
##oceros
##ocritical
hotly
minding
districts
collided
colloidal
drinkin
demoted
felling
artem
ern
ers
erm
eras
ergo
ernie
ernest
undert
underway
shoving
esqu
infest
infractions
calcut
birdseye
bookkeeper
bookstore
poorer
divined
affray
warlike
purity
counterst
countdown
##velope
edits
edna
suppressing
hairless
haircuts
bloodstream
finnish
wedges
lawless
##ungous
shortstop
squatter
squandered
rhod
discours
depot
depred
extempor
detained
straps
##auts
advises
##wheres
fightin
avast
avouch
pastors
waterborne
halft
parl
paran
parse
flocc
concub
cellmate
excites
topical
cataph
breakout
##amma
monitor
moniker
monroe
brightened
##atingly
regional
hopeful
armpit
biased
biography
lotll
sprightly
opal
poland
housework
darkened
sonof
sonnets
anguished
tasteless
humankind
humungous
earthlings
obes
obfusc
starg
starbucks
lowers
lowland
petition
synch
##def
veldt
conduction
conducive
sexes
sexist
wallace
wallowed
declines
completes
bleating
maude
tyre
beautys
madd
flecks
fastball
fastidious
##heit
##held
##heated
##boa
transitive
banning
banzai
goldilocks
entries
entourage
bowwow
boycott
hitlers
astral
interact
interior
famished
annull
pickp
##rett
cowgirl
rapper
saws
balding
complicated
penel
latex
halfhearted
harvey
##ylvan
patootie
dogmatic
numbering
constable
dispel
dispensed
miserly
castro
castration
potass
potpour
achoo
achond
testy
sightless
prodig
dryness
ceylon
situs
booz
sharpe
seniors
##shire
archa
flatbottomed
magicians
judging
breathes
christie
croesus
shrank
autograph
autumns
milan
arranger
cashew
equin
securing
specious
legumes
leguminous
centaur
splur
splayed
horseman
catchasc
untoward
johann
eighties
corns
cornfl
corneas
darryl
mistrust
candel
farmland
sirius
fireworks
mixtures
donated
donning
donne
warmly
requis
richards
benn
benzo
sicker
aimless
copil
coproph
morg
softness
softwares
courtly
wildlife
##iocl
basel
basking
fruitless
pubic
publics
embers
ambient
blobs
banknotes
sometime
climat
veraloe
scruple
prawn
hyde
hyphen
layout
footprints
flooring
honk
gasoline
bander
bandstand
smoother
lauded
buttock
locusts
effected
malodorous
##ursions
charmless
matey
captor
captive
camar
camilla
blockb
blockade
shockingly
toto
totaled
dropdead
defeating
proposing
propeller
blinding
westward
westminster
keyboards
grog
grove
garlands
garnet
garrison
valor
valence
##guards
cougar
couste
immig
immobile
smiley
sorting
##cented
fanfare
birdsong
beret
##blast
connub
cardigan
ahoy
germane
##color
dimly
dimples
dimwit
sharpen
panicked
encrust
encrypt
##conf
taxed
boneheaded
approbation
dumbly
husk
dyou
dystop
confessions
melan
figs
latino
estimation
##gyn
boardwalk
dissert
dissoc
dissolving
dissolute
bayou
##toe
##tobe
successes
stocking
snowing
dangling
twentyeight
terrified
colleg
colleges
buffs
buffoons
hallelujah
machin
pigg
precip
precaut
precarious
argot
counterp
counterfe
counterattack
savant
savors
shooter
tubular
safeguard
unsaid
griped
hungarian
attractions
faltered
ordering
measurements
hurtin
hurtful
busty
inventors
rotter
rotate
aleur
animate
radios
volupt
##cerned
histry
axial
cadill
caduc
coffees
midget
lunchtime
supportive
galled
galling
gallows
cloudless
albac
stewing
humanitys
tablets
witless
horner
superl
muds
gleaning
conclusive
ghee
knockoff
decem
deceives
##alypt
chews
countrymen
spoils
accepts
tended
tendency
beastie
beasties
philanthrop
folklore
calmed
conditioned
rebelling
acquiring
cultivation
exhale
improv
borbory
ecu
ecz
lingerie
viii
viagra
violets
politeness
spaniards
beefy
differential
spinner
##agnes
procession
brewers
twelves
carping
pollute
poetically
correctness
scarier
respectful
##yrus
athab
lawsuit
honeybees
faithfully
prosthesis
aquaria
aquarius
venous
venison
dollop
cruiser
##crack
feta
fetish
governors
filmed
toothbrush
celts
brokenhearted
brassieres
matthew
bolted
competes
codling
oxid
throes
commandments
absolved
bendable
stroking
blankety
prima
relaxation
amphig
fonda
fondling
ethyl
fleeced
cathars
micros
frustrations
chuckled
traveler
famously
determining
secretive
psychokinesis
binder
waft
waists
advancement
pedro
pedagogical
chatty
altitude
romeo
vented
ventures
rejecting
tuned
toasted
scrawny
assistants
##doors
wheeling
##ythree
mirage
teary
organelles
forthright
empowered
bloomer
ciner
cinque
sparkles
amounted
authorities
fibber
fibrosis
gnarly
inhaling
inhumane
purchases
homers
homage
operations
##uscan
etching
taper
tapered
favoured
computerized
dysm
umm
##esthats
contentious
arthrop
energetically
batted
corduroy
steeped
steeply
fiftyfive
jerked
deliciously
tactile
tactical
voter
woozy
beaux
beaufort
clicked
bouill
tumult
claque
clapper
coaches
viney
vineyard
masquer
unwary
mcco
communicate
instructed
detectable
davids
##iotomy
magnes
destroyer
carbonate
omit
taunting
chemistrys
hikes
hiker
dopey
locket
artistry
barnum
choral
hubris
durable
tanked
##poise
crania
boomed
drifts
australians
australias
##cutting
oedilfer
giggling
owing
sacchar
ablation
molds
conversing
zookeeper
tedium
stallions
ampere
admirer
admirers
digesting
honesty
chopin
swaying
pulitzer
execs
circumvent
marshas
conjugal
anticipate
stupidly
stupidity
ripoff
itchin
sackcloth
brooklyns
progressing
cooing
rusted
waning
sewers
cabbie
streamlined
affordable
improvements
railing
flushing
algor
anthropology
nuclei
unbound
deafness
spectacles
assumptions
crawler
espies
ellipse
cerulean
pregnancys
capsules
scanning
electricians
grinder
researcher
asserting
golfers
lunatic
pardoned
wanders
hemisph
dodgy
dodgers
conquest
envoy
loathed
baseballs
nicotine
pertaining
christianity
dermal
disagreed
emphyse
royalty
gumption
batsman
wireless
profoundly
##without
ponderous
bashful
festoon
ranting
readership
wheaties
lyre
lentils
gourds
remotely
ovens
picn
awaited
generally
scripted
settling
satisfy
lucrative
tolls
cockeyed
boosting
heavensent
mourner
antibl
antibiotics
##gregation
academics
vibes
clutched
lovingly
dabs
graphite
translates
lesion
sperms
exhaustion
##bellied
altercation
##iatore
desktop
virtuous
##acca
##actylous
ayes
patched
sanct
abdul
succumbs
wigs
##pecific
editorial
vestments
wagers
wagging
converting
publishers
molten
scooped
loopy
platoon
platonic
comedic
chronicle
sketching
convection
grapefruit
indulged
indulgence
wombat
excluded
conspired
corona
francs
mankinds
extracting
aegean
##walking
assuredly
unfairly
economical
economists
knotty
graciously
digitalis
nicknames
vigorous
licence
aprils
eclips
##charged
gluten
affirmative
harpoon
seaman
anemone
committees
ancestral
michaels
dcor
vivacious
masked
nibbles
stanza
sausages
muttering
microscop
alder
ayeay
bertie
gametes
jacob
lampoon
##track
##ygook
celeste
bahrain
toddlers
anteater
anteced
reclining
bravura
yanked
baronet
decreases
satanic
northernmost
fencing
gorging
crusader
prudish
diverge
excitable
debutante
epicure
corsets
therere
thermal
assessment
brigad
enhancement
mosquitos
gelatin
oaths
##biosis
asteroids
treasured
scorp
screeching
surrendered
mitts
legitimate
confronting
bazook
enfold
muffin
muffins
atmospheric
juris
jurors
tidal
sulfate
convertible
slothful
strangest
consoled
cyanide
portraying
degrade
adulthood
hoarder
phenom
attachment
decompose
columbia
hughes
suspenders
pulpit
wipers
abnormally
lodged
metaphor
metaphors
shrouded
caterwa
lynne
yawns
sulk
cohabit
intellects
consequent
stimulate
prostitution
brackets
diaphanous
snarling
collapses
avowal
concisely
cannonballs
mohawk
frenzy
eccentricity
georgia
counselor
##washing
initially
shadowy
chunky
anomal
reptilian
soybeans
##olithic
uncomfort
chastity
fluttering
amendment
swimsuit
mournful
acknowled
distinguishing
rouge
##oooooooo
##iloquent
comparative
##behaved
trenches
fiddler
pandas
anaer
prowess
enigma
slogan
slogans
##odynamics
prosperous
hummingbirds
wendy
perspic
astonish
astonishing
achromatic
atlanta
fertilized
toffs
toffee
reeking
clamped
browser
abbrev
unconcerned
unemployment
dishonor
facetious
savoury
dosage
##catcher
##etoone
eyebrow
transcendental
craftsman
earnestly
pharmacists
cackle
##frame
##starred
presto
distillation
embroiled
symphonic
pyrenees
spaceship
discontin
rebuilt
thermometers
parson
cappella
##storms
downstream
hobbes
extolling
hurricanes
skeleton
nigeria
olympian
paternity
##driven
##bulb
assassinate
impossibly
deepsixed
earthquakes
synonyms
huckle
cairo
amni
misspoke
overstuffed
balsam
jesuss
rarer
anaphyl
enriched
snuggled
phallic
associate
intervene
galaxys
galaxies
ensnare
skewered
kaboom
rooft
staples
manufacturing
antarct
accosted
viscous
umpire
cacophony
cacophonous
enforcement
iconic
kennel
kenneth
nearsighted
flapper
manifestation
intriguing
antithesis
circumstance
disconnect
disconnected
threshold
gobbledygook
disbelie
scabies
contingency
eloquence
calabash
avaricious
astrology
protrude
epitaph
axiomatic
gnawing
bighearted
shrivel
haggis
clarence
sweden
acerbic
behoove
##wheels
debauch
embroidered
cetaceans
ditto
kernel
ophelia
##product
anamn
adiaph
swimmin
agrippina
peacock
peppermint
cypress
northwestern
nonchalance
fainthearted
kraut
ruffles
onscreen
rendition
frivolity
misbehave
buckingham
sympathetic
innocence
empirical
hazardous
disconcerting
bdell
jennifer
paren
sponsors
gracie
adhesive
newfangled
wordsmiths
melancholic
frankenstein
alphabets
olympic
gilbert
gaffes
hummus
canvass
cromwell
coercion
bohemian
bohemia
overlap
ballerina
befriended
indecision
cataclys
coworker
coworkers
uranus
derrire
intruder
intruders
baptismal
midsummer
rascal
vindictive
chapeau
deodorant
firsthand
grenade
corinthian
[...]
