[SEP]
-
[
]
a
b
c
d
e
f
g
h
i
j
k
l
m
n
o
p
q
r
s
t
u
v
w
x
y
z
##h
##e
##o
##i
##d
##s
##n
##t
##g
##r
##y
##m
##u
##l
##a
##f
##v
##p
##b
##c
##k
##x
##z
##w
##j
##q
th
the
##in
##er
##ou
##es
se
##at
##ed
##nd
sep
##re
##ll
##on
##or
##is
##an
##en
##ing
##ar
to
##it
##as
you
and
in
wh
it
##om
##ic
##le
of
##ot
##ow
##ut
##gh
##et
that
##ve
##al
##ac
##us
##ay
be
on
##ad
sh
st
he
my
is
##ur
##id
##ir
##ld
##os
##ith
for
##ion
with
##am
its
##ght
##ch
as
##ke
##ly
##oo
##ill
ch
an
we
but
de
##ent
##im
##ce
re
so
##all
##ers
me
fr
your
li
##ess
his
was
they
##ight
when
##ust
##ra
not
or
##il
##ro
##ct
##ere
##se
ne
this
im
at
all
##ver
##ant
##ri
are
##un
##ome
sp
##est
##ould
ha
##ter
##um
##th
##ge
her
##ont
no
##ck
pl
##pp
##ain
##ough
do
from
sa
su
##ol
##el
bl
##ack
##ast
##ak
##ie
##ist
##ul
##ore
##ate
##op
if
ca
wor
what
can
will
##nt
##st
she
cl
tr
just
le
##ine
##ound
by
fe
##ig
##ard
##ose
like
##art
ex
##ake
cr
one
fl
go
##ick
##own
##ind
some
con
##and
##ation
br
##em
##ab
##ous
##ff
pr
##ue
kn
al
our
com
##ood
co
##ite
##ach
out
##ame
now
##one
then
ar
##ish
##ell
who
##ive
have
##ink
##ap
their
gr
##ook
ab
thats
up
said
qu
##ud
##ep
bo
##ans
say
dis
##ong
sc
youre
##ath
ad
were
##ace
##ect
##ass
##our
##ag
##ree
lo
##oth
us
tw
##pl
dont
though
##ys
would
am
##out
get
##if
sw
##ost
en
pro
##ings
dr
##reat
##ort
##iv
##ide
##ies
call
has
##ice
##ase
##ile
un
##res
##ip
##qu
hes
##ure
man
sm
there
see
##ich
well
##are
ro
bu
##ade
too
had
more
theres
gu
##act
ill
##use
##ear
ac
##av
##ks
sl
thr
##pt
po
where
##ance
##ally
know
##ime
may
ive
##ft
##ned
make
jo
old
how
##og
word
theyre
##ity
te
new
day
##ble
ag
off
could
##aw
down
##ry
##age
look
app
##ought
##ang
em
which
##ph
need
##ail
mo
##eth
wr
him
che
got
##int
should
##cl
let
##ise
ever
##igh
think
car
##ions
##itt
di
##ps
pe
##ash
##ub
##fe
##oss
way
##ress
each
sin
##ens
##iss
been
##ical
pre
##ment
cant
sk
made
great
##ors
##ark
cle
##air
ke
des
gl
bre
them
##iz
##way
good
while
fir
##les
id
##akes
back
per
quite
two
comp
youll
mu
##ool
might
##nder
##its
##te
##ock
those
find
through
than
##able
##ull
##ian
right
##ia
##nds
##orn
spe
sn
##ious
take
once
##ows
##ert
##ves
ple
##uck
str
these
every
##gg
play
ho
must
##ved
##au
##atch
##ons
called
wont
since
int
##arm
af
##urn
##ars
##ave
##ful
ph
seem
##ts
##pe
##ord
##led
res
long
shes
much
time
use
cont
##rain
fo
##ix
first
feel
##ery
bet
end
##od
head
never
##umb
##wn
##erm
cause
##amed
##ven
##ence
found
##ount
sure
did
##ign
bar
##aking
##als
##ib
att
here
exp
work
##ered
##ank
best
cur
##ire
act
##ting
hell
##ving
part
##ty
over
name
##ild
##ats
keep
such
means
##ness
##ze
##orm
still
why
##ush
any
high
##ied
##bs
##ng
ear
gra
##ater
##ial
ins
##less
life
love
ey
want
tri
most
ass
##ots
swe
big
sur
##be
##pped
youve
##ym
show
hel
whats
##anc
##ict
mean
both
##ug
##ee
mar
tell
pain
gre
try
start
dec
please
come
##ead
##ird
##ather
som
young
thought
##ines
##red
##ope
bec
##ew
night
makes
ask
cut
hard
cho
##uff
clear
does
rem
##ates
def
bel
cre
frie
del
give
##ouse
fun
##irl
##ets
##ange
##co
##ott
ser
ant
##amp
##ents
eat
last
##ition
##ale
conf
##alk
add
bad
##day
comm
##ics
##ife
##ins
named
plan
dri
light
fine
place
##ated
red
pass
small
imp
into
dou
##ump
##att
left
acc
about
oth
##ning
rep
read
care
sch
cons
many
##ears
##ures
##que
after
cour
god
##up
##ists
far
##ling
##oy
##ult
dre
only
##itch
yes
##ms
##atter
dead
##ary
##other
##oun
oh
sound
put
run
##ory
##aim
air
hed
##olog
without
away
words
fol
says
aw
dra
##ber
hand
used
black
##uct
##ily
##imes
cra
beg
##vent
##per
##ants
##ude
##ined
el
girl
lim
ste
##ids
fre
things
soon
##ne
sweet
true
very
bed
##ote
seems
really
bro
##oud
col
heart
turn
dear
near
##cc
fear
##ax
help
##bt
rel
##ations
three
face
bra
##ject
##ten
##lect
inst
hear
##icks
##vers
ap
##imp
ref
##uc
miss
tre
someth
##ah
##xt
##ands
##used
lets
##rop
##ittle
cor
tra
##iew
##ways
till
##ane
home
even
yet
stre
pay
free
known
##unk
bit
today
sou
##ute
##oc
##ills
round
ball
hot
set
dist
mind
##dy
##zz
peop
rec
coll
##ried
drink
bef
lear
dem
##rie
bur
fish
##ones
fell
art
er
less
expl
under
##ives
fact
mus
##ait
kind
sho
fall
little
##ern
guy
inf
es
wife
heard
char
cal
##gs
blue
people
book
bird
own
something
##dd
ind
came
##ny
##bb
went
poor
chr
met
##ike
##lf
div
thing
stay
form
folks
grow
always
##aught
##ically
heres
again
often
aff
##ught
full
##ner
whos
flow
##br
##illed
dev
pur
wo
war
##cks
##unch
eng
count
lad
##vel
food
sub
rest
ed
##ams
beh
##ene
before
##ract
##uss
supp
bab
told
stri
hair
blood
dad
##ared
stud
sle
mom
sad
##ause
guess
##man
fin
wed
dam
##ored
world
law
##ung
##aps
view
##ns
##aid
white
sal
friend
##gr
short
squ
##umm
eyes
##ier
##so
##ains
##hing
##aves
disc
rh
##ric
class
dep
##ues
ext
##kes
##we
ret
##uth
ones
lar
stop
better
deep
##els
det
sing
men
buy
land
tur
stra
##unt
abs
hold
##ond
isnt
##aut
whose
##az
adv
quick
##wh
##ient
##aster
fight
av
past
stuff
##ward
real
water
hal
line
##ides
##oney
took
done
par
##ield
win
grand
##ize
##der
nor
other
##pect
##king
cry
same
##read
brain
treat
conc
flo
nice
scre
whole
cell
simp
##ob
state
exc
top
four
cold
cat
pers
watch
##pr
##ls
gone
gen
break
hor
##amm
inc
claim
lead
mon
perf
##oke
##essed
cross
asked
seen
bright
##ips
ten
bell
around
bill
##ating
##ased
##ired
lack
making
##idd
pres
reg
##pping
hope
fly
arm
bi
##gn
sun
gave
term
min
##rect
lot
##ised
pol
spr
op
weve
house
wom
##und
wear
nothing
also
##ape
youd
lost
cy
stand
dark
tree
##oms
son
wait
eff
##ual
##uit
##ames
next
##eds
##ular
##atic
gets
goes
##oid
##oph
ang
earth
tast
hum
writ
ob
##ced
da
yell
fair
instead
inv
star
comes
point
low
##esh
wish
bring
pet
belie
looks
sy
wrong
ev
sign
pri
##de
green
den
fool
##ron
cond
ve
being
prof
town
fail
few
skin
doubt
eye
forg
##ressed
school
wall
sex
decl
course
feet
comple
ble
ma
ty
cert
und
adm
limer
beaut
##cept
##pper
##rib
##ple
##ened
fat
##na
obs
king
##ments
mad
##ged
child
aint
##aint
##ek
##iff
happ
fle
speak
##ative
shell
fast
##not
days
side
thus
wind
##he
##bo
##by
##ians
##aced
years
ter
##row
##ether
doct
strong
##ask
##ium
trans
ban
gold
because
ent
que
bow
##ism
boy
hit
shed
year
ast
eas
##iness
cook
rather
walk
inter
##iver
ground
large
fam
pick
ann
##play
##ret
friends
##ouch
game
meant
creat
theyll
cow
ra
##uce
odd
saw
bal
wood
##ection
certain
compl
##ops
leave
##nch
pen
##ards
cir
case
##af
beat
fore
##ained
times
live
door
fa
guys
##old
meet
late
pow
rhym
half
cool
##let
##ilt
slow
job
##yl
##ution
##acks
fel
har
##ger
pat
##self
doc
dog
check
##ible
##ured
doesnt
##erse
clean
numb
##eal
##irt
death
##iled
##cle
sell
const
##ffer
##ense
ru
plant
disp
mis
##aces
hur
##ason
dig
cast
##end
##yle
##ese
##irth
cried
pot
##ique
pray
shows
ach
med
test
##head
##land
tom
mark
##asure
cap
heav
mess
##amb
##sw
knew
prod
using
sight
##oon
##fer
kids
six
dry
wonder
bud
##ention
ce
teach
##oop
sol
vis
##ove
##alth
sit
##etic
##urch
##ift
room
caught
boo
shar
cloth
feeling
din
appear
tried
##ey
##ither
##ept
sen
##sh
##ingly
leaves
##ces
##ology
straight
bus
money
pie
simply
sea
die
needs
close
dro
mine
kill
repl
sleep
smell
##lish
prot
display
agree
date
giv
arch
desp
##acked
shot
change
turned
enough
fit
##ked
##lly
flat
elect
##ils
list
lab
##ided
write
takes
##ler
##ren
bear
##oof
others
deb
rock
fill
boss
egg
mag
desc
christ
jud
breath
sil
chance
cro
shr
##igned
aut
mil
##ole
rom
ign
##ief
##ores
sent
build
worth
sat
prom
talk
##ider
##ific
didnt
draw
song
deal
arr
cash
##outh
##ature
knows
##like
nose
##orts
##owed
equ
##ility
##avor
lord
sec
##ales
##ized
spec
cost
hop
spl
leg
learn
cent
mother
brown
rul
##ork
answ
horse
##omb
##une
hands
##ums
catch
fil
ge
church
reach
brought
##tend
vo
spread
rare
unt
##uly
##inal
##osed
dar
eight
joh
pret
rev
##raph
inside
##ges
corn
gives
##ries
##ias
prov
##ests
fix
##uts
dance
mist
tight
##cy
dish
##eric
beer
cand
pull
##astic
##ails
##haps
##osis
farm
##ister
lau
maybe
getting
note
##ours
lots
sir
caused
##attle
fire
move
loud
##oup
shall
##ocks
##lic
##enty
choose
don
mix
ner
theyve
gree
alth
dress
delight
south
##eness
lif
having
perhaps
bag
warm
##ipped
##me
##ays
crit
##rol
kiss
gal
stick
##istic
music
damn
burn
##ky
requ
cannot
rich
ya
going
body
bought
ok
works
gun
tem
##erg
although
hey
succ
crow
ben
five
space
blow
##ices
##ently
expect
##aff
shout
worse
foll
##ital
##ume
felt
sick
wine
couldnt
bott
sky
meaning
##ience
##ites
spot
someone
aim
##arch
cop
mor
wasnt
french
trees
##lo
plain
bull
##full
soft
news
court
wild
##io
##iet
trou
bas
pal
pos
##ison
##erst
easy
luck
##ae
##key
least
##ying
##ween
coun
fruit
spell
taking
bee
##ads
cover
##itting
direct
tough
fur
sold
box
taste
roll
fame
ur
drug
ep
birth
mer
pub
sour
chem
design
##ued
##imm
sounds
mass
emb
wrote
complete
double
amb
enj
##aughter
laugh
##ceed
blo
truth
doctor
bank
age
somet
ver
##well
##otic
clim
##ished
pretty
scr
girls
hy
##ction
pra
##ken
##ony
between
bare
##ograph
strange
##fully
##app
become
##ruct
looked
foot
sense
pap
style
hu
lay
##ball
lives
smart
sometimes
sus
til
mod
floor
ele
##nding
##ision
ir
train
hon
##ett
##usion
gas
##ds
quest
opp
baby
band
drive
street
john
##iny
smo
believe
la
ring
butt
caus
glass
##rief
##ited
comb
##claim
ris
loc
broke
base
person
bound
longer
##erous
##aken
avoid
effect
rule
mal
##urs
meat
##ably
clearly
circ
alone
born
nation
##ging
whe
theyd
dise
bread
##bed
charm
lady
ren
##uel
attack
##ration
fresh
boat
matter
lie
proble
mate
behind
port
rain
##ral
sand
##iction
##cond
##onic
force
neigh
capt
##aped
none
occ
likely
surely
cam
chick
##ploy
weight
block
shock
##aked
looking
ways
speed
lines
##ering
##roll
##aving
ice
pair
played
dream
tot
##iful
started
share
##ched
surpr
drop
ran
thin
defe
prefer
##tered
truly
appl
front
prop
common
power
##erk
fate
##gress
thick
price
blind
##ement
open
sor
west
##oring
##omes
heat
arent
key
neighb
pop
reason
##ma
##ugg
##ator
neat
press
dread
writing
limerick
rhyme
ease
##urd
plants
sail
city
##osing
gro
##itten
begin
filled
gar
wide
ens
val
##ana
wee
##the
jack
##ding
bree
##ina
##otion
kid
##gu
der
##her
crack
smile
cou
due
sort
imm
fing
mount
tall
##ancy
fellow
path
##ted
field
hide
lose
verse
##cent
dism
helps
learned
birds
fan
anc
resp
voice
##go
##bl
conn
americ
ber
card
##oles
size
##ware
sens
##raid
##ees
##ades
ah
germ
brings
twas
keeps
books
family
summ
##ters
##ayed
stone
mem
##ounds
swell
##ural
enjoy
##col
arri
##angu
cheese
cart
dest
mr
hole
dim
hate
##ases
##aled
deg
english
danc
hang
post
##omy
##aws
##ech
stuck
camp
kept
enc
sharp
pan
##ror
##cked
brit
above
##iddle
brother
bold
differ
study
rub
##con
another
suff
blame
later
tax
teeth
playing
shape
tech
bone
dent
##fl
##iced
trick
flowers
seek
afraid
##ior
chang
buck
favor
pink
##ipp
seemed
clothes
cos
sque
##eed
##zy
second
group
appro
north
touch
##oned
store
bac
dumb
hus
crime
joy
died
rout
tong
##off
##undred
queen
aunt
##illy
proud
color
##icious
shame
##cover
##ining
##asts
esc
forget
duck
plus
replied
dy
##ss
tool
cream
bite
cu
pure
ship
lies
##aged
unf
phys
cup
led
pa
bod
drunk
aud
norm
##ann
sugg
confess
perfect
main
prep
explain
underst
disease
fig
harm
nat
butter
mel
##ems
##ints
je
##eral
tog
##acious
quickly
until
lat
morn
##cess
club
trust
##awn
##cles
bat
ought
##ama
cheap
##ashion
object
yellow
number
rules
langu
serve
est
gard
rose
##side
##ker
women
lifes
##gy
##gar
held
pract
father
mouth
##iding
##ident
chair
alas
hundred
##ages
throw
park
board
diss
tea
bay
sigh
##to
##ashed
parts
##what
bath
names
paid
grows
cheer
glad
success
stock
##ively
fac
mere
##rit
self
upon
snow
cute
else
woman
limericks
dang
##wed
incl
##oses
##empt
acid
eating
husb
suit
twenty
together
type
terri
fut
tail
##mas
grace
##arent
dut
##get
##eless
employ
hat
beach
chest
colle
##iant
buff
prec
choice
du
hall
mach
ye
##oot
thir
##iling
save
along
grown
thanks
pig
sym
poss
##ring
spir
arg
gods
happy
given
tv
##vin
##bit
cells
answer
greek
jump
prin
huge
##frie
##pes
frank
alm
grass
counter
ju
##ners
health
goal
##others
control
##idge
daughter
fif
search
##ley
soul
##aze
##asc
reve
##ested
sav
shoot
advice
techn
race
##sy
send
stink
became
business
tub
##iest
bes
fer
##bod
sto
safe
uns
firm
beautiful
heaven
bore
##men
turns
judge
dust
tick
wre
express
trip
bon
ut
##arr
ate
appeal
phr
follow
gri
##rew
joke
attract
source
gent
hung
##ever
##ata
##itys
##omp
plate
flu
cock
wouldnt
appears
account
absurd
beauty
fal
mill
oil
##oh
fort
fem
cred
thinks
##ec
##rees
##ches
feed
##action
##ension
surv
nut
##dle
##ires
flight
rob
comput
##ox
order
divine
milk
match
non
pu
##ru
##ening
fright
peace
crowd
trouble
dom
ride
##uring
measure
doing
##agr
##ney
hurt
bush
dough
hook
living
decided
ears
##eng
##ript
speech
dan
##hip
week
liqu
jew
tit
##val
planned
bust
pants
rot
ton
invent
crown
host
mans
pin
rad
won
wise
whether
step
weak
##geon
thinking
below
spring
ale
master
##uous
##aded
anim
##ults
wearing
eggs
##rent
##itions
##ipe
purs
loss
push
vol
##cer
stress
soc
neck
legs
gee
bey
##irm
within
##ived
##gged
mut
meth
story
hist
curse
ax
bomb
##oes
##mon
ash
built
okay
language
cad
##elf
boys
charge
##kin
threat
score
ready
record
vict
##ected
served
complain
##fish
##itive
##ading
feat
coff
needed
skill
paint
mid
mention
##ising
##ety
coming
road
##ances
##verse
perform
fab
lunch
pun
##iles
##vern
knees
support
beyond
sim
gall
##of
##tern
cloud
crew
kick
math
rough
wet
##gen
chap
##ager
consider
bang
gain
##gl
##rel
worst
contin
lovely
##aud
##vy
beware
##ander
alb
scene
acr
clever
action
plane
children
breeze
##eres
stars
##rod
uncle
pack
##bles
##orous
##osh
##apt
boot
unc
apart
simple
ancient
##ises
stew
##ray
party
human
visit
east
horn
rate
table
wit
##inct
grew
rude
##arian
##ths
##izz
impress
demand
incre
taken
third
##oul
##isc
whom
pride
##aph
brand
maj
link
toss
##roph
sport
##airs
wanted
trying
remem
mud
pitch
##iers
seven
shop
bob
saying
lacking
sorry
bones
either
##ien
##ta
super
##itted
glo
showed
gle
hors
able
return
piece
##iqu
##ton
toes
##oming
concl
team
dreams
gh
vir
infl
admit
##under
sheep
report
##ounce
##dom
##kn
##aling
dece
knock
dinner
biz
cust
##ares
##ities
conce
##ample
dare
##aly
##alled
frown
##uls
##ached
chew
define
country
paper
##omet
anth
pred
among
thrill
aer
auth
bun
dull
tal
##oint
##bing
whis
##vey
remain
renown
##gan
##erv
asp
ange
##uced
phrase
##orge
likes
##sel
spo
track
accept
tend
curs
starts
giving
surprise
tongue
sought
##ially
beast
rece
##ession
loves
dressed
##ization
passed
calm
against
ends
tiny
##rap
dogs
joe
phil
folk
condition
suggest
##orce
lift
##ribe
discover
acqu
letter
shoes
achie
##ually
##line
##reme
##ims
reb
slight
growing
vers
##erve
ord
arms
heads
broad
praise
garden
rise
wings
##ius
##ino
stat
##antly
leaving
husband
gut
wal
##een
spent
result
##ode
question
cult
eur
taught
##oe
##ories
stage
pill
vac
##xic
##just
exh
moon
contr
funny
impro
began
collect
bout
fed
lit
tour
seat
##ette
myself
##thing
##elps
declared
understand
##friend
aust
bark
fashion
lass
ol
van
##osc
##ching
##ledge
wants
mistake
bum
bul
battle
fans
mood
##aker
##str
twice
thank
behav
syst
brief
hours
yield
##aters
suc
loose
calls
driving
subject
bor
ec
gift
rum
##ality
##sect
##ther
swear
keen
phot
describ
##oll
inn
meal
##olic
exam
grin
quit
##ified
facts
polit
ling
tar
vi
letters
different
bent
drain
shown
fred
span
##athers
##agn
insist
bene
dwell
##bon
whate
cab
##ailed
diet
pee
plays
expert
priest
beef
ahead
cure
##ster
##oops
spin
twel
process
smoke
brew
schem
views
##onna
##ppy
cake
bug
carp
##ission
resist
indeed
bot
##tle
##light
##ai
##iting
##urred
repe
##room
plot
##aks
log
loved
poll
poet
drag
present
problem
american
cous
river
##ients
##wl
##wards
fingers
##bble
chicken
favorite
au
##reed
plans
##asty
##arted
flash
phone
serv
correct
bib
var
role
respect
married
booze
iron
##rys
##ye
##work
##aring
tow
cher
alarm
finds
brains
morning
##yr
weather
suffer
disgr
##arsh
##pend
worked
protect
mot
tale
thous
france
ath
##olf
afric
reflect
cub
##cul
strain
neither
scar
cars
carry
laws
public
honey
##vere
##jo
storm
waste
blast
text
embr
faith
product
terrible
cott
psy
##any
chief
pros
thoughts
##atters
genus
shut
stood
lived
cru
outside
sweat
suppose
sadly
drugs
aqu
tears
ven
sed
doll
sup
knife
keeping
##ummy
mort
##cr
##orse
##otes
chin
##ential
cave
alive
##ival
sne
surf
creep
running
twelve
fet
male
##ex
seed
##anks
##asing
##arts
join
##itty
recall
remember
net
sister
heed
height
##aming
chose
clue
govern
twist
guard
film
fancy
parent
tor
##wood
sees
tooth
states
##antic
##riage
spoke
trade
leaf
written
chocol
missed
##idden
cel
##how
##zed
##inate
stands
##che
apple
lust
nine
havent
seeking
broken
certainly
##zing
##utes
brass
code
enter
poison
barb
working
##ushed
ignore
college
whatever
dub
mat
sam
##lands
sever
wealth
coat
rocks
spend
lawy
teacher
future
tonight
wore
##yn
##uses
wash
neath
##ooks
knowledge
compet
##teen
craft
prize
bol
batter
crash
flies
bride
acts
strife
creatures
hill
hue
vote
##arre
##rage
ide
insp
yelled
##ped
##ury
##irk
##thats
cod
attention
runs
drinking
christmas
mac
oce
sink
##vation
yours
##roy
##where
terms
smooth
bits
pict
##aver
stir
##ament
amaz
swall
bucks
##ogen
##ensive
passion
subl
square
verb
jerk
ox
##rom
##por
##ination
debt
##otten
edge
absol
screw
summer
almost
hour
laid
thro
##erent
##ester
sue
clown
##assed
project
feels
command
soup
obsc
split
position
method
coffee
succeed
lou
mum
##lt
bend
blues
pron
##ugs
complex
aid
##lers
stro
impl
blank
clock
prim
disapp
##ples
phelps
remo
ess
label
suspect
task
##eg
seas
lips
deliver
lands
mur
##ician
##cend
chef
remark
relax
##board
wonderful
covered
##body
##rupt
foul
maid
row
##iance
rear
suck
amph
bugs
fond
attempt
extra
regret
bottom
credit
horses
cath
cats
eth
rat
tim
##no
##bled
##wise
##inous
doom
lover
frequ
sales
excess
walls
flee
fault
civ
mic
##bre
##ero
frust
exist
whod
gray
science
ago
contract
earn
##velop
squee
bump
nuts
rab
##gre
##come
##itz
##udge
metal
points
doctors
##ength
bass
bord
cas
gay
jail
##wor
##erc
youth
beans
chain
chuck
react
yourself
spare
shouldnt
balls
holds
hun
killed
##aur
##ara
sore
##umber
insane
hardly
##otted
travel
flower
salt
determ
famous
##acing
champ
places
prob
desert
screen
secret
risk
psych
bind
bored
dip
wa
##gin
##right
##my
thri
insect
##icate
herb
##olved
##ulous
truck
knight
himself
speaking
defin
reading
aware
ladies
advance
causing
chocolate
bills
opt
##using
breed
hearts
brave
galore
captain
middle
##ipping
##set
##net
iss
bran
brush
swing
designed
glow
refer
failed
major
bask
lake
ped
##ik
##rate
meas
abst
skills
dropped
nar
##uits
##ault
##fort
##oma
chat
neg
alt
quar
drown
offer
pleasure
winter
problems
sublime
dir
dawn
grief
pad
page
rome
vent
##eter
##oser
reject
##vert
##umps
coast
adore
calling
unless
##ounced
##ocr
watching
raise
cosm
bid
cough
hip
rank
range
##hood
##do
toast
shaped
##ffic
pleas
crap
causes
nature
tun
##uv
##asion
##acy
##osp
##amps
cann
coal
scra
##anced
creation
confused
extreme
despair
system
ba
dw
gonna
##onse
##ille
sugar
##aste
assist
tells
lights
career
##ologists
##dden
cryst
annoy
market
heavy
building
false
ment
site
##over
##iate
##lin
##bers
oft
holl
begun
belly
wheel
approach
fu
hen
##gers
##lets
stare
##urned
whenever
notes
placed
prime
mov
higher
hits
kings
pale
##time
##illing
spouse
early
##icted
consum
##bye
bizarre
kin
nude
pour
sits
##yth
##ldom
sple
bond
device
discuss
mir
vill
##och
##born
worn
somewhat
conv
moved
species
bitch
cig
ham
naught
##hand
##cus
blessed
##ounded
alph
unlike
accord
students
despite
stopped
apt
cattle
tip
tales
seldom
fee
crude
nearly
err
ms
pool
##ency
##ivers
prev
##ibly
grab
devil
singing
declare
rhymes
mixed
barely
length
##here
##form
##but
##xed
##itor
wheres
shun
staff
hero
example
##iform
switch
root
teen
snee
inspect
belong
mission
stret
falls
romance
escape
rush
tear
##ipper
##zen
##cher
##cell
rele
feast
fears
crust
flag
slip
listen
george
scratch
merely
organ
attend
except
flood
grant
swift
##iving
breast
current
address
turning
subst
chemical
##claimed
machine
cin
cit
tab
##cing
##enn
forth
trad
##ague
emp
reply
freed
damned
invest
bloom
gentle
dot
event
fib
pil
rage
sang
##back
##asy
shy
forms
flesh
distress
burst
subm
worlds
single
claims
profess
silver
disgrace
oper
tiss
##ov
##itis
##anth
##ulate
enth
jokes
everyone
marriage
starting
degree
dirt
mamm
nasty
##for
select
##ede
##omm
shore
develop
##allen
allow
spark
amount
curt
fools
author
gn
noun
piss
wake
##oys
##atory
inh
##usc
bees
anap
blond
sword
intent
hearing
purch
wedding
special
features
az
fuss
hom
pest
vain
sets
seeds
##itude
clay
abound
snake
fung
##ologist
streng
flying
raised
numbers
dys
et
tune
##iar
thumb
flaw
proof
rod
apply
empt
##inese
bitter
inform
review
cousin
mouse
tap
##apped
plight
sudden
fold
construct
tempt
changed
fav
fills
silly
##iac
##fast
##bol
beet
station
chic
weird
##ulation
##opes
concept
##ological
##uction
excuse
daily
paul
computer
glee
core
data
games
mail
sides
um
##nday
##isp
imag
##akers
cav
convey
##andy
knee
boast
buzz
diam
acting
showing
##vention
moment
float
produce
hopes
bottle
defeat
parents
cops
gang
jour
##tic
##gly
sticks
chill
print
arc
defined
concern
arrived
ara
aug
losing
##house
##ule
##chant
##sters
flair
serves
cele
critics
utter
dun
fits
faces
##itter
##esth
noise
scot
guide
agreed
##bbed
claimed
climb
totally
strength
max
oed
tone
chinese
sole
##udes
##ify
tex
struck
content
mostly
missing
##bby
affair
final
evil
creature
selling
angel
several
cere
faster
maint
pope
punch
rings
##rons
severe
arth
enem
energ
drawn
supply
strike
medic
describe
shrink
neighbor
sensation
ghost
ocean
batt
cord
dick
dash
jell
rid
rent
##lor
##iment
reck
fro
##rob
worm
tricks
cruel
grim
useful
foe
steep
colon
helped
buddy
##ification
hay
jer
trop
wax
werent
sauce
bless
disg
proceed
unique
fox
meeting
debate
fifty
across
fant
fake
##you
season
##asp
bean
##ilar
exact
grave
meanings
decide
delicious
reached
provide
completely
british
grip
african
pound
pear
vot
yard
##rum
deer
haw
bloke
swim
goods
goodbye
consid
muscles
shoe
engine
belief
terror
rarely
respond
response
prince
bake
cows
dump
hol
holes
nin
tact
vast
woo
##rous
##li
##erves
beau
cla
click
lean
flor
coach
roy
##aved
holy
becomes
holding
typ
connect
practice
throat
bou
mart
tum
tied
vine
##car
##esus
##icy
forced
frog
results
foes
anti
guessed
crypt
prayer
fixed
cursed
thousand
absolute
frustration
ace
hunt
mas
##erate
##utter
beck
bears
shakes
stun
##umn
##iveness
##ography
gin
pir
waves
yer
##free
##ato
challen
##outs
proper
unw
office
service
famed
rope
##mans
##ka
##ench
itll
weed
sports
flows
##ache
##udd
offered
surgeon
chrom
scream
applied
routine
technique
gown
gals
sar
wave
##gle
##ux
##erved
##ators
plenty
bliss
crim
##elled
desire
##gging
marry
relief
fully
leads
blooms
oppos
latin
civil
eg
mc
tent
##foot
pole
commun
instruct
musical
army
standing
message
##known
eve
lying
nur
pier
##esis
##isy
shirt
stead
soil
sale
gross
slim
joint
##anged
snack
resem
girlfriend
finally
flew
bald
temper
bri
hack
pity
pills
wink
myster
trash
quiet
uses
ended
partic
pains
greet
student
detect
##ammer
cycl
total
destroy
juice
rash
rib
russ
saint
##mo
##met
##acter
ships
weigh
lip
worry
cran
goat
hasnt
roots
moves
songs
candid
figure
thirty
history
frequently
dine
dav
eats
fare
lest
nest
tort
vow
witch
##iot
##iation
##nam
##aa
##can
anch
wel
wears
liked
##umes
plastic
##ifes
pock
breaking
##lessly
steel
drinks
explained
regard
##ophob
blew
walking
interest
magn
##iety
ensure
cotton
boring
fought
roof
sons
toward
##omach
stiff
crook
fled
scary
manner
##anger
carbon
prey
growth
hoping
neighbors
beneath
embrace
disgust
aph
ded
junk
od
om
sings
wing
ze
##rical
##vous
thigh
##imate
blink
bron
gran
##ivity
seeing
prevent
grey
esch
stops
easily
medical
couple
vacation
bast
dude
jap
ske
ta
york
##azz
##kind
##onym
##isms
shad
weap
spy
level
##eps
bog
dire
function
formed
depart
syn
talking
nerves
chemist
degrees
dirty
during
hi
patter
##cast
theory
china
deck
spain
dope
##apes
load
prove
skull
strict
nights
remains
relig
suppl
picked
modern
danger
spirit
liquid
aver
dess
grain
lame
sly
##ado
##illa
anal
##ppers
fever
disgu
lock
joined
peas
rights
create
burned
artist
##ground
tasty
priv
bleed
pulled
local
dutch
survive
discovered
scheme
cries
eager
nick
obt
rig
waters
##ront
##vest
stomach
island
cha
##isters
troops
convin
bridge
##iferous
offic
cheek
barn
planning
steam
displayed
dismay
dancing
cac
dame
kitch
pace
vess
##fly
shake
chor
##ctions
##eling
##ouses
##quet
diagn
finding
intense
mary
telling
drift
import
learning
dads
powers
cuis
bin
hub
mult
raw
##ios
##era
##usive
##osph
abdom
slick
##aux
earned
surr
passing
strip
roman
hyd
preferred
bacter
natural
basket
dur
hidden
poo
tang
tank
ugly
##yd
##uch
##po
##arant
intend
shine
blight
##ula
##ulf
cancer
flavor
abh
boom
##itters
tries
added
drew
indian
fighting
happen
banned
german
precise
dessert
hers
sum
sitting
##ras
##rot
##zer
beats
lib
trace
mighty
impressed
crazy
colors
##ucle
divorce
england
months
forever
shrub
center
darling
susp
female
austral
government
japan
aur
bach
dow
faced
sac
##iam
##cut
thor
shade
fried
##ags
##agle
roast
moving
treasure
babe
conduct
golden
pressure
custom
oedil
damp
gig
hatch
ken
munch
ow
pit
pup
pause
rap
tie
##ho
##night
##tw
##anes
##oster
brothers
coin
abl
mold
glance
cutting
belt
puts
refuse
##zzzz
capital
solution
birthday
##gypt
behavior
viol
goo
##look
##win
##owing
stup
chir
chart
socks
##olution
prone
mob
handle
finish
schools
cease
appeared
direction
further
finger
possess
achieve
cens
tack
zero
##boy
##itation
sting
##keep
reign
convers
carn
##rained
retreat
pete
astron
eschew
based
hood
puff
tin
wifes
zoo
##rant
##mat
heck
ants
depend
##rog
blad
lee
brill
altern
copper
abuse
##aret
##phal
cheat
remove
handy
moms
signs
bowl
candy
farmer
request
laughed
econ
egypt
gate
matters
signed
ted
vile
##port
##rete
stall
##idence
worms
flame
brick
##ability
gramm
upset
scared
perm
actions
adding
stays
affl
purple
tastes
walked
budd
eleph
mountains
disappear
anapest
gear
mall
rack
##gest
##cil
##edly
##omas
blows
bru
boots
lovers
amp
guarant
ideal
anything
repair
steal
colour
affect
breaks
month
admir
digest
silk
required
soldiers
hyp
honest
yeah
animal
jar
tired
thread
sevent
##oric
##enes
chore
chop
bloss
cliff
lew
##abl
scale
sway
enh
preach
actor
lacks
created
checked
drops
honor
defend
route
tools
lawyer
considered
cards
hence
jesus
nav
pul
##oons
##bits
##cs
thes
##oman
asc
rejo
##sem
##aine
canad
willing
exec
flour
convention
loan
drill
drank
guest
jobs
##umbled
##zzle
buying
genes
breakfast
waiting
angry
forgot
balance
##olete
circum
beginning
sighed
duty
probably
dil
eu
ere
guts
jim
jane
marsh
pump
rice
##ials
##reh
##owl
shir
stressed
frame
neur
##tery
pluck
##iece
conj
disaster
scient
proved
##ortion
slipped
skies
fired
strugg
surm
distinct
meter
bloody
absor
police
opin
drove
secure
talent
celebr
fart
fence
jaw
map
toe
itch
##ald
beard
shel
stones
##urb
forty
anat
clerk
wholl
disd
cares
##ression
##bey
cuts
antic
##attered
presc
slowly
critic
##selves
squeeze
splend
empty
maintain
nurse
stupid
crop
ech
hint
homes
lamb
mothers
ore
pi
rip
##bling
##inity
##reet
stroll
##osen
##amin
web
##cel
orange
##rier
##umble
##elt
clo
##ational
##uded
boil
progr
bubb
greater
greatest
sniff
string
struct
billy
winds
docs
constantly
vision
pieces
include
title
abhor
oedilf
baw
bail
dies
faint
mush
oer
pine
rust
sack
wis
##down
##orter
##inge
##icians
myst
chips
notion
brook
prison
arts
progress
##iously
assume
greed
awful
evening
behold
##raction
treatment
deny
obsolete
guns
effects
facing
europe
improve
surface
tissue
bish
bait
bike
coo
foss
lump
mich
wan
wick
zone
##ean
##bur
##erly
sew
tops
##leep
myth
chicks
cabb
alg
dram
##enses
curve
decay
##berry
stream
minds
afford
bible
wheels
perfectly
symbol
revealed
narrow
blonde
bere
pip
packed
rail
wra
yo
##law
##vet
##bor
##orph
##chan
atl
comic
comfort
thrown
aggress
moan
mole
glory
decor
##coh
begu
fret
demands
depressed
##ship
##imming
campa
anthrop
repeat
insects
bunch
motion
nucle
pose
##arks
##omic
deed
sod
spine
novel
leather
somehow
congress
##athered
unb
##ption
tender
compan
##gger
contain
painting
decision
trait
horri
##ribly
woods
smells
legal
oppon
idea
swallow
substance
hills
lin
vit
wid
##ros
##ram
##pa
##zes
##rep
##asm
whee
whale
deaf
orch
spect
##olar
flock
prose
aber
quote
assum
access
careful
craw
feared
woe
##ready
denied
nerve
copy
arrive
normal
fabric
cope
gather
##iable
##ded
##bird
threw
##orys
##arse
##omed
notice
saved
##olve
sheet
crick
##ables
##aging
slice
##away
pref
##erman
esp
president
polite
spray
humans
ignored
prompt
ambition
tossed
borrow
pissed
opposite
ell
fern
##water
##ini
asleep
chim
chagr
##stone
alk
grade
bubble
guests
poly
cheers
attacks
greens
somethings
##azed
bells
cooking
lucky
groan
natures
stroke
cer
eld
mild
##nes
##nie
##tes
##lings
##zo
sem
sty
forb
liver
##unction
spots
##they
caes
acet
wherever
highly
drives
relations
trail
pays
charl
chris
behave
hairy
model
kitchen
ak
sans
tan
##iel
##dra
shared
forest
chase
spite
closed
feature
goose
brid
##abet
alert
already
##agon
emotion
mock
##ethe
pregn
perch
calc
##aughters
lawn
fleet
patient
answered
burning
expected
value
mountain
professor
tropical
dat
ult
##hold
##nal
thief
anx
meets
##uster
##ument
clar
grou
advent
adjust
##ifts
acclaim
joints
dipl
##ggy
feelings
becoming
badly
traffic
studies
##azy
towns
speaks
teachers
bearing
magic
breathe
urge
ordered
measures
freedom
disdain
campaign
bars
baked
kate
loo
mates
wow
wary
zeal
##gue
##fic
##atoes
stories
chances
washing
blade
caps
ard
scan
##aceous
apples
##lessness
##otto
distance
concert
leader
leaders
perfection
complained
electric
equal
shocked
encoun
suffered
slightly
political
picture
imagine
groups
fier
vet
voc
##uish
##aic
##arf
stole
stocks
##iday
##osition
##thy
##ste
clin
prices
grind
scare
pretend
keys
ending
attacked
surre
serious
dried
awake
demon
rhyth
incred
lower
condem
tomor
suffice
prepared
expression
social
gloom
renowned
sneeze
jelly
ditch
fuel
lur
mater
nations
pits
##esc
##itar
ink
forces
##lys
reaction
##rooms
crunch
##elling
scant
adj
adam
knowing
older
resear
focus
assert
marks
steer
##neys
##uces
corpor
freeze
stayed
bacon
hungry
orders
golf
hid
lun
nap
pard
ward
wand
##rem
##oted
hem
weep
deft
render
fruits
nobody
dod
blown
lend
conqu
env
spending
strings
delay
draft
collection
explore
falling
foods
returned
straw
paris
ruled
handsome
murder
thorough
fog
hind
##ois
##nic
##onian
##isf
shrie
stub
stern
ank
liz
haul
##umin
suits
clam
extend
someones
##aches
acad
acute
skip
adds
streets
forgotten
types
constant
produced
baseball
bodies
wreck
fortune
##oscop
cruise
waist
cuisine
dates
ga
nun
##kers
##atically
##onia
whack
##idae
##akin
##ulent
exch
alcoh
grad
scul
loath
##place
backs
snap
##type
eaten
##aneous
divide
concer
protection
kissed
burns
combine
mrs
dimin
tube
million
botan
dying
furn
gem
james
nic
os
rac
wool
##gic
##lock
thy
##itic
##itious
ital
##osoph
allerg
clos
##aper
scoff
lond
##quis
emph
gotta
pert
stray
##ixt
endure
attached
counting
viewed
decline
foreign
christian
crops
answers
greeks
weeks
thirst
spirits
hunting
tradition
derm
gym
jam
mos
nary
pipe
##onds
##more
##bes
thou
##rets
toy
##icle
chow
alle
##rian
doors
cable
disag
##orted
breasts
asking
remorse
screwed
cyst
humor
writer
sexy
window
##iums
cooked
southern
occurred
germs
panic
frankly
alex
clouds
royal
bil
poop
##rid
##uation
##erb
##lla
##orical
anne
##istle
##ounding
exceed
flip
flav
brood
groo
scott
twin
##ysis
##ilet
roam
perple
remind
defense
accident
putting
awe
souls
##ocent
character
banks
circle
clothing
nervous
fields
computers
prospect
issue
quarter
criminal
bom
dorm
fert
gum
gained
giant
muse
sorts
##eem
##pose
##cious
##anas
##iring
spice
dol
dock
aband
##agger
locked
drum
carried
glue
exper
surg
settle
charles
finished
jeans
verses
enthr
ape
bats
gaze
hired
torn
wire
##hes
##rus
thunder
##atical
stem
habit
crimes
ponder
peak
active
insur
##zzy
kinds
minor
profound
fails
observe
happened
breathing
occasion
hanging
reveal
spanish
bladder
sculpt
couch
hosp
moth
rav
##ok
##ih
##bow
##with
inj
##icity
##lete
chip
depl
depe
soap
noticed
bland
crass
scorn
peers
everything
partner
bigger
##ancing
serving
confirm
corp
muscle
##bris
devotion
hairs
grandm
treats
persu
events
veget
odds
solid
dye
latest
disguise
bash
daw
fest
ot
pork
ray
rant
##gra
##aust
##word
##orious
deem
pled
subt
flirt
scots
ads
twe
rode
hadnt
slide
##angle
needing
carr
compound
intell
confusion
readers
begins
fishing
error
##ummer
vegg
patients
miles
scrub
football
glasses
wheat
dismiss
healthy
liquor
similar
fungus
pocket
cri
daughters
ly
lent
luc
naked
rates
wars
##eks
##uke
##pass
##oust
##ari
##utions
##vell
##alt
cham
##that
sunday
cape
brut
smiled
passes
slee
paras
waiter
angle
dense
arrange
farmers
require
##rolled
machines
witness
branch
movie
fierce
tomorrow
gour
gau
mons
##bra
##nders
##alo
sher
sham
chlor
image
spit
##stand
cling
feather
ars
scent
##iph
emer
glob
expand
decree
remote
damage
fights
general
minute
busy
masses
dentist
changing
radio
thrive
arab
rejoice
bereft
apl
bos
bunk
easter
fiction
mike
ov
pic
pizz
sid
tis
##uity
##aft
##ndr
##iter
itself
meals
allowed
##unct
##then
##ols
trump
tracks
exclaimed
disord
unable
smash
skirt
anyone
conserv
await
braz
corps
trap
infection
babies
studied
winning
gener
sexual
shooting
invented
##iques
energy
cot
ding
dating
mour
oak
ram
tut
wound
##ris
##fashion
##pered
##bel
##worm
toil
##ete
shift
chosen
reward
mechan
lied
##opl
canned
leap
excell
crisp
flaws
script
swore
enl
crawl
sett
educ
bringing
astray
marked
satisf
promised
candle
location
taxes
pursue
conclusion
developed
cass
dice
terse
##book
toll
shield
stain
asks
debris
##esse
caf
crank
flick
pressed
coc
abb
boost
manners
##ogn
gotten
compare
choke
crave
freak
affairs
warn
squir
belle
writers
##ribution
windows
heavens
killing
hoped
films
dishes
designs
eleg
immense
britain
predict
received
tower
removed
definition
london
dandy
file
hitch
nurs
pant
vital
##now
##fore
##vity
##icient
##leg
##idents
##ili
##istics
##ules
clut
trunk
quart
adject
proph
manage
throne
##awk
##phem
desper
trial
painful
antib
godd
trem
todays
formal
daddy
squirm
terribly
filling
arrest
darn
eighty
prepare
animals
records
walks
bibl
obscene
##greg
determine
neglect
stretch
suddenly
horrible
chagrin
rhythm
academ
agh
bart
cul
dab
grie
gamb
ira
lap
ros
ts
vic
vib
##most
##ups
separ
##orial
##ompl
##ower
stitch
heal
chol
fract
hail
##geons
##oodle
grasp
adop
loving
usually
##ortun
therell
rooms
tends
descend
compass
addition
paying
explains
##bbing
winner
grandma
fourth
crossed
lacked
entr
penny
##ended
bags
embarr
charms
charming
##ription
simpl
philosoph
athlet
mens
nail
nons
rife
upper
yach
##rue
##cra
##ano
beasts
##irs
plates
sake
##eled
blur
fluff
coy
unst
diff
graph
steak
apost
trend
warned
classes
blend
transl
sleeping
autom
troubles
rolls
employed
sympt
increase
describes
obscure
diagnosis
cabbage
coup
dict
fist
hound
les
lone
lazy
##den
##nel
##lam
##aire
##fall
##filled
##vas
##wing
##inc
##iner
##orr
##icit
##etics
shelf
sperm
crumb
flush
proclaim
slack
tease
hoot
attest
painted
refers
shopping
engage
discreet
turkey
##eyed
benign
climbing
questions
launch
personal
cuz
victor
virgin
exhaust
lawyers
methods
pronounce
wanna
pardon
bane
june
paw
tig
verm
##fit
##bell
##inch
##inth
##anch
##ica
shrew
aside
deeds
##ilty
saf
##asters
lect
cracked
alter
arter
scenes
##athy
amaze
enchant
drool
unp
shoulder
intr
barrel
sweep
march
planet
crab
relie
demise
infer
obama
admire
banana
popular
objects
dangerous
conclude
knocked
spoken
cherry
mystery
aghast
bess
cz
cakes
dime
dug
erect
fid
hoo
jun
lick
mile
pac
tart
vice
wolf
##iat
##bound
##cre
##ences
##asia
##uted
##acc
beak
forward
fry
##ablish
##oused
##inks
##ago
##agged
tween
poem
wrink
##aired
desk
themselves
curves
parties
earl
doub
charged
purpose
monk
efforts
ceiling
protest
drawing
blowing
##immer
members
audience
crystal
brilliant
##fashioned
dive
dud
fulf
gosh
hike
rug
vall
virt
##sp
##nis
##gie
##gment
##four
thomas
towards
##itution
##cha
##keys
##ante
fling
flatter
prick
boats
##oured
swine
smiles
roads
##actyl
plea
##peare
barg
creed
series
confuse
slept
treated
##ammed
sunny
writes
vex
##hearted
##headed
displays
labor
followed
dental
ducks
clubs
jews
chemistry
elephant
research
ay
hog
hank
hips
harsh
overs
patch
riv
riding
san
##gon
##cular
sends
##ora
bew
assem
chau
chann
analy
##enth
revers
fries
alleg
nod
plac
plaster
subs
exotic
crush
somewhere
abd
unknown
slave
chees
company
assault
choosing
related
affection
advised
parade
watched
crossing
raising
romans
succumb
courage
danced
accounts
millions
behavi
pleasant
fantastic
shakespeare
grammar
cort
fade
gently
lout
obey
rud
ruth
rotten
tuck
wig
wives
##ham
##mate
##aunt
##field
##ville
##based
##cers
##zym
##isions
##aries
##unts
blush
william
leak
feathers
ark
wholly
seeks
guilty
oldfashioned
checks
deserves
steve
refused
earths
queer
hurry
castle
sentence
##appy
inclined
husbands
femin
domin
domain
lingu
important
lewd
thesis
bishop
brazil
iraq
bamb
fanc
lam
lark
tu
vel
##ij
##yp
##yll
##lorn
##ba
##isk
##etically
##ada
shark
chatter
##unks
noon
cage
sheer
exerc
cruc
##ffe
arrow
slo
agent
##pec
trips
courts
awry
##ucing
distract
democr
editor
persist
fairy
bleak
harry
catching
irish
occurs
applaud
groom
connection
dancer
fluid
robert
jewel
continue
walt
culture
exhib
logic
border
dwarf
welcome
intended
opponents
depends
biblical
ais
cask
fund
goss
hues
mice
mars
oy
pile
sant
tame
tails
vest
via
wag
wins
##hips
##oqu
##rine
##rated
thee
##oral
##arn
##icing
##acle
beating
shred
##ional
##estic
##olves
blocks
clout
tract
justice
crud
conver
brow
unse
teens
cheeks
carries
afar
reside
##oded
expressed
defect
driver
accompl
schm
limbs
explos
salad
deeply
foolish
profession
famil
promise
greece
critical
publish
camel
surprised
bucket
attractive
described
dollar
inspired
pictures
drowned
cannib
diamond
texas
surmise
splendid
bing
hug
houses
kicks
latter
mol
rats
##ef
##gard
thorn
##otch
shots
stores
heap
fork
weary
mexic
libr
orig
spur
spider
plum
##ously
prote
scoop
guitar
ills
acne
##ava
poems
##ogy
teams
ages
appall
carb
theme
##fulness
actors
hello
assign
delicate
consult
trapped
underground
formation
topic
leading
syll
sharing
auto
enjoyed
changes
virus
status
caveman
##green
according
release
voters
supplies
average
alcohol
auss
cree
loop
nit
wiz
##obe
##ses
##rich
##ais
##inter
sequ
##atives
##itors
inqu
##icles
shirk
stout
stark
isle
islands
##iders
##osity
withdra
webs
noted
imb
##anted
noble
plat
sucks
##oli
##stop
flames
bred
brits
comed
##itect
abide
quaint
##agne
twins
enge
drac
##ques
gull
appe
peer
sins
perce
##erty
actin
antip
warning
stuffed
exciting
effort
daisy
mister
appearance
replace
crock
draws
lords
johns
corner
applause
geek
uncouth
bunny
compete
bolt
amphib
ninety
thighs
bastard
fossil
pregnant
ultimate
exchange
eagle
fiddle
sib
witty
##haped
##oom
##ipl
##gets
##ya
##made
##uing
##point
##bu
##cue
##cence
##inent
seal
##rec
whore
##icular
##uter
onto
chess
chum
reh
sooth
frag
noth
org
doz
leis
goals
##uddle
illness
newly
##class
##beat
confl
driven
##ouncing
awoke
limb
stealing
setting
##zzled
demean
shoots
calcul
chronic
purse
woes
##weight
advise
minutes
wishes
boyfriend
dispar
##heads
provides
spelling
papers
button
difference
butterfly
buffalo
stinks
midst
sneak
funds
religion
private
convinced
aft
bic
gap
horm
jan
lace
mirth
num
oct
tips
vicious
##rac
##rition
##year
##pers
thw
whirl
##ication
##ota
beam
beers
shiver
shapes
stake
chains
##unting
sap
cler
clients
lem
alien
covers
loot
therefore
pond
poker
needle
sket
skilled
##ixed
workers
curious
reads
carefully
corrupt
calf
extract
absence
crying
daft
involved
buds
architect
bench
palm
sorrow
jumped
fifth
pursuit
increased
linked
receive
yields
essential
movies
purchase
abdominal
hospital
bost
bisc
duct
ego
gifts
jung
lion
mont
pist
pout
porn
pounds
rang
rays
tas
tad
tape
##dled
##rick
toxic
ing
shiny
stol
##osaur
forlorn
mell
frost
fragr
liber
herd
lemon
crushed
conve
brash
coins
##ishing
##elle
abys
twixt
ample
offers
moist
dial
prem
goodness
afl
grape
assets
accent
balloon
indul
devout
shorts
singer
opened
womb
declares
##box
transm
complaint
dispute
ache
delights
director
rolling
smoking
combined
sailors
rubber
##friends
searching
appealing
steps
spoil
cabin
altar
prevail
pilot
opera
neighborhood
bouquet
aesth
bir
cach
hides
jones
nag
sung
##eer
##gal
##faced
##enc
##enic
##asons
whys
##icide
stamp
##kew
##ctic
##unning
dozen
excl
##inded
cogn
arose
adorn
##agues
prol
unaw
guilt
##earing
peep
peek
ski
pleased
##atched
tribe
sweets
defl
consp
refrain
##ahs
coron
shove
details
screamed
tense
cyt
##ophil
##ophag
anger
obl
queens
penned
powder
patience
potatoes
provo
merry
##ettle
victim
victims
mathem
brandy
mental
challenge
weapon
vessel
exercise
bard
balk
cue
dart
gorge
lime
sample
wat
##gian
##matic
##pet
##cere
##ena
##aria
##utation
##usions
stated
##urity
##amas
reverse
franc
lil
##rogen
##sell
allure
spotted
blunder
worship
clot
claws
nowhere
bov
enzym
##quit
mankind
roar
jolly
agl
ende
harder
relate
fellows
squat
larv
tennis
believed
grounds
ignor
shouted
##balls
national
pairs
princ
wrecked
volume
punct
superb
photos
thousands
labeled
henry
alphabet
purchased
enemy
typical
pirate
david
multip
cricket
veggies
goddess
yacht
ae
dana
eb
hamm
lament
maker
na
pies
pots
pages
rand
roses
tons
uk
zest
##walk
##erving
##oux
##asant
##otions
##ader
shant
stance
stash
##osa
fraud
##rial
spill
spoon
client
coarse
grub
scored
adored
swiss
smack
slope
thrust
emerg
wrath
shoulders
muck
player
resort
highest
assured
imper
award
buried
fella
absent
halt
concrete
syndr
harvest
spreading
sticky
unfair
physics
estate
esteem
savor
##bodys
angels
washed
amazing
champagne
favour
masse
econom
blossoms
desperate
leisure
bip
dh
fasc
gab
hose
hipp
jazz
mig
mama
rick
si
sis
tones
##nut
##rations
##uate
##aque
##vis
##za
section
whine
##icts
##lex
online
##osure
asian
askew
##ieu
cale
sheets
clog
closer
trous
cramp
crooks
somebody
conse
##andal
knot
grate
gracious
quack
entered
drought
appalled
wrist
sincere
glam
compared
players
defines
antique
drip
deadly
ballet
distressed
factor
calif
divers
strive
strikes
concur
screams
armor
suns
springs
skinny
flex
picking
cleaning
digital
sixty
teaching
array
tightly
requires
sailor
garb
understood
thirteen
pigs
horns
products
annoyed
##ophobia
nickn
concerned
dozens
bim
bapt
ced
dal
dum
dah
gore
hunch
hitting
kent
native
owe
sisters
vig
##hen
##oids
##ikes
##rict
##mith
##mouth
##wich
mend
orn
##ila
##una
blamed
conven
boon
bonds
drama
slang
stranger
heading
##ymph
elation
broom
hotel
bury
devils
friendly
grandpa
armed
peter
profit
splash
pulling
nerd
shouting
follows
enjoys
element
circus
powerful
tricky
auntie
precious
fabulous
describing
innocent
experts
carpet
august
reckoned
chorus
symptoms
bour
cush
dave
gene
hammer
lic
laughter
rides
sust
##ends
##mark
##mber
thatll
##acity
stalk
stored
##idity
chalk
dew
dean
deals
##imal
##ceeds
athe
dove
trout
coke
arise
usage
amen
swoon
greatly
peru
phony
exposed
curved
smaller
awk
limit
sooner
apr
##umming
obst
vein
astute
annual
circles
shares
killer
electron
buildings
basic
modest
buffet
precision
heavenly
kicked
expertise
reflection
rabbit
inspection
wisdom
elegant
californ
cuss
cement
dots
ecl
gast
gag
haste
nu
##mates
##lad
##com
##ckey
##wear
toad
inher
##otomy
stack
##irts
##char
rever
hiss
##aining
sails
blunt
clan
clip
claw
trim
outcome
scales
ador
locks
unre
bund
##fty
diffic
glut
glare
holly
intest
contra
##umbling
##uffed
instrum
traits
affirm
retire
##idding
region
obsessed
harp
prayers
tomb
croc
promote
lifest
soldier
trained
occur
chickens
applies
proudly
preparing
figures
practical
gladly
##ternal
##ometer
ecst
dragon
wealthy
abstract
mammal
exactly
particular
anchor
euph
wrapped
nuclear
caesar
bile
bows
dated
hates
mines
males
ps
pas
pals
vap
##ii
##die
##rest
##uh
##ban
##kins
##erie
seam
sending
sealed
##nda
##rels
toys
whit
stable
fores
anem
soar
sock
##road
spa
##uments
upt
loaded
swimming
##ivorous
slur
apparent
appoint
throughout
attic
functions
serge
committ
planes
awfully
beds
refined
owner
depression
monarch
presidents
regular
yearn
hurts
casting
costs
central
movement
massive
blocked
sailing
ancest
bodys
attraction
invention
chewing
##oscope
ideas
stirred
mirror
cigar
##handed
blessing
steady
micha
dramatic
alkal
excellent
ail
cases
dc
dor
kl
lance
loser
moo
oo
pall
rue
rivers
sos
viv
wail
zing
##five
##writ
seats
toot
inject
##alm
##addle
heel
##ithe
frail
allows
spied
plumb
##pple
##ola
fees
flute
##ousing
usual
##ifty
##iche
acanth
thrilled
append
carved
pea
peach
contact
##ody
actually
choir
chopped
edible
striking
extinct
vexed
dining
specific
voices
delighted
palace
neatly
widely
physique
maine
establish
mutter
conceal
##ulsion
various
implies
remarked
tunes
unlikely
bleeding
bachel
astronom
##ableness
global
valley
stolen
aj
eh
fi
hated
hiding
jet
mask
nib
nails
por
##oos
##nies
##rup
##lines
##wide
inch
whiz
stan
heated
atm
doe
saus
##istically
##ulting
league
##anda
knack
##aching
##apse
unm
union
##ogue
mug
##ucks
useless
grapes
confusing
reader
apology
fallen
staying
salvation
discern
detail
concent
forgive
announced
##retion
prayed
judges
autumn
dealt
revere
richard
crowds
##affe
aims
moral
circular
camera
berries
deceased
aspir
achieved
dollars
delivered
doomed
micr
determined
curtain
weapons
australia
downt
satisfaction
awkward
ald
ack
aye
bs
bert
bands
bern
fathers
gam
girth
kills
lumber
ratt
tony
wander
##dog
##nish
##mm
##aus
##fight
##bar
##west
##esome
##oray
items
##legged
##ador
##idly
chaps
weeds
rely
herbs
sailed
clues
lex
brad
scold
aden
swoll
guards
thrills
agn
##anging
##ressing
prez
skins
everyones
mustard
endorse
defining
confessed
commit
accused
repub
courses
kindly
infect
former
babys
depos
strand
advis
signal
profits
failure
##ribed
happens
transform
boob
electrons
##load
layer
trains
dynam
tourists
twisted
pronounced
cigaret
herself
opinions
structure
encountered
chamber
boston
difficult
dand
il
jac
jacks
lamp
lung
mint
moss
nay
roles
sank
##iotic
##tr
##ruit
##yg
##lim
##pan
##cin
##ws
toilet
##itate
stab
stool
chord
sage
flop
brute
cob
##ishly
managed
joan
cheating
##ensions
deserve
phase
contempt
reports
elastic
stepped
nearby
coral
peoples
recently
recogn
chron
restaur
financ
depth
pasta
grandf
statement
monkey
mineral
cyber
shells
internet
rhyming
equip
darwin
##loat
##ographer
johnny
physician
mainly
beside
celest
louis
catholic
villain
scotland
pattern
vessels
lungs
insurance
sleeve
##craft
trousers
barm
bah
cly
gy
ire
jaws
jury
lore
lens
matt
pian
riddle
sip
tide
tatt
##hh
##min
##upp
##face
thie
##ania
todd
##ita
##omin
##omatic
stairs
ante
butcher
recl
reasons
meek
##roit
area
##unes
spout
sphere
##umen
sund
##olk
caj
cane
clad
clich
comments
grat
abo
abund
##eph
disarm
drastic
une
slaughter
sliced
mayor
glum
##ucky
contri
contest
##odes
barber
expensive
insists
repute
##ologys
brav
##ropri
bites
explo
flowing
engaged
deter
##while
nicely
perfume
angles
obsess
fleas
wooden
election
romantic
##immy
avoiding
pathetic
melt
pinch
paintings
performance
sneer
thumbs
temperature
canadian
italian
bombs
shrewd
gossip
creek
aard
bh
dag
diction
dactyl
eel
gory
hym
iv
july
len
mim
puss
rag
sunk
yank
yanks
##gent
##gled
##yes
##uk
##aits
##cat
##escent
sect
##reement
##arily
whip
##usk
stal
heels
ford
fors
##roid
##rix
spree
haz
plug
##opia
##ardly
flap
brun
##empl
alf
outs
grouse
abate
abused
adren
loads
##yster
unit
smith
bully
tele
##angled
email
moll
glands
snakes
##pee
foundation
baron
barge
barred
tripped
marvel
decre
antim
lightning
doubled
consume
tragic
streams
distur
kinda
calam
counts
floors
excit
##proof
cyn
humble
transport
cookies
ruined
replaced
judgment
satan
dealing
warming
jacket
memory
northern
argue
supreme
inspire
village
cinch
journey
destroyed
navy
charlie
condemn
disagree
education
nonsense
aisle
swollen
dair
fen
fizz
gor
louse
lane
lurch
ripe
vamp
wits
##eel
##tem
##rh
##ross
##ygen
##upt
##fy
##bred
##wr
##edes
whim
##veled
shaft
hears
##amel
asia
chant
crus
brace
prud
alp
##ella
abode
discl
twitch
slime
aged
appet
mode
wrest
diver
snug
contains
betty
attorn
expense
activ
triple
bother
airs
blacks
broker
##ropos
disting
explode
indust
##mann
sprout
##underst
wished
evidence
conditions
failing
fatal
transp
dropping
archaic
debut
silent
silence
kissing
bottles
council
epic
ranks
##ugged
tongues
##covered
chairs
axe
##ometers
resistance
poisonous
##ogenic
landsc
spleen
construction
diamonds
cerebr
opinion
bubbles
anxious
incredible
thoroughly
perplexed
aplomb
bers
bant
bounce
baker
cors
cunning
dose
hast
hunk
jul
murd
nil
pops
rye
tag
vary
##rors
##mal
##piece
##coming
##watch
ther
seize
##atics
##arians
tob
item
##omen
##etical
beaver
##ura
##chem
chal
revel
##ighted
##sels
atoms
##verb
##olent
cracks
grill
##uds
disin
scrap
adapt
adieu
##resent
poke
applic
emper
chewed
cleans
fires
intention
afloat
contro
wanting
assess
antid
lightly
limp
dearest
fishes
classic
excited
presence
fewer
observed
entire
tests
magical
loudly
expecting
rolled
sources
embry
combat
destruct
unfur
jean
fifteen
societ
performed
deceit
acquired
target
spinning
bibli
fetch
maiden
arthur
pearl
brig
russian
farewell
japanese
guarantee
enhance
mosquit
safety
organs
baking
dit
dna
fad
gad
gest
gel
lair
mish
oath
pyr
rows
ties
troll
##ture
##giving
##fact
##bi
thump
##rehe
##onge
whales
##acles
stur
stems
##urate
aster
ascend
##lyn
##illes
##ria
dogg
saving
blas
##asting
caper
canvas
clap
clover
crows
flatt
ali
coco
arb
##inkle
scope
##agers
amid
proced
##ipt
##ipes
throng
joes
jock
howl
however
newt
neednt
pepper
##mented
gloss
glorious
backed
##tends
strut
##ods
actress
##eez
defer
consc
elite
apropos
burgl
lesson
espec
charges
sleek
squash
extr
pastor
income
darkness
obv
veg
maam
entw
cooks
capit
arranged
secrets
bullet
##etti
capture
senses
##flow
throwing
colleagues
hunger
nutrition
talks
whiskey
schemes
ironic
motor
entert
submit
information
pipes
vitamin
prefix
disorder
lonely
czar
mellow
michael
berserk
cs
ecc
hord
kit
kil
lush
nas
raid
racing
wield
##ev
##eight
##rise
##mn
##jack
##inlaw
##ream
inner
##utive
stared
stacked
##kee
chased
reap
##roach
##rift
hare
##uminous
blu
##aky
##isted
feeds
##igent
##inder
amuse
swam
unh
buys
howd
mule
snoo
pharm
foam
betr
acted
insult
assure
shower
reduce
column
fearful
##version
trek
treas
biting
disturb
collapse
engra
finest
classical
signals
##ception
potential
ceased
electrical
##ificent
urine
climate
training
western
values
gardens
hundreds
firmly
feeding
repeated
cousins
essence
branches
consumed
inhib
beetle
beetles
frogs
##two
##zzzzzzzz
surrender
closet
exceedingly
separate
cannibal
coop
dall
fount
faux
fowl
gist
goof
hull
jake
ker
kitt
mound
overse
serm
votes
wrap
##hyd
##oft
##ders
##due
##noon
##tin
##tail
##rust
##making
##fire
##inas
##oning
##aser
begg
shops
styl
##ida
##iron
##osy
##cephal
##esses
##rif
blister
##opic
worried
sheen
clocks
lexic
crashed
##icker
congr
brat
bricks
scor
scree
illeg
poets
cheered
##inters
ident
compact
compounds
mull
snore
hooray
curb
grabbed
##eaded
hearty
##ocy
recomm
babes
stripped
detest
avail
bikin
minus
standard
angl
petals
beaten
dispers
wondering
despise
christians
worthy
dressing
aimed
diseases
portra
berry
encou
unfortun
yeast
frightened
decidedly
society
stewed
concealed
systems
subjects
dubbed
swallowed
##works
reactions
crystals
journal
concerns
responded
bacteria
customers
##keeper
scientists
emphatic
pizza
nothings
republic
especially
batch
bount
cate
cuc
dung
gir
gills
jest
lac
lions
mitt
nab
pel
pets
sow
tummy
vul
vert
##hi
##hs
##eys
##obs
##gage
##rim
##mer
##mes
##apping
##fa
therap
##erd
##eded
whites
##icion
##urg
##kel
charts
friday
liar
lily
##raint
neut
atom
spat
spun
habits
nob
##oped
##igs
excel
brim
knives
alask
arist
arrog
abort
bobs
encl
unus
##quite
smashed
smirk
poetic
offense
##angs
empl
gland
compose
controlled
##venge
actual
earning
##uffs
antis
afternoon
awesome
bedroom
helping
##imple
recent
collar
artists
owners
chrys
retired
bio
biology
polish
priests
happily
patrons
checking
visions
diner
smelly
hopeless
legit
candles
positive
spelled
##ettes
rising
malign
sandwich
immers
hangs
approached
argent
argument
juan
links
politicians
dwelling
poetry
measured
hollow
released
mammals
medicine
chromos
synth
owned
struggle
wicked
scottish
prospects
enthrall
monster
cocaine
clutch
entrance
channel
engender
syndrome
lifestyle
ecstatic
unfortunate
jay
nile
tint
##hill
##master
##ui
##vi
##passed
##ingle
##arious
##asis
heir
##amous
dext
##cending
sob
##ustered
##raged
alley
##antage
##acking
clums
##igation
##ickers
cone
alumin
outdo
abn
upst
quer
ammon
proclaimed
unple
appra
moder
firms
snail
endless
##umbles
cured
assigned
choices
remained
##coll
confront
drivers
imply
elf
tread
burnt
explan
##white
otherwise
astound
raft
lately
sells
solved
ignoring
spreads
climbed
suggests
oughta
sighs
safely
ticket
talents
##cules
oxygen
blanket
excessive
diph
negative
tables
frozen
dumped
holiday
challenged
resembles
candidate
strictly
alternate
buddies
aggressive
wheeze
shriek
stubborn
deemed
reversed
fragrant
baz
cine
dome
dens
dared
hire
maps
nud
nigh
pins
ramp
raz
vin
vault
##oly
##ga
##yre
##med
##lain
##put
##bal
##cons
theft
##onious
##iser
##isation
shines
shades
churn
chump
butts
##iments
spar
caution
caffe
bye
brist
##abs
outd
abe
abr
quiz
##athe
amorous
##ifer
##ifting
enf
enlight
droop
uniform
smitten
offend
wrought
carl
carol
muff
stride
barr
marine
conform
commerc
##neath
sweetly
cork
county
finesse
cellar
genetic
genius
waited
invite
veins
##hea
##boys
##boards
queasy
cookie
balm
complains
descent
arrested
##iasis
embark
effective
thinner
commonly
garlic
dismayed
halls
possessed
inflamed
amazed
removing
issues
holler
arcane
jerks
proceeded
##looking
absorb
orchest
corporate
##oscopy
dermat
corpse
embarrass
pacific
rivals
##yearold
unaware
sergeant
committee
atmosph
obvious
beth
bened
gates
hounds
jur
jimmy
kh
lard
nave
sie
sums
tid
tro
yog
##ige
##yed
##minded
##fo
##fed
##bish
##case
thug
##arter
##aders
stale
##amic
chilly
delect
##enter
rect
soak
mead
##three
nope
sulf
bled
bluff
sheph
troop
exquis
flown
golly
convert
prints
arse
boards
boiled
disk
scandal
swarm
smear
guile
##actic
acoust
slap
sloth
hows
emotions
dizzy
percent
strang
sounding
steed
colours
freely
rounded
infected
##bbled
lads
discon
depri
retrie
landed
advanced
reality
writings
invited
evolution
##boat
entry
creating
oddly
harbor
rocket
posh
laughs
eleven
risky
neighbours
derision
berlin
cartoon
duke
possibly
pushed
pushing
volcan
impression
impressive
demanding
faithful
heights
nouns
solemn
granny
levels
conversation
buddh
mushrooms
##theyre
##stein
groove
brutal
bargain
imbib
gorgeous
random
sausage
aar
aids
cact
dips
era
fay
gems
hass
ll
lure
piled
tire
uh
zip
##hole
##dish
##nine
##ping
##inals
##atious
##oner
##anny
tox
topped
inept
whist
##omorph
##etime
bem
##adle
stump
##iration
butch
frolic
impe
spilled
sponge
##term
##umns
##ulus
canoe
##stick
##igate
goats
brisk
knit
alice
aroma
##ishment
scour
adult
loaf
##pled
swamp
enorm
##ipse
##ogical
agreement
##ittin
##ensed
contend
##ibility
attire
earns
insert
survey
grease
decades
confined
addressed
addiction
commands
committed
repose
consol
consumm
awaits
stealth
underneath
##bbles
counters
strips
depths
departed
extrem
landing
paste
stuffs
cyan
entice
cowboy
ruin
solo
shrug
provided
temp
morph
spells
##immed
portray
ranch
unfold
tubes
following
##riptions
buns
examine
production
battery
poured
cinnam
magnificent
bronch
bruised
beguile
feminine
unseen
larvae
princip
bachelor
exquisite
ari
baff
bicy
cuck
edd
fou
fats
gul
hats
motto
nost
rump
tout
tonic
vag
##ozo
##dont
##spr
##vable
##ca
##enny
whistle
##ican
chub
dee
degr
##entric
##cends
reeling
fris
fray
##ereal
spies
sax
saves
caval
lege
crest
flipped
##ements
cox
outrage
ups
quake
##uding
scal
scars
scatter
adul
##pless
amiss
amber
illusion
appropri
moose
letting
cargo
glows
hoard
phen
foc
barbe
attach
grav
marie
decomp
serene
antig
antif
reprod
careless
consist
sounded
columb
##ropic
devour
countrys
edward
##pective
monks
presume
regions
polar
bleep
##iffed
stronger
bananas
intern
announce
deaths
gender
reaching
daring
pulls
donkey
plainly
merc
hugh
suspend
##heres
america
americas
americans
familys
squeal
colorful
graceful
stopping
hooked
titan
midnight
gainst
authors
insisted
existence
referred
extremely
belongs
crustace
tissues
basketball
guaranteed
pulp
program
incredibly
surgery
santa
favourite
marvelous
cym
fitting
jill
maim
mcc
ron
tension
wip
yan
##hop
##oir
##nat
##rist
##rows
##ford
##front
##bone
##bered
threes
##icien
##alist
ster
stunt
chaste
deploy
rex
rein
spurn
spike
spaces
plank
##asted
canal
##style
exclaim
bruce
alight
align
gram
booth
##agg
loy
proves
unkind
acrob
slipp
agrees
needles
peel
##ashes
##feit
backst
backwards
##iah
snoring
##ggers
resour
attain
curren
eyel
surpass
showers
nightly
##uffle
##conds
impact
repent
conson
consent
brake
install
instance
infin
forming
purr
depra
floats
presents
fairly
inviting
pointed
admired
transfer
creates
digging
budget
arrows
eighteen
provoke
mistaken
dresses
benz
basis
furry
smoked
member
cups
terrific
princess
reveals
nonstop
liquids
whispered
bulb
photo
protects
venus
attempts
microb
borders
abstain
##borne
selection
##ommod
amounts
dunce
hawk
stunned
##uddled
##onymous
obtuse
anatomy
lurk
material
lizard
grandmother
gauge
adjective
arteries
withdraw
numerous
endeavor
multiple
garbage
aardv
societys
abnorm
cet
cess
cents
cities
gib
lakes
mast
mute
nix
ode
rif
rains
sass
sally
session
tors
void
winters
##lot
##fried
thong
##eria
##ona
##aning
##inger
begging
shook
shod
shaking
stor
##irst
##imum
fraught
neph
atop
alls
spear
spins
##things
noone
plots
##olt
blah
critters
als
outfit
whove
abroad
lod
twit
twould
unl
mane
wellknown
rover
##active
agents
agility
appreh
pean
skunk
glac
thems
intact
folly
##ermost
curled
anymore
highway
##bster
asses
##ancer
addicted
##berg
begs
sweeter
brawl
trends
distra
artistic
mete
metaph
saddle
##manent
larger
quicker
grandmas
opined
daff
fatig
obsession
flea
quell
markets
##shaped
closely
##rence
shroud
equals
positions
ambig
praises
propose
##guard
arguments
savings
coffin
booty
botany
oceans
verbal
breeding
alpha
swiftly
surround
affliction
shelter
anatom
diplom
dolph
abandoned
carrots
aussie
##rehend
unusual
unpleasant
caffeine
aide
bc
bis
bung
cater
cory
fates
gathered
jab
kat
lyn
mah
masc
pious
wage
wipe
yaw
##iology
##gling
##mic
##bly
##bert
##onies
##orth
##arys
bea
shack
##osers
chasing
chili
anew
weave
##entive
##thr
heroes
plump
plural
sul
blog
##opter
clause
##abol
coh
##ourse
drone
drums
##iverse
##acters
throws
pod
joining
peril
perpet
snot
rescue
betray
funeral
planets
accus
freud
colored
apoc
##zzling
indig
woke
edges
worldwide
viewers
##weed
parad
##obia
catal
cyl
cycle
yelling
wallet
admin
dispatch
sites
##shine
archae
mistakes
bagp
bulls
basement
hype
iran
camer
weeke
##blood
berth
membr
##ipple
physic
searched
survival
puzzle
crowned
continued
horny
pitcher
##ometry
broadcast
tourist
bulk
pollution
hamlet
citiz
taboo
##ennial
informed
arthrit
claire
analysis
obtain
shirts
brooklyn
atlantic
soda
styles
encounter
intellect
mexican
original
jungle
calend
consequ
dairy
tobac
distraught
dors
dup
fuse
gents
gale
hone
mes
mare
owl
punk
rapt
ropes
va
##gles
##gia
##uent
##pent
##bys
##beth
##backs
sel
seconds
##onal
##orate
##arp
whil
##oting
##acon
beagle
shorter
stim
stench
##osal
anoint
revenge
oration
spices
hav
noah
nobodys
caut
trite
tramp
cris
flunk
prost
knocks
aligned
alchem
abrupt
qual
disco
adept
##asses
logs
amused
##ifies
swan
procl
##resp
roared
bub
acro
accl
slug
joys
joking
rightly
everywhere
##auc
headed
exped
curly
eyed
tribes
sweater
surgeons
##eeee
tryst
reputation
hedge
##ologically
crabs
relates
installed
distant
erotic
studying
salmon
extent
singular
treating
##prit
billion
bias
##atively
miser
misle
##ending
aches
medie
debts
bosses
magician
security
files
geese
louder
warmth
shouts
##loving
newsp
designer
verd
layers
irate
malt
maligned
circuit
escap
physical
drunken
practiced
busted
returns
acquire
improved
drained
attempting
casual
erratic
rodent
enemies
beliefs
odor
convince
pulse
echo
assumed
abandon
##grand
dismissed
##standing
emerge
eastern
athletes
abyss
cigarette
financial
clyde
employs
whilst
casc
doo
dign
ditty
fie
gert
hops
jose
kar
lag
noses
pouch
paws
pomp
races
sire
sacked
taint
tanks
yawn
##his
##eur
##oise
##iod
##ricks
##pow
##books
##eday
##rey
##ener
##enced
##itudes
##eters
begged
shocks
##ido
##irms
##amy
##cho
chills
chores
wept
##usters
##unc
plag
##elp
##ulations
cluster
exit
crotch
brack
##employ
##ishness
##ello
boiling
adams
manic
##aven
slaves
agr
downs
diaph
##mental
permanent
compreh
snar
snout
foil
bets
barley
attitude
curry
triv
##ugal
cutie
confident
commission
lighter
represent
craving
limits
freight
helpful
brag
collaps
erupt
exploded
characters
metals
division
counted
edit
supposed
slender
finer
rhet
avow
concise
brightly
regal
poles
prior
terrain
harb
planted
misunderst
tested
situation
droll
protected
arrayed
laund
mixing
morals
boxer
models
renew
memories
confession
revealing
besides
increases
contrast
bumps
governments
macbeth
primary
##araoh
cannon
scrape
colonel
stunning
sarge
russia
zeus
bronze
shadows
alternative
execution
conventional
mystic
##birds
alexander
surgical
pledge
conservative
unstable
tiger
behaviour
bamboo
familiar
hormones
cachet
hollywood
instrument
fiery
grandfather
thieves
aboard
consummate
medieval
ai
aven
ailing
brie
bummer
cic
cum
cze
cerv
gim
hick
lined
lax
mand
oops
pc
pith
rated
tally
vat
wales
wench
##hoo
##hard
##girl
##rays
##ype
##cont
##xie
##witted
##onom
##oria
##inged
##iti
inte
inches
##utz
##acular
static
sober
meg
##ilitys
##rig
##unge
spiders
sug
canine
clark
clod
brides
ours
coats
arbor
quiver
boor
displ
scores
twos
amassed
swings
swept
unite
units
unex
universe
acres
moh
moz
##clock
##ubber
##issions
perk
mund
introd
pharaoh
resent
curl
trif
marg
younger
scholar
##itches
elbow
fren
brah
apolog
reform
recruit
factory
##ussed
bloods
damaged
screaming
persian
generous
claiming
believes
prized
undone
##nae
yearning
slowed
potato
tome
sights
sixteen
sleeps
electro
magaz
autos
worthless
movements
palms
counsel
directions
urban
buttons
combust
rises
kidneys
dyed
objective
sporting
superior
examples
correction
towers
towel
chefs
waits
knights
narc
rejected
rejection
assistance
naughty
errors
stretched
empire
tempted
cavity
battles
candidates
patterns
hubby
companys
prefers
ankle
botanical
allergic
##worms
adopt
wizard
rehears
nickname
blasphem
eccentric
nephew
airl
bong
bale
cest
cite
dul
faded
gout
gush
hyster
kitten
lists
loses
nom
niece
ovation
pud
rook
randy
riot
siz
tou
wounds
yummy
##hot
##hire
##ele
##iw
##dad
##gun
##rr
##rics
##yard
##your
##lord
##wind
##wife
##jud
##oubt
##atus
##acement
bever
beads
shave
shining
heather
healing
##idal
chis
chilled
anagr
whence
##see
atomic
##them
nov
##ppings
sult
##eline
##elike
blaz
trading
alc
outl
grouch
ampl
swirl
##iva
acids
whereas
tee
moons
cheated
##cloth
carriage
idle
backward
plead
phones
overly
grands
choked
clearing
delusion
confer
commander
schol
awh
awed
collision
explor
##ernal
charity
divided
restraint
squad
turk
fighter
floating
##obi
persons
bellow
sprung
bowels
constitution
solve
geor
nerds
critter
riches
moron
##ographic
captains
captured
swelling
enjoying
suggested
explaining
dissent
includes
dusty
survived
threats
maths
returning
##ulsive
rumor
##lights
pollen
cottage
projects
complexion
definitions
glowing
quarrel
crystall
flawed
##esthes
cereal
floral
martin
tumor
sarc
pockets
religious
officer
surrounded
hydro
shelves
pigeon
greedy
beguiled
ferns
elderly
washington
experience
subtle
fluffy
trendy
protein
demeanor
birch
aglow
emergency
atheist
spagh
tattoo
excitement
tobacco
aa
aunts
boun
dj
dummy
fatter
gus
gains
kitty
lous
lav
lymph
mating
ooh
pam
packs
pension
sard
wines
wires
yore
yup
##hr
##hem
##equ
##rin
##life
##fold
##view
##pid
##pian
##best
##burn
##xy
##wa
##wash
##asingly
init
whipped
##aying
##adays
##ental
##celer
wasting
wasted
##rah
##rock
##erel
##unity
safer
##olate
blab
##uled
clink
closing
tray
crate
broth
brittle
altered
alright
comment
cobb
abol
quad
quality
##udgeon
disl
disarr
scout
enqu
proc
ung
unner
slob
makeup
aging
downed
##ethats
caress
##ressive
skirts
desired
##orns
snacks
hobby
curls
overhead
insc
painter
remarks
deform
default
deli
delir
commend
reduced
sched
columns
moments
salute
detract
menace
buyer
advances
advantage
pastry
grandp
concede
##obic
excuses
horiz
miner
minister
bowls
pickle
baloney
foreb
potent
rocky
croak
revolution
delightful
##rolog
expects
softly
banker
laure
property
dismal
cardinal
##colored
destro
destined
touched
cheaper
futures
duties
fervent
phrases
nutrit
jewels
muttered
ashamed
albert
##rophe
custard
lingers
storms
attempted
cathed
pilots
swords
tempting
dickens
properly
mysterious
disgusting
shadow
precisely
egyptian
seventeen
fleeting
vocation
enthralled
enlar
neglected
doubts
professional
sketch
deposit
sturdy
##spring
loyal
czech
bould
bak
dich
dusk
ew
fable
fatt
gi
gaz
hust
ie
lid
lith
lyr
mit
mong
nook
owed
ply
rave
tib
tush
tires
vect
wil
##hib
##nuts
##tick
##gone
##rates
##uer
##lest
##fter
##fits
##bows
##inn
##inet
##iners
seiz
##arium
##icul
stif
##chants
asth
chur
chunk
anom
rept
reef
soy
##raine
##robe
necks
spurned
##umph
##gee
plague
##olith
bling
canon
##indle
conch
congreg
brom
##emic
aloof
covet
outr
##ishes
##apers
abstr
##epend
##iven
##iper
manh
acron
slain
popped
agg
##ensation
##ensible
glide
glove
snag
snort
snapped
longing
worker
bestowed
sweethe
##ictions
defence
accommod
schism
drench
airpl
##uctive
apes
travell
collected
demure
burden
factors
restr
mommy
guessing
sunshine
fatty
speaker
friendship
foret
cleaned
shrimp
dealer
reaches
fixing
mistress
requested
mercy
elements
borne
neighbour
breezy
cracking
##going
sensitive
technical
jewish
inventor
radical
pursued
uncom
aspire
spoiled
linger
venom
louise
removal
remarkable
temptation
reckon
froze
flora
cryptic
beckoned
pirates
community
instructions
aphrod
deduce
shrubs
hatched
violent
astronaut
elephants
digestion
structures
molecules
lincol
aberration
clinic
rendered
hauled
fertile
grandmothers
gourmet
mourn
mechanic
settled
vicar
launched
schmuck
website
tasks
liberal
prolific
ignorant
cedar
obstruct
california
celestial
murdered
unfurled
treasures
explanation
delectable
joseph
bif
dood
ect
fath
gust
hock
jig
jeez
lux
moses
mummy
miffed
nant
nate
nause
pint
panc
rival
tuss
tilt
ul
vom
vide
vowed
wack
wages
yen
##ha
##ender
##eeling
##dles
##great
##rill
##rums
##rued
##makers
##vings
theat
seaw
##onys
##enous
##iture
inert
inane
whoop
##uting
##ala
beams
shaken
hect
##urous
forests
##ioned
##aments
chast
chops
chomp
buts
reed
sopr
frantic
lique
liking
##rag
allot
##very
##terior
herald
plains
sauc
blouse
##ulse
##opy
leech
flutter
##eman
knuck
nowadays
abac
disqu
scam
adoles
twirl
amend
amusing
swims
##ostic
progn
##ivation
manager
smiling
thereby
robbed
acceler
##avers
slumber
monday
peaks
breeds
speeds
snoot
##ggle
exposure
partake
marx
someday
nightm
askance
anten
antel
reds
##umpy
dragged
dearth
fearing
reluct
bragged
apoll
lesser
divor
diverse
affected
flowed
engines
suppress
discount
discretion
statements
excite
fourteen
incess
obese
yells
evolved
denotes
undressed
queue
creator
misch
testing
produces
producing
description
talked
centre
providing
aiming
hyper
##etta
ringing
bounds
occup
camels
weights
##rolling
defeated
##ugging
valid
summers
sufficient
approval
bathing
hallow
feroc
wreath
wrench
pupp
speeches
mastered
chapel
december
whisper
rebel
contrad
creeping
disappoint
sucking
salesman
excessively
aptly
holmes
ribs
##aaaa
supplied
disappeared
blossom
algae
nuns
traditional
perplex
tweet
sheriff
sloppy
appeals
conflict
aflame
indulge
crocod
acknow
ilk
piano
distinguish
destruction
burglar
snooze
illegal
cactus
currency
aes
akin
bb
bure
binge
cull
dic
dak
feds
goth
gaffe
hush
jets
kay
masters
nought
oz
pact
rou
ruse
rushed
sine
tether
vague
wret
##tim
##rants
##mart
##ua
##pie
##bet
##cation
##wo
theories
##ati
toms
beep
bends
bemo
shin
stained
##urst
##ami
##oooo
chime
wels
soot
orth
##iloqu
spra
spines
spores
haze
nove
sag
blades
cros
flask
brus
outlook
arach
theirs
advert
lobster
twill
amoe
swish
hash
smut
buoy
##ogram
offensive
caring
diale
diarr
preced
compar
##ucket
hockey
resolve
founded
expound
expose
expans
expire
bestow
curv
hells
insight
trials
triumph
##beh
##bee
##yme
##ictive
delayed
antiqu
dripping
passions
impart
replete
relent
relation
refine
trench
musics
wonders
avoc
realm
parrot
##obile
monkeys
sprayed
opine
opens
starred
##ribes
bowel
boyfriends
hitler
intertw
largely
misled
digit
boobs
senate
elected
satur
drawer
equally
centur
filter
dishe
shallow
lifetime
critique
sticking
musician
musicians
damnation
temple
ambitious
##ographers
smarts
paired
derived
fanatic
arrives
normally
cheerful
facial
employment
beaches
buffoon
dupl
unsur
tickle
matches
##engers
visiting
##izzard
lifted
cultures
rumors
auk
aux
##cross
creeps
##check
implore
squeezed
trucks
pleasures
approaching
fuzz
granted
fungi
concepts
dashing
resemble
pooh
aura
ablaze
reigns
companion
perchance
conquered
##words
embarrassed
appalling
syllables
inquired
april
restaurant
##ephal
arrogant
clumsy
acoustic
cinnamon
appropriate
nutritious
bitten
dast
dined
ein
ety
eternal
fash
fidd
hump
ick
jug
jeal
lor
leth
lays
lumps
mop
oven
pand
pans
picks
pests
tess
tel
vor
yum
##nys
##gi
##gate
##rils
##yan
##uet
##uition
##ucc
##fect
##part
##pear
##band
##brew
##wled
thud
##inos
##ince
##edness
##asive
ingen
itching
##lee
##etting
##alf
shattered
stomp
chamb
ana
rearr
atro
##uns
spacious
##umed
##uman
plow
##aints
doff
dolt
blurred
##ulk
willow
##stones
clone
traces
fec
flak
converse
brine
prow
coax
cocks
whoa
ability
bobb
##ansas
disre
twent
enig
wells
roost
slog
slash
##ptic
joker
##awed
##angular
moor
carve
carrot
peck
breach
compressed
snows
##iousness
##ertain
##ggin
contrib
contempl
betting
##odyn
partners
gravity
insults
delish
antit
repet
hearse
streak
freezing
demol
burp
##dder
induce
restored
sadness
##grown
squawk
discard
avian
persp
tenor
##oidal
starch
syrup
madam
transf
bowling
pengu
##lette
##ylon
media
sharks
builders
##ificant
specs
costume
farms
troubled
verve
praised
irre
malice
##ursion
freshwater
kidna
crackers
paths
cartil
dimension
dancers
##offs
audition
audacious
melod
trusted
oughter
mouths
grasses
technology
techniques
unsound
gripe
accounting
puppy
hooks
losses
geezer
historical
ashes
##rophy
gloomy
customs
suggestion
version
statistics
litter
fashioned
briefly
africa
prosper
screws
projection
succeeded
optim
swinging
venture
mentor
umbre
terrorist
greeting
preacher
aggression
novels
width
assuming
promptly
acetyl
vocal
surreal
conquer
thwart
bovine
unreal
recognition
overseas
stylish
bounty
benedict
microbes
shoddy
spaghetti
saturday
jealous
auction
bage
bony
dos
dile
font
fudge
fumes
gird
gears
humming
jot
mash
mature
oint
ood
pail
piles
ration
troy
wides
yall
zones
##iop
##ioc
##dys
##gies
##rome
##yt
##mia
##brained
seaf
##atures
##onics
##isan
##arine
tots
##icable
##iculous
##utin
bead
onions
shamp
stains
stamps
islam
##urt
##urance
##illo
wend
livest
##ilation
##section
haunt
hailed
##uma
plunder
plumber
plaque
sucked
##olis
cans
##igan
##igence
cradle
flout
aloft
outer
##inky
gramps
grumble
abu
aback
disem
scur
scum
##pling
##plus
drilling
united
manure
guides
slides
slips
agape
offspring
downhill
moans
divert
cleav
backing
composer
strate
everyday
trigger
##ugn
telly
decrees
##coal
##ottle
passengers
accurate
schn
aircraft
relish
caly
meters
diving
devoted
wares
deplet
turd
cellular
catast
horror
##ammy
##amming
womans
dais
petite
veh
bleach
##please
aston
interp
balanced
penis
penchant
faults
feline
achrom
tomatoes
wondered
solutions
boozing
listed
drawers
equation
equipped
kisses
sickness
soften
software
basil
epid
ambass
laughing
blokes
verbs
gases
surprising
population
ensl
squeak
figured
thanksgiving
almond
tickets
females
robust
weakness
pursuing
mutt
threatened
performing
packing
gloat
influ
inflamm
whisky
acquaint
lasses
grinned
lingo
varied
reflects
scarf
scarred
mortar
celery
poisoned
seasons
thrives
reference
scrabble
fuzzy
discussion
feeble
citrus
investors
curtains
intentions
cavort
##youre
pearls
tenth
vowel
interesting
shady
grains
peasants
rapidly
admiration
celebration
symbols
atlant
opponent
emotional
calcium
anxiety
condemned
dodge
flavors
fertil
prophet
relieve
junior
syllable
disparage
biscuit
moisture
aesthetic
mathematic
enzyme
grateful
sustain
inherit
bundle
adrenal
vampire
attorney
controls
entertain
dallas
recommend
hassle
enormous
##iciency
aardvark
cautious
crisis
magazine
nantucket
halloween
welsh
cind
cuff
colog
crib
ds
doth
dale
dual
fated
fitted
gums
hens
hints
ii
jailed
maw
mums
makin
oils
pent
pung
posed
pony
vows
wri
yor
##iors
##dr
##nn
##top
##rically
##uge
##uished
##fined
##vo
##vs
##va
##pro
##count
##comes
##will
##wright
thugs
theater
##erce
##edge
##rene
##rench
##isin
##anqu
toff
toler
##itous
andy
whiff
##leys
bending
stell
##amble
##chool
asper
aspect
chel
chock
##entious
ree
soaked
meats
alliance
spam
spawn
##this
noisy
dolly
blitz
##isting
##istical
##ulas
caves
cabo
sheath
clamp
trice
flare
brink
brows
##abby
comfy
outof
grades
abbre
##udder
boasts
dissect
adrift
lofty
##ysix
amm
amass
ambr
swoop
uncon
unemploy
##ipher
smug
roger
rods
guff
slut
slam
popp
agon
appell
##angles
##phone
lett
##ubs
desir
composed
pleading
##peak
##ordinate
resides
resolved
overt
whyd
crem
passage
smallest
doubles
accuse
handles
crappy
eliz
dearly
trav
payment
learns
demons
feller
erud
info
##brush
countries
stripes
salty
##grass
squares
discord
largest
fours
regrets
womens
tasted
invade
transgress
cowed
##letter
harv
aching
dinners
judged
dishon
mixture
bullets
epith
chemists
truths
prair
attacking
blocking
coul
suffix
harmless
successful
facet
possible
savour
ferment
falter
matched
frightening
hooker
mansion
socalled
featured
crews
kicking
chapter
muddy
accepted
lifts
acquis
cultural
succeeds
examined
dwells
scarce
fetus
codes
amazon
maidens
sucker
frequent
earnest
##worthy
drowning
tunnel
investments
operation
selected
printed
utterly
vinegar
##footed
pierre
chaotic
duress
decorum
wandering
gymn
deplore
emerged
compassion
athletic
crumbs
placid
tucked
waltz
comedy
perceive
fragile
watery
naive
uptight
lexical
infections
kittens
sermon
vulgar
aluminum
outrageous
storage
meteor
misunderstood
sweetheart
prognosis
etym
oodles
aub
averse
cuddle
cephal
dill
dane
duel
eject
ewe
huff
icy
lice
md
mused
meds
niche
pus
puck
pave
rut
rake
rants
rattle
von
vod
voy
yards
zoom
##hy
##da
##dling
##rost
##ming
##mpt
##long
##laid
##fig
##fare
##fied
##pread
##bas
##catch
##war
##ja
thered
##inian
##eding
##orig
##itute
ingest
##iculate
##otal
##eto
##etes
stings
stung
isra
##urer
##amo
##amics
##illion
chile
socc
frig
fraction
##unte
sped
herm
dole
dover
saul
##olics
crme
##ickle
##inding
brach
bristle
##abit
##abeth
coma
comical
artery
##elly
##inking
quir
quant
quoth
boll
scat
loans
##plant
amate
swill
swagger
##quets
rogue
hades
guine
aces
appare
##ething
cheery
carving
sinister
glued
glitter
background
spends
snails
muster
mustnt
##anky
activity
highs
trib
biggest
delib
badger
dreary
runner
airy
refuses
corresp
balloons
distraction
burgers
musk
charcoal
engross
ladys
discom
discipl
cello
perspective
regime
##ophile
involves
eyebr
declined
admon
admitted
childhood
transcend
enters
astr
coward
lively
fauna
halfway
labels
ignite
splat
catches
succinct
directors
boxes
agenda
opportun
locale
speedy
couples
connected
natives
jeff
bathroom
suitable
besee
fluids
cocktail
puzzled
peaceful
domestic
radiation
volunte
bombard
thrilling
pillow
logical
suffering
protecting
mortal
sneered
barbar
crafts
clowns
rabbits
##world
annoying
reviews
davy
anchors
##ophobias
hiking
binary
suspicious
suspicion
racket
cliffs
bishops
borrowed
chimney
forbidden
bridges
adventure
botanist
moths
vegetable
trumpet
gambling
inferred
behaviors
accomplished
library
concentration
downtown
pharmac
portrait
alaska
principal
legend
torso
weekend
citizens
proclivity
gimme
crystalline
disarray
fashions
dilem
livestock
bist
bums
cack
dac
eph
ig
jos
ko
lull
lining
mant
mack
mous
nam
pt
pim
pitt
rit
rails
ripped
sash
saints
tet
wats
yon
zinc
##haired
##overs
##iere
##nas
##uz
##log
##lins
##liness
##fr
##folk
##van
##pit
##bearing
##cock
##cup
##inthe
##atile
##orically
##asions
andor
##utable
##alph
stair
stacks
hex
hebrew
forso
##chal
##lyph
chil
butler
reel
reass
##rily
spicy
haird
nobel
ploy
plung
suited
blot
cany
##star
clash
clair
flir
flint
flaming
flustered
##icked
##icken
##icking
conco
brats
##abe
##about
prest
prank
alge
coot
cocon
arbit
gruff
quits
quotes
boa
bobby
scattered
adores
sworn
envy
proven
unra
smugg
smarter
poise
aggra
##ailing
##cled
diabet
peg
cleft
comprehend
pleases
everythings
beta
##odo
##ibles
expenses
surly
helen
decry
##angel
confirms
comma
##ulture
draught
sweetie
bede
bedding
brakes
apace
distill
shovel
poorly
diva
subd
dames
discer
singers
menu
terminal
effl
##amese
earthly
involve
pointing
vend
maf
undoubt
speakers
bowed
cowboys
raises
##after
forecast
document
medium
capric
budge
shrill
milky
century
churches
corners
merit
embro
embell
papa
laying
sandy
proposed
groans
##blue
ahem
norms
facility
elsewhere
duch
pigment
symph
possession
besm
accountant
fortunes
flights
danny
rotation
axis
unclear
deceive
aerial
authent
curses
contrary
austere
motif
##joined
implied
ethereal
##break
travels
consumer
discussed
conviction
prevails
enthused
constructed
scotch
engineer
sarah
vowels
peasant
tangled
suspension
teddy
permission
canada
scientist
prescribed
cooper
yonder
unbear
concerning
persuasion
gourd
awaiting
stitches
simplistic
exhausted
fulfill
bingo
ingred
conspir
eclipse
plumbing
established
doeuv
equipment
exploit
hymn
prudent
emperor
beggar
bikini
queried
shepherd
bicycle
frisky
infinite
arthritis
fiend
mundane
pudding
toupee
forebears
manhatt
lincoln
dialect
elizabeth
correspond
forsooth
dazed
faw
fused
foster
hilar
ket
lon
lud
lava
makers
oun
pes
pont
pyre
sane
sams
yep
yarn
##hed
##ext
##nia
##tles
##rach
##uan
##aise
##pot
##bons
##corn
##xual
##wall
##woman
##inction
##eros
##esy
seab
seams
##atin
##anne
##asian
##acent
bender
shores
stumble
heirs
##uria
asunder
##lym
anus
deject
reco
##ilant
##rops
spac
platter
doze
##olving
blat
##oret
##oreal
##ately
##opod
ifs
cauc
canary
canny
trough
##igraph
exists
external
cram
flakes
flushed
##ema
knots
arn
arctic
##elles
disrupt
##ongs
ado
adults
##agles
loom
amyl
ensh
callous
smid
guid
##acts
sling
slouch
##ogr
daylight
downward
apprec
##anges
mocked
##etheless
diets
desist
glib
glitch
##izations
perth
comply
snatch
snuff
hover
##urnal
contag
curm
overnight
overweight
overdue
graft
##bec
marge
marred
decid
decreed
decisions
creations
lasting
constern
##ultural
drab
##berries
craze
crazed
girlfriends
limited
limricks
rounds
lessons
indo
index
metrical
ladder
editors
viewing
squid
squall
discont
buyers
turtle
##price
monstr
billions
miners
lotion
spruce
standards
petty
observ
banner
entom
rapp
cleaner
numbered
hurled
praying
tomato
##ambles
solar
senator
listening
builder
ruling
eighth
morose
boxing
gasp
oppose
charmer
dreaming
preference
opening
dreadful
immature
germans
encir
rubbed
##flies
##ippers
escaped
dyes
savage
bonnet
cockney
##oxy
nonetheless
titles
continues
gloves
virg
duller
rebu
statue
gutter
contrite
barking
drains
polls
presented
alarms
disgraced
cubic
network
torment
dubious
samples
battered
##worth
psychology
cosmic
assistant
mirrors
attended
attending
submission
silvery
favored
tactic
hunters
instruction
regarding
skelet
analog
rigid
conductor
violin
eschewed
permit
bruise
threads
wiser
fossils
moaned
ardor
demonstr
wandered
diminish
sleeves
smashing
generation
management
wrinkled
virtue
bewitch
velvet
exhibit
explosive
francis
license
ancestors
##mannered
therm
application
entirely
procedure
vertical
synthetic
baza
commercial
eddie
chubby
scalp
suspended
yankee
peanut
perpetual
unexpect
mozart
scholars
##esthesia
unsurpassed
disregard
shampoo
cleavage
cologne
watson
aus
cmon
dumps
eels
fug
fists
ger
gaw
gait
hut
hicks
hither
iamb
kidd
kilt
laps
mould
mul
mick
mite
nome
nip
naps
naming
pion
pep
pars
pater
puls
pimple
ridd
ridge
tac
vie
yak
zig
zool
##hell
##eous
##got
##rison
##mine
##meal
##maker
##from
##pal
##cys
##itas
##omple
##adors
shipped
stoned
##urally
##idian
##irled
##amus
chass
chort
chimp
anac
anna
anec
dex
##imo
##imb
soaring
fridge
thistle
herds
herring
suite
##olute
##elia
##uline
##ulty
##opat
##opath
capp
cancell
cancers
##storm
clump
clams
trot
feign
feathered
crims
flore
flung
flaunt
prude
alack
##oodles
##oneys
graces
abras
quail
query
##uda
adverb
##agus
lobby
twain
amus
amour
uncles
##ipation
##quette
robe
slot
slay
slices
thrall
joins
dayd
downst
needy
##ethat
evergreen
pew
desires
##izzy
idol
perverse
period
compensation
pleasing
hobb
resign
firstrate
##ermans
barrels
graves
gravy
##ateral
assent
marital
marched
painfully
defy
deflect
confidence
##days
commence
lighting
##atted
conscious
##upon
##aryn
##otherap
runny
elix
limrick
apric
refres
##ocation
hotter
burg
burrow
felled
infant
charter
india
indians
growl
affix
flowering
##brown
devices
##ummed
##ummies
classy
extoll
retort
retribution
detected
turf
strait
avant
stuffing
screens
cellul
termites
angst
petes
vey
declar
madness
entreat
interests
forehead
faze
harass
planting
hurric
digits
castles
##ference
dinosaur
promotion
ruler
farming
succulent
bases
urgent
ambul
opposed
smokes
freshly
ensue
ensures
ensued
valu
cracker
memorys
posts
##omyc
boldly
suffers
touching
audit
melting
futile
tailor
jumping
beset
bonnie
utmost
survives
puke
hostility
volt
cadaver
complaints
puns
increasing
increasingly
##know
olive
bulge
bulbs
moods
cherish
seduce
torch
torrent
##woods
barbarian
strokes
suspected
murm
youthful
hunts
##aurus
##uvian
consumers
switched
fiber
sparkling
##iacs
enemys
jerry
hawai
shakespear
particle
torture
granite
disguised
sacred
gigantic
affects
shirley
cloak
widow
forbid
environ
gaily
furniture
reminds
intelligent
prickly
aussies
lilies
enzymes
##laden
gyps
contrived
industrial
conscience
horde
repeatedly
outdated
gulp
adulter
titanic
slippery
lousy
cathedral
abstruse
telesc
cartilage
lettuce
apparel
undoubtedly
aka
bribe
bakers
duff
fangs
hott
iq
kang
kidding
las
lusc
messed
ned
ness
nig
nour
nub
nancy
nailed
nymph
ouch
olym
pag
porce
rite
tink
ticks
tides
vatic
wilt
waving
xray
zen
##high
##eaux
##oved
##iast
##dri
##dash
##nity
##tails
##good
##rad
##uals
##volent
##bul
##buck
##bones
##bolic
##call
thre
##inqu
##ateness
##isons
##anous
ands
inve
whacked
whims
##veling
stag
##chair
##chee
chad
deh
friction
fritz
##sex
##seye
nef
nect
neater
allay
sparks
spikes
##estation
##ainty
sues
blanc
blaze
##ulates
cafe
clav
clunk
clusters
trs
tranqu
feck
feud
feces
exs
floss
##anders
bry
##abel
ourselves
coch
coined
##ells
grunt
abre
abut
quo
quirk
scents
adap
adip
lob
##othing
enn
dru
##respect
rooster
##earth
slate
##pty
##inton
##cling
dipping
clem
kevin
glaze
##izer
backp
perched
compelling
spew
phe
contained
endured
##odont
baro
partys
grapple
assass
helm
cutter
chooses
clearer
reduction
imposs
accum
dregs
awl
awash
elbows
steaks
colt
instant
strewn
distrib
exploring
muscular
birdwatch
independ
purge
englands
laden
restore
supple
slew
finance
extensive
deeps
landlord
parall
cataly
horrid
monsters
perforce
armad
##ophy
##opher
angi
anglic
earthqu
invaded
invading
wishing
signature
denial
denote
fooled
profuse
undo
admits
madly
strongly
astounding
picky
penn
pencil
ruins
hurting
displaying
debon
equator
secured
splitting
filthy
baggage
sickly
fury
bankrupt
irrit
malicious
raining
propri
garn
immune
sensible
enjoyment
tricked
bodily
dissolved
printer
juices
ferv
unsure
surviv
robin
robot
stresses
mentioned
frowned
whisk
vanish
behaved
targets
alarming
carrying
aquatic
supers
twisting
##amental
##ogenous
fleeing
fleece
champion
binding
options
pedal
cosmos
dwight
stretching
scratching
floods
gentleman
fibers
flawless
conveyed
considers
ninet
typically
gowns
slimy
detective
##ophobic
synonym
officers
official
bacterial
duration
pooch
tangle
australian
roasted
achievement
pigeons
programs
bawl
##burg
spectacular
tanned
clarity
adjour
allege
flavour
museum
injured
arrangement
arabian
quartz
lectures
inferior
cheeses
casket
families
soothing
lemons
sioux
convenient
##charge
revered
ireland
disclose
cerebral
hasten
strangers
resources
abnormal
fatigue
cylind
tibet
uncommon
disquiet
ointment
stellar
vodka
mafia
consternation
anecd
crimson
cd
cider
dans
dally
fals
fax
fift
fickle
huck
hives
hann
hugs
jon
kettle
lu
lis
losers
mun
nash
nosh
pens
pats
pears
pudd
rape
rasp
sic
sut
sipping
tues
taut
vint
wimp
##ea
##eon
##oin
##iary
##iations
##dis
##nce
##talk
##rating
##ufact
##bag
##core
##wort
##eration
##erys
##onous
anders
##oteric
##alysis
##acs
##acys
onion
##ados
shag
shatter
stu
sta
stunk
stages
hein
myr
isles
##amation
asym
##ooch
chit
chipper
weathers
dend
soles
framed
##ighty
##rapped
alloy
##rious
spi
spaw
spry
spiny
##gel
herr
sands
##elm
blubber
##istine
##ulant
##ople
cair
worsh
leaks
##igious
exert
crescent
flake
goin
aliment
comics
gramp
grotes
grudge
abortion
abbey
quot
scowl
##athetic
adher
twists
##plan
amn
swap
enact
unrest
slipping
chevy
##uber
sinful
skis
keith
glimp
idiot
compunction
##ggles
##arma
contents
##eryl
endowed
##bean
greg
defiance
beloved
cret
delhi
commod
reddish
accomp
dreamed
relative
missp
missile
corros
trape
##ocate
##riend
burial
artific
infernal
calor
affront
##brid
baboon
extol
##weet
detroit
strands
parli
norwe
concord
incomp
mini
polic
polished
sprouts
daze
stares
syl
evo
significant
childs
banish
banquet
bowers
cooling
dispens
digs
senior
replies
labelled
fillet
croon
shrunk
worthwhile
hopin
untrue
bottoms
basin
epiph
merge
strangely
gasped
risking
portion
shocking
kidney
deriv
immort
mounted
hideous
ancients
##black
campus
##flower
bacill
audio
understands
##erald
batting
yellowish
twentyfour
chester
duh
symmet
stinking
methinks
supporting
package
inflation
accepting
suggestions
collector
repeats
cuban
embraced
seduced
creepy
leafy
sinking
delivery
bumped
bordeaux
sorely
##ochem
organic
professors
##uscule
favors
hawks
tumors
unwind
resembled
cranial
tortoise
preventing
department
cuisines
munching
economy
seventh
neurotic
itchy
aberrant
politely
elder
zealand
lurks
##lysis
deftly
ankles
furnace
accidental
occasional
cranky
squirrel
fracture
vermin
sweeping
##creen
overst
chaucer
architects
skiing
provoked
bipolar
vigor
adorned
foresee
gamble
jacques
bravado
obsessive
mimic
disturbing
crusade
entwined
betrayed
upstairs
extremes
dolphin
##blooded
calendar
newspaper
awhile
video
soprano
liqueur
antelope
acknowledge
november
umbrella
widespread
luscious
glimpse
bakes
bals
berg
dank
dainty
erod
fud
faking
fins
fades
fawn
farts
gaps
hark
ivy
jes
kite
lenses
mace
mog
nifty
oclock
pate
porter
rer
rar
tant
vase
wry
wired
yester
zits
zipper
##has
##dam
##nels
##tor
##taking
##gence
##ran
##rite
##rans
##mall
##liest
##lasting
##fing
##first
##vil
##vette
##bott
##bugs
##ki
##zers
##ww
##lle
##onents
##enot
##enger
##arius
##itus
##asms
##asma
ine
##omat
beque
beij
shipping
shudder
stank
staged
forage
##amine
asl
chaff
anaph
decks
##imation
notions
##antine
##rip
##estrian
##onto
plough
##oughs
##oline
##olite
blan
##ista
caust
wills
clerg
claud
tram
leon
leapt
bypass
##artes
exor
cramps
##icky
##abled
output
grime
abus
aborig
quint
quix
quib
quips
scoring
##athery
adhere
##acea
##ectomy
##othed
##plate
amnes
##ifers
enrich
unrel
manufact
acar
##avy
slopes
thrash
jockey
newborn
molly
carib
peaches
##ube
sinner
greatgrand
brewed
themes
perks
compelled
mugs
snide
snugg
strayed
afore
phall
phosph
resc
headache
barry
attrib
##irect
overwh
assoc
assessed
##yman
cleared
delph
serf
##alet
confed
confection
repay
repairs
careers
airport
dragging
handed
coloss
refusing
##ropod
traveled
ballistic
collide
burd
burger
eros
erase
infested
woven
eden
sleigh
wedded
salts
classmates
abscess
##azi
floored
colder
watches
preserve
waitress
angled
lowest
peters
mae
maze
kingdom
##hey
interven
pickled
cower
##opsy
slower
felicity
patrol
disputes
tommy
messy
ceases
visc
diners
archbish
magnet
milit
prominent
splits
filing
voiced
darned
southwest
galax
##iolet
urn
merchant
verte
##ographs
##ographical
locals
circums
commonplace
ensn
##blown
connipt
berate
panache
rubble
##annies
selfd
terrier
wrecks
attracted
daniel
buster
hosts
geeks
mutual
##kinned
threaten
apartment
majest
gleam
vacu
collective
tarry
athlete
scarlet
##ivalent
competition
competitive
passionate
pronouncing
remarkably
##breaking
chuckle
option
bagh
marketing
pouring
cigars
previous
lengthy
heroic
flags
chemicals
fungal
dysp
folded
chicago
boasted
jello
reckless
pounding
voted
engineers
communist
weighed
skew
stomachs
hydrogen
##poken
customer
coinc
tackle
afflicted
defendant
plucked
mystique
atlas
container
crawled
relationship
adventures
##oscopic
nickel
oscar
tutor
grieve
plastered
succumbed
jewelry
accomplish
##build
calculus
provokes
hammered
apparently
appointment
pallid
##writing
pussy
landscape
mosquitoes
fountain
immersion
outdoors
modernday
razor
meadow
toxins
scourge
focused
rifle
sulph
bagpipes
trivial
laundry
trifle
aggrie
bureau
arachn
dastardly
prairie
israel
soccer
algebra
manhattan
smidgen
curmudgeon
bazaar
##omplete
avantgard
kangar
porcelain
nectar
debonair
bequeath
beijing
bm
cud
cia
dour
dunk
dues
eerie
filed
hive
icon
kab
kong
kaz
latch
lug
laced
mesh
mason
mites
moneys
nests
nett
nixed
oats
pawn
roo
ross
raving
ralph
ss
sated
tam
vene
wad
wart
waved
yolk
##eons
##dies
##tons
##rade
##rosis
##mar
##uations
##flo
##function
##pin
##bin
##bro
##cake
##comp
##inine
##inates
##inations
##rens
##inges
andro
##omancy
##icc
##alc
shaved
stap
heaps
##urious
##cht
##child
chand
anarch
anonymous
##entially
reek
sofa
##ightly
orph
##ilian
spont
spore
spade
spuds
haute
##thew
placing
sued
##elong
wors
canc
##sticks
cluck
clique
trance
traction
exams
crane
flamb
flocks
gob
##inda
convent
conjoined
##empor
prism
alms
comet
cocc
outta
aromatic
abc
upward
disj
scen
adel
loon
swung
enraged
proceeds
prohib
unch
univers
smother
roe
##actions
illust
acry
slant
slop
moat
cheering
pecul
##ensity
clears
keel
##izing
backside
perc
perennial
composition
snig
stricken
inters
phon
resigned
reserve
longs
endear
endors
##odox
barrier
expired
assu
marrow
grec
greasy
hardy
antar
drivel
impaired
accust
accost
consort
dreck
drape
steals
brawn
brazen
reflex
treason
ballad
recipe
learnt
burs
artill
eric
explored
##bbly
christs
devised
restrain
behaves
##ussion
supper
babb
babble
stripper
sadistic
wedge
##grade
shortly
eyesight
deeper
##which
parish
catfish
##prints
horribly
brighten
sunlight
minimal
policy
cycles
forgo
completed
certified
##plend
creative
##opsis
##ilton
harang
digress
potion
drying
ceil
appearing
debated
breathed
shrine
costly
unto
revol
wildly
epist
merits
##appin
buttocks
personality
malays
camou
speeding
surprises
proposal
immoral
respons
sensations
postp
physicians
jeer
jeers
##aciously
mornings
futility
alongside
juicy
attracts
axes
complaining
demanded
glean
concealing
aspers
lifting
walter
collecting
liter
lassie
oliver
bumble
gifted
politics
draining
barbie
crafty
inspiration
##ogenesis
ethnic
timing
existed
rabbi
##working
hunter
psychotic
psychiat
pools
fearsome
bursting
sparkle
authority
ump
medicinal
battal
tropics
voting
wooed
connections
instructor
taunt
chaos
cacoph
libido
censure
##keepers
scientific
struggling
distinctly
mushroom
european
mythical
accessory
furnish
parasites
squirms
academic
adopted
translation
victorian
tigers
wrinkles
chauffe
analytic
cheesy
librarian
hormone
cabinet
##osaurs
flexible
kentucky
intestinal
toddler
abundant
stalks
brigade
pyram
procedures
vegas
hordes
available
encourage
categ
catech
chromosome
enforce
enlighten
bemused
physicists
plagued
destroying
seaweed
hector
wretched
diarrhea
lethal
pungent
amateur
tribute
engrossed
coconut
embellish
besmir
nefarious
baroque
peculiar
cn
cache
dere
ephem
fading
ginger
hos
humb
housing
ip
ic
jen
jolt
kim
kenn
lows
mink
mien
ny
nos
narr
nudge
ost
oui
pon
pix
pique
pads
pumps
poodle
ranc
rural
rags
sill
ugh
vouch
viet
waff
wager
zap
##hee
##iol
##dressed
##new
##ti
##tar
##ties
##rals
##range
##rane
##ridge
##lar
##leness
##laws
##fin
##vance
##bos
##bill
##bury
##wit
##inx
##inence
##edd
##oration
##isive
##isible
token
##itable
##asse
##aseless
italy
##omer
##oter
##otum
##otte
##alis
##ayer
shap
shaw
stove
heave
##urable
##ositions
asbest
dele
deuter
rewards
soph
soggy
fran
fruition
orbit
nell
nears
##verts
##antial
##unctions
spiel
##estion
hag
noose
##ppled
sabb
##ieur
caul
shear
cluel
clutter
tromb
tresses
lev
lees
leery
exempt
crumble
cringe
fla
flim
flound
##owned
conned
##aby
##ousness
aloud
cog
coz
coals
grants
grilled
abated
abusive
abomin
adverse
##agog
loft
swerve
swapped
envelop
probe
##ortions
unve
unimp
unhe
##iped
##quer
manif
mangled
robb
guided
slander
##ptuous
olden
downing
wrists
chev
carrier
peppers
prejud
skate
skitt
deserved
glen
composing
##ully
snub
snaps
##ertime
playful
hoax
intri
##fuls
resplend
##oding
##umbers
highness
highland
gravel
paints
nightie
belts
funk
anton
antith
antlers
confine
drips
redund
accrue
##oyd
aired
begr
elm
elope
elated
steers
steering
##neum
braid
refute
missiles
traveling
yeti
fellas
esprit
calvin
formerly
##bridge
devoid
rests
##eney
stripping
dada
salads
squirt
deterg
excursion
incomplete
brighter
armour
biological
minuscule
lottery
household
sonny
daunt
invasion
starvation
syc
wrongly
denying
doubtful
eyeballs
##iffs
doctrine
potter
produc
sleepy
smelling
silky
brownish
churchill
warmed
benj
copies
morse
directly
bloated
##welling
laud
thicker
pressures
arrival
carte
posted
##ippy
approved
cupboard
dissed
bathe
dangers
included
acidic
argued
stoic
bonus
flux
mutation
ashen
album
humanity
majestic
globe
concluded
inflate
inflated
reporters
conceive
versatile
broadway
statues
pillows
barked
yielding
servant
varies
variety
aquiver
sinks
bassoon
boredom
definite
coughing
baile
consumption
scratched
solely
ghosts
tactics
brian
deduct
bogus
skulls
spiritual
tacky
conversion
carnival
hoods
enhanced
##omania
executive
flourish
circumst
struggled
talented
websters
boiler
sniffed
bawdy
wicker
sewing
linen
orchid
elders
bridle
##agonal
electricity
weeping
experiment
subtract
parasite
arabic
picnic
abbot
quarters
bewild
cortex
distracted
thorns
withdrawn
gullible
appease
clerks
biscuits
pistol
##osaurus
nagging
##encys
endeav
economys
clogged
glamorous
dalmat
ornate
vapor
astronomers
nibble
commitment
jackson
ivory
disturbed
##tember
##tempered
diphther
churning
atmosphere
disconn
nostrils
phenomen
barbecue
crustacean
cessation
collapsed
integr
sizes
acronym
theatre
reluctant
einstein
fecund
concoct
unravel
diabetes
enshr
indoors
valuable
grotesque
avantgarde
camoufl
aper
aeg
aversion
bp
berm
bouncing
cout
coss
cept
cudd
dd
dint
dons
darts
ery
eau
eagles
fettle
gon
gur
grop
gape
hight
hoop
ike
jub
jars
jumps
kore
kud
kiw
lapt
loops
mi
mn
mime
mau
merm
mated
naut
oat
oily
pamp
rally
rained
rider
tapped
vass
vines
violet
wailed
wounded
zo
##har
##horn
##oed
##don
##dry
##some
##she
##tailed
##yer
##maid
##uine
##lit
##lined
##lier
##locks
##afe
##force
##vish
##par
##bear
##birth
##was
##wal
thres
##atable
##atient
september
##onk
##onically
##isse
##ingles
tore
##itone
##itals
##icated
##ications
##uto
##usks
beeth
strol
stutter
stumbled
myri
##iry
##osin
##amer
##amen
##chin
ascending
##ooey
##illin
chan
chatt
chums
ans
dems
decept
delet
##imet
##imps
recover
##allys
franks
##rand
##iler
##ilib
sph
spasm
plunge
##ppin
docks
suave
##olous
blair
bluish
##opathy
cleric
clipped
clipper
crue
crater
flab
flicks
gobbled
somebodys
conject
##emper
prance
knell
knob
kneel
alps
cole
coag
arith
aroused
##eller
##ooked
abject
upright
quay
quaff
disbel
scab
adequ
drones
drugg
bugger
acre
slid
slump
slurred
slapped
pox
##ogamy
aggl
appar
##angered
emails
cheater
carri
carouse
carne
carcin
wayne
sinned
##ensively
deserving
descends
perv
pleaded
phleg
resulting
conting
controlling
context
##odic
##umbo
##umbered
barbed
expelled
curvy
anywhere
##ancys
bothers
marching
##eads
chopping
crete
delta
funky
serpent
accents
##ologic
foli
awaken
blackand
craps
craves
eloqu
stein
traitor
payments
##ocus
##zzie
recy
befuddled
burgeon
faction
kindness
esk
calab
owns
indisc
divinity
affinity
wond
warri
squab
discrete
retain
singles
strap
avar
perse
crosses
bellows
cynic
darker
effic
anguish
dapper
lowly
believer
denies
veal
maids
unders
##notes
entails
entrep
shedding
astrol
astounded
grounded
##ouche
cowardly
beatles
harrow
patent
patri
##ealing
tomes
teaches
visits
##shore
protr
bearer
debating
descartes
sentiment
sentences
##ifications
browns
frenchman
##loaded
directed
furious
epit
merchants
climbs
barefoot
irk
honour
locations
malaise
##rational
portug
rainy
popes
garage
breezes
derby
fanny
cardboard
cardiac
cartoons
destination
routines
creamy
purely
unfit
melon
melts
objection
including
savvy
stinky
expressions
fluke
bushes
inventions
hostile
volumes
axi
bombay
cloudy
bangs
banging
continental
albat
tossing
remembered
aspar
receiving
versus
improving
understanding
vanished
brewing
carpenter
resistant
flashes
flashing
cherries
cubes
strained
crux
guarding
dublin
##avery
stirring
swallows
screwing
mumble
##itzer
awareness
middleaged
quarry
paddle
cosmetic
convict
teeny
sneezing
gnaw
rodents
buzzing
maximum
maintains
severely
ridiculous
claude
leaning
connects
bouquets
antih
stunts
##manship
particles
ominous
blinking
sync
kitchens
surrounding
chirp
##keeping
bladders
celebrity
prescription
lumpy
##escence
corporation
extended
emphatically
chowder
scotsman
carrion
scrubbed
radioactive
bosom
nurses
nursing
nursery
adjectives
antibiotic
coyote
automatic
lecture
fidel
wrinkle
abduct
fanciful
crucial
democracy
published
proteins
thwarted
conveys
oblig
imperial
sincerely
cushion
glutton
intestine
instruments
vivid
injection
reverend
aspirin
stabbed
mattress
cajun
disarming
forsaken
appetites
cocoa
entwine
##zzzzzzzzzzzzzzzz
neutral
sparrow
impecc
cuckoo
cameras
intellectual
havoc
mislead
pompous
grandson
grandpas
hustle
airplane
fathom
vomit
snooty
apollo
expansion
chambers
optimistic
schnook
inflammation
gymnast
opportunity
dilemma
unbearable
arnold
##arynx
elixir
shakespeares
tuesday
trapeze
bigh
bison
bounced
catt
camb
cds
dv
duly
etern
fiss
fave
gator
gazed
hath
hatter
ions
jed
java
kirk
lamps
luke
mope
mined
mores
mashed
mikes
ni
nir
nie
nah
nanny
ome
ostr
pike
pounce
rus
rim
ramb
ranger
raging
svel
sores
tens
tug
tipped
tumbled
wakes
wane
wagon
zomb
##eating
##oen
##ovation
##iree
##iards
##dist
##dem
##ril
##rayed
##yles
##may
##mad
##mel
##lia
##fas
##fitting
##vals
##park
##power
##bad
##bie
##bath
##cate
##cap
##cuts
##jan
theology
##inis
seals
seated
sections
##lled
##orum
##isingly
##aned
##anna
##eno
tote
##iterate
andes
inver
##ico
##icting
##icidal
##lem
##leaf
##otom
##uten
##uttered
shri
shone
stations
stoop
storys
heath
##urge
##osite
##osia
forum
##ionic
##amist
##kempt
##illas
chi
chimes
chancy
chabl
anast
weas
weld
dement
reind
soared
friar
lig
##essions
notch
##ilate
##ctive
##unter
spared
##estro
hagg
##thand
##thought
##theres
##geois
noises
suz
##olit
##olas
##olation
blizzard
##ulin
##opt
worries
cancel
willyn
##ston
clings
clare
clatter
lech
exempl
flage
flats
braces
brushed
##emia
##ffl
prun
knave
knitting
knickers
alum
alib
alike
cozy
outstanding
arre
arct
graced
grumpy
abounds
boff
disrespect
##athan
adroit
##othe
twot
amy
amar
amel
amends
swed
swind
enamel
proverb
unr
unjust
unwise
unlaw
unkempt
##quest
##acty
acup
acerb
slugg
slammer
##ptions
tending
newton
agric
agony
apprent
carc
cared
peeled
sinners
preten
##orship
keg
descending
compr
compute
righteous
snip
snappy
hoe
hoarse
afgh
longed
contention
bared
barrow
barren
cures
anyones
triangle
marble
marines
decent
decides
deciding
serial
antir
antist
finely
accrued
repel
reporter
console
farce
elves
elusive
nearing
reliance
braw
##lectic
apron
traged
evenings
distribution
fishin
lessen
shopper
charred
calories
metre
laddie
resting
restrict
behoo
striving
sleuth
sleaze
momma
squashed
##rician
depressing
##uthers
detection
turb
straits
absc
abscond
##whe
##who
##when
##whats
realistic
param
parks
stately
bellig
minnie
minimum
pointless
petal
profane
blem
underse
admission
##ribing
madame
transition
banished
##nchron
faulty
meetings
felon
patron
rugged
dispense
casts
archim
shotgun
listened
labour
debau
sentenced
builds
equations
legion
centers
dares
revive
tights
donor
donald
bengal
morale
boxers
urged
embroid
blooming
bandit
combines
locus
malad
occasions
dreamt
proportion
pressing
valent
summon
panel
taxi
buckle
approve
routes
escapes
forgetting
ledge
prepar
dissension
cheerle
selfs
hatred
chestnut
symbolic
tvs
almighty
uttered
cocky
falcon
credits
surviving
##oxide
matching
##engths
danish
titled
pinned
radiant
springtime
historic
recorder
victory
simon
banged
gaining
##glass
uncont
prediction
gardener
cultured
europes
vacc
collects
collections
federal
respects
respected
motions
cube
blasting
seduction
surfing
bolts
crashing
timid
contracted
issued
venting
rejects
##uva
discussing
prevents
shunned
teenagers
crusty
currents
investment
gnu
specialized
applying
##iacal
augment
contented
punched
medication
shrinking
battled
blessings
fantasy
wooing
florida
absolutely
acephal
becky
pierced
winked
ribbon
magnetic
omn
slyly
locker
officially
violence
google
carnivorous
admiral
hypoth
jargon
seventy
neurosis
conjug
surmised
celebrate
bawled
mystical
orchids
spectrum
gathering
grinding
scanty
alexand
fertility
tweak
lucy
parasitic
monsieur
expanding
philosopher
graphic
fidget
licking
earlier
bargains
##fields
veloc
##iju
tractor
cannibals
mexico
plumage
consulted
platform
dracula
soothe
afters
janet
darwinian
barmy
transparent
banter
emperors
unhappy
enclosed
orchestra
buddhist
aaron
degrad
gravitys
sterile
consonant
depraved
cetace
ambiguous
anatomical
rhetorical
rookie
beverage
sarcastic
restricted
venomous
leeches
voracious
unemployed
guinea
discomfort
subdued
unexpected
daydre
##otherapy
parallel
garnered
staunch
archbishop
vacuum
baghdad
artillery
##ranean
clueless
myriad
entreprene
portugues
albatross
chablis
willynilly
bade
bores
bidding
cil
cain
cues
dong
ditt
dives
dilly
dashed
eug
fum
fission
git
gosp
gulf
goner
hams
hamb
ion
ja
jal
kale
kern
mitz
nan
nim
null
oph
pines
pneum
ripple
sate
sig
sown
ti
taw
tux
vp
vets
xrays
yah
##hat
##holes
##hoot
##horse
##oil
##iples
##done
##dress
##nin
##try
##gow
##rose
##rice
##mus
##mont
##mast
##mond
##ulet
##la
##low
##aiss
##pir
##prod
##care
##cert
##comb
##kings
##zin
##wan
##onium
##oras
##orant
##organ
##isal
##anim
##anse
##anity
##arial
toiled
##itars
inex
whined
whining
##ombs
##icates
##aler
shill
shabby
stow
hee
heinous
##idel
##idation
##idious
##ira
##chet
chate
anam
weaving
deleg
soaking
mein
froth
livin
##rable
##raints
oral
##ilight
##root
##rode
nepal
spart
spher
haught
##umines
##thesis
sages
suing
bluster
##acker
##istr
##ulars
##open
cavern
##stem
##stock
leaps
byte
feats
##igo
exal
expend
extends
flog
flagr
flinch
goon
gover
congl
brimming
britches
##emen
alab
coven
##achie
arouse
grit
abi
abra
upside
quip
boar
boos
bogs
scall
scouts
adi
users
twilight
##ifully
swimm
swayed
proving
##ivious
manor
smacked
roach
acclaimed
slugs
poised
##fts
##ogens
agri
##phones
##clad
##isexual
thinker
diat
diast
diaper
peac
pepp
skipper
glint
gluc
pern
rightwing
phd
longest
contribution
foiled
endangered
##oderm
exposing
hellish
grabbing
assort
surge
showy
##eek
decimal
##atherine
chond
choking
defensive
crept
confide
broch
brocc
broads
relatives
bragg
instinct
treach
trails
homeless
distortion
##zzles
demur
muslim
esoteric
charism
charging
booked
indict
chrome
dividing
growled
flowery
devise
devious
engaging
strives
sadder
salv
squaw
squint
discou
discourse
depress
##astern
treatments
genuine
flynn
sprink
cyp
sonnet
##ophone
obamas
invites
invaders
starving
believers
##dec
condoms
profs
eyeing
shellfish
##asket
banal
bower
internal
compliance
faade
##ylum
##yland
seller
constell
constrict
miscon
medal
capri
##amba
boozer
labs
labors
sentry
rulers
expectations
basics
##aean
urges
epig
scroo
praising
##ographys
irrational
##etto
##etters
rainbow
forceful
camps
appliance
frontier
keyboard
valve
##centered
##blind
cardi
arriving
dances
rubbish
squeals
northwest
baton
parked
dissim
succession
selfish
suitor
ferry
expressing
##oxin
nonchal
bombed
caddy
recorded
punishment
galleons
##ofthem
roughly
continuous
conclusions
conceited
suggesting
achieves
rebell
rebuke
gardeners
pillar
vacations
contrition
vanilla
innards
innovation
resisted
bibles
cherished
motives
straining
blasted
textbook
sweaty
venice
heeded
competing
oxen
throats
primitive
ethn
rabble
herbal
majority
altru
dirge
coastal
##uvial
approaches
listeners
dotty
eventually
pilgr
azte
caviar
maxim
medicines
colonial
jerky
##youll
tumble
witches
crooked
disgusted
bronx
obtained
cheeky
surrounds
giggle
##winning
tiniest
tedious
anapestic
honestly
naval
pumping
pumpkin
conjunction
diesel
rusty
wraps
comfortable
aberde
chagrined
mocking
pregnancy
concerts
envision
diminished
diminutive
millionaire
grooves
confirmed
dawns
veggie
arson
arsen
fictional
trumpets
mechanical
crispy
cafeter
descended
additional
blended
bessie
erected
flattery
channels
analyt
lambs
shredded
converted
molasses
inquire
amphibian
corruption
extracted
lemonade
unawares
glamour
hissed
monarchs
klutz
ooze
oozing
wailing
ajar
microscope
agnostic
restaurants
brunette
cynical
appetite
attorneys
embryo
capitals
nabbed
therapy
immersed
chromosomes
wiped
consonants
maneu
membrane
cumul
nephews
airline
bakery
lyrics
asthma
drenched
knuckles
incessantly
occupation
intertwined
ingenious
atrocious
kidnapped
interpret
deliberate
hilarious
dexter
vatican
artificial
norwegian
colossal
laptop
svelte
reindeer
pretense
velocity
entrepreneur
aig
bally
bids
bashed
cf
cus
citys
dudes
dagger
ebb
ether
fain
fag
gol
gps
gyr
hamp
jus
jess
jib
jugg
jester
jenny
kos
kra
lures
lager
mow
moles
nets
oaks
overe
pell
poth
pav
porr
rind
ruff
tb
tul
tents
tai
veter
vogue
wy
wails
yew
##hap
##hands
##opping
##iks
##iates
##iative
##din
##nest
##nings
##named
##take
##tures
##rug
##uld
##lived
##auth
##far
##vag
##vens
##pots
##bies
##bug
##bane
##card
##xus
##xia
##went
##wig
thine
##inse
##inary
seized
##atis
##onant
##orable
##enance
##inging
toots
##itud
inquis
##lement
##alg
##alid
##alous
##usa
ons
shimm
shifts
stere
stig
##idi
##idays
forge
##aman
##americ
asy
ascent
chame
chink
chute
chiff
chests
chunks
chedd
##enta
rend
soars
friv
frock
noting
##ilk
##sey
##sequ
images
atone
allig
##antes
##rians
spills
hazy
##think
plaid
plasma
blithe
capped
whatcha
cana
canines
cland
trink
traced
trunks
lends
exting
cray
floo
flann
cong
cones
congen
##andals
##abase
##ffect
pric
codd
coating
outcomes
abj
quid
quilt
quipped
scans
scoot
##assy
##agu
##placed
##ifi
enra
proct
dross
drummer
drunks
calligraph
unsh
##iptic
therein
guitars
sled
poppy
howard
##ogs
teasing
agar
##ango
emerald
moe
moot
cheats
shoulda
carter
dix
pecs
##uba
cantank
sked
keats
idi
peruse
##teenth
sno
##ucking
playwright
hopping
##augh
seeming
resin
endlessly
##ermen
barium
attitudes
curving
curios
helluva
parted
partly
namely
##ushi
graze
tripe
assail
sweeps
meanwhile
##irds
harden
remed
defiant
creams
##otta
antin
lasted
reduces
faraway
drear
runners
handling
craved
lims
broach
heartbeat
nearer
reliable
homemade
setter
distaste
district
burly
fishy
article
erased
inde
devot
warrant
warfare
supports
striped
##manned
extraction
larg
deepfried
strauss
paralysis
wince
concave
excused
##prone
sunset
mining
ministers
pointy
##eship
##eshaped
synt
evade
greenish
fooling
vegan
maize
maestro
beauties
madder
childrens
##heim
entit
interred
annie
cowp
baltim
powd
##ylike
constit
construe
dispatched
misbeh
achilles
sixth
visited
roommate
booed
clothed
dinosaurs
straighten
replacement
smelled
archer
despond
breathless
breathtaking
satin
drawl
drawings
catcher
geoff
geometry
voil
revise
fixation
mistook
donation
donna
lifelong
workshop
palin
poster
##keyed
beeh
pubs
designing
massage
scramb
##apple
iris
irons
honors
risks
effectively
wheed
charmed
renaiss
lieuten
defending
thicken
grope
ensuring
##anais
##guing
sorted
responds
swells
destiny
dimwitted
encomp
britains
bucking
tonguet
audi
melanch
gardening
dangle
symp
spiral
utility
fluores
cocktails
fortress
nutty
frightful
rotting
pinched
pursuits
neckl
ashore
##etype
gallons
albania
muddle
deceived
conceit
cursing
philipp
achieving
statistic
euros
contrarian
boutique
touring
##strong
innate
innoc
grinning
quitter
spaniel
benefit
benefits
brews
bugle
poetrys
africas
publicity
textbooks
embraces
sedate
superst
mortgage
surfaces
recalls
governor
codger
debtor
screwy
catholics
##breasted
contracts
bumper
reacted
referring
mentally
tearing
currently
empir
bursts
submer
inhabit
anapests
emptied
folds
conceptual
imagined
printing
unwanted
egos
pierce
regarded
regardless
departure
caca
bacteri
##points
suspense
owls
pitiful
##hopping
mobile
possessions
censor
economic
stalls
lewis
marsha
maple
bearded
##burst
companies
crawling
caesars
relationships
trailer
##holders
adjusting
ardent
murderous
loathe
pertains
sculpture
otto
witnessed
sherry
arsenic
shifted
abbott
##iliary
rosy
simplicity
apostroph
dictator
proclaims
vermouth
wiggle
fancies
explosion
nitrogen
sequence
perceived
clerical
fragrance
convex
abysmal
transmission
mathematical
larva
puncture
bourgeois
electronic
transformed
sundays
hazard
decrease
wrestling
arboreal
wielding
sermons
screech
republican
giraffe
larder
disconcert
faye
##ozoic
cavalry
cavalier
masculine
paradise
miserable
escaping
dignified
bracket
margaret
detractors
saucy
ferocious
enslaved
yorks
quirky
pimples
deciduous
discontent
apricot
hurricane
ennui
pheasant
nineteen
##planned
eroded
caustic
percussion
harangue
battalions
asbestos
resplendent
camouflage
nieces
unlawful
portuguese
hambur
haughty
porridge
chamele
cantankerous
renaissance
avert
bd
bribes
cen
cay
corm
citing
dote
ee
eer
ferm
fines
fusion
gable
gord
gimm
gawk
hier
hacked
hoof
hmm
jol
jenn
jammed
kvet
kansas
lan
licks
lasc
luminous
mints
mabel
nast
natch
natter
nooks
oars
pom
pare
poul
rene
sot
silt
tat
uter
wot
wade
wowed
wien
wurst
yar
yoke
##hamm
##eenth
##des
##dings
##dock
##nor
##tow
##tos
##tys
##rs
##lics
##fur
##food
##vre
##vah
##pace
##bub
##brain
##cal
##cale
##crew
##kh
##kill
##wow
##wart
##worn
##erds
##oure
##eda
##requ
##onial
##onomy
##oran
##orrect
##isance
##enas
##enne
##ingo
##arg
tock
whips
##icat
##icose
##icial
##lexic
##utt
##alia
##aca
##acas
##aya
beel
shamed
shaving
shaky
stashed
stagger
healed
isa
##urus
##uration
forte
##chn
##kees
chants
anise
deign
##cels
frayed
frilly
franais
##usted
orb
orient
orbits
neer
spong
spons
spouses
##estine
##estone
##thro
noct
noahs
plush
sable
suicide
##oled
blather
blimp
##istas
##ulum
caprice
cloy
trashed
traded
trinity
lever
##ardy
likewise
cranks
##ando
bras
brooks
##abbit
prune
pristine
coppers
arra
grac
gritty
upl
quarre
boister
disple
scri
sciss
scroll
scribe
adh
adhes
##aceae
##agen
loos
twitter
ammo
##ifl
enam
enfor
##reated
caller
unz
unle
unbe
unatt
unwell
unending
bucc
guv
slough
slav
slows
thrush
wherein
jokin
##oglyph
teas
newf
agitation
aggreg
downright
##clusion
thinkin
##ossessed
prevention
skipped
cleopat
glazed
percept
compares
compuls
comprom
components
speck
snicker
strung
hoist
afoot
##peck
resound
endow
bary
expel
explet
expanse
curd
highlands
assa
assumes
bigot
##ymoon
marys
mariju
teller
decayed
##inesis
antiques
committing
commotion
lighten
passenger
impure
impulse
impatient
dougl
godaw
airborne
wordsmith
drapes
draped
craz
sweetness
brock
heartless
brands
instantly
##versed
##xtrous
trauma
homework
souffl
##occo
##zzi
recon
fisherman
articles
undergo
calib
indirect
purpl
foodst
subdue
rested
sleazy
sadd
finch
lawns
salve
rhino
##ricate
##ricular
classified
deport
northe
floppy
##obias
catap
flyer
termed
##ophobe
angus
anglo
humour
daunting
dazzling
invested
invisible
staring
wishin
believing
evolve
complement
blends
tyrant
undress
windy
banjo
yearly
easier
interview
famine
pickles
cowl
balder
woodland
woodwind
pennies
##olds
cooler
harps
constipation
disput
potions
potty
capers
dryer
solids
##eptic
##shot
despicable
cropper
promises
promotes
dealers
geology
prett
tighter
doncha
lifeless
baggy
warmer
bulldog
beech
epis
designers
embalm
doubleb
ambide
ambitions
verge
prague
irres
causation
attackers
portrayed
dreamy
defeats
dreaded
##guess
deride
aha
summertime
sharply
bolder
secondhand
joyful
colorless
audible
melted
chairman
parking
boarding
yea
franken
frankie
almonds
appealed
grips
femme
danes
busting
mutton
historys
fabrics
simps
gallop
acrid
unclean
uncool
uncertain
##arianism
muddled
gleams
ghana
virility
aerob
bunnies
whiskers
tracking
receives
philology
cultiv
euro
vanqu
eccles
photographer
viking
insisting
insistence
auld
athens
chocolates
enterpr
murky
mickey
contraction
squeezing
casks
casino
champions
deserts
brushing
ventured
tunnels
scrawl
scrawled
baa
villa
villains
alphab
inspected
inspecting
organization
investor
blondes
azure
dyslexic
energetic
steeple
challenging
criminals
egot
egad
mcd
temperatures
brio
greeted
russians
weighs
tavern
drifting
##osphere
abdomen
tango
boomer
libert
sacrif
owes
rapid
egyptians
stallion
coloured
admiring
ascetic
circumc
neurons
absorption
abhorrent
progressive
wicket
sewer
nucleus
crickets
database
napole
wardrobe
clamor
allergy
characteristic
pondered
hospitals
corpus
persuade
festive
flirtatious
sherlock
warnings
hitched
panties
tremble
lapse
separation
cholester
simpler
lesions
##orrhea
relieved
oversized
assembled
subsc
crushing
ruthless
exhibition
tracts
cruddy
assignment
sequel
engenders
biceps
stampede
##selling
aeol
esteemed
fascination
consecut
bimbo
bourbon
cussed
inherited
adorable
retirement
anemia
bernard
##fighting
advisor
dynamite
gratitude
unease
telephone
landscapes
mosquito
flattened
aliens
inhibit
lexicon
portraits
##obsessed
nudist
byebye
embarrassing
yoga
volcano
imbibe
maimed
eyelids
depravity
consequence
karl
comprehension
snarled
sugars
sugary
frenetic
rehearsed
dulc
chisel
anagram
turkish
initial
boulder
vectors
stifle
aphrodite
abacus
nightmare
divorced
mischief
brussels
cindere
caboose
acquisition
pavement
eyebrows
canyon
duchess
rapport
cancelled
ambulance
olymp
abreast
armadillo
parliament
confederate
flimsy
skittish
##walks
strolin
foliage
wondrous
persevere
proverbial
belligerent
undersea
douglas
aaa
bt
bj
bact
bors
bism
bosh
catherine
doss
dork
fj
gil
gop
gong
gash
gaff
hans
humm
hasty
jills
jama
josh
janes
junction
kook
kinky
ls
lact
lash
lye
lengths
miam
og
ou
omen
pm
poof
pints
panda
raves
rites
rinse
ses
sous
tamed
tah
tern
tiff
tours
trod
vas
vino
wi
wes
wann
wisc
wavy
##hic
##haw
##hundred
##ez
##eas
##eard
##opp
##iard
##dal
##date
##name
##nets
##nik
##tob
##gt
##race
##rots
##mys
##mens
##melling
##masters
##fu
##fry
##felt
##pur
##pour
##pants
##bus
##bud
##cos
##cant
##cule
##winded
theore
##erian
##atio
##llen
##oni
##onn
##onaut
##aro
##aras
##arous
##ito
andrew
whoo
##icos
##icits
##icrous
##otically
##otroph
##utch
##etr
beets
beacon
##aday
##addled
shifting
shorth
shtick
stating
heating
##urist
##idate
##idium
withered
withstand
##illary
chary
chained
champs
chilling
chasm
weath
dears
decked
##imeter
reun
recept
soiled
soils
frills
freds
fruity
liv
notorious
necr
spears
spurs
spurred
spilling
##thes
##there
herman
sud
blob
##opus
##optery
cables
canv
##stead
##struct
##stream
clang
clasp
leaking
leuke
byz
feasts
##igration
##ardi
crin
crom
crot
criss
crump
crimp
flur
flops
##andered
bray
brunch
##abi
prattle
alan
alve
coed
coil
coated
coerc
grins
uphe
quas
quoted
bohem
disen
disks
disinter
advers
##ections
##assic
loll
loam
loch
looms
twiddle
tweed
##plitting
aman
swag
enable
props
drows
drills
##ortune
unearth
manly
managers
bux
buffer
slit
sliding
slicing
thromb
polly
oldtime
teap
daytime
agog
downy
##phr
shouldve
caramel
diab
dipped
preco
skim
skates
cleave
glas
glade
##lesque
idyll
perky
perception
##ndered
snoop
snatched
intimate
##armed
##order
resur
reserved
##rainer
fonder
foots
heady
nevermore
##encephal
barter
barbs
barney
attained
expands
curds
partial
overl
insuff
surve
helmet
tryin
##eworm
nighttime
belize
crep
delivers
seren
lasts
addend
commas
commut
doug
consign
courting
drake
drags
blackberry
cravings
elicit
##neous
cola
fearless
relies
bragging
##lection
apoth
traff
traps
baller
##dyd
recount
befriend
demonic
demurred
artwork
articulate
ermine
exploding
indiv
indec
##bbling
divul
devast
devote
countenance
##velops
viewpoint
##grow
shortage
shortlived
classed
deprec
extension
detach
detailed
turds
##azing
avid
avoids
pasty
halo
topics
catac
generate
horrors
brightness
register
bios
efficient
dazzle
starry
syd
evils
professed
eyeball
forged
schooling
bleu
mais
typh
##boats
goldfish
bowler
astounds
eases
easing
interrupt
cowork
compliment
forebod
harness
patently
dispose
misgu
mediter
marking
capacity
ceaseless
booby
archie
fitter
debates
croat
crochet
ignores
untold
pretentious
candor
candies
nero
spotty
copious
morsel
courtesy
basically
posit
countered
covert
covering
furrow
uran
bloat
bankers
climber
hybrid
elev
avoided
reno
weighty
propel
propert
pricey
breech
derri
derided
dismem
connois
cardinals
sensed
carts
camping
panned
dentists
naturally
languages
suitably
twentyfive
employer
employing
dukes
savior
ferr
##bodied
unsung
ticking
gripping
plateau
robber
##ruits
hostess
histr
histor
recording
lunches
punish
supported
considering
linking
pitches
conceived
chewy
##ometric
predicts
calmly
contrac
austin
vanity
##oscopes
moody
carpets
botch
dragons
flashy
services
correctly
cherub
motors
athen
chiefs
prosaic
cruising
venge
fetching
toothless
brassiere
barbers
dubya
samuel
inspiring
smoothly
suspects
relaxed
suckers
extravag
regrett
timbers
bumpy
reacts
bravely
abstraction
##ocracy
miracle
bitchin
shuns
addressing
citation
traditions
##forward
developing
homer
dysfunction
etched
texts
claus
unwilling
bastards
diagnosed
blighted
hatchet
guarantees
marshal
prescriptions
maintaining
bawd
improvement
michelle
bunches
sodium
wheezing
pretending
materials
hindu
shrieks
hauling
nicer
racial
raven
chlorine
expanded
##uncture
corpses
mourning
##oplasty
##oplasm
predictions
dabble
fractions
philosophy
automobile
troublesome
##falls
##icitous
enchanting
intrud
fido
##ablishment
earliest
doubly
fulfilled
patches
assembly
blushing
dominion
linguistic
democrat
exhibits
oysters
defective
spurious
johnson
siblings
fragility
##ophagous
oblique
multiply
hippie
siamese
cramped
baptism
socket
astronomer
porch
cobalt
recline
##wrought
alpine
blacksmith
julie
embryos
gadgets
mishap
misheard
extraneous
##flowers
insulted
##conscious
bristol
orchestras
shepherds
toxin
whistles
stumped
butchers
resource
lodge
apprehension
honeymoon
displaced
abolish
unnerved
vector
tussle
antennae
centuries
disheart
seafood
catastroph
mathematician
travails
dishonest
voyage
beseech
ingredients
ludicrous
ounce
recoil
guidance
ausp
pioneer
invective
feckless
impossible
vintage
accompan
aboriginal
burdens
kangaroo
spontaneous
accustomed
malaysia
trombone
benjamin
bailey
cruelly
asparagus
broccoli
##ofthemill
clandestine
baltimore
godawful
cinderella
wannabe
wiscons
connoisse
aort
aure
buss
bier
cp
cc
cis
dn
das
dimple
fined
feral
gw
giz
gild
gunk
gushed
hater
hoops
ib
jive
jost
jee
jiff
jerse
limes
lute
lisp
lashes
mam
mids
mills
merg
mamas
noodle
nappy
obe
py
pis
pau
pug
pimp
raced
ripp
rasc
rugs
roused
ragged
sord
sals
simmer
sushi
tarts
trophy
vim
vind
vulture
wuz
xx
yelps
yelp
zed
zany
##hound
##oi
##oco
##oken
##iated
##iams
##dler
##drew
##tt
##gressed
##rat
##mit
##mail
##lies
##lah
##fifty
##fruit
##vant
##vies
##vins
##viate
##vania
##bri
##bush
##bread
##bler
##bags
##city
##cery
##crow
##cils
##ko
##kas
##kate
##were
##waters
thail
thunk
##atas
##atum
##ndo
##onent
##onne
##orh
##orize
##isor
##itosis
inward
whered
##omon
##omething
##icuous
##otrop
##otype
##owered
##utations
##eton
##etter
##etts
##aloo
##alian
##acial
shilling
shifty
stalled
stammer
myopic
##urf
withdrew
##illions
chape
anon
welf
weaver
deod
dewe
delete
dehyd
##entimes
rears
reigned
recoll
sox
sobbed
##role
##rove
##roint
##sea
atw
alluring
##rium
arena
spock
spank
sparse
##esthe
##umatic
##geal
nond
nodd
plast
plaint
plums
##ppa
##ainly
dogged
sauces
##olph
##olia
##elic
##elcome
blam
blust
blisters
##opoly
cauld
cancan
willy
sheila
clinton
byron
fey
exalt
goy
gogh
gobble
conical
##andering
brambles
##abil
coher
nows
aris
aroun
##elli
gruel
grumbled
abel
disav
disney
discharge
adon
##aginous
usa
user
twine
twig
amps
amuck
amok
##ifiable
swank
swears
ency
encephal
##ivable
unions
ungl
uncovered
##ipate
##quat
manusc
smir
smelt
robbing
moreover
aced
acumen
sliver
slacks
ponds
pods
mayo
mayonna
jove
oldest
teem
offended
##rypt
##phen
##ethey
writh
wright
##ittingly
diac
diapers
diagonal
peeling
pebbles
sinus
preached
##aires
firs
perp
compend
##erto
hobo
aficion
resume
longwinded
contusion
endings
barack
barks
##orman
grabs
assim
sweats
helpless
##anca
bothered
marian
maria
gren
decipher
remiss
defra
delve
##coated
##otters
adder
commute
redeem
impass
impunity
repast
reproach
runofthemill
handc
handled
elim
elab
steamed
steven
freaking
##neck
dearie
hearth
missions
trepid
corinth
paycheck
ballot
distort
recite
recession
befuddle
artif
esther
indign
indiff
formula
behead
babel
studs
sadie
damsel
salon
##grounds
##growing
shorten
rhin
extinction
larks
detached
turks
strapped
aval
parach
parrots
norway
##obl
incense
bellowed
billing
presum
armchair
biochem
biopsy
minions
sprint
sprinkle
opaque
waiters
efferves
angling
angler
humid
humorous
invo
evap
evangel
##deal
veil
mauled
tyr
observing
sidewalk
entra
yearned
interf
annette
##playing
bali
cirrh
##ylvania
patty
patrick
constrain
disperse
disposition
##eseen
capac
messages
##ooned
budding
teachings
solvent
visual
situations
arches
despised
fitness
listing
debased
maggie
christopher
silic
silken
milking
romes
ignition
specim
filth
geography
cornuc
tighten
southe
benny
morocco
##lov
##loved
wilde
troupe
palind
##aea
spellings
furth
urgin
emboss
truthful
scrotum
papal
huh
susan
honored
smokers
locate
sandals
propag
garg
garment
garner
garments
ensues
taller
fanatical
dimensions
campfire
encumber
encroach
rube
shapely
trickle
buckets
joyce
pauls
pauses
bodice
perfected
harmful
melody
jeep
objected
estates
practically
boarder
sighing
##ritus
incline
twentyone
counterfeit
juven
##ascular
savory
besp
besotted
tickled
grizz
accountants
miller
robes
robins
computing
puzzles
animation
skillful
luncheon
packet
rudely
brandnew
reporting
anthrac
predator
amongst
aerodyn
philip
acquies
reborn
##inois
questioned
pillage
exhort
improper
literal
austen
bulging
thankful
swearing
##ollar
viable
whatevers
repeating
cubs
strains
stormy
aqua
aquarium
venue
matrix
competitors
louie
seaside
rowing
bottomless
baskets
pedantic
cosmetics
scraps
hollered
convicted
errant
switching
teenager
inspector
tearful
traders
bloomers
gentlemen
informal
gangs
printers
energys
shrinks
sensational
riders
fronds
martyr
martini
beckon
chromat
steadily
steadfast
grossly
snacking
resembling
hacker
ribbons
lipstick
aphids
##onyms
religions
drifted
abdomin
libation
liberty
##osterone
census
carniv
puffed
dependent
affluent
ascension
eucl
euphem
marshmall
struggles
splendor
abhorred
##downs
##burgh
railway
molecular
ceramics
forbear
charlat
clinch
demonst
rhythms
##oiselle
lizards
extending
alcoholic
allergies
museums
ott
lyric
shameless
generals
mechanics
squirrels
prophets
bartender
culp
gambler
choler
fractured
discreetly
##inchief
hooves
licked
virtues
virtual
assemble
allegiance
fancied
sloven
persistent
santas
browse
carbons
ducts
pistons
premature
coroner
syndromes
desperately
nicknamed
sustained
slurp
ailment
nibbling
transformation
cigarettes
chords
grandfathers
villainous
abundance
alfred
decreased
activities
corset
scraping
flatten
nasa
##rified
scorned
aristocr
sobri
ammonia
moderate
navel
retriever
crustaceans
unlucky
diplomat
apocaly
flunked
abruptly
verdict
##powered
avenue
hickory
pithy
combustion
narciss
hysteria
novice
sultan
laurel
giants
travelled
gothic
sprawl
amoeb
avocado
perspire
penguin
penguins
bagel
girdle
ambassador
##country
appellation
desirous
cremation
erudite
scarcely
igneous
ritual
plunged
aggravation
authentic
doeuvres
pesky
dejected
blatant
contagious
demonstrate
chortle
florence
abrasive
cellulose
earthquake
propriety
fifties
immortal
reruns
clergy
erosion
aggrieved
scenery
grecian
chauffeur
besmirch
flounder
begrudge
dalmatian
couture
kiwi
mnem
nautical
adequate
phlegm
blackandwhite
eskimo
efficacious
ostrich
unruly
carcass
archimedes
##achiever
glucose
pernicious
rebellion
kosher
largesse
syntax
scrambled
quarrels
boisterous
consecutive
upheav
glasgow
mediterranean
manuscript
avers
bam
boud
bitters
cinder
dirk
eul
euth
eased
fos
fife
farted
gail
han
hart
hib
hilt
hester
iced
igu
kap
lint
lanc
latt
loun
lugg
lotto
mott
midd
mounds
mowing
mumbled
nou
nuff
nether
oe
ole
pong
pics
pours
peps
puddle
rs
rah
riled
ritz
surn
taps
ure
viz
vern
yay
yam
yod
zit
##hall
##hoe
##oirs
##ioux
##dep
##too
##tra
##rades
##rato
##ych
##make
##metic
##uj
##uette
##lie
##vol
##vised
##vils
##viet
##pay
##post
##pool
##ports
##bil
##both
##bark
##wer
thither
##inus
##esian
sean
seth
##edged
##reuse
##llis
##eny
##enza
##arney
##itan
##itrant
input
inlaws
whores
whizz
##omys
##icans
##icip
##icillin
##otas
##otine
##otax
##otropic
##ali
##alism
##usively
onet
sheds
sten
stam
hep
heft
heaped
##ithee
forfe
foresh
##amins
asthen
##ooh
chen
chas
chard
chaw
chug
chaf
chipped
chih
cheney
anor
anesthesia
weaves
dell
deans
deity
deuce
deacon
##entials
reeds
reaper
rewr
soviet
##erson
meow
frazz
liable
lizzie
wasp
ordeal
##iline
neon
nels
spel
spans
spilt
spinal
spades
spheres
##estr
##establishment
haven
##gey
heron
noggin
doin
##olo
##olin
##eles
##elph
bligh
blasts
blotto
##atee
##opot
##opian
caud
caber
clans
climes
clicks
clumps
tres
leo
byr
feathery
crone
cronies
flue
##andp
##ousal
prithee
kno
knelt
kneeling
copp
coex
outward
outermost
arty
grating
abed
abuses
disent
dislike
disaff
scow
scint
scares
lox
loosed
loading
loosen
##othy
twoth
twigs
amorph
##ifix
swapping
swirled
enrolled
drat
drudge
##ipede
##quin
buggy
acl
acorn
##avin
slurs
slosh
sludge
throttle
poked
poached
howled
wording
agin
agile
agency
needless
cheet
cheque
##cloud
diary
diagr
dixie
##ensis
prel
cantal
skipping
goodwill
perpend
compart
compost
compress
comprise
mucus
spewed
snare
hopped
intrig
intricate
resolute
betw
betters
endurance
##odies
barre
barny
attent
workplace
curric
partially
overre
overcome
overwrought
highways
insides
lovemaking
asset
surpassed
surfeit
mares
decap
comely
youngest
cutaneous
defies
defenses
funnel
anted
antil
antich
antics
confound
addle
commode
planks
reducing
passers
leftover
readings
##oyant
handmade
blackened
crabby
beget
begone
begonia
elong
steves
freaks
bedtime
turner
apathy
misses
##ahu
##aha
corned
soups
distrust
burr
burlesque
shoppers
esth
birdie
metall
divides
format
warp
subsequ
edition
behest
baba
finale
finances
wednes
weddings
lawrence
discol
extrac
larry
larval
##unters
pasture
halitosis
##ielding
winners
treaty
treatise
concurred
excret
persists
##ammers
incident
brightest
bikes
##undy
##unders
cyto
cybers
effem
angrily
earthy
yellows
fairer
fairies
denise
veer
forgets
declaring
complet
obser
observes
childish
happiness
happening
windm
transc
quebec
astro
astring
astroph
annivers
annoys
slowing
harold
checkered
mislaid
misplaced
hurrah
castor
medals
capn
ceo
solving
visage
boohoo
arche
fitz
elections
labored
##renic
rockets
chancell
crocus
shrugs
autobi
promoting
equilib
browned
geologists
darj
cornet
provider
misty
gala
tempers
morb
basal
posterior
tougher
urs
vera
scramble
##ographically
##etted
bandw
ringo
persona
boundary
##ursed
circulation
freshman
shocker
droplets
defender
immun
mounts
carton
campan
panacea
britann
dyn
cupid
harmony
butterflies
melons
latrine
trusty
batty
parker
dissu
dissolve
cheerfully
employees
colleen
colleague
duet
duod
macho
spiro
princes
ferret
judgement
gripped
flighty
nonpl
danas
crowns
performs
performers
##gency
albumin
albumen
uncons
steward
##iscop
pitched
##ienced
superfl
knocking
anthem
receiver
rebound
slightest
resulted
improves
bulgar
ecology
rumble
photons
benevolent
processes
resisting
plotting
variation
reflected
reflections
sediment
seductive
seedy
celtic
tonights
crafted
inspir
##ogeny
absolution
commanded
phelpses
timber
microw
##eroids
secretly
secretions
chatting
coughed
##door
tuna
dwelt
annoyance
heavyweight
henrys
consuming
sneezes
belonged
investing
gentlemans
distressing
##anthrop
homo
etiqu
tapeworm
boasting
arabs
auger
augur
dunn
texting
ceremon
ghostly
ridges
claust
marty
hunted
masks
pirou
unwelcome
chromatic
quietly
weighing
odors
omission
skept
functional
feverish
barnacles
flavorful
desserts
kenned
pupils
birthdays
chartreuse
egypts
malls
affecting
absorbed
prescribe
bubbling
coolly
sewage
espied
prompts
groaned
styx
adjustable
leadership
socialist
hemorr
drafted
thoroughbred
hindi
shrieking
shrieked
stubble
graduate
##locked
closest
bomber
minority
sculptor
sculptures
injury
vegetarian
festival
intelligence
witnesses
bunker
picass
pizzazz
leaping
quartet
trembled
culprit
vibration
entranced
philosophers
engagement
safari
drooling
intrusion
pacif
vexation
hanker
shakespearean
crucifix
persistence
marsup
converge
defects
ninetynine
fossilized
##built
nothin
aflutter
provoking
bovines
punctuation
hammock
awarded
clogs
elementary
ailur
injected
appendage
appendix
microscopic
lumberjack
stranded
dynamic
contrive
hymns
hazel
gorilla
activist
distinguished
asteroid
amidst
glossy
nasal
identical
bikinis
mittens
therapist
aristot
engendered
outdoor
cinema
bristles
abeced
uniforms
sieve
sulfur
deprived
retrieve
volcanic
##omorphic
surveyed
baffled
dolphins
lynn
physicist
cascade
aground
swirls
conference
wacky
incessant
roulette
bemoan
curvaceous
icky
vehicle
influence
frigid
astride
flirty
capricious
conspiracy
caucasian
virgins
riddled
zigz
chassis
amusement
gypsy
tranquil
independent
anglican
heinie
myrtle
amnesia
bureaucr
nettles
disjoint
assuage
responses
pyramid
bermuda
kudos
mermaid
bothersome
burgeoning
warrior
lecherous
arrears
afghan
degradation
spherical
treacherous
scrooge
altruistic
cafeteria
analytical
taiwan
##american
curiosity
devotee
entitled
encompass
necklace
submerged
hamburger
scissors
ambidextrous
miami
teapot
precocious
individ
sydney
contracept
jersey
thailand
welfare
interfere
gargant
subsequent
aural
bn
bop
bidd
bards
biling
bival
bicker
bisexual
dink
dott
dimes
dams
daint
dyl
dither
dune
dotted
ek
ez
eard
fars
fait
fume
fisc
gou
gurn
gathers
hulk
jut
jord
jude
kits
kelp
kelly
lumb
laser
larynx
mia
mastic
mingle
noo
oaf
pach
piv
pence
potted
pyth
ri
ruck
rating
siss
sipped
tay
tir
takin
tagged
udder
vandal
vamo
ware
waf
wider
yuck
yvette
zer
##hum
##hild
##hounds
##oa
##iad
##iels
##iatic
##tie
##tta
##gm
##gos
##gum
##gars
##gular
##gments
##rance
##rush
##rative
##ridden
##yx
##yse
##yled
##mong
##mod
##lash
##fif
##pound
##pits
##pah
##packed
##pole
##pipe
##bery
##zel
##zie
##wares
tho
thaw
thirt
##esan
seb
sewn
##atry
##ativeness
##rell
##orah
##isement
##anza
##ingue
##arly
##arth
##arried
##arthy
toile
topping
##asement
##assem
##icides
##icative
##leans
##aless
##alation
##alike
##acid
beige
##adas
stakes
steroids
heats
##ldsp
##oscent
forsw
chipp
chanced
chutz
anesth
##entry
soaps
sofas
frat
frugal
orleans
##iless
##roved
##rope
##roads
nein
neural
thisll
sputter
spelt
##esting
haunting
##thood
##thirst
pla
plod
pliable
dop
doves
dozed
dodec
sapp
##elie
##elines
blest
blames
blurb
##ievous
##opr
willie
williams
##stro
##store
##stage
##stool
sheik
clack
trow
trish
trimmed
lease
leek
##inee
fend
feist
fender
##igans
##ardo
##arters
crouch
croup
crested
crummy
crammed
flings
flail
flub
flank
flaps
flaky
flapping
congest
##andd
bront
##emer
##emat
##emark
##abra
prowl
ales
alger
coqu
coord
coordinate
outm
whopping
whoosh
gras
grams
abal
ably
abashed
quaking
quizz
bozo
disse
disli
dissection
##ongued
scamp
scler
##aths
##athic
##ourt
##agos
##agra
##agogical
lobe
loco
loony
twee
amer
amyg
amalg
gettin
swipe
proff
progressed
unin
unab
manhood
##ichord
rog
bucol
guill
guise
illinois
acrop
whereby
jog
joey
agron
offering
appal
emily
emission
moxie
cheaps
##inte
##ittles
diane
dioc
pees
pretends
skimp
skips
clevel
cleaver
glor
goodlooking
firing
idiotic
compel
##ocket
findings
snook
snitch
snob
strum
strata
hovel
hopper
hoyle
hocus
##arms
afri
phant
##people
longago
longdist
contends
##odate
headaches
founder
barf
##ibleness
attentive
herein
hereby
overrated
earls
grail
tribal
triangular
sweating
surplus
showered
marquis
marvell
greased
deco
decrep
chole
chopper
clearcut
creak
##coat
##itioned
##alem
addled
badge
commune
##inster
dries
dribble
##atedly
redress
accip
repart
readily
schiz
godf
##ultures
##attery
airt
handic
handful
elk
elvis
steered
freck
bedev
nearest
hearings
apoph
refract
missus
corv
corks
correl
freezer
souven
ballroom
distilled
distorted
recalc
befitting
burgh
artich
erg
erred
underwear
factions
muss
##erno
indones
mettle
affable
affright
affixed
purred
warns
behaving
supposes
babbling
bloodthirst
daddys
finn
damasc
salami
##grad
##gram
squig
squared
classroom
depicted
##uesome
retract
##uther
menacing
##why
##wheel
parole
parcel
norse
floated
catar
persians
##print
generic
genital
incon
incur
incurred
incentive
incorrect
belles
bellies
preserves
flyers
armaged
biologists
soninlaw
##ophyll
angie
angular
tasting
humility
fairness
evry
condom
failures
skinner
doubtless
forgiveness
wallop
declaim
bleat
blender
tyke
typed
undies
admitting
beauts
madonna
##notic
transpl
bowlers
astra
astaire
penning
penns
construed
dispos
##enders
heavily
sixp
budwe
sitter
##ifted
##eye
senility
killers
replacing
despots
filler
bossy
descriptions
silently
romant
saturn
talkin
costumes
splashed
legions
revoir
cornish
cornered
criteria
requiring
oklah
temples
meaningless
copied
basque
furt
meringue
embed
ambush
##wells
hygi
footwear
smarty
bandy
smokin
combination
avoidance
meaty
circuits
pairing
proportions
thickly
blinded
blindness
neighboring
dreading
grocery
jackets
deranged
##century
dismant
sharpened
rubbing
dentures
paj
preposter
buttery
cheaply
##ritical
selfde
snowy
##emption
suitors
employers
counterc
tuba
unspeak
ticked
bonk
##arrows
gentry
fortnight
##ensional
frighten
crowded
rotund
radi
radar
stephen
masterful
fables
supporters
gallon
wetter
continents
branded
ghast
sheeps
aeros
##ervation
cursor
beastly
versa
photography
politician
bentley
drainage
spanned
##agnetic
benefic
processing
brewer
auf
servants
varnish
texture
psyche
shuttle
dolls
fete
torrid
toothp
celt
lustful
barbary
prizewinning
oxford
implored
clockwise
disappears
essay
essentially
fondue
fondness
creditors
ratings
contractions
travelers
binds
thrift
thrived
thriving
thrifty
##ika
measuring
cannab
discussions
bitching
flooded
substitute
trader
freedoms
operas
##anthus
shoreline
##uscular
vainly
reviewed
folding
constructing
gangsters
dunes
rented
jerome
proceeding
hawking
terrorists
ninth
woolly
florist
typing
connecting
routinely
particip
tortured
dedication
odious
skeptic
hij
privates
steamy
hubbys
##ospheres
sumptuous
sacs
pupil
chirop
possesses
astronomy
puffy
brilliance
bruises
colourful
affections
hypocr
enhances
preaching
navigation
thesaurus
distinctions
farting
programming
mythology
piper
congressional
companions
prompted
semic
forestall
bridal
mountainous
clarinet
scanned
##steins
adjud
assertion
hemp
graduation
racist
scoffed
flavored
accidentally
quarterback
ravenous
##okinesis
vegetation
vegetables
dawning
pledged
fiercely
aplenty
ova
conservation
enlisted
settlers
vibrant
blurted
dictates
victorias
intrude
hooch
juniors
duds
fulfilling
hogs
assembl
courageous
ruddy
dominant
publisher
origin
draconian
perceives
fragments
sneaky
montana
conveying
cognoscent
adorning
peeping
deflate
deflated
conspicuous
##ophilia
##ophagus
clientele
absentee
baptized
californias
intestines
psalm
alkaline
##writer
contacts
astronomical
bernie
rattles
dandel
cobwe
abundantly
bhut
mollusks
doggie
dispersed
cucumber
girly
##urgical
nobrainer
argentina
appraised
rampant
enlightened
muffet
commercials
consolation
vaginal
legends
reproduce
reproduction
mercury
yankees
deployed
acrobat
nixon
apprehensive
peanuts
glacial
ambiguity
apocry
##onalds
qualms
acclim
misleading
newspapers
tainted
trivia
brahms
sultry
explorer
martinis
tattooed
abolition
processed
inscription
boulders
lyrical
churlish
reptile
accommodate
foretell
astronauts
nauseous
antenna
mischievous
puppies
crocodile
lorry
rearrange
roosters
bagels
islamic
abuzz
depleted
acquaintance
entertainment
abbrevi
transgression
##catching
quantum
hairdo
ketch
pontiff
iambic
zoology
downstairs
consciousness
telescope
hottie
adjourn
municip
unrestrained
blanche
exorc
quixotic
caribbean
ceilings
psychiatrist
diphtheria
phenomenal
impeccable
russell
pneumonia
chateau
misconstr
aberdeen
maneuver
tulips
cheddar
apostrophes
compromise
purplish
balderdash
mcdonalds
napoleon
borscht
fjord
necrosis
buxom
thrombosis
idyllic
resurrect
wisconsin
connoisseur
sordid
cauldron
mayonnaise
trepidation
juvenile
lounge
perpendicular
betwixt
passersby
darjeeling
gargantuan
chutzpah
longdistance
recalcitrant
hygiene
municipal
awn
aute
bw
bide
bens
bays
cim
cumb
cune
cumin
dl
dion
dach
dosh
dagn
ditz
dasy
doodle
eun
eaves
fop
fand
fide
fences
fauc
gill
gand
goop
gales
gays
gaud
gasket
hic
hots
hating
jason
jugs
jaunt
jingle
kah
karma
lank
laz
mp
mire
morm
mired
masts
noodles
nazi
nathan
oar
pse
rio
raged
rages
raved
sacks
sallys
tand
tile
tamp
vs
ves
vien
waking
watt
wily
xs
yess
yidd
zs
##hour
##hops
##earted
##oven
##ofl
##iose
##iator
##iker
##doms
##nom
##nosis
##nothing
##tale
##times
##groom
##ruff
##lon
##len
##length
##fat
##fro
##fol
##vana
##pents
##prop
##pric
##pocus
##bard
##bite
##bour
##base
##cill
##cum
##cars
##cott
##cution
##cooked
##zt
##wick
##wait
##jacks
##qa
thames
##inia
##ouc
##oupe
##escend
seep
seattle
##aten
##atar
##ndown
##reas
##only
##onite
##orus
##orthy
##isl
##ingling
##ington
##arin
towed
##iters
##itations
androm
andean
inks
whacks
whipping
##omph
##legs
##utian
##algia
##aco
##usal
beamed
bequest
onus
##adic
shuff
shucks
shuffle
std
stork
stony
stagn
stilet
ist
##urers
##urbed
##iddy
##ithec
forks
wither
##chs
##chen
asph
asex
ches
chapp
chlam
weeps
dees
deade
##imer
##imbo
reeks
renders
##alls
meph
meager
frol
frater
fringe
orator
##ilas
negl
allen
##uncle
##uncular
spook
spire
spasms
##estible
hah
hairl
hapless
##tha
##than
##thalm
##gean
heretical
nois
plent
plied
plume
pluto
##ppe
##pps
sauced
##ela
##astical
##aki
##istan
##istant
##ulated
canard
canopy
##step
clime
trades
leop
leeds
levy
feldsp
##igree
exult
flam
coney
congo
##ande
britt
brunt
braced
##emn
prat
knitted
alto
aloe
comf
comrades
copped
##achron
outland
outfits
arid
aromas
grates
gruesome
abrog
quark
quench
boils
sayings
disf
disast
scound
scrib
scads
adl
loaves
logger
loomed
lobes
uss
wouldbe
amin
amino
swat
swig
swamps
ench
enchants
drub
drilled
unhing
unho
unplanned
##quarter
manger
wellt
roars
acer
slush
poe
##imey
jocks
##ogether
##ogamous
teamm
emma
mond
mocks
everlasting
thinkers
dizz
diabol
##ensitive
##icals
skit
skys
skids
desm
glenn
backup
backbone
comport
muhamm
##ocking
##iana
snores
strad
phoned
philly
phoe
phoen
seemingly
resists
resorts
fodder
enduring
headlines
didd
##ignon
barons
attrition
graff
grazing
trio
trike
assailed
sweaters
##bees
##being
pained
decade
##eady
youngsters
cuttle
hardened
hardworking
clearance
defunct
belch
crepe
delux
deluded
delusions
antep
antiv
antio
addict
smallish
accede
reprie
afterno
##uple
farf
farth
deadbeat
ohio
blackjack
##never
sweeten
bedside
bedazz
bedded
bedrooms
bedbugs
brokers
heartfelt
##cca
relic
relinqu
apo
##ucent
trailing
roundly
ballpark
hotels
recur
recital
recruits
drinker
burrit
fishermen
factual
shoved
infraction
infamous
bookb
induced
divin
devoured
wobble
wobbly
warren
warring
countless
ladders
behalf
##ussy
salacious
##ummys
classify
deput
depict
deepest
detention
detox
detritus
absinth
quicken
parched
horatio
incont
monument
crosssection
tenness
tenacious
billys
regards
armored
biom
lotions
sprat
humps
humane
humpty
starved
evoke
denounce
denmark
condone
skinned
bleeds
blending
maur
unden
madem
fasten
sidebys
##heet
##heart
##heeled
doctr
bann
banners
yearns
cookery
interference
compliant
circling
rhymed
##ilted
##ylic
hares
harried
documents
dogma
cleanse
sellers
plantation
misde
hurl
hurried
##endous
tombs
capo
capuch
visible
##shield
agreeing
agreeable
archd
descript
croquet
autod
autocr
romp
ignited
satir
equine
secular
churchs
revived
corny
cornell
provisions
sirs
##licts
donned
donations
warms
##meat
critiqu
requests
temps
tempor
expectation
bottled
moronic
frenchmen
palp
poses
posth
coverage
furs
epile
epoch
eponymous
massed
scram
tiles
irks
oppress
oppressive
opportune
bandage
located
bounder
malcol
renamed
renounce
##uela
portal
portable
portrays
rancher
thicket
groin
ensured
derive
sorta
fanatics
##goers
summit
summation
degen
posture
encased
ruby
rubes
suffices
taxation
##flung
cosy
##zyg
physically
harms
harmonious
jeered
latitude
trustworthy
objections
estr
mouthful
facile
twentytwo
technician
businesses
besie
ticker
wreak
utens
fortun
##ecution
nonce
measurement
bushy
hookers
rotating
pushy
axle
bombastic
midair
##ofthe
continent
albino
stews
visitors
thirds
##iscus
remembr
ghou
custod
frowns
##ulsed
predicted
bungee
aspired
receipt
acquit
rebels
versed
tourn
boron
boris
rumours
botched
botox
##aijan
disgrunt
storming
superman
chinch
caveat
recalling
heightened
lusty
dubai
boliv
batterys
hillary
macd
##royce
amazingly
succeeding
pronoun
strove
strode
primord
frequency
frustrated
caspian
##worked
reactor
determin
psychic
definitive
pedant
##uvre
mentality
oftentimes
errone
prevailed
devilish
##formation
##butt
sneezed
rushing
releasing
feasting
scratches
attendant
attendance
exception
exceptional
shyness
fleshy
##ova
curtail
gnome
inhale
azerb
proofs
tapes
conception
buzzed
journeys
cords
jerus
clapping
clauses
florid
connectic
marrying
opposition
opposites
civilized
polemic
communion
winks
cranium
cranberry
welcoming
roofs
zebra
blinked
prevented
skewed
analges
privacy
diagnose
libel
##hopper
moldy
carnal
##matically
dependable
hypert
ascertain
canadas
execut
circumf
pumped
##rehensible
plucking
conjure
echoes
strolls
strolling
cloister
oedilfs
oedilfers
baited
michel
moaning
unbelie
horrific
espy
espress
espouse
ceramic
styled
charlotte
datas
datum
diploma
zealous
capsule
ardour
lurking
asserted
warden
foggy
ankyl
waistline
gaul
gradually
loathing
racco
alleged
pooped
exceeding
characteristics
dormant
experienced
apex
rodeo
##velled
ramble
staining
predictable
prophetic
tremendous
academia
grievous
apostle
apostles
translate
rollsroyce
symptom
intrusive
##cream
hankyp
allegorical
assaulted
arkansas
distractions
democrats
irishman
applauded
publishing
thorny
gullet
sibling
disparate
disparity
numer
tipsy
liberation
##encies
stamped
cognition
prolong
##ophilic
mathematics
##seller
ignorance
napping
##mouthed
convenience
cushions
stalking
nukes
appointed
ailments
soso
scolding
deposits
contemptible
tattoos
##minute
cajole
uneasy
dictionary
chanting
gadget
gesture
bluer
betrothed
engraved
inhibition
oversexed
beggars
congrats
identity
##ocyst
recommended
encouraged
journalist
republicans
laconic
argentine
queries
daredev
outdone
atmospheres
rectangular
meadows
imbibing
consistent
columbus
international
plankton
rifles
glaciers
daffy
daffod
diplomacy
paradox
catalog
cylinder
dorsal
harbour
bambooz
boorish
narcotic
rehearsal
conferred
constitutional
lavish
enquired
ungainly
deformed
horizon
##rologist
destroys
fervently
enlarge
airplanes
restriction
pancake
contradiction
aesop
##between
orthodox
crosst
comparison
poohp
rearranged
contemplate
repetitive
irregular
haunted
strateg
daisies
tolerate
travail
##figure
chilean
bistro
dacry
pittance
clairv
flirting
aggrav
monstrous
bewitched
voltage
catalyst
irritation
cylindrical
asympt
spawned
cretaceous
corrosion
incompet
sylv
bacillus
yesterday
abuser
quibble
unrelated
overwhel
vertebr
circumspect
conniptions
orphan
cancerous
conventions
acrylic
ephemeral
waffle
detergent
producer
endeavour
enshrined
cuddly
hightech
korea
vassal
disbelief
nirvana
alibi
preparation
##animous
overex
blithely
extinguish
flannel
wheedle
gordon
gimmick
lascivious
yarns
beelze
cleopatra
marijuana
vanquish
boomerang
lsd
whoopee
sudan
crisscross
flurry
misguided
ferrari
dewey
blameless
disavow
unglued
entrails
cirrhosis
cornucopia
upheaval
luggage
chihu
barnyard
wednesday
nonplussed
etiquette
kennedy
dylan
toilets
outmoded
cheapskate
hocuspocus
marvellous
repartee
preposterous
ghastly
pseud
tandem
##priced
muhammad
deluxe
azerbaijan
ave
aene
aided
bough
bans
bav
billed
baud
batters
cj
ces
cib
cten
casing
deth
dats
dene
dante
euc
ebon
fom
ful
fard
fives
gase
gizzard
hacks
iii
jams
jitters
jih
jagged
kle
lill
lich
lang
lah
lait
laces
lama
lanes
mt
marm
moust
mules
mmm
nich
nuth
nettle
oc
oasis
ping
pash
ports
qed
rouse
rowed
rauc
sere
sart
sips
simm
tits
tars
tuff
teds
tsh
taff
tizzy
ub
vinc
vlad
viper
wren
yang
yale
zoos
##hu
##hou
##hon
##hol
##have
##hung
##eb
##oad
##ocl
##opped
##oever
##ocephal
##iably
##dig
##dong
##dead
##tte
##tod
##gas
##gots
##gingly
##run
##rists
##marks
##uble
##uence
##uates
##lay
##lore
##loss
##laced
##lims
##fires
##finding
##pate
##pod
##paid
##pox
##blo
##baked
##bucks
##cro
##cous
##cia
##cents
##caps
##coms
##casts
##course
##zan
##zilla
##wy
##wins
##wrapped
tha
##inness
##erp
##erity
seer
seating
sewed
segment
seething
##atri
##atist
##atrix
##ediate
##lli
##llum
##llite
##onet
##ori
##isia
##arb
tol
toke
topple
##itory
yous
intends
inbetween
whines
wholes
whiter
##lear
##level
##otive
##oward
##utters
##utche
##etal
##alom
##alty
##alds
##acia
bej
beings
##adian
stint
stature
stowed
##urin
##idine
##irus
##ldt
##ospor
forfeit
##amines
##chus
##chuck
chanc
churned
anis
anore
anothers
debb
demented
deception
##iming
##imeters
##imensional
reception
meld
mels
meander
frau
##usts
##raging
oracle
##ilion
##ilize
nev
neil
necess
allnight
##anti
##unty
spake
spud
spits
##estinal
haph
harem
haunts
##umer
##thal
##thorn
heros
node
plotted
plugged
dodo
dolor
blanks
blazed
blarney
blimey
##uli
##opods
caver
caved
willin
##staff
clots
clips
clustered
tru
truce
leer
leger
fez
crist
crink
crates
crony
crutch
flit
flax
flips
flashed
flanks
flacc
##owness
brooch
##emon
##abad
pranks
compt
cove
coif
coiff
outa
outback
##ishoo
##inked
gris
grits
grange
grump
##ooking
aborted
uphill
quen
##udent
disuse
disob
disrep
disorgan
adver
adumb
adolf
##agic
##agons
##otherm
twelf
twaddle
twinkle
##ploid
amort
getup
swive
swans
swede
enabled
progen
druthers
callow
unqu
unche
unmanned
##ipus
##iparous
##uretic
manna
mangle
smold
wellbred
roams
roaches
buge
guiding
guinness
illum
##eared
acme
acroph
acorns
slum
slaught
slither
slipper
slavery
thrice
poach
pokes
popping
poisons
wordy
offhand
offends
offshore
downcast
appended
emu
emits
emetic
eminent
emissions
moi
mobs
##ethis
##cler
carbs
carmen
diap
pend
peered
pegs
pending
##feed
sinning
##enser
##ensiveness
preh
cantor
skid
cleo
clef
clement
kev
glimmer
breads
breached
brevity
##izen
perusing
compression
mugged
mugger
thanked
##iances
spewing
snickers
hoff
hoots
musty
##avement
phew
resolution
longterm
endearing
##umbing
foundations
barring
barrac
##also
expos
bested
overth
overblown
keeper
##iality
insom
eyew
assures
assists
assurance
##been
##beats
##beating
marri
marbles
margin
nightcl
cuter
hardest
choppers
choosy
deficiency
belg
belgian
cren
crease
antagon
eaters
confounded
commences
commerce
lighthouse
passive
##attack
accol
reprise
repulsive
caret
schlock
farflung
awards
els
lima
freaked
bedlam
colic
colomb
brags
apop
##xtap
corb
cores
coroll
##uteous
##ocal
roundabout
recre
collie
colloqu
demi
burt
explicit
muses
muslims
kindle
shopped
fallacious
infants
infirm
infrequ
ester
calv
calves
formally
##bright
wove
woken
subvers
restrained
eddy
edgy
editing
##ussian
babyl
strippers
haircut
sleet
dammit
salary
saloon
shortened
squire
##ieres
discons
discrim
classics
classmate
depiction
depicts
turkeys
absinthe
quickness
fighters
linear
parity
parades
winston
brainy
concession
##obacter
excus
excrete
fourletter
catat
persever
genie
genetics
breakdown
incite
tenant
billow
preserving
regain
armies
biker
gavel
mince
polo
sprang
opines
cypr
cyrus
darken
effete
##uited
##ophore
earthen
##cedes
daub
starfish
petrole
wrongs
##defined
greenery
denim
condo
condensed
maud
unduly
undeter
limeric
sideways
winding
##byes
territ
transplant
bowing
astrolog
walker
pickin
annas
annel
annul
announ
##rette
raisin
baltic
balancing
woodwork
complacent
penicillin
foreman
foregone
felons
harassed
##gerys
checkout
numbing
dispir
misfort
pottery
prays
capacious
sixties
solace
##ships
straightforward
protons
protested
despot
debit
filly
croiss
shrugged
milks
##orescence
equiv
equestrian
legally
centipede
motherinlaw
browning
voll
revolt
fixin
donate
donkeys
baguette
critically
##rology
##archy
morgue
morris
##loads
##loading
bullies
courtroom
palat
counse
directs
boxed
rollers
mercedes
banking
climates
climax
hugging
smartest
elevation
trainer
honcho
butters
brokendown
malaria
breadth
sandra
captures
weighted
blockage
surprisingly
propitious
thickens
blindly
sorrows
##atorial
neatness
enscon
valves
valued
jackie
breeches
immunity
immediate
##blance
##blank
berated
sensing
germany
summoned
memorial
hateful
campbell
britons
rubs
taxing
pinks
pinkish
secondrate
aunties
escal
ducky
ducking
shipment
unfor
auditor
confessing
practicing
boarded
stockings
facade
facets
selfre
dutiful
##biting
juxtap
stopper
unsightly
expresses
bona
followers
fluor
femur
robotic
divinely
frightfully
bombing
threatens
threatening
recordings
galls
gallery
##oface
apartments
pitching
shopl
##iquitous
reported
predicting
aeropl
whispers
remaining
rebuffed
versions
walnut
briefs
eclectic
cabal
peeved
scheming
logics
polluted
poetical
presentation
towels
motel
reflecting
cuba
embracing
chinas
networks
heedless
filming
severed
batteries
ideally
stirs
commanding
primed
removes
amphip
ethi
ethics
civility
rabid
basso
bordello
chucks
determines
probation
psychologist
glower
pedestrian
padding
padded
##doing
##uvium
falsely
hollers
##ochond
convicts
##formed
heroin
teenage
releases
organized
substances
cincin
forthwith
empress
submarine
##ovs
##forth
selections
sparked
gnat
gnats
fussy
fussed
constructive
temptations
augmented
celeb
maintained
arthropod
supplying
seasoned
exacting
gravely
pearly
ninete
royals
martian
martial
vinegars
##carbon
eggh
hacking
mysteries
detector
crani
thirtytwo
anchov
magnets
deduced
odes
omitted
tapping
privile
chafe
##yderm
roasting
##hoppers
ablution
gooey
possessing
stingy
stinging
puffs
puffing
##matode
permitted
digestive
chopsticks
defenders
thespian
conjunct
##urban
strolled
bubbly
bailing
mystics
prisoner
prisoners
affords
railroad
decorate
wheezes
prosecution
crawls
prompting
elliptic
chimneys
polyg
acetab
akimbo
tanning
spiteful
campaigning
arduous
jellyfish
ditches
adjut
adjacent
dodging
drafts
hinder
hindus
loathsome
furnished
gemstone
thirsty
disagrees
bilge
annex
exceeded
aweigh
##ocentric
dormouse
tornado
sculpted
injure
deplorable
persuaded
persuasive
crippled
arrangements
gourm
clinging
scented
bosoms
disorders
dinghy
##oplast
shields
vitality
trembling
tsar
tsun
vibe
adopting
upperclass
blurry
unsteady
diffuse
enchanted
unpaid
##creation
doubting
membership
valleys
placement
rudeness
feminist
linguist
webster
imbued
limbaugh
octo
##person
sketched
sorrowful
rangers
dialysis
exclude
exclusive
shanty
imperfect
harvesting
leisurely
bipart
miguel
migraine
baptist
atheists
swooned
gastroint
gaggle
bundles
euphoria
vapour
endorsement
##hhhh
sundry
deterred
deterrent
mollusc
calamity
wrestle
scraped
strutting
deference
conscient
congrat
##ocyte
bountiful
malignant
sandwiches
ammonium
appraisal
embarked
siege
tidy
yogi
smeared
cartoonist
lloyd
morphine
bronchi
mccain
wiping
transferred
bisque
yawning
##through
indigenous
indigestion
administr
bertha
membranes
havana
alchemists
cervix
pharaohs
adoption
anagrams
blazing
moonsh
bouncy
sardines
cobblers
unnerving
schedules
horizons
minerals
ewes
asthmatic
congregants
travelling
foretold
luxury
nauseam
knuckle
adolescence
contradict
disappointment
##iloquy
intertwine
auxiliary
twenties
demolish
mathematicians
wrigg
ambrosia
erudition
harvard
facetoface
auberg
hermit
discipline
volunteer
ptole
pitts
discerned
ingredient
doeuvre
longh
appreciate
burgundy
extolled
entreaties
torrents
whimsical
adapted
druid
fervor
asymmet
grampa
miniature
derivative
##fingered
military
ensnared
majesty
##building
kazoo
veneer
intersect
endorses
antarctic
revolting
ostent
vietnam
deleter
abominable
unheard
intrigue
sycam
oatmeal
conjecture
arithmetic
carousel
eloquent
indiscreet
weasel
swedish
apprentice
cetacean
daydreams
jalopy
nimble
golfer
stigma
alligator
floozy
enrapt
powdered
lieutenant
chameleon
hieroglyph
nocturnal
assaults
enterprise
sacrifice
circumcision
theorem
leukemia
divulge
vengeance
encycl
writhing
aficionado
elaborate
marshmallow
ottoman
stamens
nelson
intrigued
antedil
superfluous
claustroph
feisty
artichoke
bloodthirsty
armageddon
chiropract
eunuch
yiddish
asexual
plentiful
outlandish
scribble
unholy
afternoons
sidebyside
hankypanky
jihad
haphaz
flaccid
unchecked
slaughtered
undeterred
gastrointestinal
bz
biv
bich
bots
bates
cw
cuffs
dt
dost
durn
duc
doof
daph
dacty
eater
eider
fs
fak
fakes
filt
fester
fiance
ging
hs
hir
hong
hilly
huddled
iow
ich
js
jaded
jigs
ka
kel
kath
koh
liss
lave
lids
lops
latters
lotta
maz
midge
milton
nous
ogled
ogling
pere
patt
pane
puce
porous
pelt
pugn
rast
rach
rations
ricks
sittin
sammy
tums
tags
tumbling
upp
udd
vee
valet
wils
wolves
ys
yow
##hid
##hog
##haft
##oic
##dust
##del
##dwelling
##son
##note
##town
##tings
##tub
##gings
##god
##gotten
##rank
##milk
##minster
##uf
##lass
##lots
##aul
##fasts
##var
##pen
##pull
##bat
##ben
##bian
##cony
##kis
##kies
##killing
##zheim
##wre
##warm
##wigs
##wurst
thurs
thunderst
theorys
##inic
##erom
##erus
##eries
##oule
##outer
##ourage
##eses
sez
seor
seash
seuss
##atize
##atetic
##atisf
##educt
##reements
##llas
##onius
##onomic
##orb
##orized
##isth
##isans
##isthen
##anos
##enos
##enia
##arish
##ario
##arthe
##itives
##itarian
whey
##ominate
##otent
##uteness
##eta
##veau
##acons
##usky
bev
beeline
##adles
sha
shush
ston
stad
stee
stamm
storing
heist
heater
isolation
##urine
##urists
##irty
##ione
##ionics
##chand
##chilling
ascends
asinine
asylum
##kels
chuff
chatters
chumps
anad
anab
weaken
dey
deuts
deux
##enters
##ima
reag
reins
soire
frill
frying
frances
liars
livers
##essive
##rax
##raising
notation
##ilic
##ilts
##ilized
##roe
##rox
##seven
neuter
atkins
allied
sprain
spats
spittle
spiff
spoof
spiced
##estruct
hale
##gear
nox
plop
plows
plumm
pliers
plugs
##ppie
doh
dopp
doyle
saff
sullen
##elier
blub
blared
blaming
blushed
blanch
blenny
##astian
##oper
cah
whatll
canes
##string
clen
clank
clones
clung
clove
closes
clench
claret
clammy
trill
trots
tracked
trumps
trounced
leaked
bytes
feigned
##igerous
##iguous
exe
exits
exterior
cric
cress
crpe
crowed
crises
craters
crannies
oneeight
goil
##inders
conund
bris
broo
briny
##emaking
pry
prunes
##ueur
alco
alumn
alzheim
coales
coval
outline
outlaw
##ellike
whopper
grid
grays
abatt
abiet
upgr
quota
##udi
boe
boating
booms
bonding
bobbed
booster
disun
diseng
disasters
scy
scut
##athing
adri
adios
##aceut
##again
##agration
loins
looming
##othered
twink
twinge
##plat
##plasia
ami
amor
amic
amore
##ifically
swimmer
enunc
probing
dray
drumming
##ivities
callip
unity
unne
unfl
unthink
##rescence
hesitation
smothered
wellr
rogers
##earse
acy
slots
poking
pointer
mayhem
##fta
howling
howls
##ogist
teat
teases
agath
downfall
download
eman
embe
whichever
##phil
mover
chez
cheques
##intz
carth
carroll
caraway
caresses
peed
skiv
skint
glares
glitz
glimps
bream
peruvian
compat
compounded
snor
snorted
plebe
pleads
struts
##ggs
playboy
hoc
phyll
phooey
pherom
##peed
longlasting
contort
contests
controll
contrap
foyer
endemic
headline
##umbent
##umbler
diddle
didactic
baring
##ibus
atten
workin
curling
actu
overfl
overachiever
overworked
##zee
stillness
##bsp
gravey
eyep
assy
surgerys
##ymor
##ugo
starters
decad
decant
comeback
thoughtful
hardhearted
choppy
reminis
defame
defile
deficient
cretin
deline
delays
delinqu
##otti
additive
addictive
badm
commens
drizzle
impugn
##atta
accursed
carelessly
schoon
schno
cours
godiva
godzilla
##oyal
##oyance
deadline
putz
rung
handing
blackness
##uctions
begat
elan
elps
eluc
elmer
elicits
limbo
freakin
sweeties
##otechn
brogue
##cci
##axis
facebook
##teness
apathetic
treble
corral
##ocative
ballots
ballads
mindless
recip
recalled
recipes
drinkers
##onese
artful
underwater
fallow
infinity
caloric
bluegreen
indies
indicate
indisp
indolent
##bbin
deviation
purp
wok
edwards
stripe
finite
worldly
salam
saliva
##group
shortcut
rhe
rhine
##ricts
extant
extras
retard
retail
holder
##azoo
advoc
advancing
avuncular
pastime
halves
parch
grandd
grandiose
floe
screed
excre
excise
catty
breakers
horned
monastic
perfumes
crossword
bellicose
billiards
regale
regimes
armstrong
bige
biff
##gnet
minn
darkening
efficiency
##ophiles
humors
humding
oboe
invasive
starve
lowered
syring
eval
evac
evanes
prizes
profusion
wallow
declining
completing
maul
tying
madoff
happier
flet
fleab
sidewalks
windshield
##hex
strongest
transaction
transcends
transactions
entre
enticing
entangled
friendships
raj
woody
woodlands
compliments
penins
pencils
casey
doorway
faust
felines
felonious
docile
constr
disport
mispr
testament
markings
capable
heaving
messes
wonderfully
visa
##shell
buses
archers
##idedown
rocker
bosss
maggots
christened
christmast
judy
silicate
silhou
crooned
romancing
arranging
secur
secrete
splinter
legisl
brownie
horseback
reviled
revulsion
provision
province
##cyst
donuts
nerdy
dresser
bagged
bagging
criter
burner
tempo
skyd
morass
morality
##loom
courted
troubl
troubling
urging
urbane
episcop
merrier
embl
embar
ambled
ambivalent
prag
papara
layered
irrig
oppressed
combining
locality
personnel
boundless
diseased
liege
portions
forceps
camph
cambridge
speedily
iceberg
commonwe
blinds
grovel
groomed
garish
garnish
crackle
immem
pathway
cardio
cartridge
cartesian
destin
posters
panels
squeaks
tongs
colorblind
escutche
##ssss
drunkard
norman
buttercup
trusting
batrach
practise
practices
baths
bathys
namesake
##ritis
##ootie
piggy
possum
jumper
grassy
soulful
fermented
tickles
expressive
bonn
bonap
bonny
utopia
##arrh
attracting
cockat
cockroach
credo
robots
puree
pups
puzzling
bushs
weekly
wisely
aleph
masterpiece
animosity
stressful
geez
geeky
geezers
mutts
methane
cadence
punning
bangor
albums
tableau
impresses
impressions
majors
pitchers
inflame
thriller
spokes
acceptance
acceptable
lovesick
calmer
rebuff
rebirth
moonlight
collectors
fedora
##strings
loosely
vikings
freddie
cabaret
peeve
spinach
smokey
##aik
presenting
corrected
irony
athena
publicly
productions
cruised
aquar
aqueduct
sedan
mortician
fetal
malevolent
guarded
celib
luster
sampling
oxymor
implant
primal
primate
essays
salesmen
civic
probes
probly
abstention
abstinence
altogether
ranked
scrapes
creationists
dwindle
fuels
convictions
switches
rushes
flagging
substantial
forthcoming
fibrous
submitted
enthus
selecting
gnus
specialist
dysph
etch
reviewing
gleefully
dunno
oedipus
punches
rental
wormwood
tropic
fantas
engineering
coaching
boule
masoch
beckons
civilians
nurture
detects
cyclone
rashes
##moving
eagerly
nicked
rigging
rigueur
cacod
imported
tangles
##ydia
boomers
sacr
conducting
hatches
hatching
rapun
##hoots
finishing
eschewing
bowlful
grammatical
upsetting
mallet
monthly
##ablanca
enhancing
conjunctions
distinctive
absorbs
celebrities
anticlim
oregon
sniffing
abhorrence
fainted
molecule
liner
widget
##rospect
orchard
assumption
ellipt
polyps
eldest
forbids
##holder
adventurous
diplomatic
campaigns
crunchy
lunar
strawberry
exchanged
botanists
nicole
italians
alleys
cystic
bilateral
flavours
brooding
deplored
depending
dawned
otter
flirted
scrubbing
gauze
gauche
shaman
generates
dingdong
##belie
scripts
settings
satisfied
boosts
nursed
grieves
vicinity
descendants
yachts
blurt
coyly
coyotes
apostrophe
dictate
victoria
virginia
##bellum
hoover
##spread
vexatious
chauvin
chaucers
analyze
nodes
subsist
subside
unknowns
##aunted
bambi
tuition
distracting
shreds
explosives
foolishly
rehearse
octogen
octopus
premier
cognitive
adorns
obligation
balkan
principles
punctured
ebay
ebull
lamented
grubs
migration
cramping
dumd
mended
ornament
ornamental
convene
electronics
gastron
nuance
nuisance
unrefined
lifestyles
occurring
euphoric
vapors
##restrial
whitish
anemones
uptodate
ancestor
lancelot
##writers
specificity
rattled
rattling
##fighters
lexus
recognize
financially
exploits
sects
forsake
mollusk
cynics
vampires
twitching
transpired
julius
disinfect
intentional
doggone
deferred
burglars
capitol
nutritional
entertaining
pharmaceut
tinted
dextrous
##collar
confronted
implying
diphth
stubbornly
denser
density
razors
vinyl
carlos
embarrassment
##yearolds
deprive
fouls
upsidedown
barbec
announcement
ronald
##natured
steroid
##aggered
backstage
withdrawal
aardvarks
surroundings
jabber
mascara
accusations
freudian
administer
weekends
honeys
rapture
prostate
##eeeeeeee
gertie
lagoon
siren
rhetoric
renewed
mohel
introduced
frenz
apologies
bloodsucking
##seeing
amplitude
awhirl
georg
bouncer
pamph
sardonic
cobbler
delirious
schedule
scheduled
horizont
mongst
tiresome
seizures
reptiles
reefs
congregation
ulcers
adolescent
sufficiently
disappointed
dakota
amoebas
precedes
insightful
stomped
twentysix
contribute
contributions
repetition
melodies
strategy
catastrophe
ambassadors
wriggle
poppa
quirks
glittering
mantle
mousse
sashay
hairdress
fawning
##ograms
monstrosity
observation
encircle
skeletal
cappucc
murmured
hawaiian
environment
nourish
nubile
tinker
lobotomy
birdwatchers
survivor
hannib
puddings
puddles
raspberry
alimentary
policeman
evokes
yesterdays
##bottomed
rescued
overwhelm
southwestern
vertebra
conniption
sulphur
ciao
prohibition
illustration
snigger
aspersions
bumblebee
nyet
sabbath
manifest
robbers
redundant
bewildered
##bearer
beethoven
carcinoma
##demain
tragedy
blemish
embroidery
vaccine
gospel
mitzvah
satellite
tiara
exalted
abraham
braggart
charisma
constellation
constrictor
dissimilar
nonchalant
pilgrims
canaan
trinkets
priceless
skedaddle
beehive
philippine
kvetch
buccane
foodstuffs
ogden
weatherman
byzantine
unearthed
foreboding
properties
historians
athenian
gizmo
jostle
atwitter
tyrann
charlatan
lattice
oeuvre
##ujah
scintilla
cantaloupe
completion
anniversary
bilingual
jordan
pachyderm
vamoose
amygdal
bucolic
cleveland
schizoph
damascus
transplanted
budweiser
unspeakable
cannabis
dagnabbit
chesape
disastrous
mademoiselle
malcolm
primordial
gaseous
raucous
legerdemain
grisly
twelfth
petroleum
cincinnat
october
antediluvian
saffron
alzheimers
plebeian
troublin
aird
bight
bate
bolog
bries
boughs
cq
doses
doric
dimmer
dummies
eves
earm
eco
eton
egreg
erode
fames
fumble
fathered
gored
gators
goli
hil
hosed
hiring
hummer
ian
jag
jup
jumbled
jumble
jasm
kal
kir
kool
kais
lt
los
lol
lind
lars
lanky
ming
mage
mord
mik
nair
nines
naz
nipped
nipper
nuke
nylon
oyster
pang
pigh
pund
paces
pept
pores
piers
piqu
pester
piety
poodles
ric
rere
reth
raking
rots
rents
raim
racks
rift
racked
rotted
rumbles
sik
tints
tattered
tingle
varm
vultures
wah
wading
warts
waver
yule
zeros
##harm
##hats
##hued
##hara
##harp
##each
##oose
##oire
##oosh
##iour
##ieth
##iastic
##iosis
##iological
##drops
##nals
##nox
##tz
##turn
##trap
##gut
##gur
##gery
##gently
##grained
##ride
##ramm
##yo
##yeyed
##mere
##mite
##math
##mothers
##mata
##lan
##list
##lob
##aide
##fisted
##vic
##vir
##vill
##pri
##press
##paper
##breed
##comed
##kull
##zh
##zi
##wax
##jac
thai
theoret
##inf
##incl
##inology
##erer
##erence
seared
seville
##atl
##onance
##oris
##orative
##oraph
##isers
##anol
topper
toads
topless
##itant
##itist
##itance
##itical
##itian
##asper
##asana
wharf
##omal
##icorn
##icula
##oto
##otation
##otrans
##eted
##algic
##acled
bein
beaming
onward
onlook
oncoming
shm
shan
shoo
shaker
shalt
stoo
stumps
stella
hectic
hefty
##uries
##urient
##oso
##osi
forked
##amide
##amatory
##change
##chief
##chlor
asw
asphal
asiatic
##lyss
##illation
chach
chich
chte
chats
chanted
anachron
ween
deems
develops
##ente
##imuth
##iminal
##alley
##ersand
mew
lik
notable
notably
oranges
##ilities
##roch
nebr
ather
atoll
ally
allium
alliter
alluvial
##anto
##rio
##riers
areas
##uned
spor
spunk
spying
spindle
##esters
haik
##those
platters
##ppling
dob
dox
dodd
dooms
dopes
sakes
saggy
##elian
##elujah
blake
blare
bludgeon
##aka
##ulence
##ulator
cag
caw
cance
##strip
sheaf
clann
troth
exagger
exterm
excels
cradles
flipp
flutes
floyd
goble
gobs
goget
##induced
connot
congeal
##andra
brer
##abilitys
priss
pricks
knead
knaves
alar
alope
aloh
combo
comrade
coe
coad
coel
coiled
coding
cobra
coquette
outcl
outright
thence
arom
##ellow
abig
abodes
quaver
quorum
bok
bode
disb
disab
displease
disabled
scaly
scandals
adobe
##agasc
lovin
##ysh
wouldst
amble
amary
amended
amigo
##oute
##outi
getaway
swab
switzer
##osters
proxy
drup
dredge
##ortic
unful
unwed
unrem
##quick
##quare
##quacious
manila
smog
smudge
wellp
wellfed
wellversed
bugg
##acting
##actly
illmannered
illiterate
acetic
acoly
slith
slings
slums
slammed
sledge
mayors
joc
wordplay
teak
tequ
newer
newbie
daybreak
##blem
agam
offence
##aware
lookin
looker
appr
apprehend
##pha
moors
hims
cheval
carous
carav
carpe
carols
carousing
##ittal
dioxide
pegged
pews
##ashing
##feathered
preempt
canton
greats
greatgreat
dese
desolate
glances
glories
##izable
goodies
composure
compulsion
muy
muzzle
##tee
##tebr
snit
snive
snared
##uckle
hod
hob
intents
intensity
afro
phoney
contorted
##odd
##odon
barque
barkeep
baritone
attila
expon
##ankind
curlic
parting
overlook
overgrown
stills
earp
##aterial
insure
insulting
insulin
insanity
triangles
surfer
marit
marina
marches
greets
startled
decon
decamp
decuss
somber
youngster
nightsh
defied
creamed
creeds
antire
eatin
confuc
badder
badgers
commiss
redemption
impr
impuls
impede
impolite
lefty
accur
accretion
othello
repell
carefree
##quee
dreads
airhead
hedges
##ologies
##ologize
awak
##berrys
eliot
steaming
sweetened
broc
colons
relating
reliant
##tenance
institution
apse
apert
apod
##ucive
misshap
##roportion
corals
homeward
strew
##unked
distinction
mindset
recede
collateral
befell
burb
burke
artfully
explores
explodes
underwent
infert
charger
calumn
calais
calico
calisthen
bluegrass
booking
birders
indias
##bbish
chriss
meticulous
formations
flowered
purlo
purvey
warped
subpo
subordinate
restless
beheaded
##ractions
babs
baboons
babylon
guesses
salm
salted
squads
squander
##ummox
discs
extortion
##weather
retch
retro
larch
largo
deton
deters
detain
turtles
advising
advocate
avo
avowed
winnie
grandeur
concedes
##obo
excision
fourlegged
colds
persecution
genre
breakfasts
##ammable
incand
incons
incision
incensed
monot
monet
crossdress
tenure
preserved
armless
biot
biking
biologist
biota
sunrise
sunbath
pols
polka
sprays
standup
darkest
##uitive
##ophones
angers
humph
obnox
invitation
invalid
starlet
petting
signing
profile
profund
schoolboy
certific
undes
undet
undead
madrid
madagasc
childbirth
fastest
##asked
enticed
hitter
interject
intervention
annals
annih
raff
balmy
balcony
complied
forecl
foremost
halfs
cooled
coolidge
##ylate
harlot
numbs
deathly
deathbed
constrained
rupt
disposal
misuse
misread
miscell
hurdle
caste
castiron
achy
medics
meditation
messing
prodigious
visibly
dino
##shed
replac
replaces
protozo
arched
archety
despotic
flatulent
electrom
rocking
rockies
judicial
breaths
cropped
autop
autonom
promisc
specially
specified
splice
legacy
brownn
##tended
darlings
darwins
cornwall
fixes
candied
##licting
mixer
benighted
sicken
meaningful
bullied
bulldo
bullseye
##ieties
epoxy
birthplace
merlot
chemically
embassy
scrunch
##appers
senseless
modes
honed
smoky
laura
ringer
buttress
risen
risqu
mattered
blockhead
preferring
sorcer
popul
popcorn
reasoned
grooming
beginner
breez
derail
derailed
crackling
coupled
coupling
fingert
mounting
pathology
fanned
respiration
berke
ahm
summons
swelled
enjoyable
degl
hanged
differing
##conn
taxonom
techie
denture
grouped
groupies
approx
bacchan
prouder
shameful
escort
paree
paunch
prepares
jeh
batman
dissip
##toend
bathy
bathtub
##ritic
selfimp
dangled
suitcase
chestnuts
dupe
grownups
spirited
argues
jumpy
franklin
counterint
goalie
fifi
tuber
tubers
tubby
bespe
unscr
bonanza
gripes
genteel
nutri
##oxic
##rups
domic
domest
doughnut
doughnuts
danube
bustle
rotor
inventing
crowning
pinn
radish
pushes
volition
stressing
methyl
bombers
cadm
performer
puny
chapters
continu
packaged
brandish
##iency
deceiving
anthology
aeronaut
angelic
spoiling
statutes
walmart
toured
austrian
bulim
battlefield
photon
photograph
photographs
innermost
examines
freddy
insistent
dweller
flashlight
bibulous
sufferers
motive
wasteful
aquam
supine
##crumb
chinook
sneers
sneaking
creeper
fetter
parental
torped
leaflets
barbarians
matadors
##ynine
##ynthesis
bolster
battering
crashes
swallowing
verbose
##romous
debtors
projections
blankets
delivering
murph
relaxing
cathode
ethel
ethical
earnings
basset
casinos
casablanca
chuckles
screenplay
psychosis
dipter
insecticide
herbivorous
truckin
knighted
opted
optics
##iki
narration
quarks
coughs
pleasin
tuning
##osperm
systemic
dwind
assisted
falsehood
mentions
paleont
mirac
hamlets
accordion
crudely
erratically
rooted
stretches
flooding
granting
bloomin
fibre
##ovens
##anthem
##ommun
gnawed
inhaled
specialty
tapest
paula
cavi
journals
arcs
##ulean
celebs
strengthen
texan
batten
cordon
##robes
waxing
seasonal
dumping
holidays
typo
martians
civilization
piercing
baldwin
detectives
cyclical
cyclops
##iotics
aphasia
winged
zeke
skel
departing
hiked
chaise
officials
cacc
importance
hubble
multipl
abdomens
slicker
hydration
tanker
intending
giggles
coinage
molding
achievements
censored
tackles
##matical
##rogens
leeks
afflict
disappearing
ampersand
repairing
jarred
preachers
defended
canadians
flourished
dilated
shirking
##urbation
hinted
cloven
cloaked
rustic
artsy
progression
##orphic
comfortably
unbowed
vitri
vitamins
##repared
accessible
copycat
ella
clarion
adjusted
maternity
adjunct
corporal
clamber
gradual
racers
italys
pertain
mosaic
bilious
broods
groovy
reminder
dorms
dolich
experiments
thunderous
habitat
chipm
subtraction
crikey
lyin
brutish
ovum
disorderly
conservatives
mourners
##oplastic
excelled
scriptures
elegance
clutching
adjectival
arresting
grieving
vibrations
stitched
grasping
philosophical
##orran
crumbling
arterial
enchantment
reliever
purposely
protesting
reversal
affectionate
cortic
linguistics
tufts
##ypical
chattering
democratic
aisles
funding
winsome
molars
spurts
consultant
websites
comedians
gulls
amphibious
sibs
rehab
conflagration
janus
calfs
jungles
pornography
ingrained
deflation
conspire
biped
dharma
glamor
vigil
cushy
licensed
gastric
reverent
hissing
contraire
affirmed
psal
foresaw
foreskin
appointments
alkaloid
dorothy
oozed
aspiration
brady
stools
barman
gypped
reclined
spouting
bravo
daguer
lenore
hazards
outsiders
smiths
whimsy
industry
varying
chalc
chalice
cleansing
antidep
unfurl
gadz
gestation
thumping
newtons
bulletproof
raiders
lexicographers
anglos
batches
giraff
enclose
hopelessly
clumsily
rafters
nudists
vincent
droopy
carolina
barracks
##foil
rectum
scandalous
swarming
solemnly
aarons
llama
butchered
inserted
surveyors
tempest
ariz
gravitation
mccarthy
acrobats
slippers
backstab
bulbous
gibral
sassy
##guarded
katie
beauteous
cohort
perilous
betrayal
broadcasting
arthritic
calendars
vaude
selfe
stimulation
alchemist
discovers
expedient
dignity
karate
diaphrag
commissioned
harbors
harbored
##control
scholarly
electroencephal
blasphemous
hysterical
sizable
beverly
grouchy
teehee
explorers
georges
quadrup
dislod
procure
ungulate
dichotomy
seizure
anomalous
canonical
outrun
accommodation
radicals
aphrodis
obstruction
bifur
luxurious
pancakes
pancreas
ulcer
chomping
heraldic
marxist
ferocity
bbc
dakar
sprawled
crosse
brusque
buoyant
disheveled
fiddled
calyx
astonished
aspects
chockfull
outofdate
guffaw
etymological
doleful
volunteers
hebrews
plunging
prestigious
arbitr
draughts
bedecked
discerning
vendor
embroider
dialects
scalpel
parsley
refresh
declaration
##omycosis
hawaii
telescopes
feudal
independence
deepsix
sutures
spiky
worships
adherence
##uberance
calorie
evoked
symmetry
fuddyd
rarity
aslant
quintess
phosphate
attribute
circumsc
arachnid
venez
##floor
staple
##children
worsen
university
postpone
categorical
rancor
envelopes
unimpressed
prejudiced
confinement
sycoph
guru
groping
mauve
beethovens
sphinx
dockside
slumped
agglutin
carnegie
harrowing
sentimental
eternally
zombies
dementia
##thanded
suzanne
twotiming
acupuncture
agricultural
turbulent
valentine
cheerleaders
conjugate
brochure
salvador
cumulative
jibe
inquisitive
chiffon
coddle
abjure
snobby
indecent
despondent
tonguetied
fluorescent
cacao
poultry
isaac
orbital
aggregate
northeast
catapult
woodwinds
irrespective
aeolian
bactrian
jamaica
sesame
##onnay
quasim
drowsy
##phrase
apothec
traffics
ceaselessly
dismember
auspicious
gwen
jeeves
blustery
teeming
impassioned
eliminate
parachute
embossed
grizzly
forbearance
bittersweet
fostered
kaput
nouveau
surname
chardonnay
chafing
cabernet
trespass
##clouds
attentions
metallic
extracur
effeminate
chancellor
bandwagon
unconscious
ceremonial
hemorrh
picasso
marsupial
bivalve
fiscal
abalone
amalgam
pajamas
aerosol
toothpaste
cognoscenti
vienna
stilettos
feldspar
cuttlefish
farthest
remembrance
erroneous
jerusalem
connecticut
beelzebub
disobed
infrequently
ethiopia
anchovies
pittsburgh
deleterious
lopsided
thursday
##artheid
noxious
octogenarian
chesapeake
pigheaded
raiment
onlookers
stooges
nebrask
outclassed
misshapen
miscellaneous
aet
aque
bv
bk
bq
bitt
bian
bau
bons
bire
bunt
boney
bering
bitty
bummed
cb
ck
cem
cults
cede
dk
dard
dought
dows
dents
dicks
daves
dund
dative
dander
derel
dusky
eons
evers
eek
fens
faut
gp
gat
gan
gins
gander
gorse
giddy
hool
heter
humbled
hinge
hinges
ionic
icing
iota
jade
jamb
jitter
jesse
jumbo
jilted
kith
kant
kine
lant
lite
lather
lup
lashed
lester
lumines
minks
maven
naw
nape
nae
nipp
nada
nosy
oll
okey
ocular
pter
parm
pining
paved
paean
raked
rummy
rita
sired
sized
sizz
samba
tch
tud
tect
tins
tory
tiers
tims
tipping
tipple
tardy
ug
uv
upped
urologist
vu
vied
vases
wally
wows
wiles
wisp
yv
yere
yammer
yknow
yioux
zack
zod
zuc
zapped
##hair
##houn
##hams
##eld
##eep
##oce
##oving
##dit
##dition
##dlers
##number
##tel
##true
##gill
##gree
##giv
##given
##rough
##round
##rone
##rink
##rings
##ruc
##rism
##riment
##mb
##mind
##much
##uice
##lams
##living
##aids
##fest
##fired
##faction
##fallen
##fusc
##vie
##vision
##pse
##pins
##puts
##bation
##bang
##bable
##bats
##bitten
##boned
##bitty
##cur
##could
##cans
##cool
##cats
##crap
##court
##kary
##kids
##would
##wits
##week
##jon
##infl
##inarian
##inarily
##erick
##ouri
##ouble
seethe
seclusion
##atur
sept
##rend
##llo
##llab
##onth
##orist
##orned
##isable
##ani
##anian
##enest
##arity
##arral
toen
##itall
##itism
##asch
##asped
andre
inns
inaction
whad
whir
whitt
itd
itches
##ompt
##omme
##omination
##icer
##icant
##oti
##oty
##otics
##etra
##etops
thatcher
##alp
##alor
##alas
##alot
##alfa
##acer
##acic
##usiveness
bele
beards
bevy
beaks
beaus
beadle
beavers
onc
onstage
##ady
shi
shingles
steth
stats
stym
staked
staph
hemat
ism
##urbs
##idy
##idic
##idently
##irons
##irrit
fords
##chel
##christ
asse
asap
##lying
chall
chins
anath
weft
dei
##imos
##image
##cee
replay
recovered
sovere
##alling
##erspir
mezz
meandering
fri
frames
hispan
##ilians
##rov
##roots
##rodden
##seed
##seek
neb
nept
atax
atishoo
allusion
alloch
##unition
spaced
sparrows
##este
##estep
hails
herpes
nobles
pli
plowed
plaud
plover
ploys
##ainting
doggy
sappy
sagging
saudi
suction
suicidal
##oler
##olks
##olutions
##elter
##eliness
##elastic
bloc
##iste
##istans
##ulary
##opyr
wort
##stre
##stan
##stall
##stri
##state
##start
##stress
##steps
sheared
clitor
clapped
trud
truff
truman
lef
lepr
leathery
feint
##igial
##arte
exes
exwife
fluster
goons
##ickkn
##indul
conked
##andah
##andgo
bric
bratt
bracts
##emas
##emakers
##aba
##abolic
##abaloo
##ousand
knish
knickkn
alma
coer
coerce
coauth
##achian
##achio
outlet
arguing
grated
abates
abusing
abrac
upd
upand
upbeat
qua
quill
quakes
quitting
quiche
boone
bolly
booming
boggles
bogey
sayin
disad
disro
disown
disquis
disestablishment
scion
##athon
adrian
##agging
##agogue
loons
logo
logging
lovable
loquacious
usur
##plings
ams
amish
amster
##ifier
##ifying
swerves
swindle
##ostat
##ostics
enm
enroll
enables
proffer
procreation
unass
unapp
unload
unnamed
##ipid
##ipers
##ipel
##ipatetic
##quarters
manx
manned
mania
smud
smacks
thereafter
wellbeing
roaring
roaming
haddock
guzzle
##actically
illf
illogical
illtempered
##avored
pover
joked
olde
teet
newts
agu
agro
agoraph
downhearted
##rym
##ryl
emit
emir
emanc
##phaly
##phobia
##ailable
wrangle
##clim
##click
carot
carrie
carbo
##ittance
diuretic
##ubst
##fee
##ensical
##issa
skater
skyl
skimming
skunks
greatness
greataunt
kegs
desicc
glist
glock
gliding
glaring
glauc
brett
##izes
goodbyes
backers
perish
perversion
peripatetic
compels
comparing
composers
##oola
##teous
##tender
##uller
##ornis
##orning
spender
snark
snowed
snags
strump
hoary
intones
intrep
afire
phobia
resid
resil
resident
residents
contender
contempor
foxt
firstclass
endocr
endtoend
founding
##ounters
barth
barrage
##ibilitys
attired
attests
attribution
expounds
workouts
highbr
highlight
highlights
##lesse
lifeform
bigamist
meanie
##uga
marily
marquee
painters
decried
comeupp
##irdup
##eworthy
hardware
hardcore
choker
rembra
defor
defaced
deficit
defensible
defrost
belied
creaking
crewe
delt
delim
deluge
delicat
server
seraph
serpents
antia
antism
antenn
antiph
antoin
confetti
conflicts
badmouth
commons
commuting
dripped
redheaded
smallpox
imped
impair
impale
impeded
imprison
accr
reputations
schle
afterthought
##upulous
runt
airing
airports
hedonic
awoken
crag
crav
crabeating
##venth
eli
##nex
##nees
##need
sweetest
bedou
bedrock
broil
##ouded
relics
bravery
##versial
apache
apartheid
##impaired
refusal
##ahua
##ropy
corrob
corrug
traverse
traumatic
##aneity
homeland
streaks
freezes
bituminous
##ocard
##ocial
##ocene
##ocaine
##ocarp
distended
reciting
collars
burm
burma
burgle
artic
articul
artisan
erad
mussels
kindled
infuse
infidel
esper
essex
calig
calms
caliph
owning
indel
metric
metabol
growths
affine
##bras
devon
purist
purists
puritan
engulf
restraints
eds
edging
edgar
##ractive
supporter
bloodlet
finland
viewpoints
##grate
shortest
squish
squalor
discurs
rhesus
extir
retains
detested
singin
holdings
pastors
halter
parlor
##kington
concret
conceded
flopped
##obics
##obber
coldly
catwalk
catarrh
persia
genetically
breakin
monroe
crossbow
crosscountry
tenants
armpits
minors
minnes
polonius
sprite
sprinter
angina
anglers
humidity
humerus
dazzled
inveter
involving
starter
peta
synchron
foolhard
##ronic
##ronym
condign
condense
condiment
veep
profl
eyecatching
schooled
walla
bleary
maude
mapping
undis
fastened
##boiled
transist
golds
entree
entrench
bowdler
astig
interconn
picket
annes
announcing
rais
razz
oddlooking
complac
penit
penet
penance
forens
foreplay
doorbell
halfassed
##clean
##cleaning
constraints
disputed
disproportion
medusa
buddle
solit
solomon
boozy
dinah
senators
straightaway
busily
diem
killin
proton
protests
archery
archives
listless
debasing
rocked
fillings
magist
magenta
christen
silks
croaked
##olets
##oresis
talkative
dealings
arrh
equivalent
secre
splutter
splurge
legume
brownies
handsh
catchy
filched
geomet
geologist
eighteenth
revised
revision
##gesis
cornmeal
##cyon
delightfully
galoot
richer
yapping
sickle
sickening
skyhigh
coping
morgan
courtiers
epil
epau
merchand
chemo
ambly
doctoral
climbers
scruff
hyg
praps
sussex
irs
gasping
opposing
smoker
combin
combinations
locom
boundaries
breadcrumb
dreamer
fronts
frontal
proposing
propelled
proposition
blindfold
##ugger
sailboat
valiant
validity
weevil
##thearted
##inaire
derog
imminent
fielding
##centric
##blow
##block
connote
berl
sizeable
ahab
ahmad
swellings
##color
dimwit
englishman
encounters
taxis
taxman
dente
dented
dentition
squealed
grouping
bacc
joyous
dyin
cupids
bodacious
##annas
confessor
figger
harmed
harmonic
objectives
esters
parka
dissolves
bathrooms
stockp
selfcentered
snowman
tailors
pigments
piglet
saviour
stinker
unsav
boreal
dusting
millie
millenn
fortified
bushels
hooky
earsplitting
titus
rotary
hosted
alec
purses
axed
midwife
##ofth
clouded
chaplain
chaparral
continuing
uncanny
impressing
##aphrod
remembers
superfic
gleaming
ghoul
##knowing
custer
predest
predile
predators
aspires
spoons
calming
statistical
pillars
barker
lasso
vanishing
bulky
##strung
subjected
rumin
keenly
examining
politically
politeness
politicos
tarzan
spaniard
dieting
peeves
carpenters
polled
variations
respectable
towering
protector
protective
motivation
reflective
##join
stormed
faiths
chiefly
sedative
mortg
sneakers
fetched
heeding
torque
torah
##checks
barbara
workingclass
maturity
bolshe
bridegroom
ideals
inspires
coded
macs
macar
oxid
projectile
complexions
implants
murk
rowdy
extraord
ethiop
ratio
timep
frustrating
existential
bumpkin
rabies
basses
chucked
huns
deserted
branching
brushes
##ikers
paddy
cosmop
biddy
cannes
cannons
annoyingly
holland
hollowed
bonded
##ochrome
inspections
relevant
trademark
empath
empathy
fibber
fibrosis
pilkington
##anthropic
mamma
authorized
inhuman
specialists
azimuth
homest
##iarist
emptor
imagining
cavil
buzzard
momentum
gangster
contentment
punching
waxed
foxy
griping
leaned
royally
vineyard
civilian
mcgee
cycling
cyclist
davis
##naments
welts
welcomed
deduction
odour
bastille
averred
chaet
##flying
binoc
slickly
blighter
conducts
conductors
dampen
munchies
censors
antsy
cheatin
permits
bruising
amput
amply
repaired
admirals
hypnotic
hypnosis
cliffh
execute
diligent
maples
sheltered
echin
echol
cloves
sniffs
structural
bailiff
mushy
rustling
michigan
##burse
mythic
comforting
##represent
deafening
alkyl
bubblegum
polyp
polymer
mildly
disdainful
concerto
clinical
clinician
scarecrow
##escript
adamant
dodger
envious
sternum
clamorous
whacking
diminution
diminishing
gemstones
nickels
osama
racer
closets
londons
alleviate
disagreement
cysts
thundered
insurers
ravine
ravage
corpulent
dawdle
ranted
subtly
footballs
dismissal
cripple
lucille
chloride
dingy
mourned
enlist
educational
freaky
goddam
rhythmic
academy
bartlet
grieved
tsk
healer
fractures
mensch
nonsensical
translated
translucent
automob
coupons
virginity
exhausting
##inthew
czars
erection
junctions
wolfs
protestant
dudgeon
oversupp
analyst
allegations
cortis
obeyed
rudy
tucker
linguists
tuft
persistently
dwarfs
fundamental
wagons
schmoo
explosions
##otchy
creeks
comedian
draculas
antiperspir
siberia
calculate
butterflys
octave
whirls
shivering
clerics
lemur
sketches
ranges
tasman
toxicity
frosty
dialog
premise
premium
transmit
aesthete
aesthetics
##ophilous
##ophagy
watered
francisc
ignoramus
alphabetical
hammers
ukraine
gabby
hippopot
diversion
dumpty
vigour
vigilant
ornith
obstet
gastropod
adoration
psor
sockets
sergeants
alkali
##writings
bachelors
unmarried
concentrate
aspirins
alderman
lumberjacks
infectious
chamberlain
dandruff
jacu
contemptuous
chronically
gratis
disarmed
glumly
aardw
daggers
stalin
forsook
alfalfa
calamitous
transported
transportation
condemnation
##written
bracelets
disclosed
bantu
hunky
juliet
revelation
disinher
cleansed
assessing
deceitful
gelat
pyrrh
trolls
nascent
wields
bluest
swami
hullabaloo
blistered
lexicons
scorch
screeched
identify
##ocytes
dispersal
journalists
cucull
noblesse
brimstone
alaskan
arrogance
upstream
ramparts
abridge
jurassic
troopers
strangest
deprivation
brisket
enormity
stealthy
exquisitely
cuckold
vagina
countryside
exclaims
acrobatic
eyelid
benzene
glacier
metaphorically
lynx
yawned
##orthodox
bloggers
indigo
archaeoptery
membranous
citizen
consequential
comprehensive
representing
regalia
priority
bridesmaid
displacement
introduce
resentment
brahman
airlines
bongos
duluth
blazes
grandsons
commendable
potentially
laurels
enlarged
loyalty
mitosis
churl
anomaly
mournful
doodoo
gusto
tussles
sopranos
saucer
adolescents
nightmares
crocodiles
vaguely
##better
refinement
duplicitous
lorraine
fecal
contemplation
demolition
demolished
perspic
unrealistic
dosage
scurry
scurvy
achromat
atlantis
fertilize
inheritance
yorick
browsing
ammunition
discordant
coulombs
earnestly
pucker
admonition
barbaric
barbarous
pharmacist
koi
nameless
flamingo
smuggling
symphony
ounces
rebuild
skeleton
mulish
pione
paternity
chimpan
pagan
threep
adipose
backpack
assassin
landlords
##ophytes
propriet
suture
anderson
shaggy
myrrh
spiked
worshipped
gregor
corrosive
affronts
epiphy
tantrums
ineffect
exorbit
quixote
phallus
intervening
viscous
dyspeptic
coincidence
chandler
adelaide
endearment
babbitt
enlightenment
humbly
humbug
shaping
flaunting
prejudice
dauntless
chattel
deceptive
deleted
##imetry
apparatus
carriers
contingent
squabble
avarice
abducted
obliged
rambling
zombie
##maybe
anastasia
sluggish
comprises
behooves
uncontrolled
fuming
hamster
kernels
tawny
##monde
shillings
flagrant
swimmers
assortment
aztecs
ballyhoo
shimmering
stereo
frivolous
congenital
remedy
geoffrey
bourgeoisie
uterine
uplifting
enforced
unattractive
expletive
harpsichord
simpson
cholesterol
bismar
tahiti
##toback
shorthand
insufficient
addenda
histrionic
barbershop
extravagant
regrettably
xxx
nondescript
handcuffs
indifference
specimen
palindrome
mnemonic
ureth
forfend
##estruck
knobbly
coexist
diagram
pacifist
aristotle
abecedarian
gurney
kitsch
##monger
sebastian
trowel
coordinates
sclerosis
proffered
decrepit
cholecyst
handicapped
pennsylvania
oklahoma
furtive
apocryphal
ketchup
auteur
gandhi
gaudy
mormon
reprieve
farfet
tennessee
misdeeds
posthaste
irksome
degenerate
tournament
espresso
incompetent
nuthin
sartorial
taffy
ubiquitous
nevada
getupandgo
progeny
marriages
disconsolate
catatonic
nineteenth
aubergine
sycamore
haphazard
wilson
thunderstorm
stammered
deutsch
conundrum
wellrounded
badminton
christmastime
emblaz
embargo
pragmatic
commonwealth
immemorial
elliptical
frenzied
bologna
kaiser
canceled
gogetter
amaryllis
unfulfilled
tequila
maritime
nightshade
avoirdup
obnoxious
replacements
jehov
cadmium
aquamarine
miraculous
antidepress
gadzooks
gibraltar
crosseyed
quasimodo
aqueous
tudor
##llabic
abracad
amsterdam
highbrow
comeuppance
rembrand
delicatess
bloodletting
inveterate
pilkingtonpie
archaeopteryx
avoirdupois
ain
aas
aro
aeth
aides
aok
avenge
aaaaa
bg
bx
bair
bign
bails
bidden
bumming
bumbling
cm
cv
cx
cun
cites
ceter
cipher
dm
dau
ef
eure
eee
eey
euch
fm
fon
fow
fust
fang
fah
fiver
ferg
faker
fudd
fags
fesc
filet
fdr
gary
gels
gerb
gagged
gyp
gopher
hess
homet
housed
iod
iber
ili
jf
jays
jimm
jasons
jinx
ky
ku
kurt
loth
lps
lub
lithe
mide
mumb
mists
mains
mops
mds
molar
ns
nugg
nige
nipple
nappin
oj
och
ops
oiled
pust
pak
pore
pied
punt
paving
qs
rans
rote
rund
rooks
ripper
rational
roux
sri
sys
souse
ters
tys
tina
tann
tiring
tensions
tugged
tinged
ulyss
vous
vix
vagr
vader
vandals
wen
wol
waged
wags
yucky
yolks
zat
zipped
##han
##had
##home
##hires
##even
##oz
##oide
##occ
##oints
##iole
##dable
##dah
##dressing
##sink
##nu
##nake
##nation
##nab
##nee
##nosed
##nias
##niest
##tus
##tops
##tipped
##game
##give
##gents
##rer
##rack
##rams
##ratic
##rotic
##yst
##years
##mical
##mother
##ugh
##lide
##lied
##lene
##aj
##aam
##fre
##fal
##fill
##fil
##fathers
##vine
##vents
##vably
##vety
##pter
##pink
##path
##pired
##bent
##bare
##bought
##bank
##bory
##bah
##bills
##billed
##backed
##bomb
##banks
##binding
##kum
##kiss
##zone
##zels
##zai
##wain
##wears
##wah
thar
thal
thebes
##inav
##inians
##eri
##oum
##oung
##esco
seag
seeth
sext
##aton
##atra
##edra
##lling
##onc
##onical
##onias
##orama
##isph
##isively
##anial
##enh
##arge
toting
todo
##asus
youths
andr
androph
inad
inse
inked
inmate
whin
whelps
whoops
ith
itty
##omerate
##icem
##oters
##uta
##eting
##etop
thatch
##alin
##alay
##alos
##aloe
##acill
##adonna
shab
shiv
shorn
shank
shined
sherman
shiner
stoke
staging
staggered
heaves
heidi
myc
##uras
##uroy
##urations
##idos
##idingly
##idges
##ositive
forwards
withal
withhold
##chic
##cham
##church
##chini
ascar
##lyt
##lyns
##ooper
##illess
chac
chth
chak
chie
chine
chag
chym
chives
chesh
chyl
chias
chases
chiant
chitter
chante
chaser
cheryl
chalet
anz
anas
anter
anhyd
anvil
butlers
deph
deoxy
##ented
##iman
##imony
##imonious
reich
reapp
sodom
soiree
mending
frond
frocks
fringed
fridays
wasps
##usting
##rages
##rably
notices
notwith
noteworthy
orbs
##ilies
##ilious
##ilocks
##roids
##roding
##ctomy
neville
thistles
##verted
##riv
##riot
aren
spool
sporran
##umane
herded
hertz
nods
##ppes
##ppet
##ppina
docked
dozing
suds
##olity
blunders
##ulative
##ulums
##ulatory
##opithec
cages
cauch
caulk
cahoots
canker
willingly
##sto
##still
shears
clon
clint
clipping
clashes
tril
trudge
trimming
lender
leveled
leavin
fevers
##iger
##ardom
exac
crumbled
cringed
flan
flack
flits
flared
flitting
flirts
flammable
goad
##owners
bract
brutes
##eme
##abor
##abull
pratt
priced
prancing
prancer
alist
alias
alky
alters
algar
comat
comically
coasts
cohes
coitus
##achus
##achable
outf
outgrow
arf
grann
grunge
abash
abbe
abey
abiding
upro
quacks
quince
boc
boz
bobbing
disable
disclaim
disbar
disassem
scones
scoops
scifi
scuba
##athome
##atholic
adage
adheres
adele
##ectic
##assion
##agraph
loin
loggers
twose
twits
twidd
twirled
twerp
##plane
amet
##ifice
swiped
##ostomy
proles
##ivist
##ivate
calli
##ilee
unaf
uncover
unbeat
##rescent
##iputian
##quel
mange
manmade
smoo
smite
smock
thereof
wellheeled
roamed
guer
guano
guzzled
##earold
acin
acaud
acuity
slag
slaw
slabs
thrace
##ptive
##ptious
##ogg
teased
teaser
agit
agate
agap
##aways
lookout
apportion
##anga
ember
emend
empor
emulsion
emcee
mooned
wring
wrang
wracked
cheep
gotcha
##inted
##clack
thinkings
cary
carm
carafe
dibs
diurnal
peat
pecc
peels
pecan
##ubles
##feld
sinuses
preen
preys
precl
##mentioned
canto
keister
desi
desec
glared
gloria
glitches
breather
idols
backhand
backbreaking
backbiting
perps
twod
compell
compiled
composite
muggy
##text
##ianc
specks
sniper
strays
##ggered
playground
hokey
musta
mustache
##aund
intoned
intensive
intuition
phylum
##ordained
resh
resounds
timehon
contused
contortion
contamin
foal
foibles
bett
betel
betta
endures
##odus
##odorous
headmaster
headfirst
##wny
##ermore
##ermint
##venient
didger
##ignment
barbit
barcel
barfed
attaining
expulsion
workout
overc
overall
overloaded
earring
grander
insured
wanton
triggered
assay
assid
assorted
bigoted
##beit
##beam
##beck
##beard
##beans
##ymmet
helium
helsink
##ancers
marc
marig
marvin
marcel
martha
tellin
painst
gregar
decret
decider
nighting
hardw
hardwood
chondr
defuse
defiled
deferent
belittle
belted
crev
creases
creaky
deliqu
delaware
##cob
##cold
lastly
confided
badab
baddie
comme
commie
##insky
drier
lighted
redhead
smalls
impose
imposed
imprec
accidents
repr
repelled
repossessed
carelessness
consul
consists
##uresis
afterlife
aftermath
courth
fares
farther
##attering
deadlines
deadpan
runway
runaway
drakes
handel
handwritings
blackbird
blackbirds
begets
elaine
limo
frets
##neg
brog
brooms
heartstrings
neared
##axon
braves
braking
bragger
##lected
##lections
apic
##imply
refuge
missin
trev
trent
##ahed
##ropolis
corrod
corrid
streaming
paychecks
freeing
##ocol
##ocide
##oceros
##ocritical
hotly
districts
minding
collided
colloidal
drinkin
demoted
felling
artem
ers
ern
erm
eras
ergo
ernie
ernest
undert
underway
shoving
infest
infractions
esqu
calcut
bookkeeper
bookstore
birdseye
poorer
divined
affray
devotions
purity
warlike
engages
counterst
countdown
##velope
edits
edna
suppressing
hairless
haircuts
bloodstream
finnish
wedges
lawless
##ungous
shortstop
squatter
squandered
discours
rhod
depot
depred
extempor
detained
straps
##auts
advises
##wheres
fightin
avast
avouch
waterborne
halft
parl
paran
parse
concub
flocc
cellmate
excites
topical
cataph
genesis
breakout
##amma
monitor
moniker
brightened
##atingly
regional
hopeful
armpit
biased
biography
lotll
poland
sprightly
opal
housework
darkened
sonof
sonnets
anguished
earthlings
tasteless
humankind
humungous
obes
obfusc
starg
starbucks
lowers
lowland
petition
synch
##def
conduction
conducive
veldt
wallace
wallowed
sexes
sexist
declines
completes
bleating
tyre
beautys
madd
flecks
fastball
fastidious
##heit
##held
##heated
##boa
transitive
banning
banzai
goldilocks
entries
entourage
bowwow
boycott
hitlers
astral
interact
interior
famished
pickp
annull
##rett
cowgirl
rapper
saws
balding
complicated
penel
latex
halfhearted
##ylvan
harvey
patootie
dogmatic
numbering
constable
dispel
dispensed
miserly
castro
castration
potass
potpour
achoo
achond
testy
prodig
sightless
dryness
ceylon
situs
booz
sharpe
seniors
##shire
archa
flatbottomed
magicians
christie
judging
breathes
croesus
shrank
autograph
autumns
milan
arranger
cashew
equin
securing
specious
splur
splayed
legumes
leguminous
centaur
horseman
catchasc
geld
untoward
darlin
darryl
eighties
johann
corns
cornfl
corneas
mistrust
candel
farmland
sirius
fireworks
donated
donning
donne
mixtures
warmly
requis
richards
benn
benzo
sicker
aimless
copil
coproph
morg
softness
softwares
courtly
wildlife
##iocl
basel
basking
fruitless
pubic
publics
embers
ambient
blobs
banknotes
sometime
veraloe
climat
scruple
hyde
hyphen
prawn
footprints
layout
flooring
irked
honk
gasoline
bander
bandstand
smoother
lauded
buttock
locusts
effected
malodorous
##ursions
charmless
matey
sandal
captor
captive
camar
camilla
blockb
blockade
shockingly
toto
totaled
dropdead
defeating
propeller
blinding
westward
westminster
keyboards
grog
grove
garlands
garnet
garrison
valor
valence
##guards
smiley
cougar
couste
sorting
immig
immobile
##cented
birdsong
fanfare
##blast
connub
beret
cardigan
ahoy
germane
dimly
dimples
encrust
encrypt
sharpen
panicked
##conf
taxed
boneheaded
approbation
dumbly
husk
dyou
dystop
confessions
figs
melan
latino
estimation
##gyn
boardwalk
dissert
dissoc
dissolving
dissolute
bayou
##toe
##tobe
successes
stocking
snowing
dangling
twentyeight
terrified
colleg
colleges
buffs
buffoons
precip
precaut
precarious
hallelujah
machin
pigg
argot
counterp
counterfe
counterattack
savant
savors
shooter
tubular
safeguard
unsaid
griped
attractions
hungarian
faltered
ordering
measurements
hurtin
hurtful
busty
rotter
rotate
inventors
radios
aleur
animate
volupt
##cerned
histry
axial
cadill
caduc
coffees
midget
lunchtime
supportive
galled
galling
gallows
cloudless
albac
stewing
humanitys
horner
tablets
witless
muds
superl
gleaning
conclusive
ghee
decem
deceives
knockoff
##alypt
chews
countrymen
spoils
accepts
tended
tendency
beastie
beasties
calmed
philanthrop
folklore
conditioned
acquiring
rebelling
cultivation
exhale
improv
borbory
ecu
ecz
lingerie
viii
viagra
violets
differential
spaniards
##agnes
beefy
spinner
twelves
procession
brewers
carping
pollute
poetically
correctness
respectful
##yrus
athab
scarier
lawsuit
honeybees
faithfully
prosthesis
cruiser
aquaria
aquarius
venous
venison
dollop
##crack
feta
fetish
governors
filmed
toothbrush
celts
brokenhearted
brassieres
matthew
competes
bolted
codling
absolved
throes
commandments
bendable
stroking
blankety
prima
relaxation
amphig
fonda
fondling
cathars
ethyl
fleeced
micros
frustrations
chuckled
traveler
determining
famously
secretive
psychokinesis
binder
waft
waists
advancement
pedro
pedagogical
chatty
altitude
romeo
vented
ventures
rejecting
##doors
toasted
tuned
scrawny
assistants
wheeling
##ythree
mirage
teary
organelles
ciner
cinque
forthright
empowered
bloomer
operations
sparkles
amounted
authorities
gnarly
inhaling
inhumane
##uscan
purchases
homers
homage
dysm
etching
taper
tapered
favoured
computerized
umm
##esthats
contentious
arthrop
energetically
batted
corduroy
steeped
steeply
jerked
fiftyfive
deliciously
voter
tactile
tactical
woozy
beaux
beaufort
claque
clapper
clicked
coaches
bouill
tumult
viney
masquer
unwary
mcco
communicate
instructed
detectable
destroyer
cranes
crania
davids
##iotomy
magnes
carbonate
junkies
omit
taunting
chemistrys
hikes
hiker
dopey
locket
artistry
barnum
choral
drifts
hubris
durable
tanked
##poise
boomed
australians
australias
sacchar
##cutting
oedilfer
giggling
owing
ablation
molds
conversing
zookeeper
tedium
stallions
ampere
admirer
admirers
digesting
honesty
chopin
swaying
pulitzer
execs
circumvent
marshas
conjugal
itchin
anticipate
stupidly
stupidity
ripoff
rusted
sackcloth
brooklyns
progressing
improvements
cooing
waning
sewers
cabbie
algor
streamlined
affordable
railing
anthropology
nuclei
unbound
deafness
spectacles
assumptions
crawler
espies
ellipse
cerulean
pregnancys
capsules
scanning
electricians
grinder
researcher
asserting
golfers
lunatic
pardoned
wanders
hemisph
dodgy
dodgers
conquest
envoy
straws
baseballs
loathed
nicotine
emphyse
pertaining
christianity
dermal
disagreed
southernmost
royalty
gumption
batsman
wireless
ponderous
profoundly
##without
bashful
festoon
ranting
readership
wheaties
lyre
lentils
lucrative
gourds
remotely
ovens
picn
awaited
generally
mourner
scripted
settling
satisfy
tolls
cockeyed
boosting
heavensent
clutched
antibl
antibiotics
##gregation
academics
dabs
vibes
lovingly
graphite
translates
lesion
sperms
flushing
exhaustion
##bellied
altercation
##iatore
##acca
desktop
virtuous
##actylous
ayes
patched
sanct
abdul
succumbs
wigs
##pecific
editorial
vestments
wagers
wagging
converting
publishers
molten
scooped
loopy
platoon
platonic
comedic
chronicle
sketching
extracting
convection
grapefruit
indulged
indulgence
wombat
excluded
conspired
corona
francs
mankinds
aegean
##walking
assuredly
unfairly
economical
economists
knotty
graciously
digitalis
nicknames
vigorous
licence
aprils
eclips
##charged
gluten
affirmative
harpoon
seaman
anemone
committees
ancestral
michaels
dcor
vivacious
muttering
masked
nibbles
stanza
sausages
microscop
alder
ayeay
bertie
gametes
jacob
lampoon
##track
##ygook
celeste
bahrain
toddlers
anteater
anteced
reclining
bravura
yanked
baronet
decreases
excitable
satanic
northernmost
fencing
gorging
crusader
prudish
diverge
debutante
epicure
corsets
therere
thermal
assessment
brigad
enhancement
mosquitos
gelatin
oaths
##biosis
sturgeon
asteroids
treasured
surrendered
scorp
screeching
mitts
legitimate
confronting
bazook
enfold
muffin
muffins
atmospheric
juris
jurors
tidal
sulfate
convertible
slothful
consoled
cyanide
portraying
degrade
adulthood
hoarder
phenom
attachment
decompose
columbia
hughes
suspenders
pulpit
wipers
abnormally
lodged
metaphor
metaphors
shrouded
caterwa
lynne
yawns
sulk
cohabit
intellects
consequent
stimulate
prostitution
brackets
diaphanous
snarling
collapses
avowal
concisely
cannonballs
mohawk
frenzy
counselor
eccentricity
georgia
##washing
initially
shadowy
chunky
anomal
reptilian
soybeans
##olithic
uncomfort
chastity
fluttering
amendment
swimsuit
acknowled
distinguishing
rouge
##oooooooo
##iloquent
comparative
##behaved
trenches
fiddler
pandas
anaer
prowess
enigma
slogan
slogans
##odynamics
prosperous
hummingbirds
wendy
astonish
astonishing
achromatic
atlanta
fertilized
toffs
toffee
reeking
clamped
browser
abbrev
unconcerned
unemployment
dishonor
facetious
savoury
##catcher
##etoone
eyebrow
transcendental
craftsman
pharmacists
cackle
##frame
##starred
presto
distillation
embroiled
symphonic
pyrenees
spaceship
discontin
rebuilt
thermometers
parson
cappella
##storms
downstream
hobbes
extolling
hurricanes
nigeria
olympian
##driven
##bulb
assassinate
impossibly
deepsixed
earthquakes
synonyms
huckle
cairo
amni
misspoke
overstuffed
balsam
jesuss
rarer
anaphyl
enriched
manufacturing
snuggled
phallic
associate
intervene
galaxys
galaxies
ensnare
skewered
kaboom
rooft
staples
antarct
accosted
umpire
cacophony
cacophonous
enforcement
iconic
kennel
kenneth
nearsighted
flapper
manifestation
intriguing
antithesis
circumstance
disconnect
disconnected
threshold
gobbledygook
disbelie
scabies
contingency
eloquence
calabash
avaricious
astrology
protrude
epitaph
axiomatic
gnawing
bighearted
shrivel
haggis
clarence
sweden
acerbic
behoove
##wheels
debauch
embroidered
cetaceans
ditto
gospels
kernel
ophelia
##product
anamn
adiaph
swimmin
agrippina
peacock
peppermint
cypress
northwestern
nonchalance
fainthearted
kraut
ruffles
onscreen
rendition
frivolity
misbehave
buckingham
melancholic
sympathetic
innocence
empirical
hazardous
disconcerting
bdell
jennifer
paren
sponsors
gracie
adhesive
newfangled
wordsmiths
frankenstein
alphabets
olympic
gilbert
gaffes
hummus
canvass
cromwell
coercion
bohemian
bohemia
overlap
ballerina
befriended
indecision
[...]
