<|endoftext|>
<
>
a
b
c
d
e
f
g
h
i
j
k
l
m
n
o
p
q
r
s
t
u
v
w
x
y
z
|
##i
##s
##t
##r
##e
##a
##d
##n
##h
##c
##x
##m
##p
##l
##o
##u
##g
##b
##f
##k
##y
##v
##z
##w
##q
##j
th
##nd
##te
the
##in
##re
##ou
##er
##of
end
##xt
##ofte
endofte
endoftext
##es
##at
##ll
##ed
##on
##is
##or
##an
##ing
##ar
to
##en
##as
you
and
##it
in
wh
it
##om
##ic
##le
of
##ow
##gh
##ot
##ut
##ve
that
be
##al
##ac
##us
he
##ay
##et
on
##ad
sh
my
is
st
##id
##ld
##os
##ith
we
for
##ur
##ir
##ion
with
##am
its
##ch
##ke
as
##ly
##ri
##ght
##oo
ch
an
##ill
de
but
##ter
li
##ce
re
me
##all
your
so
##ent
his
##res
##ee
was
##ra
they
##im
##se
when
##ro
##ust
or
##il
##ver
not
fr
ne
this
im
##ight
all
##ate
##ct
at
are
##un
##ome
sp
##ould
##th
ha
##ers
can
##um
no
##ess
##ge
##ck
pl
##pp
##ough
##ain
##ont
##ore
do
from
sa
su
##ts
her
##ol
bl
##ack
##ak
##ul
##red
ca
##nt
##op
if
##est
wor
what
##ell
will
cl
just
##ine
##ound
by
tr
le
con
##ard
##ie
se
she
##ast
##ose
like
##ig
##ake
##st
one
fl
go
##own
##ick
some
dis
##and
##ind
##ation
##ite
##ue
##ab
##ous
##fe
kn
al
our
com
##ame
##ood
ex
##ant
##ach
##one
##ted
co
now
out
see
then
cr
ar
##ive
who
have
##ink
##ap
their
br
##ook
ab
thats
up
qu
said
##ud
##ish
bo
##ans
##ist
say
##art
##ong
were
gr
##ace
##ree
sc
youre
##ath
ad
##ass
##ys
fe
pr
##ag
##our
lo
##oth
us
##pl
tw
dont
##ff
though
would
am
get
##ide
en
sw
##ings
##ase
has
##ice
pro
call
##ere
un
##ile
##ies
##qu
##ost
##out
##ip
##ure
gre
hes
##ves
##el
man
sm
##are
ro
there
##ade
##ress
##ich
well
bu
too
had
more
te
theres
gu
ac
##use
ill
di
##pt
##ks
dr
po
##ars
##pe
##ort
sl
where
##ms
##ned
##ance
##ally
##ps
##igh
know
may
ive
##if
##act
make
thr
old
jo
how
word
theyre
##ity
##ble
new
day
ag
##ten
could
##og
##aw
che
down
##ry
##age
look
app
##ph
##ment
##ven
##ought
mo
##ang
which
em
need
##ise
let
him
got
should
##cl
##ail
ever
off
think
tim
##ions
pe
##eth
##ash
##ub
##oss
way
each
sin
##iss
been
##ical
made
sk
pre
##ors
##ens
cle
##end
cant
##ark
##ved
bre
des
gl
##ze
##ving
##way
good
##les
them
##ters
mu
while
per
id
##akes
back
quite
youll
car
##ool
two
##eel
might
##ft
##its
##air
those
find
through
great
than
##ock
##able
##ull
##ting
comp
##ian
wa
ins
af
fir
##orn
right
sn
take
once
##nder
##ows
ho
##ious
##ia
since
ple
##uck
fo
these
every
##gg
play
##ons
str
##atch
called
wont
must
##au
##urn
res
ph
##ful
##led
##ord
##rain
##me
long
##ction
fri
shes
##ty
time
much
use
##ear
ste
ver
##tle
##ber
##ave
feel
##to
first
##bs
##arm
head
never
##int
bet
##wn
##per
##od
cause
##amed
over
##ats
sure
found
did
##ign
spe
cre
here
bar
##less
##ire
##aking
##als
tre
##eep
work
##av
##ep
cou
tri
##ank
##ness
best
gra
hell
name
##ild
such
##ix
means
##be
high
still
why
##ush
any
cur
##iz
plan
##ng
ear
life
wr
love
hand
ey
most
##ots
ass
##ib
##ied
big
sur
##pped
youve
##ial
show
hel
whats
cont
##anc
mean
##ug
##ather
both
##ines
tell
pain
mar
##orm
##ls
##em
please
come
dec
try
##ets
##ird
##ne
som
young
cho
##ope
thought
##ute
act
bec
night
swe
makes
##ence
dri
ask
##ert
hard
##uff
does
part
bel
friend
give
del
##ange
##ates
##ated
##ouse
ter
clear
fun
keep
##ict
##co
##mer
##ition
ser
##ale
##alk
add
##day
bad
cri
##ins
bri
def
##amp
last
##ife
##ics
##ren
place
att
named
conf
fine
far
red
pass
##ents
small
dou
##ning
into
##ures
comm
cons
acc
eat
##ling
left
about
oth
read
##up
care
sch
rep
many
##lf
ant
cra
cour
god
yes
after
gir
##umb
light
##ists
hear
##oy
star
only
##itch
##ump
rem
##ary
imp
##other
dead
##ew
##tes
##ared
oh
##ory
dre
sound
air
put
run
want
##aim
hed
##olog
without
words
away
fol
says
aw
used
black
dra
##ily
##he
beg
##iv
##ect
##ined
cut
##ude
##que
##uc
##man
##ult
##ids
things
soon
true
very
bed
lit
seems
really
bro
col
##oud
turn
three
face
ke
##ym
exp
help
el
rel
##ations
par
bra
char
gi
##cc
##atter
near
##icks
ma
sweet
miss
dear
cor
##ands
someth
ap
##used
free
lets
came
even
##rop
##iew
##ways
till
tra
es
home
sou
yet
bit
pay
known
##vent
##ane
today
sim
stre
##unk
la
round
##zz
ball
##bt
##oc
mus
set
##ants
##oun
mind
ref
##dy
squ
pri
peop
rec
coll
fear
##gs
drink
under
bef
lear
bur
##ones
fish
fell
sho
##ah
expl
er
less
##vers
art
##ired
##ond
kind
fall
little
fill
hot
##ple
guy
##ense
##li
##ffe
wife
start
##ressed
heard
cal
people
book
bird
blue
##dd
##we
own
seem
something
##ner
ind
##ny
went
##pect
##ears
lea
chr
heart
dist
sub
thing
stay
dem
folks
grow
##bb
always
poor
white
##ically
often
heres
again
##ught
full
##cks
##augh
whos
cat
flow
dev
bill
##der
##unch
eng
lad
war
##ams
pur
food
hair
ed
before
##tent
##uss
supp
stri
bab
told
ele
blood
dad
dam
stud
sle
##ric
##ung
mom
sad
##ause
guess
##gr
wed
world
law
##aps
view
beh
##ject
form
sal
bi
rest
eyes
##hing
##ains
stra
gri
##ues
disc
##so
class
##kes
##de
abs
##ene
##ored
##uth
wo
vo
ones
lar
rh
water
stop
##br
##ating
better
fin
sing
win
##nds
men
buy
ret
land
tur
##uct
hold
##ier
isnt
##ward
whose
adv
nor
##aut
div
quick
##ides
dep
##ax
stuff
tas
real
av
inf
hal
line
##wh
##oney
took
##ield
done
##read
grand
##ize
ra
wri
other
fact
##king
same
##iting
cry
brain
deep
conc
##vel
scre
nice
whole
cell
state
##ount
##ient
gen
exc
##cted
met
four
pres
top
da
ext
fight
hor
cold
##ime
hum
watch
gone
lot
break
flo
claim
lead
min
inc
##ob
##oke
cross
asked
past
seen
##ips
bell
count
##aster
##str
short
##und
mon
op
around
kill
##ased
lack
making
##idd
##tead
##ott
reg
##pping
hope
fly
fac
sun
##ape
##gn
arm
gave
##ef
##ised
pol
weve
house
wom
nothing
also
tree
youd
pers
lost
##ger
stand
##unt
##pper
dark
##oms
son
##pr
wear
##ual
##ames
aff
cy
next
##atic
##tered
##lt
##ular
gets
pa
spr
goes
##oph
earth
##ret
prof
bat
##ced
yell
##ron
instead
##eds
comes
low
ob
##ments
ten
wish
bring
hit
belie
looks
wrong
fat
sign
late
green
fool
##uit
fair
cond
being
town
ev
fail
few
skin
eye
bright
comple
school
wall
inv
decl
course
##ative
feet
forg
sex
##cri
ble
ty
doubt
##ract
##tem
limer
ce
cert
obs
##off
##oid
beaut
##na
adm
ban
ve
king
##ged
child
aint
side
und
happ
fle
speak
shell
##self
fa
days
mad
##ns
thus
wind
ang
##bo
##ured
##by
years
girl
##row
##ature
##ians
##ether
sit
wee
strong
doct
trans
gold
because
den
game
bow
boy
##ered
##not
eas
shed
year
##ism
##az
cook
rather
walk
##iness
ground
large
##play
fam
##iff
ann
friends
pick
ast
##yl
##aint
case
##ium
meant
theyll
##uce
odd
saw
cow
bal
wood
certain
compl
fit
##ops
leave
bus
fore
cir
fre
fast
##ards
##tern
live
##ained
times
treat
pen
##cle
guys
dog
pow
meet
cool
##acks
slow
job
##head
har
##ution
##amm
##ills
door
doc
coun
##lic
##cept
##ply
half
mess
ent
doesnt
##ible
clean
flat
que
death
sell
ru
##iled
mis
##old
agree
##tend
##fect
check
hur
##yle
##ason
dig
##land
cried
##asure
##rest
pray
##orts
shows
ach
med
sea
pat
##oop
cap
##irt
knew
prod
##iver
using
term
mark
disp
kids
##ove
##oon
##ilt
dry
bud
sight
##alth
##ique
beat
##umm
##ces
##bed
##ern
teach
boo
vis
##ked
die
##ese
##ither
##urch
##the
room
caught
dire
##amb
##els
din
cloth
##eal
feeling
tried
bas
leaves
##ology
cast
money
pie
##sh
simply
sol
##like
close
needs
##ouch
dro
plant
##rench
date
mine
tom
repl
##lish
##rent
##lly
smell
##ives
##ided
lim
display
wonder
##aced
arch
desp
##ole
##ider
##acked
pos
##ler
##etic
shot
change
turned
enough
thri
##irth
lab
##imes
write
takes
##ingly
deb
others
mag
##ges
rock
boss
egg
pot
jud
breath
sil
chance
mil
ans
##igned
aut
rom
straight
cro
ign
##ief
##umber
build
spot
worth
sat
prom
talk
##ums
spec
##fer
draw
##ery
didnt
song
deal
##ific
cash
knows
fil
nose
##owed
equ
bear
lord
##ales
sec
##avor
ge
##ift
hop
##ility
ben
mother
rare
##outh
leg
##ky
brown
learn
rul
##une
##ited
horse
shar
catch
church
reach
spl
christ
brought
sleep
dar
##ater
##ote
spread
##atures
laugh
##min
##uly
wait
lif
note
prote
##ized
hands
joh
inside
gree
pet
##yn
##oft
##ork
##raph
corn
##ray
gives
##ried
##ils
##ites
prov
beer
##uts
dance
##rol
crit
sir
cand
pull
##ias
##astic
##ails
test
##haps
##osis
unt
maybe
getting
mist
##lo
##omb
##ours
fire
lots
six
##cy
rhy
don
mer
##ints
caused
move
loud
shall
base
fix
ner
choose
##ices
theyve
##teri
##let
##though
dress
##ma
having
perhaps
bag
kiss
##enty
space
burn
gal
stick
##istic
##ocks
music
damn
##wer
requ
##rote
cannot
rich
ya
##aces
##resh
going
body
bought
five
mate
ok
##osed
works
dish
gun
##ads
although
succ
##ipped
der
##ume
blow
crow
hey
worse
foll
wine
##ital
sick
warm
tem
couldnt
meaning
aim
mor
##ience
trou
someone
felt
sky
pret
south
shr
##eric
##arch
##key
trees
cop
french
lay
wasnt
news
plain
bull
wild
##ully
open
##zy
appear
elect
taste
##ony
##ison
##essed
pal
easy
farm
luck
point
least
##ween
##ying
##ister
spell
colle
taking
suff
eight
tough
fur
sold
fruit
grou
descri
fame
thre
roll
effe
ur
box
drug
ep
ment
##gy
birth
pub
##ken
##vered
design
sounds
mix
pra
##ued
rev
double
mass
tight
wrote
complete
cost
##iet
amb
enj
##ceed
bare
##cts
truth
sour
##ae
##well
chem
doctor
gas
somet
girls
bank
##otic
##erst
clim
##ished
pretty
age
blo
##ests
defe
strange
between
hy
til
##ds
##ograph
become
drive
sense
train
looked
sus
style
##aken
pap
##ging
##ball
lives
emb
sometimes
hu
##aught
##ision
floor
cos
ren
scr
hon
##aven
##usion
##urs
smo
court
baby
opp
##ator
quest
band
foot
broke
street
john
##ey
believe
ring
caus
glass
##claim
delight
ber
ris
loc
##fully
##iny
person
bound
ger
comb
longer
lady
avoid
rule
mal
##app
##ably
clearly
sent
alone
brit
born
nation
soft
meat
theyd
dise
circ
bread
##erous
due
##eeps
attack
cas
fresh
gro
##io
sand
ran
sor
lie
proble
terri
##cond
behind
##ral
##oles
##ploy
##iction
##form
##onic
force
neigh
##aped
occ
##ently
capt
likely
price
surely
none
chick
boat
##inal
##omes
##ched
block
shock
##roll
looking
ways
speed
lines
rain
butt
##aked
dim
ice
##ration
played
dream
share
matter
##ays
##iful
started
daugh
surpr
drop
thin
ease
##test
truly
reve
common
power
fate
wan
##itten
front
##gress
thick
blind
arent
rhyme
neighb
fro
gar
pop
##oring
heaven
reason
fer
press
##ugg
heat
weight
ens
writing
dread
key
limerick
ir
inter
sail
##airs
plants
city
dan
##erk
##osing
##ches
const
begin
mat
##ades
neat
filled
fra
val
bot
wide
##ding
##men
##gre
bree
jack
pan
##otion
kid
##af
smart
alas
prin
smile
verse
rot
##ina
tot
sto
crack
voice
fing
tall
##ires
##cent
##gu
##ancy
fellow
lose
path
##aff
field
hide
helps
learned
birds
fan
##wed
thrill
port
anc
resp
americ
card
det
size
##go
##bl
int
sens
##ware
stone
##raid
blame
##mas
##ares
##asts
send
expect
brings
appl
ah
keeps
##ries
##ounds
twas
books
family
mem
swell
##con
##lect
arri
prefer
enjoy
##col
##ural
##angu
dest
shout
cheese
hole
hate
mr
##aled
above
english
hang
##omy
shame
##aws
bone
cu
danc
stuck
sort
##cked
enc
kept
brother
##iddle
##ror
##urd
bold
study
camp
rub
another
##asty
du
##ike
teeth
playing
later
clothes
tax
shape
tech
trick
unf
flowers
##ker
dism
afraid
##iced
chang
buck
pink
imm
spend
seemed
bac
favor
##ering
store
second
appro
north
group
sy
touch
##oned
skill
crime
hus
wit
##uction
seek
died
joy
pure
tong
##ss
##gen
##undred
forget
queen
aunt
proud
color
##mon
##icious
cent
esc
duck
number
plus
replied
tool
cream
bite
cute
dumb
ship
##riend
lies
##aged
sharp
led
##ta
##bing
drunk
phys
disease
aud
cup
eff
sugg
bod
prop
confess
main
##cess
prep
explain
underst
fig
##most
tog
##acious
##iding
quickly
until
morn
##ama
mount
##isten
club
##ages
##awn
##cles
sigh
##get
buff
cheap
##ashion
yellow
rules
langu
rose
sum
##gar
uns
serve
bes
dent
gard
west
##uel
women
lifes
bay
father
##ining
held
pract
mouth
butter
hundred
##side
diffe
throw
mas
park
##ye
diss
board
grace
tea
##what
names
charm
##sel
exper
##ashed
parts
bath
pee
##pes
##aded
##ident
mere
grows
glad
paid
success
##teen
stock
##oses
##tention
woman
hat
harm
upon
cheer
snow
else
inde
limericks
dang
##line
incl
eating
husb
together
##ipp
self
acid
perfect
inte
##illy
type
fut
tail
##ees
##ively
dut
ye
employ
counter
##aze
##ners
beach
suit
choice
answer
bott
##fl
prec
ba
hall
mach
thir
##iling
save
along
grown
thanks
pig
sym
##ana
seven
twenty
##action
poss
##vin
arg
gods
given
happy
ate
tv
##rac
##rate
##fection
cells
greek
je
race
spir
admit
huge
##hip
frank
grass
ju
health
goal
##others
norm
##idge
control
bore
fif
##mber
##bit
search
daughter
sav
flu
soul
advice
techn
stink
became
business
tub
##ata
list
##bes
##bod
safe
beautiful
##sy
##att
##eech
##pend
turns
judge
tit
##ann
##itys
##ley
express
tick
joke
peace
phr
trip
follow
jump
##ases
##eez
plate
appeal
firm
source
cred
##ring
wouldnt
appears
absurd
beauty
bum
fal
hung
mill
oil
ought
##ever
thinks
pair
##dle
##ened
spo
feed
surv
direct
bon
cree
non
nut
##ior
##cer
fort
order
flight
divine
effect
pin
##rel
whe
cock
match
ride
mod
##ney
object
milk
crowd
trouble
cam
post
wheel
##uring
measure
doing
bush
dough
hook
living
decided
shoot
ears
##no
dom
liqu
conce
children
week
jew
wise
##val
##omp
trust
disco
##ption
planned
pu
pants
ton
##ru
chest
crown
mans
rad
ut
won
##ien
##oh
##uous
##eral
whether
##geon
super
thinking
below
eggs
ale
cart
dust
##vy
##osh
anim
##ults
swim
##ipe
wearing
spring
hurt
gent
##my
##itions
##gged
purs
loss
push
vol
##mit
##eng
within
soc
##eeze
neck
legs
##bles
stress
ash
##ances
okay
meth
pun
##kin
##je
bey
story
hist
curse
weak
built
tend
language
ax
cad
##oes
boys
score
##avy
charge
##iles
ready
record
ham
sen
vict
##ox
served
complain
mid
mel
needed
paint
##ising
knees
coming
mention
fab
lunch
mut
wet
##ading
##ths
road
beyond
simple
gall
rough
##ton
cloud
arr
crew
kick
math
chap
##ager
consider
bang
gain
##gl
##ises
##vern
plane
lovely
contin
action
##for
##fish
beware
##ther
scene
uncle
breeze
coff
vi
##uter
##arian
stars
##irm
chee
chair
pack
##ixt
##rit
##orous
##rod
brand
ancient
##ayed
apart
worst
party
human
horn
rate
table
deter
conne
grew
demand
rude
reme
cover
##aph
bob
impress
incre
garden
taken
third
##isted
whom
##aling
##ander
pride
link
wre
toss
##roph
##verse
##elve
trying
maj
wanted
mud
pitch
##ec
##isc
shop
boot
saying
unc
clever
lacking
sorry
bones
bomb
either
##ived
##antly
##apt
glo
perform
showed
##rence
gle
hors
##tery
able
##ension
return
piece
east
##cul
##arr
toes
##oming
ange
##illed
dece
concl
quit
dreams
gh
vir
team
##izz
rhym
dare
##aring
##itive
##ounce
dinner
knock
biz
tar
##dom
speech
##ample
mot
numb
##po
##wing
##alled
frown
sport
##uls
seat
##ached
quar
define
country
paper
pred
##kn
among
acr
auth
master
net
tal
##bre
whis
renown
fred
##iers
##gan
##inct
text
##uced
tongue
phrase
aer
dull
##oot
##eness
##ities
likes
track
attract
starts
giving
surprise
dressed
sought
##esh
##orge
##vey
beast
rece
##ession
loves
curs
passed
against
tiny
##vation
##reme
ends
##cend
##rap
dogs
joe
phil
folk
condition
suggest
##iest
reb
acqu
shoes
achie
nine
##iqu
##ually
##aly
letter
growing
infl
##ially
##wor
##erve
##atin
asp
arms
heads
praise
rise
sys
wings
leaving
husband
fou
hun
wal
##ius
##tened
##rect
inst
spent
plot
funny
brief
remain
question
cult
eur
taught
##xic
##ores
##ories
stage
anth
##ization
support
gut
pill
vac
vers
##bble
##jo
##thing
moon
impro
began
broad
bun
cust
fed
myself
weather
cru
##elps
collect
declared
understand
bark
fashion
lass
van
wants
##ha
##gic
sheep
##ode
battle
split
mistake
different
bul
fans
mood
##ality
##aker
twice
thank
##ledge
keen
cous
hours
yield
##here
##ming
##ching
cher
##ppy
suc
clue
loose
calls
driving
cure
nat
rum
##bon
stat
swear
phot
drain
##ety
meal
exam
grin
facts
bout
ling
##oe
##ino
bee
span
##ified
letters
bent
bend
shown
##osc
cab
##athers
##agn
bene
dwell
pare
##mes
whate
beef
ath
##ailed
plays
ahead
##under
offe
##oops
process
smoke
bug
views
visit
bor
host
##onna
##room
##thats
cake
##ission
phone
drag
indeed
rat
ven
##urred
repe
##aks
alb
loved
poll
##wards
problem
chicken
american
mur
river
tour
##ients
##rie
fingers
favorite
au
carp
result
subject
booze
plans
constr
flash
pros
serv
brains
fet
gee
role
poet
priest
calm
iron
var
##rys
##ai
##oll
##wl
##work
waste
spin
trade
slight
finds
##vention
morning
ec
##por
disgr
worked
polit
cars
tale
thous
##vere
france
afric
married
forgot
cub
sed
##ped
inh
strain
neither
##olf
twelve
carry
laws
public
est
honey
##che
##rib
scar
embr
faith
terrible
psy
##iter
##anks
##right
chief
cave
join
thoughts
genus
drugs
cott
##gin
##just
shut
stood
lived
knife
fem
##agr
diet
sadly
aqu
chin
chat
doll
outside
tears
keeping
report
suppose
##ummy
bib
tor
alive
##pected
surf
sweat
running
##ival
male
wash
seed
recall
remember
bust
sister
##orse
heed
##aming
chose
govern
guard
##tens
written
account
fancy
mac
mort
##how
##wood
tooth
##asc
##ette
states
##riage
spoke
sees
##antic
chocol
missed
##idden
cel
##zed
stands
apple
pleas
gift
##mans
##lands
##aten
havent
code
seeking
##arsh
##utes
broken
leaf
certainly
ignore
cen
brass
enter
rocks
poison
barb
working
##ushed
behav
college
whatever
dub
##ka
##any
instr
wealth
coat
resist
lawy
teacher
future
tonight
lou
sam
wore
##uses
neath
bride
##ooks
contr
hearts
prize
strife
bol
hue
##ws
##ante
flies
crash
accept
knowledge
ide
creatures
acts
vote
hill
##rom
##reed
##rage
rob
insp
square
yelled
christmas
summer
##tic
##ury
attention
appe
runs
drinking
oce
sink
##do
##ket
stir
##irk
yours
##roy
##ples
proper
terms
##where
smooth
bits
listen
pict
blues
swall
bucks
respect
passion
subl
extra
jerk
ox
almost
##ogen
edge
slee
absol
hour
rout
##cr
thro
inse
debt
sue
clown
##assed
verb
feels
command
soup
laid
obsc
flee
position
method
coffee
succeed
mum
ol
rou
pron
##ugs
remo
complex
##ipper
impl
clock
disapp
phelps
ess
label
##lers
stro
lips
seas
aid
lands
attem
cod
covered
chef
remark
relax
screen
##board
wonderful
##body
eth
row
##car
##lin
##itt
inn
rear
suck
blank
amph
bugs
fond
maid
regret
bottom
credit
horses
cath
cats
##come
##bled
##wise
##outs
##ician
doom
lover
amaz
sales
excess
present
walls
frequ
film
##iant
##bol
##itz
##imp
frust
alarm
whod
gray
science
ago
earn
##velop
foul
mic
nuts
rab
##ination
##erv
dete
blast
##udge
points
step
metal
doctors
##ength
bord
gay
jail
lust
##mat
youth
##icate
beans
chuck
yourself
spare
cla
sever
shouldnt
balls
holds
chain
sore
##ulous
##ighted
insane
hardly
commit
flower
salt
task
concer
killed
famous
bass
##aves
##gle
##ament
places
sup
##iph
fright
risk
psych
bind
bored
##aur
##arre
##olved
truck
bond
twe
himself
speaking
defin
reading
aware
brave
ladies
advance
causing
chocolate
##set
##aver
##xed
##using
breed
bills
fault
galore
captain
middle
nar
##acing
iss
champ
deg
bran
brush
swing
moder
designed
glow
sne
drill
failed
major
lake
ped
##time
##bers
height
meas
skills
dropped
jim
##eg
##uits
##oma
##umps
adore
drown
offer
pleasure
problems
sublime
civ
dawn
pad
page
rome
##iven
##ipping
##mo
##oser
calling
unless
##ounced
grief
raise
watching
aust
cough
dir
rank
range
tun
##gers
shaped
##ffic
crap
secret
causes
bid
nature
por
##iate
##nts
##hood
##uv
##fort
##asion
heavy
coal
scra
creation
##anced
confused
winter
extreme
system
dw
dot
gonna
site
##onse
stare
storm
sugar
coast
tells
career
lights
##ologists
##dden
cryst
annoy
building
false
##cus
##yr
notes
holl
begun
belly
approach
bizarre
jes
vill
##mic
##met
##back
##urned
##cher
whenever
##umin
placed
mov
higher
prime
ga
hen
hits
kin
kings
pale
##over
##ldom
lift
spouse
herb
knight
alt
##ague
early
##bye
species
fee
hos
mir
nude
sits
##tel
chill
sple
prob
chew
##lfriend
device
discuss
protect
##born
##amps
cann
worn
conv
somewhat
gran
moved
stew
market
suffer
bitch
cig
naught
##hand
##ero
##lets
staff
blessed
##ounded
alph
unlike
consum
accord
cattle
students
declare
despite
stopped
escape
rhymes
tip
tales
##ara
seldom
crude
nearly
subst
despair
apt
ms
pool
##pted
##asing
##itor
##cell
prev
grab
##ibly
girlfriend
err
devil
singing
mixed
barely
lee
length
vent
##zen
toast
shun
hero
example
switch
teen
belong
mission
stret
falls
product
romance
wheres
fu
rush
##iance
##but
##aste
rele
flag
fears
george
scratch
respond
merely
jer
##cing
##light
##reh
organ
##ctions
attend
flood
swift
slip
assist
turning
chemical
suspect
##claimed
machine
dy
hip
sides
tab
##ivers
##ested
##asy
intent
forth
except
jokes
deser
reply
damned
invest
freed
bloom
gentle
pil
rage
sang
##ik
##wers
forms
address
distress
worlds
single
claims
profess
silver
disgrace
degree
bump
cit
sque
tiss
feast
enth
everyone
marriage
starting
divor
creep
cin
dirt
event
mamm
nasty
ta
shy
shore
develop
##allen
allow
spark
crust
guide
fools
magn
gn
hom
noun
piss
summ
wake
##ders
##pts
##oys
##atory
bees
##ett
anap
##ille
blond
##ulate
scri
features
sword
curt
hearing
purch
wedding
special
author
az
dys
fuss
oper
sets
vain
##itis
oft
clay
seeds
abound
##tense
emp
breast
snake
##inese
##ologist
streng
raised
flying
expert
determ
numbers
batter
tune
##itude
beau
flaw
##udes
proof
rod
apply
##lessly
review
cousin
core
fav
sund
sudden
emer
empt
fold
fung
##dered
changed
et
silly
##oured
##ented
station
weird
chic
noise
##opes
flesh
project
##phal
##ological
correct
##ounts
fills
excuse
daily
paul
data
games
latin
mail
mouse
pit
##ule
##ede
beet
imag
##akers
##ulation
convey
##andy
knee
buzz
showing
acting
travel
moment
float
produce
hopes
bottle
parents
cops
gang
jour
##och
##gly
##fast
##usted
sticks
root
##ensive
defined
evil
arrived
ara
aug
losing
##rs
##house
##bly
##orted
##anth
##ili
##vert
plight
trad
flair
ener
serves
bitter
grim
cele
critics
defeat
cere
dun
fits
##iving
##you
##asted
##irl
cav
##elled
arc
scot
agreed
##bbed
claimed
faces
climb
totally
utter
strength
oed
syn
tone
chinese
sole
##elly
severe
struck
##bert
creature
mostly
craft
missing
##bby
final
inform
affair
selling
several
maint
pope
punch
rings
##rons
exh
arth
enem
slim
##ify
brew
desert
drawn
supply
strike
medic
shrink
describe
neighbor
sensation
angel
ocean
cord
dick
dash
eve
faster
um
##ault
##lor
##zing
##isp
reck
react
tricks
##iform
useful
helped
prim
buddy
threat
hay
rid
tap
trop
##wd
##omm
stun
sauce
##olic
bless
cruel
werent
proceed
unique
foe
fox
grave
decide
meeting
debate
##ification
german
fifty
across
bou
cows
ere
fake
fant
ken
bean
##uster
##ady
##ilar
season
disg
insist
meanings
delicious
grip
reached
provide
completely
british
african
pest
pound
yard
##cel
bloke
worm
goods
goodbye
terror
anti
max
muscles
shoe
belief
rarely
prince
response
service
bake
hol
holes
poo
vast
yer
##rous
##can
deer
##ument
click
lean
flor
coach
roy
diam
pear
holy
contract
becomes
holding
practice
throat
tum
tact
tied
vine
##reat
##ators
##icy
forced
##ache
foes
results
guessed
prayer
fixed
glee
cursed
thousand
absolute
frustration
fier
##pa
beck
bears
shakes
##umn
twist
office
computer
current
burst
engine
##ography
##iveness
dump
gin
pir
ves
woo
##aud
##asp
challen
sports
haw
exact
unw
waves
chrom
happen
famed
mart
rope
##eme
##free
##isy
itll
weed
neg
flows
surgeon
scream
applied
technique
offered
routine
ace
eg
gown
gals
sar
##iac
##ex
##ux
##inted
plenty
bliss
desire
##gging
marry
relief
refer
refle
fully
leads
cease
blooms
oppos
juice
##rupt
##jection
civil
hi
mc
##ov
degre
roof
pole
commun
musical
army
standing
message
victim
##known
lying
nur
pier
ze
mys
soil
##iment
sale
gross
##eless
##anged
wax
snack
resem
charac
finally
bald
songs
temper
defend
hack
pity
pills
wink
##ci
##inate
ended
##anes
##utter
shirt
weigh
##rite
##umes
trash
log
uses
steep
pains
partic
student
crypt
cycl
flew
total
destroy
opt
rash
russ
##vels
ships
##chan
cha
worry
goat
hasnt
roots
moves
awa
screw
candid
##iety
figure
thirty
history
embrace
frequently
dine
eats
fare
nest
tent
vow
witch
##ato
wel
wears
anch
liked
##imate
plastic
bog
##ifes
breaking
steel
drinks
explained
regard
police
##ophob
blew
walking
ensure
cotton
boring
fought
lest
od
sons
##par
toward
##omach
stiff
lip
fled
crook
scary
manner
tear
pock
joint
##anger
prey
carbon
growth
##tended
hoping
neighbors
beneath
aph
ded
sings
saint
wing
##rical
##vous
thigh
##isters
##usc
anal
seeing
bron
grey
couple
##ivity
esch
stops
easily
medical
danger
symbol
vacation
aver
dude
jap
junk
pace
ske
york
##kind
##isms
##eting
weap
depend
##ential
##rog
spy
##apes
function
strip
formed
depart
typ
talking
nerves
further
chemist
dirty
degrees
during
rent
##rot
theory
china
deck
spain
dope
blink
##udd
load
prove
skull
barn
nights
crimin
scheme
remains
relig
##zzle
picked
spirit
liquid
diamond
bast
dess
grain
patter
sly
tasty
##ado
##ppers
disgu
copper
lock
joined
peas
rights
create
cries
burned
##ground
bleed
pulled
local
dutch
survive
discovered
center
cac
eager
lame
nick
obt
rig
##aa
##dra
##friend
island
stomach
##chant
troops
convin
bridge
boast
##quet
##iferous
wave
waters
strict
steam
planning
deliver
displayed
dancing
dismay
bin
dame
kitch
##lies
invent
intense
##acy
shake
chor
##ouses
quiet
##idered
diagn
offic
finding
treasure
tries
telling
mary
learning
dads
powers
cuis
modern
hub
mult
raw
tin
##ras
##hy
##itter
##usive
##osph
cancer
abdom
grant
slick
##aux
earned
surr
passing
priv
basket
preferred
eu
fib
hidden
os
tang
tank
ugly
##iot
##fly
shine
##ula
##ulf
flavor
cran
abh
boom
##ags
##elf
handy
added
indian
fighting
banned
forever
precise
ghost
natural
tort
##ios
##ros
##win
intern
beats
##illa
trace
pete
mighty
crazy
impressed
##ucle
colors
explore
england
genes
months
sitting
roman
darling
shrub
susp
female
government
austral
divorce
japan
aur
bach
dow
dip
pour
sac
tie
##vest
thor
shade
##agle
moving
fried
babe
faced
golden
pressure
custom
detect
oedil
cer
gig
hatch
munch
pup
pause
rap
##iam
##iation
##nie
##cut
##cast
##med
##la
##look
##enes
##rial
dee
coin
brothers
fever
enl
mold
glance
belt
puts
cutting
##zzzz
refuse
artist
capital
##they
solution
birthday
bacteri
senten
viol
behavior
goo
##bor
##arante
##owing
chir
socks
##olution
content
prone
handle
drew
finish
schools
direction
finger
possess
achieve
appeared
cens
homes
tack
zero
##bel
##boy
##tems
##itation
sting
stup
reign
convers
flame
bru
upset
##rained
purple
astron
eschew
based
hood
puff
wifes
zoo
##tw
##rant
##rete
heck
chart
ants
##ctic
blad
concept
altern
abl
abuse
##aret
tex
brill
remove
chris
moms
signs
bowl
laughed
candy
egy
econ
gate
signed
ted
vile
##apped
##esth
##omas
stall
##idence
##urb
##umbs
worms
##ability
##ference
brick
abstr
scared
prevent
writ
actions
adding
##ocr
##wered
stays
eleph
tastes
breaks
polite
walked
request
matters
mountains
mall
##itting
##ald
##atest
blows
leather
boots
lovers
enh
guarante
drum
ideal
carn
steal
anything
month
conduct
digest
budd
silk
required
farmer
soldiers
honest
yeah
animal
jar
pi
tired
##cil
##uch
thread
##oster
chore
chop
suffe
bloss
cliff
gramm
scale
sway
preach
created
actor
considered
lacks
balance
checked
drops
honor
tools
lawyer
route
anapest
cards
hence
mons
pul
##nes
##cs
##otes
##uters
thes
##rees
##ency
rejo
meter
spine
canad
##aine
willing
convention
flour
##abl
exec
adj
loan
guest
drank
jobs
waiting
affect
##umbled
import
buying
angry
##olete
secure
beginning
sighed
duty
jesus
probably
dil
fired
guts
jane
rack
rice
wis
##gest
##erved
##owl
shir
stones
stressed
orange
frame
neur
pluck
##iece
disaster
scient
proved
##ortion
slipped
mob
skies
strugg
surm
cuts
distinct
bloody
absor
breakfast
opin
winds
drove
copy
##jected
empty
nurse
bom
damp
fart
fence
jaw
map
##bits
##inge
toe
##itty
itch
beard
##osen
forty
##rig
anat
##sels
cares
clerk
conj
disd
array
wholl
##ression
fores
##bey
antic
squeeze
billy
slowly
critic
##selves
splend
maintain
stupid
coo
ech
lamb
mothers
ow
ore
oer
pip
pump
rip
##ho
##law
##oons
##bling
##inity
stroll
##kee
aber
##uded
boil
progr
greater
greatest
bubb
##pting
sniff
string
struct
deny
docs
vision
pieces
hyd
circum
constantly
include
title
tissue
abhor
oedilf
baw
bail
crop
dies
gear
lin
mush
pine
sack
##down
##lla
##oric
bere
myst
##iders
##iring
##amin
chips
notion
##umble
arts
brook
prison
progress
greed
diff
##gger
curve
assume
awful
evening
behold
facing
obsolete
treatment
magic
guns
effects
encoun
europe
improve
surface
disgust
bish
foss
fret
mich
nin
wick
yo
zone
##tin
##ram
##era
tops
##oman
##leep
myth
chicks
cabb
clo
clar
shel
##ational
dram
##berry
decay
minds
bike
bible
afford
batt
revealed
perfectly
wheels
narrow
blonde
loo
lump
packed
rail
wid
wra
##mp
##tee
atl
comic
feat
##place
thrown
aggress
moan
mole
glory
##bered
decor
##coh
begu
stream
demands
depressed
##ready
campa
model
anthrop
insects
bunch
motion
nucle
pose
tan
##ront
##ded
##night
##orph
##arse
##omic
##omet
deed
sod
contem
congress
somehow
comfort
##athered
cheat
compan
##type
contain
painting
decision
trait
horri
woods
smells
legal
cosm
oppon
arrive
idea
swallow
substance
dessert
hills
##bra
##erc
whale
##icted
##illing
deaf
orch
##olar
flock
quote
scan
feared
prose
amp
##iously
##ggy
access
careful
denied
##ship
nerve
normal
discover
fabric
opposite
cope
vit
##bird
##water
##orys
##omed
sher
##lys
notice
saved
##olve
##ables
##aging
slice
##away
pref
repair
prescri
humans
spray
boyfriend
ignored
threw
ambition
cheek
tossed
borrow
pissed
gather
natures
##lings
##rep
##reet
##onym
asleep
##rier
chim
chagr
##sem
##thm
caes
##elling
lend
sheet
goose
grade
unb
greens
##arer
bubble
guests
cheers
##vented
##lessness
attacks
somethings
esp
##zzy
bells
cooking
lucky
groan
repeat
stroke
shakespe
eld
mild
vet
##zo
liver
##unction
spit
spite
spots
alg
expected
amount
##pered
wherever
##enses
descend
highly
drives
relations
trail
pays
hairy
behave
gener
value
kitchen
ak
sans
sixt
##aic
##aters
##more
thy
##orms
shor
shri
shared
closed
##fected
alk
already
crick
feather
feature
##agon
acet
mock
emotion
pregn
perch
backs
##earted
lawn
president
patient
answered
burning
mountain
##racted
professor
tropical
rust
ult
##oint
##kers
thief
##arks
sty
forb
chase
anx
meets
ordered
clam
brid
advent
acclaim
dipl
##ifts
joints
apples
forest
feelings
assum
becoming
badly
traffic
studies
woe
leaders
speaks
teachers
bearing
urge
measures
freedom
egypt
disdain
campaign
bars
baked
ja
jelly
kate
mates
wow
wary
zeal
##bur
##ini
##atoes
##ghter
stories
chances
washing
doors
blade
caps
##stone
ard
##aceous
prices
perfection
sneeze
frigh
distance
leader
lower
towns
transp
complained
replace
breathe
equal
electric
groups
shocked
gloom
slightly
political
picture
imagine
suffered
num
voc
##uish
##fts
ending
##arf
##vet
sha
stole
stocks
##iday
##osition
cham
##that
clin
exist
scare
poly
breasts
surre
dried
serious
attacked
awake
colon
keys
demon
retreat
concern
incred
condem
tomor
suffice
prepared
expression
social
renowned
ditch
lur
nations
pits
##nic
##foot
##itar
ink
forces
reaction
##rooms
orders
aller
##thy
compe
crunch
adam
knowing
older
focus
resear
steer
marks
##neys
drift
##uces
corpor
freeze
stayed
types
bacon
interest
hungry
faint
golf
hid
lun
nap
pard
rib
ward
wand
##nel
##mission
##fic
thumb
deft
fruits
nobody
dod
blown
alm
##aches
scoff
prot
env
tender
acute
strings
delay
craw
colour
paris
reflect
falling
calc
foods
returned
ruled
handsome
collection
spending
fortune
instruct
thorough
fog
hind
hint
##ek
##cre
##word
##ester
##attered
##onian
##isf
shad
shrie
stub
##idae
ank
liz
haul
suits
##ols
##iel
someones
skip
waist
spect
adds
streets
blend
admire
produced
baseball
constant
bodies
wreck
forgotten
cuisine
dates
eaten
ly
nun
##rome
##lock
endure
##atically
whack
webs
reject
##akin
alcoh
exch
##aper
scul
loath
snap
##aneous
divide
protection
kissed
burns
combine
dimin
botan
mrs
tube
million
cruise
##oscop
dav
dying
furn
gem
hunt
james
nic
si
wool
##lines
##gra
thou
##atr
##itious
ital
##icians
##osoph
weep
##rob
##ulent
cable
scant
##agger
lond
##quis
pond
emph
gotta
stray
attached
charl
purp
viewed
counting
decline
banks
weeks
foreign
circle
answers
crops
christian
greeks
spirits
hunting
tradition
ell
jam
mos
marsh
nary
stern
##uation
##rets
toy
tower
##ench
##rian
chow
anne
disag
grad
roast
##ighter
asking
remorse
writer
screwed
humor
sexy
window
cooked
germs
occurred
panic
thirst
frankly
alex
clouds
issue
royal
dat
mars
poop
##rid
##hold
##cence
##onia
##orical
##ening
##icle
##acts
alle
##ounding
flip
flav
exceed
brood
##istle
groo
scott
##ysis
twin
##arent
roam
pretend
perple
computers
defense
accident
remind
putting
souls
##raction
clothing
nervous
fields
prospect
ape
file
fert
gum
gained
muse
rac
sorts
##her
##hes
##cious
##outed
##anas
##urance
spice
dock
blight
##ulted
cler
clos
aband
locked
poe
glue
carried
active
awe
charles
giant
settle
squir
kinds
grill
finished
affl
jeans
quarter
verses
enthr
bladder
bats
dye
gym
gaze
hired
peel
pipe
torn
wire
##rus
##bow
##tell
##rer
##atical
habit
peak
crimes
schem
corp
minor
profound
fails
observe
happened
breathing
southern
hyp
occasion
reveal
hanging
spanish
murder
criminal
disguise
bil
lone
pic
##ept
##mouth
##gue
##with
##rene
##erm
##esis
##ari
##asm
inj
chip
depl
soap
noticed
bland
crass
scorn
slide
peers
everything
treats
bigger
##ancing
partner
serving
muscle
devotion
hairs
##bris
minute
persu
latest
events
veget
odds
##headed
marked
solid
healthy
hosp
bash
daw
moth
ray
upper
wond
##iable
##pro
##ba
##orious
##arts
##itic
##alo
##iration
asc
deem
pled
alert
scots
ads
rode
hadnt
potent
##angle
needing
##ethe
compound
stem
trim
confusion
readers
remote
begins
similar
fishing
error
straw
vegg
patients
miles
scrub
football
glasses
##rolled
dismiss
intell
bait
wheat
liquor
talent
fungus
dense
fuel
lam
luc
rates
wars
##net
##pass
##uke
##inous
invented
##utions
##vell
web
cape
coc
smiled
waiter
confirm
passes
paras
braz
grind
grandm
angle
##iums
require
farmers
daughters
witness
##istence
machines
arrange
branch
movie
sunday
tomorrow
dur
dice
gour
gau
naked
ram
tis
##oted
##arted
##alt
chlor
image
cling
##stand
ars
brut
amaze
glob
decree
expand
damage
general
fights
busy
thrive
##ynam
masses
changing
dentist
radio
##iques
arab
energy
character
pocket
rejoice
bereft
apl
bos
easter
fiction
pizz
##uted
##uity
##ano
infection
itself
meals
allowed
##then
tracks
disord
exclaimed
unre
unable
smash
perf
trend
anyone
corps
trap
##ocent
babies
studied
winning
sexual
##ternal
eighty
##greg
taxes
shooting
celebr
fierce
ding
dating
jun
lent
mour
oak
##ok
##bell
##book
##fashion
toil
chosen
lied
liber
reward
mechan
canned
dol
leap
flaws
excell
adjust
swore
skirt
terse
crawl
educ
bringing
astray
satisf
promised
candle
location
pursue
conclusion
alphab
developed
bunk
cass
ot
pressed
wound
##low
##bi
##vity
toll
whim
##icient
##lete
shre
shield
stain
##idents
asks
debris
pla
##ules
##opl
coy
crank
##elt
manners
##ogn
gotten
pert
carr
compare
choke
crave
sett
warn
eleg
writers
killing
affairs
windows
freak
films
hoped
dishes
designs
britain
heavens
immense
prepare
predict
received
##ribution
removed
definition
london
dandy
hoo
hitch
les
nurs
vital
##ris
##den
##now
##cra
##fore
##zer
##rels
##uments
clut
trunk
flick
##istics
proph
##ilet
##ques
manage
acade
throne
##awk
desper
trem
trial
painful
antib
todays
##zzled
filling
daddy
formal
belle
cyst
darn
terribly
animals
records
walks
obscene
stretch
determine
suddenly
horrible
chagrin
agh
cul
dab
gamb
ira
lap
vice
##iar
##lical
##ups
##orial
##ompl
##leg
##oting
heal
stitch
##irs
##cha
fract
hail
##geons
level
conn
separ
disin
##oodle
crisp
grasp
adop
adject
loving
usually
greet
rooms
therell
tends
##ortun
##ighten
compass
addition
godd
charms
paying
simpl
explains
winner
grandma
fourth
crossed
lacked
penny
entr
bags
embarr
charming
philosoph
obscure
dorm
mens
nail
nons
pork
ros
rife
tut
yach
##tr
##rup
##lam
thunder
##itted
beasts
former
depe
plates
sake
blur
trump
shelf
fluff
fel
logic
swee
tease
compet
inspect
steak
couch
graph
apost
##bbing
warned
classes
autom
sleeping
troubles
describes
rolls
employed
sympt
connect
increase
disappear
diagnosis
cabbage
dict
hound
py
##ih
##rum
##haped
##vas
##oust
attest
sele
flush
exha
print
proclaim
slack
##mean
painted
brim
launch
lazy
refers
shopping
engage
discreet
turkey
banana
transl
benign
climbing
questions
personal
wanna
cuz
victor
virgin
lawyers
methods
pronounce
pardon
purpose
bane
dime
fist
june
paw
tig
##tical
##aving
##aire
##ham
##hips
##va
##ville
##inch
##erly
##istent
shorts
aside
deeds
##ilty
plum
saf
cracked
scenes
##athy
drool
shoulder
barrel
march
crab
relie
demise
grie
infer
obama
popular
dangerous
spoken
objects
conclude
knocked
cherry
mystery
aghast
ay
cakes
dug
fest
harsh
lick
mile
mike
rud
ts
vic
wolf
##ials
##hearted
##cue
##mn
##mate
##oids
##bound
##anch
##asia
beak
forward
reel
fry
##ablish
##oused
alter
##inks
boats
##ago
##agged
sweep
roads
acce
poem
desk
themselves
barg
curves
planet
wrink
parties
charged
monk
fairy
ceiling
drawing
blowing
members
audience
efforts
jewel
tween
crystal
euph
##fashioned
aus
dive
dud
fulf
gosh
hike
ou
rug
san
tape
vall
virt
##nis
##cular
##gon
##gent
##gment
##fall
thomas
##ora
towards
##itution
##ica
##keys
##rested
alleg
##unct
nod
plat
select
fling
flirt
##ously
abd
abb
prick
swine
smiles
chees
plea
creed
treated
series
confuse
slept
writes
sunny
vex
##ammed
displays
followed
frog
portray
ducks
clubs
dental
jews
chemistry
elephant
research
cz
hog
hips
patch
rant
riding
tu
tart
##bu
##four
##zes
##aries
##enn
assem
chau
chann
ante
reco
spider
subs
sends
somewhere
exotic
crush
unknown
##resses
##ptions
slave
company
affection
fries
##ava
courage
choosing
accounts
related
parade
advised
raising
watched
crossing
earths
romans
rotten
danced
millions
pleasant
behavi
fantastic
grammar
shakespeare
fade
gy
gently
lout
obey
ruth
wig
wives
##cers
##mark
##pers
##based
##oup
##isions
revers
##unts
noon
blush
william
leak
lewd
seeks
ark
wholly
femin
feathers
guilty
poin
##pec
oldfashioned
checks
##ucks
steve
refused
squirm
advise
hurry
castle
corner
rubber
inclined
husbands
domin
domain
lingu
deserves
sentence
thesis
important
bishop
brazil
iraq
bamb
fanc
lark
mice
pac
##mar
##made
##lim
##lorn
##field
##filled
##estern
tow
intended
bew
##acc
hem
##ada
shark
ascend
##unks
cage
clot
justice
flatter
exerc
cruc
arrow
##pection
agent
compreh
trips
courts
awry
##ucing
editor
excite
daisy
bleak
powder
harry
catching
germ
groom
occurs
irish
intr
applaud
fluid
continue
connection
walt
culture
biblical
pictures
border
dwarf
exhib
welcome
opponents
depends
ais
bred
fen
fund
goss
hues
pile
tame
tails
vest
via
wins
##ij
##ses
##nam
##mal
##gie
##fit
thee
##iner
##atives
##oral
##itors
##otch
beating
##acle
shred
analy
lib
novel
##oli
##olves
blocks
lect
conver
##inded
extend
crud
brow
scent
teens
teams
slaugh
carries
afar
reside
stead
betray
##oded
coup
driver
delicate
accompl
expressed
camel
explos
salad
deeply
exciting
profession
foolish
limbs
promise
greece
critical
rhythm
##teries
described
publish
surprised
stores
dancer
bucket
##force
cheeks
attractive
dollar
inspired
drowned
cannib
release
texas
surmise
splendid
bing
hug
houses
kicks
latter
rats
sant
tee
##uing
##gard
thorn
##teem
##inc
##inth
##icing
heap
shots
weary
fork
defect
libr
mend
mexic
imper
spur
##gend
clout
flames
##ivered
scoop
guitar
acne
ills
ponder
slo
ages
##ogy
appall
append
theme
##fulness
hello
assign
actors
doub
##umbling
trapped
underground
supplies
formation
voters
topic
leading
auto
sharing
protest
##green
enjoyed
changes
syll
virus
status
caveman
according
average
private
alcohol
poems
auss
bess
loop
nit
wiz
inqu
##icles
shirk
isle
islands
stark
##osity
withdra
chatter
noted
noble
sucks
comed
brits
abide
quaint
##agne
twins
gull
drac
peer
sins
perce
actin
antip
squat
warning
restrain
stuffed
##heads
queer
mister
limb
labor
crock
draws
lords
johns
appearance
applause
effort
uncouth
bunny
geek
amphib
thighs
bastard
fossil
ultimate
compete
exchange
sculpt
ae
dor
eagle
fiddle
hank
lace
##rich
##com
##gets
##yed
##year
##vis
##wear
ende
##anted
##arn
whore
##ication
##utation
onto
sham
stout
fors
chum
demean
rend
sooth
org
noth
doz
##elle
leis
seal
sheer
goals
knot
##uddle
illness
##actyl
newly
##class
hoot
stealing
driven
awoke
setting
##ouncing
shoots
calcul
chronic
purse
woes
minutes
region
wishes
dispar
archite
provides
spelling
papers
button
witty
buffalo
butterfly
difference
##flow
stinks
midst
bolt
sneak
funds
religion
convinced
brilliant
pregnant
bir
cot
gap
horm
jan
kitten
moo
mirth
oct
tips
vib
vicious
##iber
##rition
##arest
##wr
thw
##iser
##ota
beam
beers
shapes
stake
##urp
chess
chains
anger
##sell
##ately
##unting
sap
##estic
clients
lem
alien
covers
abst
amend
ample
therefore
poker
needle
sket
workers
grape
##ixed
curious
conserv
reads
carefully
schm
beds
calf
absence
singer
crying
daft
involved
dispute
buds
bench
sorrow
synd
skilled
fifth
jumped
pursuit
increased
linked
receive
yields
essential
movies
purchase
abdominal
disagree
hospital
bost
bisc
ego
gifts
jung
lion
na
porn
pounds
rang
rays
tad
wag
##aved
##dled
##long
##gal
##vol
toxic
##etically
shiny
stol
##osaur
forlorn
mell
##rogen
lemon
conve
sevent
coins
crushed
brash
abys
##ishing
twixt
dial
diver
offers
goodness
steps
##beat
assets
assert
balloon
squeez
##weight
indul
submit
devout
womb
declares
##box
complaint
ache
tempt
opened
rolling
smoking
delights
combined
sailors
dana
frag
fragr
searching
appealing
spoil
director
cabin
altar
prevail
opera
neighborhood
bouquet
duct
hides
jones
len
nag
sid
sung
tuck
tense
##pet
##oom
##asons
whys
##alist
stamp
##keep
reverse
##rated
allure
##unning
dozen
excl
cogn
arose
arrest
adorn
##agues
amuse
unaw
##quit
guilt
ski
carb
afl
pleased
##atched
tribe
sweets
consp
refrain
shove
##ahs
screamed
##ophag
penned
queens
patience
potatoes
provo
merry
succumb
mental
##appy
details
volume
mathem
brandy
horns
enemy
vessel
challenge
victims
weapon
exercise
bard
balk
cue
dum
gorge
pist
pairs
roses
sample
##rick
##ya
##walk
##usions
shouted
stated
##urity
##amas
##ammer
lime
franc
herd
worship
claws
conse
##asting
coarse
nowhere
unst
mankind
jolly
shoulders
assured
harder
confl
draft
relate
fellows
discon
concrete
tennis
believed
##azed
grounds
spotted
##balls
national
punct
wrecked
angels
photos
construct
thousands
labeled
henry
pilot
purchased
pirate
typical
multip
david
veggies
goddess
yacht
dart
fines
hose
maker
pies
pots
pages
rand
tons
uk
zest
##ige
##cin
##oqu
##obe
##yll
##erves
##enter
##asant
ing
##icular
##otions
##ader
shant
shift
stance
stash
##char
##kew
spill
spoon
bov
grub
scored
adored
swiss
roar
slope
prem
muck
player
resort
highest
wrath
award
corre
coron
esteem
buried
fella
halt
concert
suns
springs
ignor
spreading
sticky
fraud
unfair
physics
masse
pigs
savor
##bodys
hammer
##point
estate
washed
amazing
champagne
blossoms
pizza
leisure
bip
cach
fasc
gab
hipp
kent
mig
mama
pas
peep
rick
sis
tones
##rations
##uate
##za
##erate
##enic
whine
##icts
online
##osa
##osure
asian
askew
sperm
hare
##ola
cale
clog
closer
trous
##ieu
section
sheets
fla
somebody
##andal
cramp
crooks
quack
gracious
entered
smack
divers
drought
thrust
appalled
pepper
glam
compared
sincere
players
grate
curren
wrist
drip
defines
antique
deadly
ballet
calif
distressed
strive
strikes
grandpa
factor
concur
screams
skinny
flex
picking
cleaning
digital
teaching
basic
requires
palm
tightly
circus
garb
sailor
tricky
understood
thirteen
superb
concerned
annoyed
##handed
products
##ophobia
nickn
econom
dozens
bapt
ced
cate
dal
dave
dah
gore
hers
hunch
mol
native
owe
sisters
vig
##ipl
##rh
##nn
##mith
##gian
##fted
##wich
##aria
heel
##osp
frost
athe
##una
dove
blamed
caf
conven
##anda
boon
bonds
##ressing
drama
slang
peter
stranger
heading
friendly
smaller
broom
##ymph
elation
bury
devils
element
armed
profit
hitting
vein
fleet
astute
splash
pulling
nerd
follows
describing
enjoys
powerful
shouting
auntie
experts
precious
fabulous
offend
innocent
script
reckoned
reflection
chorus
symptoms
bim
bour
cush
dh
fern
gene
lic
ov
pant
pout
rides
##aired
##mates
##faced
##nday
##esome
##omin
thatll
##acity
##etics
shares
stalk
stored
##idity
##ithe
chalk
dean
deals
##ceeds
##ila
trout
coke
arise
usage
amen
swoon
unse
peru
greatly
inspection
phony
curved
delighted
accent
awk
##ucted
sooner
exposed
killer
armor
annual
circles
harvest
limit
buildings
prompt
laughter
##teria
electron
heavenly
precision
modest
kicked
attempt
rabbit
expertise
wisdom
elegant
californ
cuss
dit
dots
eb
ecl
gast
nu
sten
##nut
##hh
##ckey
##yp
##isk
inner
intest
##icit
##otomy
shiver
stack
##irts
hiss
##aining
sails
blunt
blunder
clan
clip
claw
conqu
##stop
disse
outs
outcome
boost
scales
locks
haste
bund
diffic
moist
glare
holly
hotel
assault
contra
choir
##uffed
brigh
##ivals
traits
retire
##idding
cyt
obsessed
harp
prayers
tomb
promote
lifest
soldier
massive
trained
occur
chickens
thrills
applies
proudly
preparing
figures
buffet
practical
gladly
##oscope
dragon
ecst
wealthy
mammal
exactly
particular
anchor
wrapped
nuclear
caesar
cricket
jazz
bs
bile
bows
dated
gag
hates
lumber
mines
males
ps
pim
pate
pals
rue
sust
vap
##ikes
##die
##dog
##making
##pow
##gical
##kins
##tends
toys
invention
stable
##ril
anem
render
soar
sock
##road
spa
sealed
flute
ador
aden
loaded
enchant
##iche
diab
chewing
apparent
throughout
steady
##ody
planes
functions
serge
attic
awfully
##ivorous
refined
owner
depression
presidents
monarch
regular
yearn
hurts
casting
judges
movement
costs
blocked
sailing
ancest
sending
central
bodys
peek
interes
swimming
attraction
ideas
stirred
cigar
journ
august
blessing
micha
dramatic
sixty
alkal
chamber
excellent
alphabet
dc
jet
lance
loser
oo
pall
rivers
sos
viv
wail
zing
##nish
##pan
##uh
##ban
##bar
##five
##addle
##ido
##enth
##eered
orn
allows
spied
plac
##pple
seam
seats
##inder
##ousing
commer
extens
fees
usual
robert
acanth
##ifty
##tening
##ogue
pea
peach
carved
grapes
chopped
actually
defl
##lier
edible
striking
voices
extinct
affirm
cyber
##ophil
##retion
vexed
dining
specific
##load
palace
cases
neatly
frail
widely
thrilled
physique
maine
conceal
mutter
##ulsion
various
establish
implies
remarked
tunes
mirror
unlikely
##ommend
bleeding
bachel
astronom
##ableness
global
stolen
aj
ail
hated
hiding
nails
##ster
##nies
##mia
##piece
##ois
##wide
##nda
toad
##ask
inch
whiz
heated
stan
##rif
chol
dew
atm
doe
saus
herbs
##ulting
league
sem
##aching
##apse
twisted
union
mode
mug
useless
delivered
confusing
reader
airs
apology
fallen
staying
salvation
strand
discern
forgive
announced
prayed
autumn
dealt
richard
crowds
aims
trains
berries
circular
revere
detail
##racts
camera
deceased
achieved
dollars
bibli
doomed
curtain
determined
weapons
australia
downt
satisfaction
valley
awkward
ack
aye
bands
bern
fathers
gim
items
jacks
tony
wander
##rine
##oray
##itate
infect
##omen
##ador
##idly
weeds
##amble
chaps
rely
melt
##imal
##unes
plumb
sailed
herself
blas
clues
lex
##ishly
scold
adren
swoll
guards
appreh
##anging
skins
prez
glum
sneez
everyones
mustard
defining
confessed
accused
repub
courses
girth
kindly
babys
depos
concent
pasta
monkey
kills
profits
signal
failure
happens
boob
moral
layer
electrons
threate
tourists
carpet
pronounced
cigaret
opinions
structure
encountered
boston
difficult
ald
dand
eh
eigh
jac
lamp
lung
mont
moss
nay
roles
sank
##oux
endorse
toilet
##legged
stab
stool
##urate
##rill
chord
##ometer
sage
flop
knack
cob
brute
loot
managed
##ifted
joan
agn
cheating
##phem
deserve
insurance
##aund
phase
stepped
contri
reports
elastic
nearby
coral
peoples
recently
recogn
recommend
chron
restaur
financ
depth
grandf
statement
mineral
##gery
shells
croc
equip
darwin
##loat
##ographer
johnny
physician
mainly
beside
rhyming
louis
sleeve
micr
villain
scotland
vessels
pattern
internet
lungs
trousers
aesth
bah
bites
dynam
eel
geez
jaws
jury
lat
lore
lens
nib
orig
pian
riddle
ratt
sip
tide
##ii
##cys
##upp
##gies
##yes
thie
thumbs
##erb
##ania
todd
##omatic
##icity
stairs
butcher
recl
reasons
##verb
area
spaces
sphere
cane
##umen
##olk
caj
clad
clich
contest
comments
abo
abund
abode
##istically
une
drastic
sliced
mayor
insists
##ucky
##odes
barber
decre
repute
##ologys
expensive
##ropri
streams
explo
flowing
engaged
election
##while
nicely
obsess
fleas
angles
wooden
romantic
##eyed
avoiding
pathetic
destr
creek
pinch
paintings
performance
construction
oxy
catholic
sneer
journey
temperature
canadian
bombs
contempt
italian
perfume
shrewd
gossip
swollen
aard
bung
cly
diction
elf
gor
gory
iv
july
mim
navy
oy
puss
rag
sunk
yank
yanks
##aid
##mm
##uk
##gled
##face
##esc
##arily
##ita
whip
##usk
heels
stal
ford
##chem
##rix
meek
##roit
spree
haz
plug
##opia
clap
tract
conten
##ardly
flap
alf
brun
abate
abused
##uds
grouse
##athe
loads
unit
smith
bully
tele
aged
moll
##angled
email
glands
snoo
snakes
foundation
baron
barred
tripped
assure
doubled
consume
lightning
tragic
kinda
calam
distur
humble
floors
cookies
counts
ruined
replaced
archaic
judgment
satan
dealing
warming
epic
jacket
memory
northern
##gency
argue
inspire
supreme
village
cinch
destroyed
condemn
charlie
education
nonsense
aisle
ari
bers
bart
bert
dose
dair
fizz
hym
il
ket
louse
lane
lurch
nav
ripe
tests
vamp
wits
##iotic
##rors
##eer
##een
##ca
##coming
##matic
##bri
##bred
##vi
##tere
##edes
##arians
toot
##veled
hears
##ura
asia
##ooted
chal
chairs
##three
blu
##ello
##stre
discl
disting
disarm
crus
brace
prud
twitch
prol
##ipes
slime
##ossed
snug
stems
betty
barge
triple
contro
contains
bother
attorn
accr
antim
blacks
broker
expense
##ropos
##ounted
explode
indust
##underst
cyn
wished
conditions
evidence
failing
cement
angl
council
dropping
debut
silence
##terior
kissing
ranks
##ugged
tongues
bottles
poisonous
resistance
##ogenic
insect
landsc
spleen
opinion
bubbles
anxious
incredible
thoroughly
perplexed
##proof
aplomb
channel
slaughter
bounce
baker
cunning
dag
diph
fires
ire
item
jul
kit
lament
nil
pops
rav
rye
tag
vin
vary
##port
##watch
##erie
##atics
tob
intention
##icide
##ional
dearest
atoms
spout
seize
ali
crows
cracks
scrap
adapt
adieu
poke
chewed
applic
cleans
glut
afloat
assess
marvel
##nered
activ
brig
lightly
wanting
##heres
fishes
classic
excited
presence
fewer
observed
transform
entire
magical
silent
loudly
rolled
sources
embry
capture
senses
expecting
unfur
jean
fifteen
societ
axe
performed
deceit
acquired
fetch
spinning
inher
maiden
arthur
pearl
russian
farewell
japanese
enhance
guarantee
mosquit
safety
organs
mellow
barm
baking
cors
dna
gad
gel
gend
ker
kil
lair
mish
oath
rows
ties
troll
va
##tail
##ridge
##minded
##giving
##fy
##onge
whales
beaver
##acles
stur
##illes
canvas
saving
caper
##ella
alumin
coco
##inkle
brat
quer
scope
##agers
##pless
proced
throng
joes
jock
howl
however
newt
appet
emper
neednt
glorious
backed
strut
##ods
##umbles
elite
charges
maam
apropos
squash
burgl
lesson
bio
##uctive
income
pastor
darkness
fatal
veg
cooks
entw
capit
secrets
colleagues
urine
combat
throwing
hunger
nutrition
arranged
target
motor
talks
whiskey
ironic
entert
sleek
consumed
##etti
information
diamonds
abstract
pipes
vitamin
prefix
schemes
lonely
disorder
czar
##pecially
michael
berserk
aven
cs
ecc
fad
hord
kl
lac
lush
nas
racing
sof
wield
##rise
##eared
##cat
##lad
##lig
##wa
##jack
##inlaw
##eded
##uting
##utive
##usters
stared
stacked
##kered
chased
reap
##resp
##roach
imb
##ometers
spat
##aky
clover
sheen
##igent
alp
feeds
##pled
amid
swam
##quite
buys
acted
howd
##pher
mule
snore
foam
pharm
##earing
trek
reduce
consult
column
biting
collapse
fearful
disturb
engra
classical
finest
obv
signals
ceased
fitting
##ception
despise
##ificent
dermat
bullet
electrical
climate
training
frogs
values
gardens
hundreds
firmly
feeding
cousins
repeated
inhib
essence
branches
beetle
beetles
##zzzzzzzz
##two
wicked
exceedingly
potential
desperate
bic
cine
coop
dall
faux
fowl
gist
hull
jake
mound
wrap
western
##eys
##due
##noon
##fr
##teous
##oning
##aser
whirl
begg
beaten
##acted
heir
shops
styl
##ida
##iron
detest
##cephal
subt
##opic
worried
client
clocks
lexic
congr
sew
goof
crashed
bricks
adhere
illeg
##ptic
poets
mull
ident
compounds
hooray
stewed
overse
grabbed
curb
brav
especially
hearty
stripped
babes
bikin
votes
avail
minus
standard
dispers
wondering
worthy
christians
petals
dressing
aimed
hyper
berry
diseases
portra
encou
unfortun
yeast
decidedly
concealed
society
cheered
##works
systems
parent
subjects
dubbed
swallowed
concerns
crystals
responded
cerebr
reactions
customers
##theyre
bacteria
scientists
##keeper
brookly
frightened
almond
emphatic
separate
cannibal
nothings
republic
batch
cuc
dung
gills
hunk
lions
nab
pel
pets
paste
ri
sow
tummy
vul
##hi
##hs
##cip
##oly
##gage
##fact
##fire
thump
therap
##arms
##icion
butts
liar
lily
friday
atom
spun
##thr
habits
plaster
##oped
##igs
knives
excel
##antage
arist
arrog
abort
bobs
grat
scree
prints
twit
encl
unp
unus
smashed
poetic
##angs
offense
gland
compose
earning
shower
controlled
actual
##uffs
afternoon
awesome
##hea
bedroom
helping
charts
priests
recent
collar
##version
artists
owners
chrys
whites
eleven
biology
retired
extr
polish
happily
entice
checking
patrons
visions
diner
smelly
limp
positive
hopeless
legit
candles
##terious
spelled
rising
malign
sandwich
hangs
immers
approached
mask
argent
argument
juan
links
dwelling
poetry
politicians
measured
hollow
##uminous
released
mammals
favou
synth
medicine
chromos
monster
struggle
owned
scottish
prospects
closet
enthrall
cocaine
clutch
entrance
exhaust
##yearold
syndrome
lifestyle
ecstatic
cured
dactyl
fount
jay
lyn
nile
xray
##tight
##tles
##ais
##hill
##gling
##vil
##inas
##inent
endless
##ingle
##arious
##asis
intend
whoop
wheeze
bea
##ustered
##idal
##raged
alley
##ctor
blot
##acking
clums
##ickers
coh
outdo
abe
abn
ammon
proclaimed
unh
unple
smar
smirk
acro
pointed
appra
permit
firms
snail
tread
assigned
choices
drivers
remained
imply
##ocy
##ocrac
explan
distract
absent
##white
otherwise
sprout
lately
astound
sells
solved
ignoring
spreads
climbed
suspend
embro
frozen
matt
suggests
sighs
safely
oughta
effective
##cules
talents
celest
amazed
excessive
tables
holiday
dumped
challenged
negative
resembles
candidate
strictly
##looking
buddies
ninety
aggressive
shriek
stubborn
deemed
##craft
reversed
fragrant
oxygen
bount
baz
dome
dens
dared
erect
gest
hire
jest
lis
maps
nud
nigh
outer
pam
pins
ramp
rivals
tro
##dont
##hoo
##case
##cons
##master
##put
##obs
##ga
##bal
##vae
##tein
##teenth
##isation
##ena
shines
shades
##amous
##ria
churn
chump
dext
liter
reven
##resent
##iments
alls
plas
caffe
caution
bye
##abs
knit
outd
arrested
brist
qual
quiz
scor
amorous
smitten
droop
##ifer
##ifting
descent
muff
carol
waited
stride
treas
wrought
marine
##neath
sweetly
cork
burnt
democr
salmon
depri
cellar
genetic
genius
county
invite
admir
veins
##boys
##boards
cookie
balm
complains
queasy
rocket
##iasis
morph
embark
thinner
commonly
garlic
dismayed
halls
possessed
impressive
inflamed
removing
issues
holler
jerks
arcane
proceeded
await
absorb
program
orchest
corporate
##oscopy
groove
corpse
embarrass
pacific
unaware
finesse
sergeant
atmosph
obvious
aft
bh
cory
fas
gates
hounds
jur
lard
mint
nave
softe
sie
sib
sums
yog
##dre
##nce
##mud
##oos
##bish
##fed
thug
infected
##icien
##aders
stale
##kel
aster
chilly
delect
revel
mead
soak
spar
nope
sulf
bled
bluff
cafe
troop
levels
convert
shepher
flown
golly
##icker
##amel
exquis
##onel
arse
boards
boiled
scandal
grease
guile
acoust
dizzy
slap
sloth
##actic
hows
empl
emotions
gloss
perse
##mered
steed
creating
actress
sounding
##hears
colours
freely
rounded
##liest
##bbled
lads
landed
advanced
reality
evolution
inviting
invited
##boat
oddly
harbor
entry
bened
laughs
derision
temp
berlin
risky
neighbours
duke
possibly
cartoon
pushed
pushing
volcan
demanding
impression
aspir
faithful
micro
committee
heights
jimmy
granny
nouns
solemn
conversation
alternate
writings
mushrooms
bargain
gorgeous
random
calend
sausage
unfortunate
aes
aar
aids
cres
cact
dips
era
fay
hass
kh
lure
piled
poured
tire
wage
zip
##dish
##mpt
##gia
##worm
theft
##atious
##anny
tox
topped
inept
whist
##omorph
##ican
##letes
##adle
butch
fris
spilled
sponge
canoe
##umns
##ulus
contend
##stick
floo
goats
disk
alice
aroma
##ishment
gram
scour
adul
adult
enorm
swamp
##ipse
##ogical
appoint
moose
##ensed
##ending
percent
compact
strang
stealth
earns
##ibility
survey
contact
decades
addressed
addiction
attire
confined
commands
consol
consumm
repose
underneath
##bbles
catal
strips
larvae
landing
depths
departed
stuffs
extre
cyan
##atively
cowboy
counters
ruin
agreement
production
sights
solo
posh
gems
provided
shrug
spells
cask
frolic
princip
unfold
tubes
ticket
following
##ixture
remem
buns
blanket
committed
cinnam
magnificent
battery
maxim
awaits
bronch
bruised
beguile
brutal
feminine
unseen
bachelor
exquisite
baff
bicy
cort
cuck
edd
fats
gul
hats
jen
ll
laund
nost
rump
tat
tonic
uh
vag
##tion
##ran
##rows
##cen
##lot
##oof
##gate
##bone
##vable
ther
##llar
##ona
##onious
whistle
##omat
bets
stump
chub
anten
degr
##cends
ree
##ental
##entric
fray
spies
sax
saves
caval
serene
##style
flipped
exem
existence
##tedly
cox
outrage
brad
quake
##uding
scal
scars
scatter
adri
amiss
amber
amounts
illusion
##ightened
appropri
letting
##ubber
##ensions
glows
cargo
insisted
hoard
##ggers
##auc
phen
barbe
grav
surgery
marie
decomp
##covered
attach
consc
careless
reprod
antig
sounded
columb
##ropic
##zzling
fisher
##pective
edward
advis
grandmas
presume
extract
countrys
monks
regions
polar
fatig
bleep
bananas
stronger
##iffed
announce
deaths
reaching
daring
pulls
donkey
plainly
hugh
stopping
america
americas
americans
familys
colorful
graceful
titan
hooked
midnight
gainst
motto
authors
examine
extremely
belongs
squeal
tissues
crustace
##iliar
energ
referred
basketball
guaranteed
pulp
shaft
incredibly
reeling
santa
dairy
marvelous
favourite
aide
fren
jill
mit
maim
mcc
ron
rains
tension
wip
yan
##sters
##spr
##rict
##hole
##lied
##got
##ford
##oner
##orter
bem
##osts
##cho
chant
chaste
deploy
rex
rein
rect
spurn
spins
spike
canal
plank
##opy
cone
sequ
align
exclaim
cris
arb
arbor
arteries
bruce
ups
booth
loy
proves
##ereal
unkind
acrob
##ifle
agrees
downs
needles
##ashes
backwards
##eeling
snoring
resour
creates
eyel
surpass
showers
nightly
##uffle
##conds
conform
conson
##manent
bede
brake
devour
bloods
saddle
forming
depra
infin
presents
floats
fairly
##offs
admired
digging
bask
basis
benz
protects
provoke
mistaken
dresses
material
furry
smoked
terrific
reveals
princess
member
cups
nonstop
liquids
arrows
whispered
install
instance
bulb
photo
venus
attempts
borders
##borne
dunce
##ommod
stunned
hawk
neglect
##uddled
obtuse
anatomy
##onymous
numerous
lurk
lizard
grandmother
gauge
adjective
selection
withdraw
endeavor
abstain
multiple
garbage
eighteen
aardv
societys
abnorm
cet
cum
cess
cents
crest
cities
lakes
nix
ori
ode
sass
sally
session
tors
wil
##top
##hop
##cal
##xie
##pent
##ozo
thong
thems
##erving
##inger
##otted
beth
begging
##alf
shook
shod
shaking
##rils
mete
##immer
##ilies
neph
##things
plots
dogg
blah
sel
##feit
als
alight
outfit
whove
abroad
quin
lod
twould
##idel
mane
rover
wellknown
drums
##active
agents
agility
pean
skunk
glac
mute
##iah
folly
##berg
##bster
trends
highway
anymore
curled
asses
##ancer
addicted
antid
##tess
begs
brawl
burs
artistic
distra
edges
larger
winters
quicker
metaph
daff
opined
obsession
flea
markets
closely
positions
equals
critters
##loving
##maid
shroud
praises
ambig
botany
##guard
intact
propose
arguments
savings
coffin
booty
oceans
verbal
breeding
alpha
swiftly
##hyd
surround
anatom
transport
surrender
abandon
abandoned
affliction
dolph
carrots
sweeter
aussie
architect
correction
gender
unusual
unpleasant
caffeine
bc
fates
gathered
hys
jab
oven
pud
pious
sites
tatt
wrest
wipe
yaw
##nat
##xy
##makers
##pread
##life
##uent
##bys
##backs
##fle
##rec
##onies
##isse
##arp
whit
shack
##osers
weave
##irst
##amy
chasing
chili
anew
##eeee
##very
atop
spear
noone
plural
sul
heroes
blog
clause
quart
##ourse
loaf
##plate
unl
drone
pod
throws
joining
##mental
##uber
peril
perpet
snot
rescue
overs
barr
planets
funeral
commend
colored
parad
mah
apoc
##weed
indig
worldwide
viewers
bias
woke
##obia
cyl
cycle
yelling
wallet
admin
weeke
freud
##iverse
dispatch
##shine
archae
files
mistakes
basement
bagp
bulls
hype
berth
ranch
iran
fraught
##blood
membr
physic
##ipple
searched
survival
camer
puzzle
crowned
hamlet
continued
horny
pitcher
acquire
bulk
athletes
pollution
tourist
claire
taboo
citiz
informed
arthrit
analysis
obtain
shirts
encounter
shelter
atlantic
soda
styles
intellect
mexican
jungle
consequ
cigarette
original
tobac
brooklyn
distraught
doo
dors
fuse
gale
gents
hone
irate
jol
lag
mes
mare
owl
punk
rapt
ropes
tout
vault
##iters
##rin
##eed
##ead
##eres
##don
##pid
##oise
##uten
##gles
##beth
##fo
##fold
##fried
##oul
##eday
##inged
whil
wheez
beagle
##acon
##etime
shouts
stor
stim
##osy
##osal
##irls
##eek
##rates
oration
spices
noah
nobodys
##ainted
blister
##opter
cluster
tramp
seconds
##stairs
flir
flunk
knocks
aligned
alchem
extent
##ishness
##asses
logs
amused
swan
procl
ung
##elp
roared
bub
accl
diaph
slug
##ifies
joys
joking
backst
carl
rightly
everywhere
verd
headed
treating
trite
tribes
curly
eyed
surgeons
sweater
attain
accus
reputation
crabs
hedge
##quered
exped
relates
erotic
distant
billion
studying
singular
avow
##prit
transfer
busted
misle
aches
medie
##shaped
debts
magician
bosses
security
geese
merc
louder
warmth
layers
newsp
electro
designer
maligned
casual
drunken
physical
practiced
returns
##worthy
installed
improved
drained
attempting
erratic
rodent
emerge
enemies
beliefs
odor
convince
pulse
echo
##ometry
shorter
assumed
##grand
dismissed
##standing
eastern
tiger
abyss
stench
financial
clyde
revenge
employs
whilst
cym
dign
ditty
fie
hops
jose
mast
noses
om
pere
pouch
paws
pomp
races
sire
sacked
tanks
tested
vat
yawn
##iod
##tie
##ricks
##his
##liness
##books
##fight
##yg
##zym
##rey
##ervation
##orate
##orters
##aning
##arys
##itudes
begged
shocks
wept
##irms
chills
deple
lighter
meg
neut
impe
##unge
##unted
hav
##ulations
sep
ours
exit
brack
abrupt
boiling
scores
adams
prost
twos
swarm
##iper
manic
slur
slipper
slaves
permanent
snar
snout
foil
barley
triv
curry
planted
surgical
##ugal
chores
terrain
attitude
confident
commission
consent
antif
craving
##ologically
cutie
colonel
helpful
brag
corrupt
collaps
exploded
edit
supposed
slender
void
rhet
finer
division
raz
concise
metals
##obi
regal
poles
brightly
situation
familiar
harb
counted
miser
misunderst
budget
droll
limits
##minate
protected
morals
boxer
mixing
renew
rises
circuit
revealing
memories
confession
besides
bumps
models
increases
athlet
governments
macbeth
instrument
contrast
scrape
cannon
##araoh
primary
stunning
fiery
sarge
zeus
characters
russia
bronze
alternative
conventional
execution
arrayed
mystic
##birds
shadows
alexander
pledge
behaviour
bamboo
hormones
conservative
unstable
cachet
hollywood
grandfather
thieves
aboard
medieval
ailing
boun
cic
cze
cerv
hick
kar
lined
mand
oops
pc
rated
tally
velve
wales
wounds
wench
##iw
##hire
##ping
##gence
##yard
##your
##ype
##witted
##tet
##atus
##eding
##onom
##oria
tome
towers
init
inches
##utz
##acular
stunt
static
ligh
reef
rejection
rejected
rehears
sober
##ilitys
negle
spiders
canine
plag
sug
blaz
clark
clod
coats
crotch
brides
boor
scam
ade
twent
amassed
swings
unite
units
unex
universe
##ressive
acres
slob
slumber
moh
moz
##clock
##issions
mund
perk
waits
##ggin
pharaoh
earl
younger
swept
scholar
repent
##itches
elbow
brah
apolog
lax
laure
prized
##ussed
damaged
factory
screaming
generous
claiming
incom
persian
believes
##nae
undone
yearning
freight
slowed
counsel
magaz
potato
autos
worthless
sixteen
movements
tempted
palms
urban
malt
buttons
kidneys
introd
##ippers
bummer
directions
objective
superior
sporting
##worms
broadcast
examples
sleeps
chefs
narc
knights
naughty
errors
stretched
assistance
dyed
empire
cereal
cavity
candidates
patterns
hubby
buddh
battles
companys
prefers
allergic
ankle
botanical
towel
wizard
nickname
eccentric
##ocracy
consummate
nephew
ai
bong
bale
cest
cite
dul
fid
faded
fighter
gout
gush
hamm
lists
loses
niece
ovation
pes
pith
pyr
rook
randy
tid
vor
yummy
##iat
##affe
##hard
##hem
##pie
##lord
##oir
##oter
##gun
##front
##wind
##wife
##jud
##itous
bever
beads
heather
healing
shave
shining
##ioned
chis
chilled
anagr
whence
atomic
nob
plump
##ppings
sult
##olate
caut
trading
lew
sect
abr
abac
grouch
adept
ampl
enge
acids
whereas
aglow
cheated
moons
##cloth
skim
idle
backward
carriage
plead
phones
overly
grands
marg
choked
delusion
clearing
commander
schol
awh
awed
##iva
charity
squad
prior
collision
subtle
turk
divided
floating
bellow
persons
sprung
bowels
solve
##olet
geor
protein
critter
nerds
riches
moron
threats
revol
banker
##ographic
combust
borne
captains
captured
ferns
constitution
swelling
enjoying
escap
suggested
explaining
experience
includes
duties
survived
dusty
maths
returning
##ulsive
quarrel
aspire
rumor
pollen
cottage
definitions
crystall
##lights
flawed
emergency
projects
floral
tumor
martin
sarc
pockets
religious
officer
surrounded
pigeon
hydro
greedy
shelves
beguiled
elderly
adventure
washington
trendy
fluffy
excitement
restraint
demeanor
atheist
spagh
tattoo
tobacco
aa
aunts
bb
dup
dummy
fatter
gus
gert
gains
kitty
lous
lav
lymph
mating
oli
ooh
packs
pension
sard
siz
wines
wires
yore
yup
##tick
##ties
##gone
##burn
##view
##wash
##tex
##inet
##esia
##asingly
whipped
##aying
##adays
shin
storms
asper
##rim
lil
##eeches
wasted
wasting
##rah
##rock
##unity
##this
##them
plague
safer
blab
##uled
clink
closing
tray
altered
alright
comment
cobb
abol
quad
quality
felic
enqu
unner
##ighters
makeup
aging
downed
skirts
desired
inscri
##orns
snag
snacks
hobby
overhead
highs
curl
curls
painter
deli
delir
confront
reds
reduced
sched
crate
remarks
columns
apes
moments
salute
menace
buyer
advances
advantage
concede
excuses
horiz
miner
##obic
pastry
fleeting
bowls
pickle
baloney
rocky
croak
dealer
##rolog
tempting
threes
revolution
delightful
brittle
softly
fervent
cardinal
expects
##colored
destro
destined
dismal
touched
cheaper
futures
seventeen
phrases
nutrit
jewels
ashamed
muttered
##rophe
uncom
custard
lingers
properly
property
attempted
cathed
glowing
pilots
swords
dickens
mysterious
precisely
enlar
disgusting
egyptian
vocation
shadow
enthralled
professional
doubts
birch
sketch
journal
deposit
##stream
sturdy
##spring
loyal
czech
neglected
bould
bak
dich
drench
dusk
fable
gaz
hust
ie
lid
lith
lyr
mong
nook
owed
ply
rave
riot
tush
tires
vect
##iology
##rust
##nas
##hib
##mart
##uer
##bet
##best
##bows
##fits
##wo
##tender
##inter
##erts
##arium
inve
##alm
##etical
stag
wend
##chants
chur
chunk
anom
##term
rept
soy
##sey
necks
spurned
canon
##umph
##olith
bling
conch
congreg
seiz
alc
aloof
##inky
##apers
broth
brisk
quiver
##ishes
##isting
scat
scout
##placed
manh
acron
popped
slain
##ogram
##ensation
glide
glove
snort
snapped
resent
longing
worker
bestowed
##employ
##ictions
defence
farms
accommod
schism
airpl
travell
burden
artic
demure
purr
elements
mommy
guessing
discretion
tasks
grandp
raven
factors
minister
sunshine
obstr
fatty
speaker
friendship
cleaned
reaches
mercy
fixing
requested
collected
neighbour
froze
breezy
cracking
##going
sensitive
centre
technical
spoiled
jewish
radical
pursued
whisper
linger
venom
murdered
louise
removal
complexion
remarkable
reckon
flora
beckoned
pirates
community
cryptic
aphrod
deduce
inventor
shrubs
hatched
violent
astronaut
elephants
digestion
aberration
structures
lincol
molecules
shrimp
clinic
instructions
hauled
website
fertile
grandmothers
gourmet
mourn
liberal
mechanic
settled
launched
vicar
rendered
schmuck
temptation
ignorant
cedar
california
patent
snooze
prolific
unfurled
##respond
explanation
celestial
treasures
delectable
joseph
bif
bums
dood
ect
gust
hock
jot
jig
jeez
lux
moses
mummy
miffed
nate
nant
nause
pand
panc
rival
tuss
ul
vom
vide
vel
vowed
wack
wrench
wages
yen
##tim
##rums
##dad
##dles
##nys
##nuts
##hen
##hot
##cation
##pin
##lest
##ointed
##food
##vs
##vo
##vings
##wall
##text
theat
##onys
##asters
##iti
##iture
inert
inane
beams
shaken
##urous
##amic
##aments
chas
chops
chomp
antel
anesth
buts
lique
liking
sopr
##sea
frantic
spines
speeches
plains
sauc
herald
blouse
##ulse
seaw
disl
disqu
knuck
nowadays
outr
brom
adoles
amusing
proc
progn
uncon
##ostic
manager
smiling
robbed
thereby
wells
diverse
agg
monday
peaks
breeds
carrot
compute
affected
foc
##ggle
speeds
creator
marx
someday
askance
partake
##ictive
deform
represent
##umpy
##tests
dragged
##ivation
exposure
reluct
bragged
dearth
apoll
camels
fearing
lesser
flowed
engines
supplied
statements
fourteen
incess
yells
obese
evolved
undressed
denotes
queue
misch
digit
produces
producing
talked
splat
providing
testing
untr
aiming
##zyme
sufficient
description
defeated
ringing
bounds
occup
##rolling
feroc
##ugging
weights
valid
approval
mouths
mastered
bathing
hallow
pupp
swims
senate
##oxy
chapel
wreath
december
rebel
contrad
appeals
disappeared
sucking
salesman
excessively
aptly
creeping
summers
holmes
##aaaa
blossom
forests
sheriff
##words
nuns
traditional
perplex
acceler
sloppy
indulge
aflame
conflict
currency
acknow
crocod
piano
destruction
ilk
distinguish
burglar
illegal
ribs
cactus
appropriate
bure
binge
dj
dak
feds
goth
hush
hither
jets
kat
kay
nought
oz
picks
ruse
rushed
ster
sine
tether
vague
wret
##ioc
##rr
##rants
##da
##cont
##cial
##ua
theories
toms
##enc
##itable
bends
bemo
stained
wels
##ami
##oooo
chime
ana
##tering
reed
soot
##raine
orth
allot
spra
haze
nove
sag
blades
trice
conquered
##igation
outl
outlook
cros
crumb
arach
theirs
brus
lobster
twill
amoe
enzym
swish
hash
unm
smut
smarts
buoy
aces
diale
diarr
offensive
preced
caring
compar
insight
insult
snoot
hockey
##iousness
##ucket
resolve
founded
tren
trials
triumph
bestow
hells
##bears
dripping
delayed
passions
accurate
replete
antiqu
starred
impart
##tested
expound
expose
expans
expire
relation
parrot
april
musics
refine
devoted
elected
realm
avoc
raft
screws
##obile
monkeys
opine
opens
facial
paired
sprayed
hitler
##cript
bowel
largely
misled
boobs
visiting
satur
drawer
equally
lifted
lifetime
critique
shallow
sticking
musician
musicians
damnation
derived
temple
costume
ambitious
##ographers
##mented
fanatic
arrives
dupl
centur
buffoon
masters
cheerful
employment
beaches
normally
tickle
spores
creeps
matches
concepts
##izzard
cultures
rumors
aux
auk
prosper
pleasures
implore
trucks
approaching
gaffe
granted
fuzz
fungi
##youre
dashing
pooh
resemble
aura
reigns
ablaze
companion
boyfriends
algae
perchance
wonders
embarrassed
appalling
syllables
inquired
squeezed
restaurant
arrogant
clumsy
##iciency
acoustic
cinnamon
engender
nutritious
aper
akin
cull
dast
dined
ety
eternal
fash
fidd
fumes
gib
hump
ick
jug
jeal
lor
lumps
mop
mature
pans
pests
tess
tel
tib
yum
##eur
##mers
##uition
##gi
##band
##fare
##will
##west
##wled
##ja
thud
##ati
##array
##asive
##itters
ingen
itching
##lee
##utin
##etting
##ettes
shattered
stomp
##illo
rearr
meats
atro
##uns
spacious
##umed
##uman
novels
plow
plumber
##aints
dolt
blurred
##ulk
##ulas
willow
clone
traces
trusted
converse
flak
flask
disre
cocks
coax
outof
whoa
ability
##ansas
prow
##plant
enig
engend
projection
##ilem
greeting
smear
slog
slash
joker
agr
agon
moor
##angular
leth
peck
breach
carve
compressed
insults
snows
verve
betting
gravity
contrib
##ertain
partners
delish
brie
defer
repet
hearse
starch
impact
freezing
bitten
streak
squawk
burp
induce
demol
devote
sadness
##grown
restored
gripe
discard
avian
infern
persp
afflic
oblig
tenor
##oidal
madam
bowling
##ylv
##ylon
##ternity
pengu
##ammy
media
budge
builders
specs
##ificant
sharks
troubled
lays
mentor
praised
##ursion
malice
casc
freshwater
dimension
irre
intertw
constrain
kidna
crackers
paths
dancers
syrup
audition
audacious
unsound
dissent
grasses
technology
techniques
hooks
domestic
puppy
cartil
losses
##engers
ashes
historical
melod
##forms
##rophy
suggestion
briefly
version
customs
fashioned
statistics
africa
##check
accounting
succeeded
swinging
venture
umbre
terrorist
optim
##belie
preacher
width
aggression
assuming
vocal
surreal
##etheart
oughter
thwart
bovine
promptly
recognition
geezer
stylish
overseas
bounty
benedict
microbes
shoddy
spaghetti
saturday
jealous
auction
bage
bony
doff
fudge
gird
gears
hens
lof
listed
mash
nom
ood
pail
piles
ration
troy
wides
yall
zones
##din
##dys
##hell
##pot
##brate
##brained
##fig
##footed
##yan
##oub
##lls
##onics
##isan
tots
##itas
##icable
##iculous
beep
##ala
##acs
onions
shamp
shady
islam
stains
stamps
##urt
##urst
dele
livest
reference
meters
sob
##ilation
hailed
cans
##uma
sucked
##olis
##opod
##igan
##igence
##star
##stones
flutter
disem
disarray
aloft
cradle
brine
abu
aback
gramps
grumble
scur
scum
feline
##pling
##plus
enzyme
united
uniform
manure
guides
diving
slides
slips
agape
downhill
##phen
##phone
moans
offspring
backing
composer
wares
everyday
verbs
overt
trigger
assa
##ugn
telly
decrees
tryst
##coal
passengers
accuse
schn
antit
crafts
relish
muslim
recru
##please
caly
##dder
catast
strate
turd
cellular
fours
horror
humming
womans
bleach
admiration
faults
transcend
aston
balanced
penis
penchant
##amming
achrom
boozing
basil
solutions
tomatoes
thrives
drawers
equation
equipped
laughing
petite
##ynine
kisses
sickness
ambass
truths
gases
blokes
software
surprising
population
interp
##great
figured
thanksgiving
tickets
pursuing
weakness
mutt
packing
gloat
gloomy
performing
whisky
influ
inflamm
lasses
grinned
lingo
varied
scarf
scarred
females
mortar
celery
poisoned
seasons
sucker
drilling
tunnel
scrabble
feeble
discussion
fuzzy
intentions
investors
citrus
squeak
gnaw
curtains
cavort
pearls
reflects
tenth
vowel
symbols
grains
peasants
rapidly
opponent
acetyl
emotional
anxiety
condemned
dodge
calcium
flavors
fertil
wondered
unreal
celebration
junior
plaque
selected
relieve
accepted
comprehend
syllable
disparage
biscuit
mathematic
grateful
conquer
bundle
moisture
sustain
interesting
adrenal
threatened
aesthetic
vampire
controls
attorney
entertain
dallas
hassle
enormous
adrift
crisis
aardvark
magazine
cautious
nantucket
halloween
welsh
cind
colog
ds
dic
dos
doth
dale
dual
dilem
fated
fiber
gums
hints
ii
jailed
keel
mous
maw
mums
makin
mixture
oint
oils
pung
pony
vows
yor
##tails
##rics
##eaded
##count
##comes
##mine
##mons
##part
##log
##uge
##uished
##bas
##fined
##yt
##wright
thugs
##tep
theater
##iners
##isin
##anqu
toler
andy
whiff
##leys
##utable
beel
shag
##chool
aspect
chel
chock
reh
soaked
##rag
##roid
alliance
spam
spawn
##thand
noisy
dolly
blitz
blubber
caves
cabo
clamp
sheath
flare
##indle
##abe
##abby
comfy
exs
crumbs
brink
brows
abbre
##udder
boasts
##istical
grades
amass
swoop
##erer
unemploy
smug
roger
rods
##peak
slut
slam
appell
##angles
lett
##ubs
##ensible
cleav
desir
composed
pleading
resides
resolved
##ordinate
coul
whyd
handles
sweetheart
sermon
default
passage
smallest
doubles
antis
crappy
aircraft
eliz
dearly
correspond
trav
payment
reform
squares
learns
feller
erud
demons
engr
stripes
##grass
salty
discord
largest
watery
##brush
tasted
info
countries
regrets
womens
invade
transgress
cowed
fitted
entom
aching
dinners
posed
judged
lifts
##letter
dishon
bullets
suffix
prair
chemists
attacking
blocking
alaska
printed
duress
successful
harmless
possible
savour
falter
matched
hooker
mansion
socalled
crews
kicking
chapter
connected
muddy
acquis
cultural
succeeds
examined
bending
dwells
fetus
scarce
robust
codes
maidens
amazon
frequent
earnest
drowning
investments
operation
reviews
emerged
utterly
vinegar
pierre
chaotic
racket
featured
decorum
frightening
wandering
gymn
deplore
compassion
waltz
lecture
comedy
perceive
kittens
naive
fragile
tucked
placid
infections
blasphem
lexical
hymn
inherit
aluminum
vulgar
soften
outrageous
meteor
storage
misunderstood
athletic
prognosis
etym
lofty
oodles
averse
cuff
cuddle
dill
dane
davy
ew
ewe
font
huff
icy
lice
mi
md
mused
meds
niche
pus
pent
pact
pave
rut
rake
rants
tint
tilt
von
vod
voy
yards
zoom
##apping
##dr
##date
##dling
##nia
##cate
##catch
##pit
##uet
##bee
##bury
##fied
##war
##woman
##nding
thered
##ince
##inian
##eros
##attle
##orig
andor
##itute
ingest
##otal
isra
stings
stung
##amo
chile
dend
socc
##sex
fraction
##ighty
##unte
sped
nov
##gered
dole
dover
saul
blat
legend
##iere
##ickle
##abit
##abeth
coma
comical
crme
artery
##inking
brach
bristle
uptight
quir
quant
quoth
boos
bobb
advert
loans
amate
ambr
enters
swill
##quets
##ipt
hades
guine
guff
popp
cheery
appare
##ething
sinister
glued
perm
background
carving
snails
sneered
mustnt
couples
trib
##anky
biggest
activity
dreary
airy
runner
charcoal
balloons
muster
refuses
burgers
eru
distraction
ladys
suppress
retrie
cello
regime
perspective
##ophile
involves
declined
cephal
admon
childhood
unde
fauna
transf
coward
lively
halfway
##umming
labels
ignite
catches
mistress
succinct
suffering
boxes
epith
agenda
opportun
locale
speedy
ferment
cracker
thrilling
detract
spends
bathroom
suitable
jeff
fluids
peaceful
directors
flights
cocktail
puzzled
radiation
volunte
bombard
##world
pillow
natives
rattle
mortal
barbar
clowns
rabbits
annoying
protecting
hiking
logical
anchors
##ophobias
binary
suspicious
suspicion
##laid
deeps
cliffs
cooper
bishops
borrowed
chimney
shrill
forbidden
bridges
botanist
vegetable
moths
prophet
gambling
inferred
austere
behaviors
accomplished
library
downtown
gimme
concentration
pharmac
portrait
principal
torso
weekend
citizens
proclivity
crystalline
fashions
livestock
bist
dac
eph
fath
ig
jos
ko
lull
lining
rails
ripped
sash
saints
tet
toup
vase
vend
wats
yon
zinc
##aque
##nu
##cock
##cup
##lins
##overs
##bearing
##folk
##inos
##erted
##atile
##orr
##orically
##asions
##icates
##lex
##alph
hex
hebre
stam
stair
stacks
forso
##chal
##lyph
##rily
anoint
butler
reass
attent
spicy
haird
##erson
cany
nobel
ploy
plung
suite
suited
caress
##opath
##elles
clash
trot
conco
seams
flout
flaming
flustered
##icked
##icking
##icken
##inding
##about
alge
cocon
covet
brats
quits
quotes
boa
bobby
gruff
scattered
adores
##ysix
envy
sworn
swagger
proven
unra
smugg
rogue
##ptuous
poise
sled
aggra
##tenance
##cled
##ailing
peg
permission
pleases
everythings
beta
crem
curv
##ibles
surly
helen
decry
confirms
comma
draught
##ulture
bedding
litter
expenses
relent
brakes
maf
sweetie
apace
travels
distill
subd
poorly
dames
discer
discom
discipl
singers
menu
norms
diva
raises
dais
dazed
monstr
facet
facility
##price
##amese
earthly
involve
undoub
speakers
transmit
bowed
cowboys
forebears
document
medium
capric
terminal
posts
milky
churches
corners
merit
##lette
laying
papa
embell
groans
sandy
danny
##after
rotation
##blue
ahem
century
proposed
elsewhere
pigment
symph
possession
fortunes
axis
unclear
gloves
deceive
motif
authent
##break
aerial
curses
##worth
##joined
##haired
constructed
cubic
accountant
instruction
contrary
implied
ethereal
concerning
mirrors
discussed
conviction
consumer
prevails
enthused
scotch
engineer
sarah
awaiting
vowels
peasant
tangled
suspension
enlighten
teddy
canada
scientist
yonder
prescribed
unbear
persuasion
gourd
stitches
simplistic
trumpet
exhausted
fulfill
pointing
bingo
conspir
ingred
eclipse
established
doeuv
plumbing
equipment
prudent
queried
emperor
beggar
bikini
smarter
shepherd
frisky
bicycle
infinite
pudding
arthritis
fiend
mundane
manhatt
lincoln
elizabeth
toupee
forsooth
bis
bise
cack
dumps
eins
faw
fused
foster
gur
hilar
lu
lud
lava
mite
makers
oun
oys
pars
puck
pint
sane
sams
yep
yarn
##rach
##corn
##mys
##mod
##maker
##pian
##good
##girl
##bons
##fter
##inction
##inthe
##eration
##oration
##anne
##asian
ine
bender
##acent
heirs
##eto
stumble
##uria
##amer
asunder
anus
dex
lilies
##allel
##rops
##robe
canary
canny
platter
##oreal
doze
cater
cauc
ifs
wors
trough
seab
##igate
##igraph
flore
flakes
flushed
##abol
##abel
knots
albert
alarms
exists
external
arctic
bry
abre
quell
##ongs
ado
adults
##agles
loom
amyl
ensh
callous
##vested
smid
diets
sling
slouch
daylight
downward
mocked
##anges
##etheless
preference
desist
glib
glitch
perth
comply
insert
snatch
snuff
##urnal
##meal
vertical
##berries
overdue
creations
baro
##bec
##izations
contag
contrite
marge
marred
decreed
decisions
chond
badger
lasting
constern
craze
crazed
drab
##mannered
##ultural
rounds
squid
squall
shores
lessons
indo
submission
billions
ladder
editors
##ricted
viewing
buyers
turtle
##wheel
rapp
metrical
presented
lotion
miners
standards
spruce
battered
eyebr
declar
veh
denote
astr
cleaner
hurled
praying
##ambles
solar
limricks
thrift
builder
ruling
##minous
petty
morose
opening
eighth
boxing
epis
cosmic
cosmet
oppose
germans
dreaming
dreadful
encir
rubbed
immature
escaped
unsurp
index
##flies
savage
titles
bonnet
nonetheless
cockney
senator
continues
virg
network
duller
rebu
hunters
gutter
barking
moods
statue
drains
polls
disgraced
torment
dubious
samples
listening
sleeves
psychology
girlfriends
attended
attending
assistant
dyes
silvery
favored
ump
tactic
regarding
analog
skelet
rigid
violin
bruise
eschewed
conductor
threads
wiser
fossils
moaned
generation
ardor
numbered
wandered
diminish
ellip
smashing
management
wrinkled
virtue
cheeses
bewitch
exhibit
explosive
francis
license
ancestors
interests
commercial
exploit
application
entirely
procedure
synthetic
suspended
baza
eddie
chubby
scalp
yankee
peanut
perpetual
perenn
unexpected
mozart
scholars
disregard
shampoo
cologne
watson
unsurpassed
cmon
estr
eels
fug
fists
gaw
hut
hicks
iamb
kidd
laps
mould
mul
mick
mant
moles
nome
nip
naps
nosh
naming
option
pion
pens
puls
rit
ridd
ridge
tac
vie
yak
zig
zool
##iatr
##rically
##eight
##etes
##dri
##nels
##cuss
##mir
##mont
##pal
##press
##lit
##uan
##full
##yer
theore
##lle
andre
intens
##alds
##adors
shipped
stoned
##idian
##iduous
##urg
##urally
##irled
##chron
chan
chass
chort
chaff
chimp
anac
anna
anec
soaring
##imo
##seye
fridge
thistle
cancell
cancers
herds
herring
blan
##ulty
capp
clams
flung
alack
##oodles
##oneys
coot
cram
abras
quail
query
graces
adverb
feign
feathered
prude
##agus
lobby
twain
amour
amel
uncles
##quette
##ipation
robe
slot
slay
slices
thrall
joins
daydre
##vens
evergreen
pew
petes
cleft
desires
glitter
perverse
period
idol
compensation
hobb
resign
firstrate
overweight
barrels
graves
gravy
painfully
marital
marched
deliber
##days
crims
defy
confidence
commence
conscious
##upon
lighting
##aryn
##otherap
runny
##mann
elix
apric
##ocation
burrow
felled
hotter
##plete
india
indians
growl
flowering
devices
restore
strait
classy
##brown
retort
retribution
turf
stuffing
avant
infant
screens
cellul
extoll
affix
##tempered
vey
madness
forehead
harass
hurric
digits
termites
##ummies
dinosaur
bases
castles
##ouche
planting
tommy
tomato
limited
limrick
promotion
ruler
##ateral
succulent
farming
suffers
urgent
ambul
gasp
suspected
smokes
opposed
freshly
ensue
ensures
ensued
valu
intrig
memorys
boldly
touching
beset
charmer
futile
tailor
jumping
survives
bonnie
puke
##ruption
utmost
volt
puns
cadaver
complaints
melting
increasing
increasingly
##know
acquaint
hunts
splitting
bulge
bulbs
cherish
hostility
murm
seduce
torch
##woods
pleasing
barbarian
olive
strokes
detected
borde
youthful
##aurus
tweet
##uvian
gaily
granite
consumers
switched
jerry
sparkling
enemys
hawai
particle
disguised
torture
sacred
gigantic
abstruse
affects
shirley
cloak
widow
atlant
forbid
environ
furniture
reminds
intelligent
prickly
gyps
aussies
pimple
contrived
industrial
horde
##laden
imbib
repeatedly
outdated
conscience
titanic
##blooded
slippery
lousy
cathedral
enzymes
telesc
cartilage
lettuce
cleavage
apparel
undoubtedly
aka
bakers
fangs
iq
kang
kilt
kidding
las
lusc
ned
ness
nig
nour
nub
nancy
nailed
nymph
oly
ouch
pag
rim
rite
tam
tink
ticks
tides
vatic
zen
##iors
##rade
##rison
##aus
##aise
##dash
##high
##call
##xual
##mil
##mint
##path
##lined
##oved
##uals
##bul
##buck
##bones
##from
##wri
##inn
##inqu
endured
##isons
##anous
##ences
ands
inno
whacked
##veling
stu
##amus
##chair
##rile
chad
chast
chester
deh
revered
##ilant
##iloqu
##verts
friction
fritz
nef
nect
neater
allay
##ctive
sparks
spikes
##umper
##ainty
sues
##olent
##olving
##olute
blanc
blaze
##ulates
##ople
clair
clav
clump
clunk
clusters
trs
tranqu
floss
ourselves
coch
coined
abut
quo
quirk
boll
scen
scents
adap
feck
feud
feces
##othing
hasten
roasted
rooster
dipping
##pty
dru
slate
##acty
needy
##cling
clem
clearer
glaze
perched
perforce
backp
carte
compelling
waving
phe
steaks
stellar
overnight
spew
grapple
##bean
##izer
assass
contained
##new
chooses
partys
reduction
considers
accum
imposs
##tesque
dregs
awl
awash
awaken
cutter
colt
kevin
elope
elbows
strewn
muscular
burg
exploring
birdwatch
distrib
englands
laden
purge
supple
slew
behaved
finance
landlord
##uctions
daze
horrid
minim
armad
sprouts
##ophy
##opher
earthqu
profuse
wishing
signature
fooled
invaded
invading
admits
banner
undo
faze
madly
anglic
strongly
denial
families
picky
astounding
forecast
penn
pencil
messed
ruins
hurting
##ambers
displaying
debon
filter
filthy
equator
secured
baggage
sickly
fury
malicious
circums
casket
raining
ferv
irrit
printer
##black
sensible
enjoyment
duh
tricked
immune
audit
bodily
propri
unsure
dissolved
independ
juices
stresses
mentioned
targets
frowned
instant
vanish
carrying
aquatic
robin
robot
##ogenous
fleeing
fleece
alarming
##amental
supers
binding
champion
pedal
dwight
stretching
scratching
floods
gentleman
flawless
conveyed
slimy
pooch
twisting
gowns
options
##ophobic
typically
delivery
officers
official
fibers
tangle
australian
detective
bacterial
achievement
economy
pigeons
monsters
adjour
programs
bawl
clarity
tanned
cosmos
diplom
zealand
demonst
spectacular
sioux
allege
flavour
museum
injured
arrangement
duration
arabian
whims
adopt
inferior
lectures
soothing
##writing
lemons
##volent
seventy
##charge
convenient
extensive
disclose
ireland
cerebral
strangers
fatigue
resources
abnormal
quartz
cylind
newspaper
velvet
uncommon
tibet
ointment
vodka
mafia
consternation
crimson
olymp
cd
cider
cache
dans
dally
fals
fax
fift
fickle
gamble
hives
hann
hugs
jon
kite
lan
losers
mun
mounted
nash
pou
pon
pont
pats
pudd
rape
rasp
sic
sut
sipping
tues
taint
##iop
##iations
##tor
##tra
##tons
##talk
##tailed
##rating
##ean
##has
##cund
##mus
##mall
##uz
##ufact
##bag
##ww
##wort
##inals
endowed
##onous
##isive
##alysis
hein
heft
heav
onion
##ados
shatter
myr
isles
stunk
stares
stages
weathers
##amine
##amation
asym
##ooch
chit
chipper
soles
##eeyed
framed
alloy
##ctomy
spaw
spry
##thew
plunder
##onto
sands
herr
##ulant
cair
##estr
worsh
leaks
conno
flim
flake
goin
aliment
comics
arres
arteri
abortion
upstairs
quot
##ista
##istine
gramp
grudge
scowl
prank
##othe
##plan
twists
amn
swap
unrest
greg
acar
slipping
chevy
##ethats
sinful
skis
glimp
idiot
compunction
##ggles
##mem
##earth
vermin
##arma
overst
handed
helm
beloved
delhi
crib
bribe
defiance
reddish
commod
accomp
repairs
antise
yester
dreamed
##quel
keith
relative
parli
charter
missp
missile
corros
trape
esoter
##ocate
burial
burger
erase
artific
calor
distracted
baboon
strands
##brid
norwe
##whel
raid
concord
extol
polished
persistent
batting
significant
evo
banish
childs
angst
bowers
cooling
entreat
digs
dispens
basin
replies
labelled
croon
worthwhile
hopin
rhyth
merge
deriv
shrunk
epiph
gasped
bankrupt
strangely
##ographs
risking
shocking
kidney
hideous
portion
ancients
campus
duch
bacill
understands
yellowish
bottoms
symmet
twentyfour
stinking
methinks
senior
package
whisk
suggestions
inflation
supporting
collector
repeats
cuban
seduced
embraced
accepting
sinking
sorely
porcel
organic
professors
bumped
creepy
favors
antih
tumors
hawks
unwind
resembled
##uscule
department
cuisines
cranial
tortoise
munching
preventing
politely
neurotic
itchy
foresee
aberrant
hydrogen
ninet
##lysis
elder
lurks
deftly
##creen
ankles
furnace
accidental
occasional
cranky
academ
academic
fracture
sweeping
chaucer
betrayed
architects
seventh
skiing
provoked
bipolar
flaunt
vigor
adorned
jacques
obsessive
mimic
contents
disturbing
kettle
crusade
entwined
bravado
crescent
extremes
gulp
phenomen
dolphin
razor
awhile
video
antelope
liqueur
soprano
untrue
acknowledge
november
infernal
umbrella
widespread
bordeaux
luscious
glimpse
bakes
bals
cud
dank
dainty
erod
fud
faking
fins
fades
fawn
gaps
hark
ivy
jello
kim
lenses
mace
mog
mitt
nifty
oclock
rer
rifle
taut
vint
wry
wired
wimp
zits
zipper
##ti
##taking
##rad
##rans
##dis
##dam
##nine
##nem
##nold
##have
##cous
##mi
##mel
##pace
##lain
##locks
##lasting
##bos
##bill
##bro
##bott
##bugs
##fing
##ki
##yd
##reated
endors
##esus
##onents
##arius
tore
##enger
##itus
##otte
beque
beij
##alia
shipping
shudder
stank
staged
##osters
forage
asl
chate
anaph
decks
##terous
##eem
##imation
notions
spore
spiny
plough
##oughs
sued
##oline
##olite
##ulum
caust
##opat
##estrian
wills
clint
bypass
tram
leon
leapt
confection
##icky
##anders
##abled
##ferent
exor
##antine
output
cramps
arbit
abus
abbey
aborig
quix
quib
quips
boasted
##acea
scoring
adip
adel
##othed
amnes
enrich
##ipate
manufact
##ptive
slopes
##ifers
thrash
jockey
newborn
appli
molly
peters
peaches
##ube
sinner
cleared
brewed
brews
themes
mugs
perks
greatgrand
compelled
insure
afore
firs
snide
snugg
foots
strayed
resc
phall
phosph
longs
verte
headache
##odont
overwhel
cret
barry
trifle
curmud
assoc
assessed
delph
serf
attrib
attracted
confed
farts
careers
repay
airport
dragging
coloss
mae
maze
missiles
##ropod
traveled
ballistic
refusing
collide
burd
eros
eden
sleigh
wedded
salts
grime
classmates
abscess
woven
voted
voiced
infested
preserve
horrib
colder
watches
mini
persist
##prints
lowest
ceases
kingdom
angled
##azi
pickled
cower
##opsy
buster
slower
messy
patrol
disputes
##theres
diners
archbish
milit
prominent
filing
splits
darned
merchant
galax
##onyms
threaten
urn
berate
locals
terrier
commonplace
ensn
interven
daniel
panache
detroit
##blown
rubble
immort
audio
bagh
##annies
bumper
##kinned
hammered
mutual
##glass
apartment
wrecks
majest
gleam
tarry
##poken
##breaking
vacu
collective
athlete
geeks
scarlet
##ivalent
leafy
passionate
##cross
pronouncing
remarkably
chuckle
modernday
porter
gait
hosts
marketing
cigars
previous
lengthy
heroic
flags
chemicals
folded
fungal
chicago
reckless
pounding
##paid
engineers
communist
defendant
weighed
stomachs
oscar
pouring
customer
coinc
censure
tackle
plucked
mystique
atlas
container
relationship
adventures
##burg
##vette
crawled
##oscopic
nickel
squirrel
tutor
competition
competitive
grieve
jewelry
##build
accomplish
calculus
provokes
succumbed
brighten
apparently
pallid
pussy
landscape
mosquitoes
immersion
fountain
outdoors
plastered
meadow
calendar
toxins
floored
scourge
appointment
laundry
sulph
bagpipes
trivial
chisel
felicity
disquiet
aggrie
focused
arachn
dastardly
afflicted
prairie
israel
soccer
algebra
manhattan
smidgen
bazaar
avantgard
kangar
nectar
debonair
porcelain
bequeath
beijing
curmudgeon
cia
dunk
dues
eerie
fag
filed
gifted
hive
hams
icon
kab
kong
kaz
latch
lug
laced
mason
mites
murd
mesh
moneys
nim
nests
nixed
oats
omit
pom
pawn
ross
ralph
sated
tant
vene
voting
wad
wart
yolk
##tar
##tys
##rist
##rosis
##romes
##eon
##dies
##hr
##hee
##cake
##cant
##cution
##uations
##bin
##first
##vils
##western
##reci
##erys
##istered
##aned
##inges
##enters
##omancy
bead
heaps
hector
shoo
stap
stove
##lds
##urable
##urious
##chin
##child
chand
anarch
anonymous
##respect
##rescence
orph
##ilian
neer
spi
spont
spade
spuds
haute
placing
##olics
##ulars
caul
cluck
clique
trance
traction
convent
conjoined
##igious
##sticks
flocks
gob
knell
alms
comet
exams
existed
cocc
outta
crane
aromatic
bris
abc
upward
grunt
##ysts
prism
loon
twirl
amm
enforce
enraged
swung
proceeds
prohib
unch
univers
grec
greasy
smother
roe
acry
illust
slop
slant
##actions
##teness
cheering
moat
timing
pecul
clears
backside
carri
composition
waved
snig
stricken
resigned
reserve
steals
##odox
creative
barrier
treason
trill
##izing
assu
marrow
hardy
##alet
attracts
confine
accust
antar
impaired
dreck
drape
broads
expired
parish
brawn
brazen
ballad
refresh
recipe
learnt
explored
eric
artill
##plend
christs
##bbly
catfish
devised
supper
stripper
babble
sadistic
##grade
wedge
behaves
eyesight
##which
raving
shortly
sunlight
policy
affront
cycles
obli
completed
forgo
ceil
certified
banquet
##opsis
harang
digress
patri
##ilton
drying
##ummed
debated
potion
breathed
unto
merits
shrine
wildly
appearing
costly
##welling
##ographical
personality
malays
##appin
speeding
buttocks
surprises
respons
sensations
immoral
physicians
proposal
##aciously
mornings
besmir
mascul
##ippy
futility
alongside
jeer
jeers
admitted
juicy
bumble
camou
postp
concealing
axes
complaining
determin
connections
demanded
##working
aspers
hunter
walter
collecting
lassie
draining
politics
barbie
inspiration
appease
##ogenesis
ethnic
rabbi
psychotic
definite
lifting
pools
fearsome
sparkle
authority
crafty
medicinal
tropics
bursting
wooed
reflex
chaos
crooked
cacoph
deeper
scientific
struggling
distinctly
mushroom
differ
european
mythical
accessory
shaved
instructor
furnish
squirms
parasites
adopted
translation
victorian
tigers
wrinkles
cheesy
chauffe
analytic
libido
librarian
hormone
cabinet
##keepers
kentucky
##osaurs
flexible
categ
catech
intestinal
toddler
abundant
stalks
contented
accrue
brigade
procedures
vegas
hordes
sofa
available
encourage
chromosome
nostrils
bemused
physicists
plagued
pyram
oliver
destroying
seaweed
wretched
diarrhea
lethal
pungent
engrossed
amateur
tribute
coconut
embellish
baroque
perennial
nefarious
horribly
peculiar
aired
ephem
fi
fading
ginger
han
housing
ip
ka
lows
mink
mien
ny
nie
nudge
pix
pique
pads
pumps
poodle
ranc
rural
rags
ss
sill
tresses
ugh
vouch
viet
wager
zap
##iast
##take
##rals
##rane
##eons
##dressed
##hed
##horse
##core
##comp
##mad
##pen
##lar
##lia
##laws
##gam
##bus
##bad
##function
##vance
##wit
##worn
##inx
##inence
##rers
##atable
##isible
##orth
token
inject
italy
##lem
##ower
##otum
##ottle
##alc
##alis
heave
##ayer
shap
shaw
sta
##ositions
##urre
##cht
asth
chil
dere
rewards
##allys
soph
soggy
##entially
##rapped
##section
orb
fruition
nears
##unctions
spiel
hag
noose
##gel
##ppled
sabb
bluster
##estion
clutter
tromb
lev
lees
leery
conned
context
##ieur
sewing
flound
##owned
##aby
kneel
aloud
extended
##antial
cog
coals
cringe
crumble
abated
abusive
abomin
grants
adverse
fecund
##agog
amar
envelop
swag
swerve
swapped
probe
unve
unhe
##quer
##quar
##quate
##iped
manif
mangled
guided
##ortions
olden
##ogr
chev
cheater
downing
peppers
##etho
skate
skitt
prejud
glen
carne
carrier
composing
waff
snub
snaps
hoax
playful
rests
resplend
##fuls
stee
steers
steering
##oding
##irect
highness
highland
wrists
paints
##neum
nightie
drips
drivel
##ertime
belts
funk
brian
brighter
confer
redund
consort
reporters
anton
antith
antlers
courtes
##umbers
##oyd
starvation
##ologic
##heim
elated
braid
cortex
traveling
esprit
yeti
laud
refute
squirt
recr
fellas
calvin
##weet
submer
cataly
devoid
stripping
dada
salads
biological
discount
abscond
##eney
##bridge
excursion
lottery
minimal
minuscule
armour
household
sonny
wrongly
eyeballs
invasion
doubtful
##tember
angi
doctrine
denying
produc
smelling
posted
silky
benj
brownish
churchill
sleepy
waitress
derm
warmed
morse
copies
bloated
duel
grotesque
pressures
stoic
arrival
approved
syc
creamy
cupboard
effl
dissed
bathe
dangers
included
selfd
acidic
baile
argued
flux
directly
bonus
conceive
ashen
mutation
humanity
majestic
globe
glean
concluded
ghosts
quarters
talented
inflate
inflated
pillows
versatile
broadway
barked
yielding
statues
servant
varies
variety
aquiver
##manship
sinks
commitment
bassoon
##ipher
boredom
coughing
consumption
scratched
deserved
##ochem
solely
tactics
bogus
skulls
spiritual
tacky
conversion
hoods
enhanced
carnival
flourish
executive
struggled
boiler
sniffed
bawdy
linen
wicker
##omania
battal
orchid
elders
##agonal
bridle
electricity
websters
weeping
clerks
grilled
picnic
parasite
arabic
coyote
formerly
wrinkle
oui
abbot
bewild
thorns
withdrawn
gullible
endeav
biscuits
##osaurus
nagging
pistol
disconne
clogged
glamorous
economys
dalmat
intestine
vapor
diabetes
ornate
astronomers
jackson
nibble
ivory
disturbed
diphther
churning
atmosphere
barbecue
crustacean
cessation
jolt
collapsed
incomplete
sizes
theatre
reluctant
einstein
enshr
indoors
valuable
avantgarde
camoufl
aversion
bant
bison
bouncing
cudd
dd
dour
dons
duff
ee
ery
eau
eagles
fue
gon
grop
gape
humb
hoop
ike
jars
jub
jumps
kore
kud
kiw
lapt
loops
mated
mime
ni
naut
oat
oily
ominous
rally
righ
rained
rider
toff
tighten
vass
vines
wailed
wounded
zo
##iol
##sw
##some
##she
##tos
##afe
##dry
##nom
##may
##park
##leness
##uine
##birth
##fa
##kas
##vish
##was
##wal
##tels
##inates
##escent
##atient
##onk
##onal
##ingles
##ener
##itals
injection
##icated
##ications
##otto
##uto
bearer
beetho
##usks
myri
strol
stumbled
##osin
##osite
##iry
##irling
asbest
##rious
chi
chums
chambers
##illin
##illion
dems
decept
deuter
##rand
##imet
##root
##iler
franks
nell
atone
##unc
canc
##umbered
plunge
##ppin
docks
suave
blair
bluish
##opathy
##eller
clipped
cleric
clipper
conject
##stri
flab
flicks
flamb
gobbled
somebodys
knob
alps
expend
coe
cole
coag
cozy
arith
aroused
arnold
##ooked
upright
quay
quaff
scab
prance
bugger
acre
drones
drugg
pox
slump
slurred
slapped
##ightest
agri
aggl
##ogamy
appar
emails
pep
##ethat
wayne
sinned
brewing
descar
descends
carib
carouse
carcin
##iants
hoof
hoarse
pleaded
resulting
phleg
stein
##odic
crete
barren
barbed
graft
gravel
anywhere
curvy
assent
conting
contracted
controlling
##ancys
bothers
marching
chopping
delta
##angel
funky
serpent
accents
craves
craps
##umbo
foli
blackand
begr
expelled
eloqu
parallel
maids
traitor
esk
payments
##zzie
##zzles
##ocus
squab
recy
befuddled
burgeon
shovel
kindness
calab
owns
democracy
warri
bios
strap
discrete
singles
retain
divinity
avar
halo
faction
screwing
dapper
crosses
bellows
darker
affinity
cynic
lowly
objection
believer
cept
veal
anguish
denies
shedding
grounded
##iffs
astrol
astounded
cowardly
harrow
entails
entrep
misbe
beatles
teaches
visits
directed
tomes
debating
##ifications
browns
darts
proteins
##loaded
merchants
derby
frenchman
furious
epit
climbs
honour
locations
malaise
sentiment
##olester
rainy
##rational
thicker
garage
popes
irk
breezes
panel
fanny
portug
cardboard
cardiac
destination
unfit
purely
effic
beseech
experiment
including
selfs
savvy
fluke
stinky
expressions
##related
bushes
cartoons
volumes
axi
melon
melts
cloudy
bangs
banging
continental
violet
connects
tossing
bombay
quarry
receiving
aspar
versus
improving
crux
understanding
vanished
cherries
hostile
album
carpenter
flashes
flashing
fettle
cubes
strained
guarding
dublin
instruments
resistant
stirring
swallows
routines
mumble
disappoint
##itzer
claude
awareness
##avery
middleaged
paddle
convict
teeny
deserving
tapped
rodents
buzzing
##iliary
##youll
sync
severely
maintains
ridiculous
stunts
bouquets
leaning
nurt
particles
blinking
kitchens
inventions
surrounding
ceram
sentences
chirp
bladders
lumpy
cosmetic
prescription
shakespeares
corporation
protr
emphatically
chowder
scotsman
scrubbed
radioactive
bosom
celebrity
carrion
nurses
nursing
nursery
antibiotic
adjectives
automatic
fanciful
ascending
crucial
published
cannibals
imperial
forsaken
##flower
janet
thwarted
conveys
##keeping
sincerely
cushion
vivid
reverend
sneezing
stabbed
cajun
disarming
glutton
cocoa
appetites
entwine
##zzzzzzzzzzzzzzzz
sparrow
aspirin
aaron
remembered
maximum
cuckoo
therm
cameras
intellectual
mislead
pompous
neutral
impecc
havoc
september
grandson
hustle
airplane
grandpas
vomit
apollo
snooty
trench
expansion
optimistic
schnook
inflammation
dilemma
gymnast
opportunity
fathom
unbearable
##arynx
elixir
tuesday
descartes
bp
bice
bigh
bared
boff
bounced
cn
cis
cout
cures
cds
dv
dred
dint
duly
fiss
fave
gator
gazed
hath
hatter
ic
ions
jed
java
kirk
lamps
luke
mack
mope
mined
mashed
mikes
nir
nah
narr
nanny
ome
ostr
omn
pike
pounce
rus
ramb
ranger
raging
svel
tens
tug
tipped
tumbled
wakes
wane
wagon
zomb
##iree
##iards
##tte
##tically
##rose
##dist
##nings
##horn
##holes
##cap
##cuts
##cision
##xious
##mond
##pir
##pri
##oen
##gid
##bie
##bath
##bies
##brain
##fin
##fitting
##yles
##vals
##jan
##tees
theology
##inations
##erman
##isingly
##orum
##arity
tote
##asms
andes
inver
##ico
##icting
##leaf
##otom
##uttered
##alous
heath
shone
stations
stoop
stutter
storys
##osia
forum
##urge
##ionic
##kempt
##ooey
chimes
chancy
chabl
anam
anast
##illas
lig
reind
reek
sores
soared
##ilate
notch
spared
spasm
##thought
hagg
cancel
noises
##essions
##gey
suz
##olas
blizzard
cared
##estro
worries
willyn
clings
clare
clatter
byte
lech
contention
seals
seated
sections
flage
flint
flats
disper
knave
knitting
knickers
alib
alike
coz
cove
cohere
outstanding
arct
braces
brushed
abounds
graced
grumpy
##athan
adroit
prun
lob
loll
twot
amy
swed
swind
proverb
unjust
unwise
unlaw
unkempt
##elia
acup
acerb
slid
slugg
slander
slurp
slammer
newton
agric
agony
apprent
##phones
mores
timid
sinners
perv
percuss
compr
afgh
afters
snappy
hoe
hover
respected
longed
friar
sterile
barrow
triangle
anyones
##izzy
earlier
showy
marble
marines
decent
decides
deciding
serial
finely
farce
console
consulted
consistent
repel
reporter
antir
antist
giraffe
brocc
keg
elves
elusive
reliance
parks
braw
charred
nearing
apron
evenings
traged
souff
simon
musk
squashed
fishin
shopper
lessen
##lived
calories
##nery
indisc
distribution
laddie
##tentious
striving
sleuth
sleaze
##rician
momma
behoo
resting
restrict
restricted
straits
absc
##uthers
turb
depressing
realistic
##who
##when
##whats
stately
metre
dares
bellige
cyto
profane
blem
admission
banished
faire
faulty
madame
transition
meetings
rugged
patron
dispense
##shore
archim
shotgun
debau
potter
builds
equations
bengal
legion
donor
donald
morale
pointless
urged
boxers
revive
tights
barefoot
blooming
bandit
locus
combines
casts
occasions
dreamt
garnered
pressing
ensla
danish
valent
taxi
buckle
approve
forgetting
escapes
ledge
proportion
dissension
hatred
cheerle
tvs
titled
credits
falcon
surviving
pinned
cocky
matching
chestnut
radiant
uttered
##iente
springtime
##engths
historic
tending
recorder
victory
##oxide
banged
gaining
gardener
motions
prediction
cultured
europes
vacc
federal
collects
collections
albatr
cube
seduction
surfing
centers
bolts
crashing
robber
respects
routes
detection
blasting
claud
tweak
issued
##uva
discussing
prevents
leeches
venting
shunned
teenagers
investment
crusty
magnet
magnetic
gnu
summon
anapests
specialized
applying
celebrate
punched
medication
shrinking
blessings
fantasy
disgusted
florida
absolutely
becky
wooing
acephal
##iacs
##iacal
pierced
winked
symbolic
slyly
locker
officially
sentenced
violence
google
carnivorous
jargon
anapestic
monsieur
neurosis
surmised
conjug
circumst
bawled
mystical
battled
orchids
gathering
descending
transparent
ribbon
almighty
spectrum
rejects
scanty
alexand
fertility
peeled
lucy
confirmed
parasitic
grinding
expanding
philosopher
felon
graphic
plumage
licking
bargains
pointy
##fields
##iju
mexico
dracula
soothe
currents
cussed
##power
ooze
darwinian
microscope
tractor
accrued
barmy
emperors
enclosed
unhappy
listened
admiral
orchestra
exempl
gravitys
consonant
depraved
cetace
ambiguous
anatomical
hyster
rhetorical
buddhist
fidget
rookie
voracious
beverage
sarcastic
venomous
veloc
unemployed
guinea
subdued
discomfort
anecd
##otherapy
minimum
trapeze
archbishop
baghdad
vacuum
##ranean
staunch
righteous
myriad
entreprene
portugues
chablis
willynilly
albatross
bade
bidding
cof
cain
coss
cues
dong
dashed
dilly
dudes
eug
fain
frol
fission
fidel
git
gulf
gosp
goner
hic
hast
hamb
ion
jal
jess
kale
kern
loft
mau
mitten
mitz
nan
nos
null
pneum
ripple
sate
sig
sown
ti
tb
taw
tux
vp
vets
wy
wilt
yah
##table
##ea
##aiss
##done
##dem
##named
##nets
##hap
##heel
##care
##xia
##mast
##prod
##oil
##ulet
##gow
##bil
##bler
##far
##kings
##van
##wan
##went
##tech
##terer
##inse
##ofthem
endear
endange
##edd
##oni
##onically
##onium
##oras
##orant
##organ
##anse
##anity
##anian
##anna
toiled
##enian
##itars
inex
whined
whining
##ombs
##utations
##aler
##aca
heinous
##etta
shill
shabby
stow
##idation
##idance
##idious
weaving
##chee
chute
deleg
lims
livin
mein
soaking
##rode
oral
##ilight
froth
nepal
##unter
sph
spart
spher
##thro
##thesis
haught
##umines
nobles
##geois
sages
suing
##olation
blasted
##acker
##ulative
cavern
##open
leaps
congl
##igo
##stage
flog
flagr
flinch
goon
gover
alum
alab
exal
extends
##achie
coer
coven
arre
arouse
britches
abi
abra
upside
quip
boar
bores
bogs
##istr
grit
scall
scouts
adi
feats
users
twilight
enamel
ennu
swat
swayed
proving
unr
##quest
manor
smacked
roach
acclaimed
dives
diaper
poised
slugs
##ifi
##ifully
##ogens
##awed
emeral
##clad
thinker
pears
skipper
pretense
##orship
gluc
pern
carc
competing
rightwing
##uckle
foiled
resisted
phd
phon
longest
betr
crept
bary
treach
grabbing
hellish
assort
surge
contribution
##atherine
##ema
decimal
choking
##coll
defensive
confide
constell
crater
starving
airline
##ivious
broch
exposing
relatives
parted
bragg
charism
charging
corruption
trails
homeless
squaw
primit
booked
indict
chrome
distortion
growled
flowery
devious
engaging
strives
sadder
salv
restr
discou
discourse
dividing
genuine
extracted
minnie
##obac
##astern
##undered
flynn
sonnet
sprink
##ophone
profs
baton
obamas
believers
condoms
eyeing
invites
invaders
banal
banter
unders
shellfish
faade
bower
##ylum
##yland
compliance
treatments
seller
miscon
medal
capri
boozer
##theast
##amba
basics
##shot
archer
labs
labors
rulers
petal
urges
epig
praising
##ographys
scroo
sentry
forceful
rainbow
frontier
ferry
keyboard
irrational
valve
cardi
##blind
##masters
expectations
arriving
dances
rubbish
audi
parked
dissim
succession
selfish
suitor
expressing
nonchal
camps
conceited
punishment
caddy
recorded
##oxin
galleons
roughly
continuous
cheeky
gardeners
conclusions
motives
##points
textbook
suggesting
rebell
rebuke
achieves
pillar
vacations
vanilla
cherished
clueless
venice
constrict
straining
##iterate
bibles
sweaty
heeded
contrition
listeners
oxen
throats
innards
rabble
concerts
majority
dirge
##uvial
dotty
coastal
approaches
herbal
altru
jerky
pilg
squeals
eventually
caviar
medicines
erected
tumble
witches
bronx
obtained
tiniest
surrounds
##winning
internal
giggle
tedious
honestly
bombed
bearded
conjunction
pumping
pumpkin
aberde
diesel
wraps
contempl
comfortable
chagrined
descended
sixth
mocking
pregnancy
rusty
colonial
envision
blended
diminished
diminutive
millionaire
grooves
hypoth
dawns
veggie
lambs
arson
arsen
fictional
mechanical
shrew
disinte
crispy
additional
trumpets
pyre
brimming
channels
flattery
shredded
converted
bessie
inquire
amphibian
amends
lemonade
unawares
glamour
molasses
hissed
monarchs
oozing
wailing
ajar
agnostic
restaurants
decrease
brunette
naval
attorneys
cynical
embryo
appetite
capitals
klutz
subtract
nabbed
therapy
immersed
chromosomes
xrays
embroider
mattress
##centered
degrad
wiped
consonants
maneu
membrane
karl
lighten
nephews
bakery
drenched
lyrics
knuckles
incessantly
occupation
bureau
ingenious
atrocious
intertwined
kidnapped
hilarious
vatican
innovation
artificial
norwegian
appliance
colossal
artillery
asthma
manifest
recruit
laptop
svelte
reindeer
velocity
entrepreneur
endangered
primitive
aig
aeg
bally
bids
bashed
cf
cus
cil
citys
dyn
dagger
ebb
fum
fester
gol
gps
jus
jell
jugg
kra
lon
lures
lager
lasted
mow
nam
nets
oph
oaks
overe
pell
pav
pines
rind
ruff
tul
tents
tai
ure
vogue
wails
yew
##iks
##rost
##rug
##avers
##auth
##nin
##har
##hands
##card
##comb
##xus
##mare
##mens
##pots
##passed
##len
##uld
##bug
##bane
##vag
##vah
##wow
##wig
thine
thresh
##inis
endlessly
##atis
##edle
##onant
##isal
##oran
##orable
##anim
##aro
##arial
toots
##enous
##enny
##itud
inquis
##icidal
##alid
##acys
##usa
hee
ons
shifts
shifted
stig
stagger
##idays
forge
##ira
##americ
ascent
##rians
chame
chink
chiff
chests
chunks
cholester
chedd
dement
dejected
##cels
reacted
soars
##enta
##imm
##imps
##sequ
##ilib
noting
nearer
images
imbi
allig
spor
spills
##thes
##think
##there
haunt
hazy
cana
canines
blithe
##ulin
capped
##opt
whatcha
cland
trink
traced
trunks
lends
cones
congen
seized
sewer
##ston
##storm
disjo
##andals
##abase
codd
coating
outcomes
cray
bras
abj
quid
quipped
scans
##assy
twof
enra
sweeps
calligraph
unimp
roost
robb
therein
teas
tearing
teasing
guitars
divert
dixie
dross
drunks
poppy
howard
agl
agar
cheats
moe
moot
mobs
##ango
shoulda
pecs
##uba
sked
cantank
peruse
idi
snip
hopping
##ucking
playwright
resin
stere
vermouth
##berts
##odynam
creams
barium
tripe
graze
helluva
namely
##ushi
curving
curios
lifelong
handling
assail
contracts
meanwhile
##emic
deciduous
##irds
harden
partly
##cover
sermons
addend
attitudes
faraway
reduces
antin
craved
remed
drear
runners
##hey
##ucc
##manned
broach
keats
elm
reliable
paralysis
maize
maestro
homemade
simmer
##zzi
setter
befriend
burly
fishy
erased
article
seeming
heartbeat
distaste
district
demur
devise
warrant
warfare
supports
striped
##ricate
strauss
straighten
##dec
voil
larva
wince
deepfried
concave
excused
prest
daunt
exting
extraction
mining
ministers
crossd
##strong
sunset
##prone
greenish
fooling
evade
tyr
beauties
veter
vegan
madder
transmission
##azy
annie
baltim
entit
##olds
achilles
dispatched
booed
visited
roommate
dinosaurs
clothed
smelled
despond
labour
breathless
breathtaking
satin
drawl
drawings
geoff
geometry
catcher
mistook
donation
donna
fixation
workshop
##keyed
palin
mentally
pubs
designing
revise
massage
renaiss
scramb
honors
risks
##apple
britains
grope
sorted
lieuten
dimwitted
thicken
ensuring
iris
irons
interred
constit
printing
rotting
##guing
swells
destiny
encomp
bucking
synt
languages
charmed
dangle
integr
##anais
spiro
spiral
fluores
surviv
nutty
effectively
pinched
cocktails
conceit
childrens
utility
pursuits
neckl
ashore
melanch
gallons
chairman
gardening
muddle
deceived
quitter
##breasted
textbooks
cursing
philipp
achieving
nineteen
euros
statistic
grinning
boutique
beeh
spaniel
benefits
bugle
albania
touring
construe
poetrys
africas
sedate
inhabit
publicity
embraces
surfaces
recalls
governor
##tension
mortgage
contrarian
debtor
codger
##ittance
innate
innoc
catholics
frightful
porridge
jester
ventured
responds
azte
empir
favour
sundays
emptied
folds
pitiful
imagined
augment
currently
unwanted
egos
referring
pierce
defending
screwy
regarded
regardless
departure
caca
suspense
possessions
censor
conceptual
economic
stalls
drummer
mobile
maple
owls
companies
sherry
caesars
relationships
trailer
ardent
replacement
crawling
loathe
marsha
##holders
clerical
murderous
witnessed
arsenic
adjusting
otto
plaid
pertains
simplicity
rosy
apostroph
dictator
proclaims
abbott
assembly
wiggle
fancies
explosion
nitrogen
perceived
sculpture
convex
abysmal
fragrance
mathematical
puncture
bourgeois
electronic
pimples
hazard
transformed
wielding
republican
screech
plasma
faye
jenny
cavalry
cavalier
sequence
arboreal
bursts
wrestling
paradise
dignified
bracket
miserable
lewis
margaret
escaping
saucy
ferocious
dialect
interpret
yorks
quirky
detractors
hebrew
unravel
apricot
hurricane
pheasant
##planned
eroded
caustic
harangue
masculine
nieces
resplendent
battalions
camouflage
asbestos
unlawful
percussion
belligerent
enslaved
portuguese
hambur
haughty
ennui
emerald
chamele
cantankerous
renaissance
avert
bd
bop
cay
citing
eer
els
ecle
ether
fusion
gw
gable
gord
gaff
gawk
hier
hacked
hmm
jammed
kvet
kansas
licks
lasc
latr
luminous
mam
mabel
nast
natch
nether
nooks
og
oars
pis
rive
rif
rene
sot
silt
tighter
wot
wade
wowed
wien
yar
yoke
##iary
##tt
##tan
##tow
##tta
##des
##dings
##dock
##nor
##nest
##hat
##cale
##cents
##cils
##make
##lics
##lift
##gos
##gys
##gots
##base
##bub
##flo
##kh
##kill
##vre
##zel
##teau
##requ
##oupe
##erting
endow
##xtrous
##atri
##onomy
##ingo
##inging
##arth
tock
##enne
##enced
##encys
andro
##itan
invested
whips
##icose
##icial
##lexic
##acas
healed
##aya
##etr
shamed
shaky
isa
stif
stashed
stammer
stifle
forte
##urus
##uration
##kees
chants
anise
deign
degen
libert
ord
orbit
orbits
fran
frayed
franais
spong
spons
spouses
noahs
plush
dote
sable
suicide
##oled
blimp
caprice
##estine
##ells
cloy
trashed
traded
trinity
tracts
##ardy
seren
sequel
shear
likewise
##stock
flam
flann
dishe
disple
disrespect
##ando
##abbit
exert
coppers
crom
crot
cranks
arra
brooks
abel
boister
##istas
gritty
##aceae
scy
scut
sciss
scroll
adhes
fend
prune
pristine
twitter
amer
ammo
enact
enfor
enchan
caller
unz
unin
unle
unsh
unwell
unatt
unending
bucc
guv
##peck
slough
slows
slav
wherein
thrush
jokin
newf
agitation
aggreg
##ogs
##oglyph
downright
##clusion
thinkin
##ossessed
skipped
prevention
cleave
cleopat
glint
glazed
percept
backb
carter
compares
compuls
comprom
components
inspected
insistence
afoot
hoist
strung
resound
rested
frilly
frivol
verge
speck
crep
highlands
curd
assumes
##inesis
teller
marys
mariju
decayed
nightmare
bribes
passenger
dougl
commotion
antiques
craz
godaw
staring
impure
impulse
impatient
airborne
wordsmith
drapes
draped
brock
coloured
##ymoon
expel
explet
expanse
brands
mater
sweetness
trauma
homework
simps
##occo
recon
undergo
undersea
ermine
##versed
articles
indirect
heartless
subdue
catap
foodst
sleazy
##ricular
lawns
salve
grips
classified
##uther
larges
rhino
finch
depress
daunting
dazzling
humour
mints
incor
##obias
flyer
##ophobe
##ronted
wishin
believing
evolve
complement
invisible
##cribe
blends
tyrant
admiring
banjo
undress
windy
angus
easier
yearly
famine
pickles
cowl
balder
woodland
woodwind
foretell
pennies
cooler
harps
flattened
capers
termed
dryer
solids
despicable
potions
potty
cropper
promises
promotes
dealers
geology
sharply
greeted
doncha
baggy
materi
derri
deride
warmer
prett
bulldog
designers
prague
ambide
ambitions
defeats
reno
##ursed
causation
bermud
attackers
casks
casino
dreamy
frock
dreaded
irres
interfe
interview
danes
constipation
##guess
aha
##omyc
bolder
secondhand
joyful
tonguet
colorless
audible
prepar
parking
boarding
yea
baa
frankie
appealed
fortress
historys
melted
fabrics
mutton
gallop
unclean
viking
##arianism
covert
muddled
uncool
uncertain
gleams
ghana
virility
acrid
whiskers
tracking
receives
philology
instantly
cultiv
euro
bunnies
vanqu
photographer
beech
benefit
athens
murky
auld
eccles
femme
busting
chocolates
enterpr
ethn
mickey
committing
superst
champions
brushing
tunnels
scrawl
scrawled
villa
villains
organization
deserts
investor
divorced
tavern
summertime
blondes
azure
dyslexic
synonym
insisting
contraction
challenging
egot
egad
temperatures
weighs
steeple
russians
criminals
##osphere
abdomen
tango
boomer
sacrif
stallion
neurons
absorption
owes
abhorrent
progressive
wicket
nucleus
sherlock
crickets
egyptians
shaving
demonstr
allergy
drifting
napole
wardrobe
pondered
database
clergy
corpus
persuade
hospitals
wondrous
ascetic
characteristic
warnings
hitched
lesions
tremble
lapse
separation
simpler
##rupted
inspecting
relieved
festive
flirtatious
portrayed
assembled
crushing
ruthless
comprehension
exhibition
cruddy
assignment
aeol
##selling
squeezing
stampede
consecut
multiply
esteemed
fascination
bimbo
bourbon
panties
retirement
anemia
adorable
bernard
gimm
dynamite
unease
telephone
landscapes
aliens
inherited
mosquito
mishe
inhibit
lexicon
portraits
gratitude
nudist
byebye
embarrassing
larder
yoga
persevere
volcano
fisherman
advisor
energetic
frenetic
maimed
eyelids
depravity
oversized
consequence
snarled
initial
rehearsed
sugars
sugary
dulc
anagram
abacus
turkish
boulder
vectors
acronym
articulate
aphrodite
mischief
brussels
engenders
cindere
caboose
acquisition
pavement
##orrhea
canyon
abreast
rapport
eyebrows
##iatrist
cancelled
ambulance
armadillo
poult
flimsy
parliament
duchess
confederate
skittish
##walks
strolin
foliage
biceps
proverbial
souffl
imbibe
douglas
aaa
bt
bj
bors
bism
bosh
cim
camb
catherine
doss
dacty
eject
fj
fido
gil
gop
gong
gash
hans
hasty
jills
jama
josh
janes
junction
kee
kook
kosh
kinky
ls
lash
lasts
lye
lengths
miam
natter
omen
pm
poth
pints
panda
rs
rites
rinse
ses
sous
syl
tamed
tah
tiff
tours
trod
uter
vino
wi
wes
wisc
wurst
yelp
##run
##rots
##aunt
##dal
##nation
##nik
##nabe
##hic
##haw
##hundred
##cos
##cule
##mail
##melling
##pay
##pour
##pants
##lifting
##opp
##opping
##gt
##bud
##fry
##fters
##kan
##vard
##vies
##vised
##wart
##winded
##inting
##oure
##atas
##atio
##ativeness
##llen
##onaut
##aras
##arous
##enas
##ito
##itical
##icos
##icrous
##lection
##otically
##otroph
##utch
beets
beacon
##acial
heating
##aday
##adian
##addled
shifting
shtick
stating
##idi
##idate
##idium
weaken
##urist
withered
withstand
##rium
##riever
chary
chained
champs
##illary
dears
decked
liv
reun
recept
reacts
soiled
soils
##rable
##ilted
notorious
fruity
necr
spel
spurs
spurred
spilling
##thal
##thef
canv
nond
noct
##ppa
herm
herman
blather
blob
blighted
cables
##opus
##optery
##estone
clang
clasp
byz
lever
leaking
leuke
##ardi
##igration
##state
flur
flops
disen
disks
disrupt
displaced
##andered
##inda
##abi
##ousness
##felt
alve
coed
coil
coif
coated
coex
criss
crump
bray
brunch
abject
uphe
quas
quoted
bohem
grins
advers
##assic
feasts
prattle
loos
loam
loch
looms
##plitting
twiddle
aman
enable
props
unearth
##quat
##elike
manus
manly
managers
smir
bux
teap
guidance
dipped
drows
poof
polly
##ortune
slit
sliding
slicing
##iforms
thromb
oldtime
daytime
agog
##tence
downy
##phr
shouldve
timbers
skates
preco
pretentious
##ensively
##ended
brewer
glas
glade
##lesque
perky
perception
idyll
carts
wavy
insuff
insulted
snob
snoop
snatched
snicker
fonder
reserved
##order
##rainer
frills
##armed
heady
nevermore
overre
spears
crease
barbs
barney
curds
earliest
bigot
surve
marian
tryin
##neous
nighttime
partial
belize
delivers
badge
brio
##rents
attained
doug
doubly
commas
consign
cravings
courting
starry
blackberry
drake
drags
cola
expands
elicit
relies
bragging
mais
traff
traps
baller
##dyd
fearless
exploding
artwork
calib
indiv
demonic
demurred
##bbling
devast
supported
sadd
##grow
gripping
classed
turds
divul
deport
avid
avoids
raves
##velops
topics
dazzle
horrors
floppy
incon
pasty
shortage
shortlived
professed
evils
eyeball
brightness
schooling
forged
bleu
typh
##temper
observ
##boats
transm
goldfish
bowler
eases
easing
astounds
cowp
cowork
compliment
fitter
forebod
harness
##ammers
countered
countenance
misgu
mediter
seafood
capacity
marking
dispose
booby
basically
archie
posit
poster
debates
croat
ignores
spotty
secre
candor
candies
untold
nero
derided
morsel
copious
furrow
epide
bankers
climber
bloat
hybrid
avoided
pricey
wannabe
weighty
botch
breech
panned
cardinals
detach
detailed
intimate
sensed
camping
dukes
syd
efficient
propel
unsung
dentists
selfre
employer
employing
suitably
twentyfive
savior
##bodied
ticking
plateau
conceived
punish
histr
histor
recording
lunches
considering
##forward
covering
linking
pitches
uncont
motors
predicts
freds
texts
aerob
cruising
cruelly
vanity
moody
cherub
naturally
##oscopes
dragons
venge
carpets
flashy
prosaic
services
fetching
calmly
chiefs
toothless
brassiere
barbers
dubya
samuel
inspiring
smoothly
extravag
relaxed
suckers
claus
bravely
drills
austin
porch
miracle
chilling
chewy
bitchin
shuns
suspects
addressing
bumpy
citation
taunt
developing
homer
dyspe
dysfunction
etched
correctly
traditions
unwilling
bastards
diagnosed
hatchet
rapid
abstraction
guarantees
maintaining
bawd
improvement
michelle
bunches
sodium
prescriptions
generate
clamor
hindu
shrieks
hauling
nicer
siamese
marshal
pretending
racial
chlorine
expanded
corpses
mourning
##oplasty
predictions
dabble
fractions
philosophy
automobile
troublesome
##ablishment
ausp
fulfilled
##falls
patches
##built
recoil
blushing
dominion
linguistic
intrud
exhibits
defective
spurious
johnson
##wrought
fragility
##ophagous
hippie
cramped
baptism
dissect
socket
enchanting
astronomer
apprehension
cobalt
recline
blacksmith
julie
embryos
gadgets
gelatin
mishap
alpine
extraneous
##conscious
##obsessed
bristol
democrat
orchestras
siblings
shepherds
toxin
whistles
butchers
stumped
antennae
resource
##ozoic
lodge
honeymoon
wheezing
##fighting
adequate
abolish
unnerved
vector
invective
patently
tussle
centuries
catastroph
mathematician
travails
erudite
dishonest
voyage
ingredients
ludicrous
ounce
oysters
pioneer
abrasive
feckless
impossible
connoisse
accompan
vintage
aboriginal
burdens
kangaroo
spontaneous
accustomed
antarctic
oblique
malaysia
trombone
courtesy
benjamin
bailey
asparagus
broccoli
##ofthemill
misconstr
clandestine
baltimore
godawful
materials
misheard
cinderella
wiscons
aure
aort
buss
cc
cp
corm
dn
fide
fars
fined
gild
giz
gunk
gushed
giants
hoops
ib
jive
jost
jeep
jiff
kitt
lute
lisp
lashes
mids
mills
mamas
mnem
noodle
nappy
obe
pt
pree
pau
pug
raced
ripp
rasc
rugs
roused
ragged
sord
sals
sushi
trophy
vim
vind
vulture
wuz
xx
yam
yelps
zany
##iard
##iates
##iams
##town
##rades
##daugh
##dler
##name
##hound
##city
##crow
##cery
##mb
##lah
##oco
##uj
##gressed
##gically
##bark
##bush
##bread
##bags
##ko
##kate
##yse
##vant
##vins
##viate
##wy
##were
##waters
thail
thunk
##teins
##inary
endings
##atum
##eda
##onent
##onne
##iste
##isor
##orize
##arine
anders
##itone
##itosis
inward
whered
##omon
##omething
##icits
##icuous
##lement
##otrop
##otype
beret
behead
##aloo
##alian
##alism
##usively
##etto
shilling
shifty
shimmer
myopic
stalled
weld
welf
weaver
##urf
withdre
chape
anon
deod
dewe
delete
rears
reigned
sox
solic
sobbed
sobri
##role
##rove
alluring
##atee
atw
arena
sper
spock
spank
sparse
hater
cancan
##umatic
nodd
##geal
plast
plaint
plums
##ainly
dogged
sauces
sud
##olph
##olia
blud
blisters
cauld
##opol
##opoly
willy
byron
conical
sheila
goy
gogh
gobble
disav
disli
disney
displace
discharge
##andering
##abil
##fel
##fered
alan
compend
##ameter
exalt
##achy
coerc
nows
crin
crone
aris
aroun
brambles
quilt
grumbled
##athetic
adon
adver
fey
pranks
##agen
##aginous
loosen
usa
user
twine
twig
amal
amps
amuck
amok
encephal
swank
swirl
unions
ungl
uncovered
##quin
gren
##elcome
smelt
robes
robbing
moreover
aced
acumen
diapers
diagonal
drat
ponds
pods
slacks
sliver
mayo
mayonna
##ifiable
throttle
oldest
jove
##tents
appreci
pebbles
sinus
preached
muh
perp
perfected
computing
waiters
aficion
hobo
resume
##meat
longwinded
steven
steamed
vern
##odo
##odel
barre
barack
barks
bartender
trepid
grabs
lifeless
writh
handled
assim
helpless
contusion
##anca
bothered
maria
##orman
##neck
swears
sweats
##encephal
drifted
delve
##coated
adder
defra
deflect
commute
conservation
repast
reproach
crafted
remiss
impass
impunity
runofthemill
##heet
##hered
beget
##ivable
elim
elab
parach
parrots
mauled
missions
dearie
corinth
apoth
esther
paycheck
ballot
recite
recession
befuddle
artif
indif
indign
distort
catac
billing
babel
elev
damsel
studs
sadie
##grounds
##growing
viewpoint
formula
salon
bier
bikes
biopsy
biochem
strapped
grizz
##deal
larks
rhin
##bras
retriever
turks
norway
wright
excre
presum
extinction
humid
humorous
minions
incense
bellowed
opaque
armchair
##efully
cybers
pauls
pauses
sprinkle
objected
evap
invo
observing
veil
sidewalk
angling
angler
situations
yearned
##azing
##playing
annette
bali
fitness
cirrh
freaking
messages
entra
flatten
patty
patrick
capac
disput
disposition
##ooned
budding
teachings
booz
visual
solvent
arches
despised
debased
maggie
silic
silken
milking
romes
ignition
specim
filth
geography
benny
christopher
cornuc
##lov
##loved
##cycl
dishear
morocco
troupe
wilde
palind
spellings
uran
urgin
epist
doubleb
truthful
##aea
susan
papal
huh
scrotum
honored
smokers
locate
sandals
dimple
dimensions
fronds
garg
garment
garner
garments
ferr
feral
ensues
matrix
printers
princes
princi
taller
fanatical
detached
intricate
encumber
encroach
campfire
rube
shapely
trickle
buckets
skillful
joyce
efferves
bodice
propag
sighing
besp
besotted
practically
boarder
harmful
incline
selfde
twentyone
juven
savory
listing
tickled
miller
puzzles
animation
melody
luncheon
viable
packet
##ritus
brandnew
rudely
tarts
quarrels
predator
amongst
philip
reborn
acquies
questioned
anthrac
pillage
improper
bulging
thankful
swearing
whatevers
venue
repeating
albumin
##ollar
cubs
strains
estates
aqua
aquarium
reporting
accountants
##ascular
louie
robins
insectic
seaside
rowing
##cara
bottomless
moderate
pedantic
scraps
stormy
hollered
convicted
errant
switching
teenager
bloomers
gentlemen
scribe
gangs
traders
informal
exhort
shrinks
sensational
riders
beckon
chromat
martyr
martini
reflected
grossly
snacking
resembling
hacker
##cials
lipstick
tearful
aphids
dependent
religions
desserts
abdomin
eucl
census
puffed
struggles
splendor
##hopping
abhorred
##downs
railway
molecular
##ometric
generals
shorten
forbear
diplomat
##burgh
clinch
allergies
ribbons
lizards
lyric
alcoholic
charlat
marshmall
graduate
museums
squirrels
affluent
peeling
ascension
liberty
mechanics
ott
hooves
prophets
desperately
gambler
fractured
competitors
inspector
discreetly
##inchief
licked
euphem
austen
virtues
virtual
allegiance
platform
assemble
recover
fancied
libation
extending
browse
steadily
steadfast
santas
sloven
syndromes
ducts
carbons
pistons
premature
coroner
nicknamed
offended
sustained
##powered
extension
ailment
##rified
cigarettes
chords
grandfathers
villainous
nibbling
abundance
decreased
alfred
scraping
activities
transformation
avenue
nasa
##fruit
##through
ammonia
scorned
navel
exempt
crustaceans
energys
baskets
origin
hysteria
unlucky
apocaly
flunked
verdict
abruptly
hickory
laurel
narciss
pesky
pithy
sultan
combustion
travelled
gothic
sprawl
amoeb
avocado
perspire
##ylvania
penguin
penguins
bagel
girdle
ambassador
##country
appellation
desirous
scarcely
novice
blatant
igneous
plunged
aggravation
cremation
authentic
doeuvres
florence
contagious
cosmetics
ritual
chortle
deliberate
cellulose
scenery
earthquake
propriety
demonstrate
fifties
esoteric
rhythms
reruns
clinton
erosion
immortal
aggrieved
grecian
besmirch
chauffeur
flounder
dalmatian
kiwi
nautical
phlegm
blackandwhite
begrudge
eskimo
efficacious
ceramics
couture
ostrich
disperse
acupunct
archimedes
##achiever
unruly
glucose
pernicious
carcass
rebellion
scrambled
syntax
boisterous
largesse
consecutive
kosher
upheav
glasgow
mediterranean
withdrew
aub
avers
auber
bm
bam
bact
boud
cinder
das
dirk
eul
eased
fos
fife
gail
iced
igu
jag
jenn
kal
kap
loun
lugg
mott
mounds
mounts
mowing
mumbled
nou
nuff
oe
ole
omission
pong
pics
pours
puddle
rah
riled
rio
ritz
seth
surn
tres
taps
viz
wren
yay
zit
##iated
##iantly
##ioux
##tal
##too
##tings
##tale
##race
##range
##rato
##aires
##doms
##hall
##cot
##cry
##ckered
##mong
##metic
##marks
##post
##pool
##paste
##lie
##oi
##oed
##ocl
##uas
##uette
##gee
##gings
##gingly
##both
##bable
##fet
##fifty
##viet
##zie
thither
##ndown
##inus
##rend
##reuse
##eria
endurance
##este
##escence
##atry
##llis
##onn
##isance
##orrh
##arin
##arney
##entee
##enza
##asse
##itations
##itrant
injected
input
inlaws
whee
whizz
##omys
##icip
##icillin
##oty
##otas
##otine
##otive
##otax
##otropic
hep
heaped
##etts
sheds
sheeps
##osted
##ithee
wease
weaves
forfe
##amins
##chn
asin
asthen
##ooh
ches
chen
chard
chaw
chug
chipped
chih
cheney
anor
anted
anto
deans
deity
deuce
deacon
liable
lizzie
reeds
reaper
meow
soviet
##entials
wasp
ordeal
neon
nels
spans
spilt
spinal
spades
spheres
##thus
haven
noggin
##ppe
doin
heron
##olo
bligh
blasts
cag
caud
caber
##opot
##opian
##establishment
##elli
clans
clicks
climes
clumps
cliente
byr
leo
lease
conference
sean
flue
disent
dislike
##ousal
kno
knelt
kneeling
alto
alger
outward
cronies
arty
whores
abed
abet
abuses
grating
scow
scint
scares
prithee
lox
loosed
loading
##othy
##plish
twoth
twigs
amorph
enam
enrolled
swirls
swapping
swirled
proct
uniforms
##ipede
hester
wellbe
buggy
acl
acer
acorn
illino
dix
diac
diast
diary
diagr
drudge
poked
poached
##people
slither
slurs
slosh
sludge
slightest
##ifix
howled
wording
agin
agile
agency
cheet
cheque
checkered
needless
##cloud
timber
peps
skipping
##ensis
cantal
goodwill
mucus
perpend
performs
compart
compost
compel
compress
comprise
insides
sno
snare
hopped
foresh
strum
resulted
resolute
frigid
steves
steward
vera
##told
betw
betters
##perm
##oder
##odies
overl
overcome
overwrought
spewed
creat
barter
barny
workplace
highways
curric
planks
lovemaking
handc
handmade
asset
surfeit
surpassed
marri
comely
decap
youngest
chole
partially
funnel
addle
crimp
defies
defenses
##renic
confound
farted
reducing
passers
commode
leftover
readings
repar
reported
antil
antich
antics
crabby
girly
##oyant
blackened
drafted
begone
begonia
cutaneous
beda
bedtime
turner
elong
mares
misses
corned
apathy
soups
bitters
befitting
burlesque
shoppers
##aha
birdie
christen
subm
submar
subsequ
edition
baba
wednes
weddings
lawrence
behest
format
gripped
discol
larry
larval
finale
finances
winners
divides
infest
halitosis
##ielding
concurred
metall
extrac
lotto
incent
incite
incident
pasture
##undy
##unders
##teady
persists
persistence
sprint
earthy
batty
yellows
fairies
declaring
forgets
ceo
obser
observes
bann
veer
childish
happiness
windm
angrily
denim
denise
annivers
annoys
astro
astring
astroph
fitz
freaks
##ternally
treaty
treatise
slowing
harold
##ammad
quebec
misplaced
mislaid
hurrah
medals
capn
boohoo
visage
##theastern
basal
castor
solving
arche
posterior
labored
rockets
chancell
autobi
crocus
prompts
promoting
equilib
geologists
browned
darj
##minute
cornet
provider
misty
mermaid
gala
tempers
morb
shrugs
bullf
elections
colleen
colleague
tougher
urs
defender
##ographically
scramble
bandw
ringo
persona
boundary
britann
circulation
freshman
rancher
shocker
droplets
reverent
interse
danas
panacea
campan
duet
duod
immun
cupid
buffer
butterflies
masks
parker
dissolve
harmony
cheerfully
employees
counterfeit
macho
frankens
judgement
nonpl
flighty
##notes
trusty
crowns
##ienced
superfl
carton
melons
pitched
##iscop
uncons
performers
knocking
quartet
nettles
texting
receiver
rebound
hunted
plotting
anthem
improves
bulgar
rumble
photons
benevolent
processes
albumen
variation
ecology
sediment
seductive
chatting
torrent
seedy
celtic
resisting
tonights
contrace
inspir
##door
absolution
commanded
roulette
phelpses
microw
claust
tweed
coughed
tuna
secretly
secretions
heavyweight
dwelt
annoyance
henrys
hostess
consuming
belonged
jersey
investing
gentlemans
distressing
homo
etiqu
arabs
auger
##anthrop
ceremon
ridges
tapew
kenned
pirou
unwelcome
chromatic
happening
marty
weighing
odors
skept
functional
barnacles
boasting
quietly
flavorful
ghostly
pupils
feverish
birthdays
chartreuse
egypts
malls
carniv
affecting
absorbed
bomber
coolly
bubbling
prescribe
espied
groaned
feathery
styx
leadership
socialist
reflections
thoroughbred
hindi
shrieking
shrieked
stubble
##locked
marsup
closest
minority
picass
injury
vegetarian
intelligence
witnesses
leaping
adjustable
bunker
trembled
culp
culprit
entranced
philosophers
engagement
safari
drooling
festival
vexation
shakespearean
pacif
crucifix
intrusion
analytical
converge
defects
appendix
fossilized
sculptor
sculptures
hanker
nothin
##flowers
vibration
##written
amusement
aflutter
provoking
punctuation
bovines
awarded
pizzazz
clogs
elementary
brightest
lumberjack
ailur
choler
stranded
sneezes
contrive
microscopic
dynamic
gorilla
hazel
hymns
distinguished
activist
corset
nasal
amidst
cinema
sewage
identical
bikinis
dispersed
almonds
therapist
lynn
blotto
outdoor
abeced
outermost
literal
bristles
deprived
sieve
asteroid
sulfur
cafeteria
glossy
volcanic
##omorphic
surveyed
baffled
dolphins
physicist
flirty
hammock
wacky
anesthesia
incessant
bemoan
icky
engendered
aground
devotee
cascade
influence
abbrevi
retrieve
attentive
curvaceous
capricious
conspiracy
caucasian
vehicle
astride
virgins
riddled
zigz
chassis
gypsy
tinker
tranquil
anglican
independent
adjourn
heinie
myrtle
ninetynine
amnesia
vertebra
assuage
responses
pyramid
submerged
kudos
bothersome
burgeoning
warrior
lecherous
afghan
fairer
mittens
spherical
arrears
treacherous
scrooge
altruistic
degradation
taiwan
##american
curiosity
entitled
encompass
necklace
hamburger
latrine
scissors
ambidextrous
bermuda
interfere
miami
teapot
precocious
individ
sydney
thailand
welfare
gargant
subsequent
aural
bn
bide
bav
bidd
bards
biling
bival
cem
crested
dams
dyl
daint
dither
dimes
dune
dasy
ek
ez
eard
fume
fisc
gou
gurn
gathers
hart
hilt
hulk
jut
jord
jude
kits
kelly
kelp
lact
lanc
leech
laser
larynx
mia
midd
mastic
mingle
noo
oaf
ova
pence
piv
rating
siss
sipped
tay
tir
takin
tagged
tasting
tainted
udder
vandal
vamo
ware
wider
yess
yuck
yvette
zer
zed
##ibe
##iatic
##tive
##tics
##rat
##rance
##rative
##ridden
##hild
##hounds
##hoe
##cum
##pits
##pah
##pole
##packed
##pipe
##lash
##ober
##gum
##gars
##gues
##gular
##gments
##gias
##fol
##fif
##fires
##yx
##ych
##wares
tho
thaw
thirt
##inte
##reating
##onial
##anza
##ingue
##arly
##arthy
toile
topping
##eno
##ente
##enot
##assem
##icans
##icative
##leans
beige
##alation
##alone
heats
hemp
onee
##adas
stakes
##urgical
##aman
##chet
##kete
##rites
chaf
chipp
chanced
chasm
chutz
dehyd
##terate
##terys
soaps
##entry
##raising
##rope
##roads
orleans
##iless
frat
frugal
nein
neural
nearest
thisll
##ightly
sputter
spelt
##thest
##thood
##thirst
haunting
##gends
plod
pliable
doves
dozed
dodec
saun
sapp
blest
blames
blurb
##uli
##ulated
cah
willie
williams
clack
trow
trish
legends
congest
contends
##ardo
##iels
##ievous
seb
sewn
semic
sheik
##igans
##store
##stool
flings
flail
flub
flank
flaps
flaky
disob
##inders
##abra
ales
comrades
exe
exter
##anti
coord
coordinate
cric
crouch
crummy
crammed
croup
whopping
whoosh
bront
abat
ably
abashed
quaking
quizz
bozo
##ongued
gras
grams
scler
fete
feist
fender
felds
prowl
##agos
##agra
##agogical
##ourt
lobe
loco
loony
amyg
gettin
swipe
progressed
unab
greased
manhood
roosters
##ichord
bucol
guill
guise
acrop
diane
dioc
whereby
thrice
jog
joey
agron
cheaps
downstairs
appal
mond
moxie
emily
embed
emission
offering
pees
skit
skips
preh
prel
pretends
clevel
cleaver
glor
glimmer
goodlooking
idiotic
caramel
##fta
findings
##ocket
##iana
insistent
afri
firing
snitch
hopper
hoyle
hocus
strata
phant
longago
longdist
steered
stephen
##bery
headaches
overrated
founder
creak
herein
hereby
barf
trig
tribal
triangular
grail
##beating
earls
handic
handful
##ibleness
surplus
showered
contacts
marquis
marvell
decrep
##never
chopper
sweating
dries
dribble
##atedly
clearcut
##coat
##itioned
##alem
addled
criteria
##inster
defiant
conflic
commune
accost
accip
readily
schiz
hearth
hearings
drafts
##ultures
elk
elvis
param
parole
parcel
##attery
missus
corks
correl
apoph
freezer
esth
souven
ballroom
muss
squig
squared
recalc
underwear
burr
burgh
erg
erred
erup
artich
filler
hottie
##ffect
indones
distilled
distorted
distrust
demented
catar
warp
warren
warns
purred
purplish
##tentimes
supposes
supporters
babbling
bloodthirst
daddys
damasc
##gram
behaving
salami
biologists
##uesome
classroom
absentee
finn
menacing
norse
depicted
aval
##why
factions
genital
generic
mettle
preserves
humility
floated
incur
incurred
belles
bellies
killers
flyers
armaged
persians
soninlaw
affable
affixed
paj
##ophyll
obst
fairness
condom
condone
evry
failures
skinner
wallop
declaim
forgiveness
bleat
blender
tyke
typed
doubtless
##tempor
beauts
undies
madonna
angie
angular
sitter
doctr
transpl
transpor
bowlers
##notic
astra
astaire
forec
freck
penning
penns
dogma
misde
dispos
budwe
##ealing
basque
replacing
limes
despots
thrived
thriving
bossy
potted
silently
saturn
prompted
talkin
legions
splashed
cornish
cornered
##loin
##loom
sixp
meringue
requiring
oklah
deranged
temples
meaningless
copied
descriptions
revoir
costumes
ambush
##wells
hygi
rented
smokin
bandy
footwear
combination
avoidance
meaty
circuits
grocery
thickly
blinded
blindness
neighboring
dreading
jackets
smarty
rotund
##century
ruby
rubbing
dismant
sharpened
proportions
preposter
cheaply
sumptuous
unspeak
dentures
buttery
##yeight
snowy
employers
suitors
admitting
tuba
##attice
ticked
pairing
bonk
fortnight
crowded
radar
gentry
senility
fables
wetter
gallon
continents
##ixtures
##ritical
branded
##ensional
##arrows
ghast
masterful
texture
aeros
aerodynam
beastly
cursor
versa
photography
drainage
spanned
bentley
##agnetic
benefic
processing
ratings
auf
construed
servants
varnish
politician
psyche
shuttle
dolls
torrid
barbary
prizewinning
oxford
##ogeny
implored
clockwise
disappears
essay
essentially
fondue
fondness
creditors
lustful
psychiatrist
binds
measuring
dotted
discussions
cannab
bitching
substitute
jerome
flooded
freedoms
shoreline
operas
vainly
empow
reviewed
folding
travelers
gangsters
augur
##anthus
trader
dunn
dunes
proceeding
terrorists
florist
contractions
woolly
hawking
routinely
hij
mcdon
particip
odious
dedication
##uscular
skeptic
typing
steamy
hubbys
##ospheres
privates
tortured
explorer
sacs
pupil
enlisted
enlightened
chirop
possesses
##belief
bruises
astronomy
puffy
brilliance
##urban
enhances
digestive
##osterone
preaching
thesaurus
adjud
affections
distinctions
farting
conjure
piper
programming
ninth
mythology
clarinet
congressional
companions
scanned
mountainous
bridal
forestall
frighten
scoffed
colourful
graduation
flavored
accidentally
racist
quarterback
hypoc
vegetation
vegetables
dawning
pledged
trimmed
aplenty
fiercely
juniors
##okinesis
##bells
settlers
hooch
blurted
sweeten
connecting
dictates
pyth
victorias
ruddy
duds
fulfilling
hogs
assembl
courageous
dominant
intrude
publisher
appendage
draconian
perceives
disparate
sneaky
vibrant
conveying
assertion
fragments
adorning
conspicuous
##ophagus
disconcer
constructing
peeping
flapping
baptized
californias
intestines
dissection
psalm
commercials
deflate
deflated
##ophilia
astronomical
bernie
apprehensive
dandel
montana
cobwe
rattles
abundantly
mollusks
ketch
navigation
sofas
cucumber
aristocr
argentina
appraised
rampant
qualms
muffet
bhut
fasten
consolation
vaginal
antenna
reproduce
reproduction
yankees
deployed
acrobat
nixon
doggie
selfe
peanuts
glacial
ambiguity
##reciate
apocry
acclim
misleading
mercury
newspapers
depleted
trivia
brahms
nobrainer
sultry
martinis
tattooed
abolition
inscription
boulders
lyrical
churlish
reptile
accommodate
ravenous
astronauts
nauseous
processed
mischievous
puppies
crocodile
steroids
lorry
rearrange
bagels
islamic
abuzz
entertainment
transgression
##catching
quantum
hairdo
bisexual
thrifty
iambic
zoology
blanche
consciousness
acquaintance
telescope
##writer
municip
pontiff
heavily
unrestrained
phenomenal
chateau
exorc
quixotic
ceilings
producer
diphtheria
caribbean
impeccable
russell
pneumonia
aberdeen
tulips
cheddar
apostrophes
compromise
incorrect
balderdash
napoleon
borscht
fjord
necrosis
buxom
thrombosis
idyllic
connoisseur
wisconsin
sordid
cauldron
mayonnaise
trepidation
juvenile
lounge
clientele
illinois
perpendicular
betwixt
passersby
incentive
darjeeling
gargantuan
chutzpah
longdistance
recalcitrant
hygiene
mcdonalds
municipal
ave
awn
aute
bens
bays
cumb
cune
cumin
dl
dion
dach
dott
dosh
dagn
ditz
doodle
eun
eater
eaves
fop
fand
gill
gand
goop
gales
gays
hots
hating
hiph
jason
jugs
jeered
jingle
kah
karma
lank
lanes
mp
mire
morm
mired
masts
noodles
nazi
nathan
oar
pse
pimp
pester
pittance
ruck
raged
rages
sacks
sallys
tand
tile
ug
utens
vs
vas
vien
waking
wily
xs
yidd
zs
##iad
##tz
##tch
##tub
##times
##rush
##ruff
##eas
##agh
##nosis
##nothing
##hum
##hour
##cill
##cars
##cott
##cooked
##moded
##pound
##pents
##pric
##ports
##pocus
##lon
##last
##lation
##lob
##uah
##gas
##groom
##bard
##blo
##fers
##vie
##vana
##zt
##wick
##qa
##jacks
thames
##teel
##inia
##intest
##rem
##ofthe
enduring
##atar
##atize
##only
##onite
##iselle
##orus
##orah
##antes
##ington
towed
androm
andean
inks
whacks
whipping
##omph
##lear
##legs
oftentimes
##utian
beamed
bequest
##alom
##aless
##alike
##algia
##usal
heightened
onus
##adic
shuff
shucks
shuffle
std
stork
stony
stagn
stilet
##iddy
##ithec
ween
weighted
forks
##urbed
wither
##amist
##chs
##chus
asex
asthm
chapp
chlam
ano
##illions
dees
deade
detention
##terred
libel
refe
meph
meager
##alls
##eeing
##imer
##imbo
orator
##ilas
fringe
allen
##uncle
##uncular
spook
spire
spasms
##tha
##than
##thel
##thorn
hah
hares
hapless
haunted
canard
canopy
##gean
plied
plume
pluto
##pps
dop
sauced
##aki
##estible
clime
trades
leop
leeds
levy
coney
congo
##astical
##igree
disf
disast
disbelief
##ande
##andd
knitted
aloe
comf
existent
##achron
copped
outland
outfits
outmoded
arid
aromas
##apar
brunt
braced
brady
aba
abrog
quark
quench
##udy
boils
bogey
##istan
##istant
sayings
gruesome
scound
scads
adl
prat
lobes
loaves
logger
loomed
uss
twee
wouldbe
amin
amino
ench
enchants
swig
swamps
procre
prolong
unqu
unhing
unho
unbelie
unrelated
unplanned
manger
##arers
roars
teamm
dizz
drub
slush
jocks
##ogether
##ogamous
appointed
mocks
emma
##isement
everlasting
thinkers
peac
##ethey
mademo
skys
skids
prevented
##ensitive
##endous
desic
glenn
backup
backbone
##ocking
comport
##iances
snores
hotels
fodder
strad
resists
resorts
resurre
phoned
philly
phoe
phoen
frill
stews
vert
##toe
##toos
##tobe
headlines
##pert
didd
##ignon
crepe
heretical
barons
trio
trike
graff
grates
grazing
##bees
hightech
assailed
asserted
pained
decade
decipher
youngsters
sweaters
hardened
hardworking
belch
delux
deluded
delusions
clearance
addict
defunct
##rences
attrition
smallish
accede
accursed
##uple
reprie
antide
antiv
antio
afterno
starved
deadbeat
ohio
blackjack
cuttle
##ucent
bedside
bedded
bedrooms
bedbugs
brokers
relic
relinqu
parched
##cca
maur
apo
trailing
roundly
ballpark
squint
recur
recess
recital
collie
drinker
burrit
shoved
##lio
##living
bookb
seemingly
induced
heartfelt
devoured
billys
ladders
warms
warring
##ussy
##grad
wedges
behalf
salacious
biom
discri
classify
absinth
wobble
wobbly
divin
quicken
deput
depict
infraction
infamous
raved
factual
deepest
excise
horatio
##imey
##imeter
humps
humane
humpty
lotions
crosssection
countless
monument
regards
facile
armored
##print
sprat
tenacious
evoke
skinned
bleeds
banners
sidebys
unden
fait
weeps
denounce
denmark
yearns
cookery
##ylic
circling
harms
harried
documents
halfs
cleanse
sellers
agreeing
agreeable
hurl
hurried
capo
capuch
##ummys
visible
##shield
plantation
tombs
archd
archety
poses
posth
milks
autod
romp
romant
croquet
ignited
satir
equine
secular
benighted
churchs
##minal
corny
cornell
provisions
critiqu
sirs
donned
donations
##terial
requests
derive
temps
tempor
moronic
southwest
frenchmen
palp
suffices
furs
epile
epoch
eponymous
mentality
revived
massed
gasket
hydra
tiles
cosy
renamed
renounce
scram
oppress
oppressive
opportune
bandage
located
bounder
malad
malcol
caspian
groin
##formed
##formation
thicket
ferret
ensured
irks
interference
dante
botched
botox
rotating
fanatics
portal
portable
detox
detritus
##goers
##blank
expectation
sorta
encased
rubes
taxation
bacchan
physically
besie
##uela
mouthful
dissu
experienced
harmonious
bottled
##flung
baited
twentytwo
technician
businesses
ticker
nonce
wheedle
objections
posture
measurement
bushy
hookers
trustworthy
radi
superman
pushy
axle
midair
continent
detergent
connectic
coverage
thirds
wreak
##iscus
bombastic
ghou
rhymed
frowns
##ulsed
seattle
predicted
nettle
receipt
rebels
acquit
##worked
aspired
versed
custod
rumours
visitors
boron
boris
albino
tourn
##aijan
inhale
caveat
chinch
recalling
dubai
boliv
hillary
##royce
succeeding
pronoun
strove
strode
cathe
amazingly
frequency
frustrated
lusty
##matically
clapping
clauses
psychic
definitive
drilled
pedant
##uvre
storming
gaul
prevailed
errone
devilish
leek
rushing
releasing
scratches
jerus
##rehensible
attendant
attendance
exception
exceptional
feasting
shyness
gnome
summit
summation
curtail
azerb
empath
batterys
proofs
fleshy
buzzed
journeys
cords
reactor
primord
tapes
florid
marrying
opposition
opposites
civilized
##ova
roofs
polemic
communion
zebra
winks
welcoming
deduct
analges
skewed
dependable
blinked
diagnose
privacy
cranium
cranberry
international
ceramic
moldy
conception
carnal
canadas
execut
plucking
echoes
pumped
##hopper
strolls
strolling
oedilfs
oedilfers
michel
moaning
contemplate
horrific
espy
espress
espouse
styled
diploma
jaunt
zealous
capsule
ardour
numer
surrend
lurking
warden
foggy
hinder
##cream
ankyl
waistline
blending
webster
loathing
gemstone
siber
charlotte
annex
gradually
datas
datum
pooped
alleged
exceeding
apex
racco
##mouthed
ascertain
rodeo
##velled
ramble
characteristics
##bellum
liberation
##lower
staining
predictable
prophetic
academia
tremendous
connipt
dormant
apostle
apostles
rollsroyce
symptom
translate
grievous
valleys
allegorical
portrays
##person
arkansas
irishman
intrusive
applauded
fences
publishing
thorny
gullet
hankyp
renders
disparity
tipsy
##seller
napping
divertic
stamped
cognition
mathematics
discontent
ignorance
convenience
cushions
stalking
nukes
diabol
journalist
alkaline
soso
##ophilic
ailments
scolding
sneezed
deposits
recommended
latitude
cajole
uneasy
contemptible
bungee
dictionary
bluer
gadget
queries
laconic
engraved
inhibition
beggars
congrats
identity
oversexed
encouraged
republicans
argentine
whoopee
distractions
darede
gesture
outdone
democrats
atmospheres
sibling
meadows
aesop
catalog
remembr
tattoos
reeks
columbus
fishermen
chanting
rectangular
plankton
glaciers
daffy
daffod
paradox
cylinder
dorsal
flirting
ungainly
harbour
bambooz
rehearsal
boorish
incompe
narcotic
constitutional
lavish
enquired
horizon
##rologist
fervently
destroys
enlarge
##between
airplanes
obstruct
pancake
deformed
contradiction
orthodox
crosst
comparison
poohp
rearranged
repetitive
irregular
##figure
assaulted
recruits
tolerate
beelze
travail
chilean
bistro
dacry
aggrav
daisies
monstrous
bewitched
voltage
imbibing
clairv
irritation
diplomacy
cylindrical
asympt
spawned
yesterday
corrosion
bacillus
abuser
quibble
cretaceous
orphan
conventions
acrylic
postpone
ephemeral
sabbath
##quarter
waffle
conferred
endeavour
enshrined
cuddly
korea
vassal
cancerous
conjecture
nirvana
alibi
coffe
##heeled
betrothed
restriction
maneuver
overex
##animous
alligator
blithely
extinguish
gordon
lascivious
rifles
yarns
flannel
cleopatra
marijuana
preparation
vanquish
boomerang
gimmick
lsd
flurry
misguided
dewey
sudan
disavow
unglued
muhammad
cirrhosis
entrails
cornucopia
ferrari
upheaval
luggage
chihuah
barnyard
repartee
wednesday
nonplussed
etiquette
kennedy
dylan
toilets
cheapskate
hocuspocus
marvellous
preposterous
ghastly
pseud
tandem
##priced
deluxe
azerbaijan
conniptions
aro
aene
aided
bw
bough
bans
bicker
cj
ces
cten
cib
deth
dats
dene
dork
euc
euth
ebon
eaters
fes
fom
ful
fard
fives
fauc
fighters
gase
gizzard
hoff
hacks
iii
jams
jih
jagged
jitters
kle
lill
lich
lang
laces
lama
mt
ming
marm
mules
moust
nich
nuth
oc
oasis
ping
pash
pto
ports
pachy
qed
rouse
rowed
rauc
sart
sips
tof
tes
tars
tits
teds
tsh
taff
tizzy
ub
vlad
viper
wat
wres
watt
ys
yang
yale
zoos
##iose
##iker
##turn
##aun
##dig
##dong
##del
##neth
##hou
##hon
##hung
##cor
##cur
##cter
##cia
##caps
##coms
##course
##mis
##math
##mere
##mata
##pate
##pod
##prop
##pox
##paper
##lay
##lore
##love
##laced
##oce
##oide
##oever
##ocephal
##uble
##uence
##uates
##gree
##gens
##bite
##bab
##bour
##bear
##baked
##bucks
##fat
##fur
##fro
##finding
##yre
##yst
##zan
##zilla
##wins
##wrapped
tha
##inness
##erom
##oface
endearing
##xtap
##atist
##atrix
##llum
##llite
##edged
##ediate
##onet
##onstr
##onius
##isia
##orb
##anz
##arb
tol
toke
topple
##enia
yous
##ittle
##itory
inbetween
whines
wholes
##icer
##icol
##iculate
##oward
##utters
##utche
bej
beings
##alty
##aco
##acer
##acid
##acia
##ustery
stature
stowed
##idine
##ldt
##ospor
forfeit
##urin
##urists
##irus
##amines
##chuck
##kels
asph
ascri
chanc
chante
churned
anis
anore
anothers
debb
degl
deception
butters
reception
meld
mels
meander
##entiful
##rescent
##eee
##raging
##iming
##imensional
##seven
##roe
##roved
##rointest
##usts
oracle
ordin
##ilize
nev
neil
necess
alln
allel
##unci
spake
spud
spits
##those
haph
haunts
canter
##umer
plugged
plentiful
dodo
dolor
heros
hermit
##olin
blanks
blazed
blarney
blimey
caver
caved
##opods
willin
clots
clips
clove
closes
clustered
tru
truce
leer
leger
##ieres
seer
seating
severed
sewed
seething
##start
##staff
flit
flax
flips
flashed
flanks
flacc
goget
##owness
disuse
disrep
disorgan
##abad
coqu
outa
outback
crink
crist
crony
crutch
##inked
brooch
aborted
uphill
quen
##udent
##ishoo
gris
grits
grange
grump
scoo
scented
adh
adumb
adolf
fez
##agic
##agons
##ploid
twelf
twaddle
twinkle
ami
amore
amort
getup
enabled
encycl
swive
swans
swede
progen
protested
callow
unche
unpaid
unmanned
##ipus
##iparous
##uretic
manna
mangle
smold
smeared
roams
roaches
wellbred
buge
guiding
guinness
acme
acroph
acorns
druthers
poach
pokes
popping
poisons
slum
slavery
wordy
downcast
appreciate
moi
motel
emu
emits
emetic
eminent
emissions
##cler
offshore
pend
pegs
pending
sinning
##icals
skid
skimp
cleo
clef
cantor
breads
breached
brevity
dese
mugged
mugger
perusing
carpe
carbs
carmen
thanked
compression
insom
snickers
hoots
musty
resolution
phew
##member
longterm
##avement
##bsp
overblown
foundations
spewing
cretin
barrac
barring
##also
##avin
trif
##been
##beats
##izen
eyew
assures
assists
assurance
##iality
helmet
marbles
margin
##emer
##emia
##emption
choppers
choosy
nightcl
hardest
belg
belgian
territ
crippled
deficiency
placement
confounded
farflung
redress
passive
commences
accol
caret
schlock
reprise
repulsive
antagon
crates
##umbing
lighthouse
starfish
##tesian
awards
##held
bedlam
colic
colomb
kev
expos
parity
parades
brags
maud
corv
coroll
lah
laz
roundabout
##ocal
muses
squire
recre
recount
colloqu
burt
shopped
explicit
kindle
fallacious
filly
fillet
calves
subvers
demi
catat
billed
billow
haircut
eddy
editing
edgy
##ussian
strippers
babyl
elevation
dammit
sleet
formally
salary
saloon
biff
biker
restrained
discons
classics
classmate
##dead
##defined
absinthe
wove
woken
voll
finite
winston
turkeys
quickness
depiction
depicts
infants
infirm
infrequ
##reading
raisin
wrigg
brainy
concession
genie
genetics
excus
excrete
fourletter
preserving
daub
breakdown
minn
mince
incomp
opines
regain
facade
facets
armies
gavel
polo
##gerys
darken
cyrus
pater
sprang
##ophore
earthen
##rette
batters
batteries
##cedes
tenant
wrongs
greenery
condo
condensed
limeric
sideways
unduly
winding
##byes
transplant
golds
bowing
walker
annas
annul
annel
announ
pickin
astrolog
baltic
balancing
woodwork
compliant
complacent
foreman
foregone
foretold
freaked
penicillin
powdered
harves
harassed
harvard
counse
entre
misfort
##fections
checkout
##restrial
prays
capacious
dispir
directs
solace
lima
despot
debit
pottery
autocr
straightforward
croiss
prompting
filming
equiv
equestrian
motherinlaw
legally
browning
brownie
splinter
petrole
##rology
critically
##loads
##loading
donate
donkeys
mercedes
fixin
##maids
baguette
morgue
morris
shrugged
##archy
bullies
rollers
effete
boxed
banking
climates
climax
deference
trainer
embl
hugging
honcho
courtroom
##atorial
brokendown
##eye
berated
malaria
britons
breadth
casing
sandra
sorrows
captures
blockage
surprisingly
thickens
blindly
enscon
interrupt
##adesh
neatness
frau
valves
valued
breeches
jackie
stopper
cardio
##blance
sensing
memorial
hateful
cuter
rubs
taxing
pinks
pinkish
immunity
immediate
secondrate
aunties
centipede
escal
ducky
ducking
shipment
auditor
propitious
confessing
unsteady
unsightly
bested
practicing
boarded
bathy
peered
peeved
stockings
intends
dutiful
counteratt
juxtap
fluor
expresses
followers
bona
fortun
divinely
recordings
galls
gallery
##forth
vibe
apartments
deterred
deterrent
pitching
bombing
numbing
predicting
networks
whispers
aeropl
rebuffed
walnut
instinct
plotted
briefs
remaining
versions
##herent
offends
polluted
poetical
cuba
embracing
femur
chinas
torrents
heedless
macd
centen
ideally
robotic
##doing
stirs
commanding
removes
disappointed
ethi
ethics
##carbon
##ittles
amphip
presentation
rabid
bordello
##matode
chucks
basso
frightfully
psychologist
glower
pedestrian
civility
padding
padded
##uvium
falsely
hollers
probation
convicts
substances
heroin
teenage
##butt
releases
organized
forthwith
cincin
tapping
sparked
magnets
gnat
gnats
summoned
scribble
fussy
fussed
determines
sundry
pitts
augmented
##anthem
maintained
arthropod
supplying
primed
gravely
germany
seasoned
royals
pearly
vinegars
exacting
martian
martial
eggh
##ovs
mysteries
defenders
hacking
logics
chafe
thirtytwo
odes
deduced
privile
ostent
crani
detector
gooey
possessing
stingy
stinging
puffs
puffing
ablution
chopsticks
thespian
adjut
adjacent
conjunct
strolled
bubbly
circumcision
bailing
mystics
prisoner
prisoners
diffuse
affords
railroad
decorate
tanning
prosecution
chimneys
spiteful
akimbo
sixties
shortened
acetab
campaigning
jellyfish
arduous
ditches
dodging
protons
crawls
reflecting
hindus
sculpted
loathsome
furnished
disagrees
roasting
thirsty
exceeded
aweigh
tornado
scheming
bilge
injure
deplorable
persuaded
persuasive
upperclass
arrangements
gourm
clinging
bosoms
disorders
##ocentric
dinghy
shields
##oplast
vitality
trembling
adopting
adoption
dormouse
mensch
##track
blurry
felons
rudeness
tsar
tsun
membership
euphoria
selections
feminist
linguist
towels
slaughtered
appended
doubting
limbaugh
sketched
sorrowful
rangers
dialysis
temptations
exclude
exclusive
constructive
shanty
corrected
leisurely
bipart
miguel
migraine
harem
baptist
vigil
atheists
swooned
harvesting
gastrointest
##hhhh
bundles
gaggle
vapour
commerce
threatening
threatens
endorsement
mollusc
calamity
scraped
strutting
imbued
congrat
malignant
sandwiches
ammonium
smartest
appraisal
permitted
##ocyte
bountiful
morphine
embarked
siege
yogi
cartoonist
floozy
extrem
bronchi
lloyd
conscient
mccain
wiping
yawning
indigestion
indigenous
administr
bertha
membranes
wheezes
alchemists
transferred
havana
bouncy
cervix
blazing
twenties
pharaohs
tidy
anagrams
revolt
revolting
sardines
cobblers
unnerving
schedules
horizons
minerals
congregants
travelling
luxury
nauseam
knuckle
adolescence
contradict
auxiliary
demolish
intertwine
assaults
muslims
mathematicians
erudition
ewes
ambrosia
erupt
undeterred
volunteer
stamens
concoct
discerned
discipline
facetoface
ingredient
doeuvre
bisque
dexter
elliptic
theorem
daydreams
extolled
intrigue
intrigued
##milk
##iloquy
adapted
druid
burgundy
fervor
whimsical
asymmet
arresting
grampa
entreaties
derivative
##fingered
endorses
miniature
military
ensnared
majesty
##building
kazoo
nimble
omitted
veneer
vietnam
abominable
unheard
sycam
oatmeal
arithmetic
carousel
eloquent
disappointment
swedish
apprentice
indiscreet
cetacean
jalopy
golfer
longh
stigma
enrapt
lieutenant
chameleon
eclectic
hieroglyph
enchanted
enterprise
sacrifice
keeper
nocturnal
leukemia
divulge
vengeance
aficionado
writhing
elaborate
marshmallow
ottoman
auberg
weasel
antedil
nelson
cantaloupe
submarine
superfluous
claustroph
feisty
artichoke
bloodthirsty
armageddon
chiropract
eunuch
yiddish
asexual
asthmatic
outlandish
unholy
afternoons
sidebyside
hankypanky
jihad
ubiqu
wrestle
haphaz
flaccid
unchecked
gastrointestinal
bz
bich
bots
bates
biv
cw
cuffs
dink
dost
durn
duc
daph
ditt
eider
fs
fakes
fiance
fainted
ging
gam
gyr
hs
hir
hil
hong
hilly
huddled
iow
ich
ili
js
jaded
jigs
jumper
kir
kath
kel
koh
liss
lave
lint
lumb
lids
lops
luster
lattice
midge
mmm
milton
nous
ogled
ogling
pamp
pane
puce
porous
pelt
pugn
roo
rast
rach
rations
ricks
sammy
tums
tinted
tags
tumbling
udd
vee
valet
wate
wils
wolves
yow
yuc
##iative
##tro
##tone
##try
##trap
##rice
##rank
##ete
##aul
##dust
##dwelling
##note
##ht
##hu
##hid
##hog
##harm
##hops
##hols
##harp
##cans
##cony
##mos
##minster
##pull
##lots
##orest
##gm
##god
##gently
##bat
##bian
##banks
##fasts
##kis
##kies
##killing
##var
##zheim
##wre
##warm
##wigs
thurs
thunderst
##ndo
theorys
##inic
##reas
##oule
##ourage
##erp
##erus
endemic
##eses
##esan
##atisf
##llas
##educt
##isans
##isthen
##ori
##orized
##anos
##ario
##enos
##itant
##itives
##itarian
whey
whiter
##omer
##ominate
##icin
##league
##veau
bev
##acons
##usky
heist
heater
heaving
##adles
shush
isolation
stad
stint
storing
##urine
##irty
##ione
##ionics
##chand
##chel
##chlor
##chilling
##kerel
ascends
asylum
##rims
chuff
chatt
chumps
anab
dey
deuts
deux
deoxy
liars
livers
rew
reag
reins
soire
##rax
##ima
##ilic
##ilts
##verted
notation
frying
frances
negl
neuter
immem
allied
atten
atkins
##unty
sprain
spats
spiff
spiced
hale
canes
##ummer
node
##gear
plop
plows
pliers
plugs
##ppie
##ppel
doof
dodd
doyle
dopes
saff
sullen
blared
blaming
blushed
blanch
blenny
##ulator
caresses
##oper
whatll
clen
clank
clones
clung
claret
clench
clammy
bytes
trots
tracked
trumps
trounced
leaked
conund
contests
sez
sext
seor
seash
seuss
sects
semit
##astian
##igerous
##iguous
##stro
goil
disb
disun
diseng
disasters
##andp
##induced
##ueur
##feed
alco
alumn
alzheim
compt
exits
exterior
##anto
coales
coval
outline
outlaw
crpe
crowed
crises
crannies
whopper
broo
briny
##ooking
upto
upgr
quota
##udi
##uda
boe
bode
boating
booms
bobbed
booster
boosts
grid
grays
##aceut
##athing
adios
##ystem
feigned
felines
pry
prunes
##again
##agration
loins
looming
##othered
##plat
##plasia
twink
twinge
amor
amic
enli
probing
probes
callip
unity
unne
unthink
##iption
hesitation
smothered
rogers
##resser
teat
teases
diat
dias
diap
dray
drumming
poking
##peed
slots
##ightens
mayhem
##ifically
howls
howling
agath
##ogist
chez
cheques
downfall
download
##phil
mover
whichever
eman
embe
offhand
peed
skint
skiv
##enser
##ensity
clement
bream
glares
glitz
glimps
peruvian
carroll
caraway
cartesian
compat
compounded
afro
snook
snorted
hoc
plebe
pleads
foyer
##ggs
playboy
struts
phyll
phooey
pherom
##meter
longlasting
##earse
headline
##intz
##oda
##oderm
overth
overfl
overachiever
overworked
diddle
didactic
cren
baring
treble
workin
gravey
##bearer
stillness
curling
handing
eyep
assy
##ibus
surgerys
contort
controll
contrap
##ugo
marqu
comeback
deco
decad
decuss
choppy
thoughtful
actu
drizzle
hardhearted
deline
delays
delinqu
##collar
additive
addictive
defame
defile
deficient
confronted
commens
consist
carelessly
schoon
schno
repres
repro
craters
cours
courted
godiva
godzilla
##umbent
##umbler
##oyal
##oyance
starve
starters
reminis
imported
impugn
deadline
putz
rung
blackness
##hex
##heart
begat
##ivities
brogue
facebook
##ymor
elan
elps
elmer
eluc
elicits
parch
maul
sweeties
corral
apr
apar
apop
apathetic
ballots
ballads
##ocative
mindless
prizes
recip
recalled
recipes
drinkers
underwater
##onese
artful
fallow
fille
calv
calmer
caloric
bluegreen
indies
indicate
indisp
indolent
##bbin
catty
deviation
billiards
edwards
##tentive
stripe
##ricts
worldly
salam
saliva
abstention
wok
rhine
##bral
retard
retail
holder
advoc
advancing
##axis
avuncular
infinity
halves
linear
granddaugh
grandiose
raj
wriggle
screed
extant
extras
horned
##imeters
humors
humding
lotta
breakers
floe
crossword
pastime
bellicose
shortcut
monastic
regale
regimes
##gnet
armstrong
darkening
##prof
affright
cypr
##ophel
##ophiles
profusion
batrach
lowered
oboe
eval
evac
evanes
completing
completion
wallow
invasive
declining
tying
##ractive
##ractions
observation
sidewalks
happier
fleab
faust
madoff
windshield
sittin
strongest
transaction
transcends
transactions
friendships
casey
woody
woodlands
compliments
buses
freakin
penins
pencils
doorway
docile
messes
enticing
entangled
mispr
achy
capable
markings
disport
visa
##shed
##ships
##idedown
limbo
wonderfully
archers
posters
maggots
##gested
rocker
bosss
judy
silicate
silhou
romancing
crooned
crochet
secur
secrete
legis
horseback
christmast
##ynchron
provision
province
testament
donuts
merrier
nerdy
dresser
bagged
bagging
burner
tempo
morass
morality
troubl
troubling
skyd
southwestern
layered
##zyg
palat
urging
urbane
episcop
prag
reviled
revulsion
ambled
ambivalent
papara
embar
oppressed
berg
berke
locality
personnel
boundless
combining
diseased
groomed
liege
forceps
priceless
speedily
iceberg
commonwe
blinds
garish
garnish
fermented
ensl
irrig
breez
panels
crackle
pathway
thriller
portions
memo
destin
shameless
encry
northwest
syring
tongs
##ssss
colorblind
escutche
drunkard
efficiency
denture
practise
practices
buttercup
masoch
mascara
namesake
baths
bathys
peeve
baud
piggy
possum
grassy
norman
soulful
expressive
tickles
credo
millenn
spoof
spokes
bonn
bonny
cockroach
camph
cambridge
bushs
weekly
wisely
trusting
puree
pups
puzzling
utopia
aleph
cartridge
animosity
swimmer
stressful
methane
punning
cadence
mutts
arranging
bangor
vikings
##ritis
tableau
impresses
impressions
majors
pitchers
gleefully
deceiving
masterpiece
freddie
##ootie
attracting
lovesick
rebuff
rebirth
inflame
fouls
moonlight
fedora
weatherman
cruised
collectors
loosely
cabal
cabaret
athena
athenian
smokey
albums
fetal
geeky
irony
spinach
sedan
publicly
##rightly
aquar
aqueduct
chatters
malevolent
guarded
mortician
celib
sampling
acceptance
acceptable
robots
properties
oxymor
implant
essays
salesmen
presenting
detects
basset
bonding
civic
##moving
ranked
scrapes
creationists
dwindle
altogether
probly
convictions
substantial
switches
productions
rushes
flagging
forthcoming
squeaks
enthus
gnus
scripts
specialist
dysph
empress
beauteous
reviewing
etch
energet
dunno
oedipus
punches
primal
primate
tropic
boule
fantas
wormwood
coaching
beckons
engineering
civilians
cyclone
rashes
anchov
policeman
depending
rental
eagerly
nicked
rigging
rigueur
##hyme
fibrous
tangles
boomers
sacr
hatches
hatching
rapun
finishing
upsetting
eschewing
christened
bowlful
mallet
enhancing
monthly
conducting
grammatical
##ablanca
distinctive
absorbs
conjunctions
anticlim
oregon
##hoots
sniffing
abhorrence
liner
##tinent
widget
molecule
orchard
eldest
spittle
descendants
generates
forbids
adventurous
diplomatic
assumption
campaigns
##burst
transpired
polyps
crunchy
typeset
lunar
exchanged
botanists
nicole
italians
##holder
alleys
flavours
brooding
##tello
bilateral
deplored
dawned
strawberry
scrubbing
lamented
gauze
gauche
unrefined
perfumes
celebrities
dingdong
satisfied
otter
##oplasm
coyly
coyotes
settings
nursed
conniption
disinfect
yachts
blurt
felonious
apostrophe
dictate
victoria
virginia
grieves
vicinity
euphoric
nodes
selecting
vexatious
tuition
chauvin
chaucers
subside
subscri
unknowns
affectionate
pointer
bambi
shreds
analyze
explosives
foolishly
mended
shaman
forsake
octogen
octopus
october
abstinence
submitted
cognitive
adorns
balkan
dumd
punctured
grubs
premier
migration
cramping
convene
scriptures
electronics
ebay
ebull
gastron
nuance
nuisance
lifestyles
occurring
vapors
anemones
ancestor
lancelot
ornament
ornamental
specificity
lexus
recognize
financially
geezers
latters
rattled
rattling
exploits
alfalf
mollusk
vampires
twitching
cynics
diphth
julius
vinyl
intentional
burglars
capitol
nutritional
entertaining
pharmaceut
##yearolds
implying
##ocyst
distracting
stubbornly
denser
density
pamph
##teenthcentury
dextrous
deprive
embarrassment
aesthe
barbec
announcement
frenz
ronald
##gotten
upsidedown
bloodsucking
withdrawal
aardvarks
doggone
surroundings
jabber
##natured
whitish
##eeeeeeee
weekends
freudian
honeys
lagoon
rapture
##uteness
flirted
backstage
carlos
accusations
siren
prostate
rhetoric
razors
renewed
bouncer
reefs
mohel
apologies
introduced
amplitude
moonsh
awhirl
gertie
sardonic
blabber
cobbler
delirious
schedule
scheduled
horizont
mongst
tiresome
anomalous
reptiles
congregation
seizures
ulcers
adolescent
procure
sufficiently
dakota
steroid
##encies
anaesth
amoebas
precedes
insightful
stomped
contribute
contributions
deferred
repetition
obligation
melodies
catastrophe
strategy
ambassadors
mousse
beeline
rehearse
##thanded
quirks
poppa
sashay
monstrosity
fawning
encircle
skeletal
mantle
glittering
murmured
hawaiian
environment
nourish
nubile
##writers
birdwatchers
hannib
puddings
puddles
raspberry
alimentary
yesterdays
evokes
##bottomed
rescued
overwhelm
sulphur
ciao
##children
prohibition
illustration
snigger
bumblebee
aspersions
nyet
##ograms
redundant
bewildered
fuels
beethoven
carcinoma
nurture
lobotomy
tragedy
blemish
vaccine
gospel
mitzvah
satellite
tiara
##demain
exalted
abraham
constellation
braggart
charisma
dissimilar
nonchalant
constrictor
pilgrims
embroidery
canaan
trinkets
disjointed
abjure
robbers
skedaddle
tyrann
survivor
philippine
beehive
gwen
kvetch
ogden
buccane
foodstuffs
byzantine
unearthed
foreboding
historians
gizmo
jostle
##ujah
atwitter
principles
charlatan
oeuvre
asinine
chesape
scintilla
anniversary
tapeworm
bilingual
vamoose
amygdal
bucolic
cleveland
schizoph
damascus
transplanted
budweiser
unspeakable
cannabis
dagnabbit
disastrous
mademoiselle
malcolm
primordial
gaseous
pachyder
raucous
legerdemain
grisly
twelfth
petroleum
cincinnat
antediluvian
saffron
alzheimers
uptodate
plebeian
troublin
afe
aird
bg
bight
bate
bian
bolog
boughs
cq
cress
custer
doses
doric
dorms
dummies
eves
earm
eton
ella
egreg
erode
eternally
fon
fak
fames
fumble
fathered
gored
gators
goli
hamp
hosed
hinted
hiring
hucks
ian
jee
jup
jumbled
jumble
jasm
jibe
kool
lt
lol
lars
lanky
mord
mik
nair
nines
naz
nipped
nipper
numbs
nuke
nylon
pigh
pang
pund
paces
piers
piqu
piety
poodles
ric
reth
raking
rots
rents
raim
racks
racked
rift
rooted
rumbles
rarity
sik
tuff
tints
toured
tattered
tingle
varm
vases
vultures
wim
wading
yule
zeros
##iour
##ieth
##iastic
##iably
##tas
##tled
##tops
##turned
##rings
##eads
##aide
##di
##dep
##nosed
##hued
##hara
##cient
##comed
##mite
##mium
##mothers
##pres
##lan
##loss
##oa
##oz
##oin
##oad
##oose
##otent
##uited
##gut
##gur
##grained
##ben
##bitten
##fu
##father
##fired
##fisted
##faring
##fathers
##fallen
##kull
##yo
##vic
##vir
##vill
##zi
##zation
##wee
##wax
##week
##wurst
##jou
##jac
thai
##rell
##oute
##eries
##atl
##atore
##lli
##onance
##onomic
##isers
##orh
##oraph
##anol
##ingling
topper
toads
topless
##enest
##asper
##asana
##itist
##itance
##itian
intents
whir
wharf
##omal
##icorn
##lected
##oto
##otle
##otation
##otrans
##verest
bein
beto
beaming
beheaded
##ali
##alp
##algic
##acie
##acled
hect
hectic
heighten
##etal
##etown
onward
onlook
oncoming
shm
shat
shan
shaker
shalt
stoo
stumps
##idy
##osi
##oscent
forked
##uries
##urient
##amide
##amatory
##chic
##cham
##change
##chym
##chief
asw
asphal
asiatic
##lyss
##riers
##rized
chach
chich
chats
chanted
anad
anachron
##illation
dell
deters
delet
develops
##tera
##celed
mei
mew
##alley
##entious
##imuth
##rox
##robes
oranges
##iline
##ilities
notable
notably
ally
allium
alliter
alluvial
atoll
areas
##uned
spunk
spying
spindle
haik
##ersand
noxious
##gerel
plumm
##ppling
doh
dox
dooms
sakes
saggy
blake
blare
blustery
##aka
##ulence
##ellow
clann
troth
connot
congeal
seared
seville
segment
sheaf
flipp
flutes
floyd
goble
gobs
disab
disaffe
displease
disabled
##andra
##abilitys
##feathered
knighted
knaves
alar
alope
aloh
comme
combo
comrade
exult
exagger
excels
coad
coel
coiled
coding
cobra
coquette
outcl
outright
thence
crumbling
cradles
arom
abig
abase
abodes
abalone
uphols
quicks
quaver
quorum
bok
grue
scamp
scoot
scaly
scandals
adobe
##ysh
priss
pricks
##agasc
lovin
wouldst
ams
ame
amus
amble
amary
amigo
getaway
swab
switzer
proxy
unful
unbe
unwed
unmar
##quick
##quare
##quacious
##outi
greets
##elic
manila
smog
smudge
roberts
wellfed
wellversed
teak
tequ
guer
acetic
acoly
illmannered
illiterate
dioxide
drup
pores
##ortic
slings
slums
slammed
slippers
##psis
mayors
##acting
##actly
wordplay
newer
newbie
daybreak
##aware
cheval
lookin
looker
appr
##pha
##phaly
##phobia
moors
emble
hims
evers
offence
pept
pegged
pews
##ashing
pretens
canton
brer
desolate
glances
glories
goodies
muy
muzzle
carous
carav
carols
carousing
greats
composure
compulsion
wavel
insulting
inserted
insanity
insulin
sna
snor
snit
snive
snared
sniper
hod
hob
phoney
steaming
stella
##berrys
##toend
##topped
##today
##odd
##odon
overlook
overgrown
creamed
creeds
barque
barkeep
baritone
coupled
coupling
triangles
##ankind
highf
stills
curlic
##izable
earp
assisted
surfer
contorted
marit
marches
marina
decamp
somber
youngster
nightsh
parting
badder
badgers
badmint
crim
crikey
bries
defied
attila
confuc
farther
farthest
redemption
commiss
commuter
accretion
eatin
lefty
othello
carefree
repell
antire
starlet
impuls
impede
impolite
dreads
airhead
hedges
##ologies
##ologize
awo
##ucive
colons
expon
eliot
relating
reliant
charger
##cci
maternity
misshap
corb
corals
apse
apod
freez
##roportion
homeward
strew
##unked
lait
laura
mindset
squads
squander
recede
collateral
underwent
befell
burke
explores
explodes
artfully
##liers
startled
calumn
calais
calico
calisthen
booking
birders
bluegrass
##weather
indias
chriss
distinction
subpo
subordinate
##bbish
catarr
flowered
warts
warped
purvey
babs
babbit
baboons
babylon
guesses
viewpoints
formations
salted
biot
bige
biking
biote
biologist
biota
restless
gripes
discs
woof
larch
largo
winnie
retch
retract
turtles
##uctor
advising
advocate
northeast
avo
avowed
infert
grandeur
raff
raiders
rafters
concedes
genre
genteel
excret
excision
meticulous
fourlegged
preserved
extortion
colds
humph
hummer
breakfasts
incont
incand
incons
incision
incensed
##obo
##strung
monot
monet
opted
##otti
sunrise
sunbath
armless
pols
polka
standup
darkest
##pract
paree
paunch
sprays
##ophones
profile
profund
batten
batman
obno
tenure
hitter
signing
##uitive
condense
evange
schoolboy
invitation
invalid
typo
certific
childbirth
undes
undead
madrid
madagasc
angers
anglo
annals
annih
##ylate
balmy
balcony
complied
forecl
foremost
cooled
coolidge
harlot
##ammable
messing
enticed
flatulent
deathly
deathbed
rupt
misuse
miscell
hurdle
medics
meditation
prodigious
disposal
##ummox
visibly
##theid
dino
castiron
replaces
arched
despotic
debase
rocking
rockies
judicial
breaths
autop
autonom
cropped
promisc
specially
specified
legacy
brownn
brownies
splice
darlings
darwins
##minent
petting
##ynthesis
cornwall
candied
##cyst
merlot
fixes
##mares
derail
derailed
sicken
meaningful
bullied
bulldo
bullseye
electrom
effeminate
epoxy
mentions
birthplace
mixer
##ieties
##aean
chemo
chemically
deferent
hypo
senseless
embossed
embassy
scrunch
honed
smoky
ringer
risen
risqu
##appers
britt
caste
casinos
casablanca
grovel
grooming
sorce
blockhead
dimmer
popul
popcorn
reasoned
intervention
danube
constrained
beginner
mattered
matadors
##afts
rotor
rotted
crackling
fingert
pathology
fanned
respiration
deton
detain
intri
ahm
swelled
##conne
preferring
enjoyable
hanged
shameful
dupe
taxonom
techie
approx
grouped
groupies
prouder
escar
escort
prepares
mounting
unscr
bespe
dissip
experiments
bathtub
indecent
dangled
selfimp
suitcase
grownups
sympath
argues
jeh
spirited
franklin
goalie
fifi
tuber
tubers
tubby
jumpy
spoiling
bonanza
bonapar
creeper
nutri
pinn
modes
doughnut
doughnuts
domic
discovers
##rups
chestnuts
crowning
radish
pushes
volition
stressing
methyl
puny
axed
hamlets
##oxic
chapters
continu
packaged
##ritic
brandish
bombers
performer
angelic
motive
quarks
freddy
aeronaut
rebut
aspiration
walmart
institution
anthology
battlefield
bulim
statutes
photon
photograph
photographs
examines
cabri
dweller
beefs
murph
flashlight
fetter
wasteful
inhaled
aquam
chinook
bibulous
torque
torped
bustle
toothpaste
pleasin
##arshaped
leaflets
barbarians
bolster
crashes
##romous
swallowing
sublim
debtors
verbose
relaxing
screenplay
ethel
ethical
blankets
cathode
##bolic
earnings
microb
##matical
chuckles
supine
psychosis
truckin
narration
sneers
sneaking
austrian
coughs
tuning
systemic
dwind
falsehood
paleont
herbivorous
mirac
accordion
crudely
erratically
leeks
stretches
flooding
bloomin
##iki
summons
specialty
battering
projections
paula
##ulean
celebs
cavi
arcs
strengthen
cordon
tapest
##ommun
seasonal
holidays
dumping
martians
ceaselessly
civilization
hiked
piercing
zeke
waxing
baldwin
defended
cyclical
cyclops
optics
chaet
chaise
aphasia
winged
##rogens
departing
cacod
delivering
inventing
officials
hubble
multipl
abdomens
granting
slicker
fibre
tanker
##iotics
explorers
detectives
giggles
deems
coinage
molding
achievements
censored
tackles
texan
##urbation
jarred
sufferers
preachers
canadians
flourished
adjusted
importance
dilated
shirking
copycat
foresaw
foreskin
##hoppers
hydration
artsy
progression
differing
cloven
cloister
cloaked
clarion
##orphic
comfortably
ampersand
accessible
vitri
vitamins
repairing
##repared
unbowed
rustic
clamber
polyg
protozo
lyin
websites
sibs
italys
mosaic
gradual
broods
groovy
reminder
racers
afflict
habitat
bilious
chipm
brutish
disorderly
##gregation
mourners
dolich
excelled
whimsy
##oplastic
pertain
elegance
hoover
clutching
stitched
grasping
adjectival
philosophical
thunderous
sweetened
disappearing
purposely
reliever
grieving
platters
tufts
gypped
##marked
reversal
linguistics
hemorrh
aisles
funding
winsome
betrayal
teeming
teehee
spurts
protesting
chattering
comedians
gulls
amphibious
dorothy
janus
vibrations
amended
conservatives
calfs
jungles
pornography
lenore
cognoscent
conspire
conflagration
ingrained
biped
molars
cushy
dharma
licensed
ovum
gastric
##ypical
innermost
hissing
outsiders
contraire
psal
enchantment
journals
alkaloid
oozed
deflation
affirmed
sausages
alder
stools
reclined
hazards
smiths
ariz
chalc
chalice
industry
anglos
daguer
varying
spouting
cleansing
unfurl
barman
gadz
vaude
newtons
consultant
bulletproof
subtraction
lexicographers
adherence
bravo
parental
batches
thumping
enclose
hopelessly
intending
clumsily
cohort
absentminded
gestation
nudists
droopy
carolina
democratic
fastest
scandalous
persever
persecution
tempest
solemnly
calendars
aarons
butchered
appointments
surveyors
cortic
llama
gravitation
mccarthy
rectum
acrobats
bedecked
bulbous
cumulative
sassy
quintess
glacier
##guarded
##uberance
perilous
barracks
arthritic
##foil
stimulation
alchemist
ungulate
diaphrag
backstab
expedient
electroencephal
dignity
swarming
commissioned
harbors
harbored
karate
twentysix
scholarly
broadcasting
beverly
grouchy
georges
bbc
sizable
quadrup
dichotomy
canonical
seizure
acrony
accommodation
obstruction
radicals
aphrodis
bifur
luxurious
pancakes
pancreas
ulcer
chomping
heraldic
dislod
outrun
marxist
ferocity
dakar
katie
##control
sprawled
crosse
brusque
buoyant
dialects
fiddled
gibral
outofdate
deleterious
calyx
astonished
gnawed
shaggy
aspects
chockfull
rehab
blasphemous
etymological
doleful
guffaw
undete
volunteers
deepsix
vendor
hebrews
attentions
plunging
sledge
draughts
discerning
guru
parsley
worsen
declaration
scalpel
andrew
intensity
##urgents
hawaii
telescopes
feudal
circumspect
independence
sutures
hefty
worships
arterial
calorie
evoked
symmetry
fuddyd
aslant
arbitr
phosphate
attribute
arachnid
venez
staple
spiky
university
confinement
categorical
rancor
orbital
envelopes
prejudiced
carnegie
sycoph
groping
##maybe
beethovens
dockside
##strip
slumped
agglutin
harrowing
sentimental
dredge
zombies
suzanne
twotiming
agricultural
turbulent
valentine
cheerleaders
conjugate
hysterical
mauve
sphinx
brochure
salvador
bureaucr
inquisitive
chiffon
dementia
coddle
unimpressed
prestigious
despondent
fluorescent
cacao
isaac
disheveled
aggregate
woodwinds
irrespective
##omycosis
tonguetied
aeolian
poultry
jamaica
sesame
quasim
manuscript
drowsy
##phrase
traffics
auspicious
bludgeon
amalgam
impassioned
eliminate
parachute
grizzly
insecticide
forbearance
acupuncture
bactrian
fostered
kaput
nouveau
surname
trespass
##onnay
chardonnay
cabernet
##clouds
snobby
bittersweet
metallic
extracur
chancellor
bandwagon
intersect
unconscious
ceremonial
marsupial
picasso
bivalve
fiscal
jordan
chafing
disobed
feldspar
pajamas
aerosol
vienna
stilettos
cuttlefish
connecticut
erroneous
jerusalem
remembrance
beelzebub
ptole
infrequently
ethiopia
pittsburgh
lopsided
thursday
enliven
apoplect
anchovies
octogenarian
chesapeake
goliath
jeeves
pigheaded
raiment
onlookers
stooges
outclassed
misshapen
miscellaneous
cognoscenti
aas
aque
bk
bv
bq
bons
bau
bire
boney
bunt
bummed
cb
ck
cive
cites
cults
cede
cysts
dk
dard
dought
dows
dents
dicks
dund
dative
dander
dusky
eps
eons
eek
fens
fau
faut
gp
gat
gan
gins
gander
gorse
giddy
hool
humbled
hinge
hinges
ionic
icing
iota
jade
jamb
jumbo
jilted
kith
kine
kant
los
lather
lup
lashed
lester
lumines
minks
naw
nape
nae
nipp
nada
nosy
oll
okey
ocular
pter
parm
pining
qs
rhe
raked
rummy
rita
sired
sized
sizz
samba
tch
tast
tud
tins
tamp
tory
tiers
tipping
tipple
tardy
uv
upped
urologist
veep
vied
wen
wally
wows
wiles
wisp
yere
yammer
yknow
yioux
zack
zod
zuc
zapped
##iples
##tof
##tri
##tish
##tock
##tably
##tongued
##round
##rink
##ride
##rists
##ruc
##ratic
##rism
##rounded
##ement
##eating
##aam
##dit
##dition
##dlers
##nial
##number
##hair
##houn
##hams
##hoot
##could
##cies
##cade
##cool
##cats
##cently
##crap
##mings
##mites
##mony
##much
##pur
##pse
##pins
##puts
##paying
##loo
##list
##lps
##lian
##lams
##oosh
##ugh
##uice
##gill
##gol
##giv
##gien
##given
##bent
##bation
##bang
##bats
##bank
##fre
##fee
##fest
##faction
##fusc
##kary
##kids
##yled
##vat
##vision
##zh
##would
##wain
##wits
##writ
##jon
thundered
##teps
##incl
##ouble
endocr
endtoend
##escend
##escript
##atta
##lled
##llab
##llect
##onth
##isome
##isth
##isable
##oris
##orist
##orned
##orative
##arral
toen
##asped
##asmic
anderson
##itall
inns
inaction
whitt
whirls
itd
itches
##omination
##icant
##level
##oti
##otics
thatcher
beards
bevy
beaks
beadle
##alin
##alor
##alas
##alot
##acic
##acter
##usiveness
heter
hemat
##eton
onet
onstage
##adel
shi
shingles
ism
stats
stym
staked
staph
##idic
##idos
##idingly
##idently
##oso
weft
fords
##urbs
##irons
##irrit
##amen
asy
asap
##lying
##rimon
##ooper
chall
chag
chins
anath
dei
demer
derel
detested
lite
liken
##cee
replay
mezz
meandering
##alling
sovere
hispan
##eeking
##imos
##seed
##rov
##roots
##ilians
##ilized
frames
neb
nept
thistles
imminent
allusion
alloch
##aterial
atri
atax
attests
atishoo
##unition
spaced
sprite
sparrows
##thed
##thearted
##thalm
hails
##erspir
canker
canceled
pli
plowed
plover
ploys
plaud
##ppes
##ppet
##ppered
##ainting
doggy
sappy
sagging
saudi
suction
suicidal
herpes
##olm
##oler
##olks
##olutions
bloc
blighter
blistered
##ulary
##oprote
wort
##ellike
clitor
trus
trud
truff
truman
lef
lepr
conked
contender
sere
semes
seethe
seclusion
sheared
##igial
##stan
##stall
flan
fluster
goons
##ickkn
disad
disown
displ
distended
disquis
disestablishment
dismember
##andah
##andgo
##indul
##aba
##abolic
##abaloo
##ousand
knish
knickkn
albe
alma
exes
exwife
##achable
##achian
##achio
cods
coauth
outlet
seep
cranes
artem
arguing
bracts
abbe
abates
abiet
abrac
abusing
abridge
upd
upand
upbeat
upstream
uplifting
qua
quill
quakes
quint
quiche
bole
boone
bolly
booming
boggles
##istans
##istrate
sayin
gruel
scion
scifi
##athon
adjo
adrian
feint
fecal
##agg
##agging
##agogue
loons
logo
logging
lovable
loquacious
##plings
twel
tweez
amish
amply
amster
enroll
enables
enfold
swel
swerves
swindle
protests
##erers
unim
unass
unco
unapp
unmas
unload
unnamed
##ostat
##ostics
##ipers
##ipel
manx
manned
mania
smud
smacks
roaring
roaming
thereafter
wellrounded
bugg
haddock
tect
guzzle
acy
illf
illogical
illtempered
diuretic
pover
##psia
##ifl
##ifier
##ifying
##actically
olde
joked
newts
agro
agoraph
cheatin
downhearted
##rym
##ryl
##agell
##mentioned
emit
emir
emend
emanc
##clim
##click
##ailable
tims
##ubst
##issa
skyl
skater
skunks
##ensical
##ensiveness
brett
desm
glock
gliding
glaring
glauc
goodbyes
perish
perversion
peripate
backers
caro
caric
carth
carrie
##oola
greatness
greatgreat
greataunt
##uller
compels
comparing
composers
waver
waxed
insur
afire
##ornis
##orning
snark
snowed
snags
hoary
hovel
foxt
##ggie
strump
resil
resident
residents
phobia
##tybit
steth
##tob
##todo
##toback
firstclass
founding
creaking
crewe
barth
barrage
treet
workouts
##avored
##nessee
grated
##beans
highbr
highlights
##izo
##izes
wrangle
handsh
##ibilitys
bigoted
bigamist
meanie
##uga
painters
marily
comeupp
decried
##irdup
sombre
choker
nightmares
drier
dripped
hardware
hardcore
belied
delim
delto
deluge
delicates
tern
server
seraph
serpents
badmouth
cripple
defaced
deficit
defensible
attired
attribution
confetti
farfet
redheaded
smallpox
commons
commuting
##upulous
schle
reputed
repaired
reputations
antia
antism
antiph
crag
crabeating
afterthought
aftermath
starter
rembra
impr
imped
impair
impale
impeded
imprison
##tesis
airing
airlines
airports
runt
hedonic
bedou
bedrock
broil
##ouded
kegs
expounds
eli
relics
parlor
bravery
charg
maven
maude
mapping
corro
corrug
apache
freezes
##ropy
traverse
traumatic
ester
esters
esper
essex
homeland
bituminous
##venth
##aneity
streaks
##ocard
##ocial
##ocene
##ocaine
##ocarp
mussels
refusal
squish
squalor
prima
reciting
collars
burm
burma
burgle
ers
erad
##versial
artisan
kindled
fillings
calig
calms
calming
caliph
##wears
owning
indel
leaven
subjected
growths
catwalk
devon
engulf
purist
purists
puritan
eds
edging
edgar
supporter
bloodlet
##group
grinder
discurs
##def
rhesus
finland
singin
retains
holdings
deprec
tasman
infuse
halfe
rais
razz
##kington
conceded
cellmate
genetically
metric
metabol
daves
dazzled
extir
coldly
coldblooded
humidity
humerus
breakin
flopped
minors
minnes
##obber
##obics
crossbow
crosscountry
pastors
##string
monroe
killin
register
armpits
polonius
persia
affine
affray
paved
paternity
paean
sprinter
proffer
proflig
proffered
obl
tenants
tennessee
foolhard
condign
condiment
condescend
evangel
eyecatching
schooled
walla
involving
bleary
undis
flet
angina
anglers
##boiled
weevil
transist
dente
dented
bowdler
annes
announcing
picket
astig
oddlooking
balances
complac
busily
forens
foreplay
penet
penite
penance
##clean
##cleaning
halfassed
entree
entrench
misread
medusa
termin
disputed
disproportion
buddle
##cester
boozy
viscer
viscous
diem
dinah
##shell
solit
solomon
archives
##olets
debasing
magenta
##gesis
rocked
silks
straightaway
croaked
promo
talkative
dealings
filched
equivalent
geologist
geomet
legume
catchy
splurge
peta
##ynous
cornmeal
candel
##lorescence
##cyon
merchand
galoot
richer
yapping
derog
sickle
sickening
morgan
skyhigh
coping
paler
furtive
epid
epil
epau
praps
revised
revision
ambly
doctoral
gasping
climbers
sussex
embalm
scruff
##ursts
smoker
courtiers
opposing
delightfully
bering
locom
boundaries
combin
combinations
breadcr
ranted
dimwit
dreamer
fronts
frontal
blindfold
##ugger
irs
interconne
sailboat
maturity
validity
alaskan
rotary
##inaire
##centric
fielding
sizeable
##blow
##blast
##block
intones
intrep
ahab
ahmad
swellings
##color
englishman
taxis
taxman
spender
grouping
joyous
cupids
bodacious
proposing
propelled
proposition
confessor
figger
sumer
unsav
dentition
parka
dissolves
bathrooms
peeves
stockp
harmed
harmonic
snowman
selfcentered
tailors
counterc
counterfe
hallel
pigments
piglet
boreal
saviour
stinker
listless
titus
##annas
millie
spoons
creeks
fortified
cockat
objectives
bushels
hooky
earsplitting
radios
superfic
alec
dusting
animate
swimmers
purses
cadmium
senators
midwife
clouded
chaplain
chaparral
continuing
##aphrod
impressing
uncanny
gleaming
quitting
ghoul
tarzan
motivation
predest
predile
predators
##knowing
aspires
huns
##oresis
pillars
barker
lasso
vanishing
##haved
##haft
bulky
keenly
rumin
statistical
examining
spaniard
paren
ratio
polled
murk
carpenters
fetched
variations
politically
politicos
sedative
inhuman
##checks
faiths
chiefly
dieting
chattel
torah
heeding
macs
macar
mortg
celt
barbara
workingclass
bridegroom
bolted
bolshe
ideals
inspires
respectable
extraord
oxid
##crack
##crossed
complexions
implants
coded
ethiop
rowdy
##liner
regrettably
##impaired
frustrating
micros
rabies
chucked
clapped
concerto
basses
bonded
branching
brushes
sneakers
paddy
biddy
stormed
annoyingly
holland
hollowed
jesse
##uminate
gaudy
hosted
protector
protective
cannes
cannons
relevant
dyin
deserted
pilkington
##ikers
bumpkin
squealed
mamma
specialists
authorized
azimuth
empathy
emptor
projectile
imagining
buzzard
momentum
gangster
##ochrome
##anthropic
cavil
synchron
punching
foxy
erection
griping
leaned
royally
vineyard
civilian
mcgee
cycling
cyclist
welts
welcomed
odour
deduction
averred
skew
bastille
cacci
binoc
slickly
fibber
fibrosis
osama
##flying
auric
munchies
##theyll
contentment
censors
bruising
antsy
politeness
conducts
conductors
cliffh
execute
adjunct
diligent
dampen
maples
echin
echol
sniffs
structural
bailiff
mushy
encounters
michigan
mythic
cloves
sheltered
contempor
comforting
deafening
ampere
bubblegum
mildly
shortest
alkyl
rustling
clamorous
disdainful
##burse
replacements
clinical
clinician
scarecrow
polymer
corporal
dodger
proton
envious
reflective
##crew
whacking
diminution
diminishing
davis
gemstones
nickels
##atrice
londons
emphyse
sternum
towering
alleviate
racer
clerics
closets
corpulent
hypnotic
hypnosis
dawdle
potentially
footballs
dismissal
lucille
chloride
dingy
junctions
mourned
educational
freaky
academy
cystic
healer
fractures
connote
disinher
goddam
nonsensical
##true
sweetest
inspections
automob
brimstone
translated
translucent
virginity
grieved
rudy
tsk
wolfs
dudgeon
allegations
abducted
czars
anteater
recovered
recollect
obeyed
linguists
comprehensive
dwarfs
fundamental
##naments
##otchy
coupons
explosions
##inthew
protestant
comedian
draculas
antiperspir
restraints
forsook
calculate
butterflys
octave
##urpose
lemur
sketches
schmoo
disagreement
ranges
wagons
toxicity
dialog
tucker
##ophagy
dumpty
francisc
ukraine
premise
premium
ignoramus
gabby
hippopot
flaunting
diversion
glamor
vigour
frosty
gastropod
##icitous
shivering
lumberjacks
psor
sockets
adoration
sergeants
alkali
chamberlain
alphabetical
ornith
##ophilous
bachelors
infectious
glumly
concentrate
alderman
dandruff
jacu
chronically
aesthetics
contemptuous
aardw
stalin
calamitous
condemnation
bartlet
disclosed
disarmed
bracelets
daggers
juliet
ravine
ravage
cleansed
assessing
deceitful
trolls
nascent
wields
swami
hullabaloo
##frame
subtly
lexicons
identify
dispersal
cucull
hunky
aristotle
arrogance
gratis
screeched
exhausting
lynx
beaus
beavers
##ocytes
ramparts
scorch
deprivation
admirals
fastened
jurassic
revelation
troopers
aspirins
adulter
enormity
strangest
stealthy
remembers
exquisitely
cortis
cuckold
vagina
degrade
countryside
mitosis
exclaims
acrobatic
eyelid
benzene
orient
metaphorically
transportation
yawned
bloggers
oversupp
commendable
indigo
archaeoptery
membranous
citizen
consequential
regalia
blazes
bridesmaid
brahman
laurels
introduce
bongos
duluth
hammers
pyrrh
skimming
grandsons
priority
enquire
enlarged
journalists
loyalty
##better
inveterate
churl
anomaly
resentment
mournful
doodoo
gusto
tussles
sopranos
saucer
adolescents
representing
crocodiles
vaguely
refinement
duplicitous
apert
lorraine
demolition
demolished
perspic
obliged
constraints
deleted
scurry
scurvy
achromat
fertilize
unrealistic
dosage
yorick
browsing
coulombs
discordant
earnestly
inheritance
permits
admonition
barbaric
barbarous
pharmacist
koi
stammered
flamingo
smuggling
symphony
enlightenment
ounces
oyster
pucker
rebuild
skeleton
elliptical
mulish
atlantis
pagan
backpack
assassin
landlords
##ophytes
propriet
suture
myrrh
worshipped
gregor
corrosive
persistently
rhythmic
epiphy
exorbit
quixote
adipose
adelaide
insurers
phallus
intervening
coincidence
hamster
tantrums
chandler
spiked
brisket
ammunition
carriers
affronts
kaiser
##orthodox
shaping
##quarters
prejudice
catalyst
bantu
eryth
humbly
humbug
deceptive
##imetry
##unciate
apparatus
contingent
squabble
avarice
rambling
zombie
##monde
anastasia
sluggish
comprises
behooves
kernels
tawny
endearment
shillings
noblesse
flagrant
coerce
assortment
contemplation
ballyhoo
fuming
ureth
cholesterol
congenital
stereo
addenda
remedy
##uccino
dauntless
geoffrey
aztecs
bourgeoisie
degenerate
enforced
unattractive
frivolous
expletive
simpson
catapult
harpsichord
bismar
tahiti
uterine
nondescript
crisscross
insufficient
histrionic
uncontrolled
barbershop
extravagant
dyspeptic
mnemonic
vindictive
xxx
shimmering
displacement
apothec
indifference
specimen
palindrome
##monger
forfend
knobbly
wellbeing
diagram
handcuffs
marriages
pacifist
abecedarian
gurney
kitsch
trowel
sebastian
coordinates
abatto
sclerosis
handicapped
decrepit
conflicts
transported
pennsylvania
misdeeds
oklahoma
disconcerting
ketchup
apocryphal
auteur
gandhi
mormon
existential
procreation
reprieve
antidepress
posthaste
irksome
tournament
espresso
siberia
incompetent
nuthin
sartorial
taffy
nevada
gogetter
getupandgo
progeny
catatonic
disconsolate
emblaz
sycamore
aubergine
ubiquitous
haphazard
watered
wilson
deutsch
immemorial
conundrum
marquee
apartheid
christmastime
pragmatic
embargo
commonwealth
alfalfa
aesthete
frenzied
bologna
amaryllis
unfulfilled
tequila
maritime
nightshade
badminton
awoken
catarrh
avoirdup
obnoxious
jehov
aquamarine
miraculous
gadzooks
crosseyed
gibraltar
quasimodo
aqueous
tudor
##writings
##llabic
abracad
amsterdam
peripatetic
##tybitty
highbrow
comeuppance
delicatess
rembrand
bloodletting
pilkingtonpie
archaeopteryx
avoirdupois
ain
aeth
aides
aok
aaaaa
bx
bair
bign
bails
bidden
bumbling
bumming
cx
cv
cun
cipher
dm
dau
domes
dinky
ef
ely
ero
eure
eey
fm
fow
fust
fang
fah
fiver
faker
fudd
fags
fdr
gly
gary
gels
gai
gagged
gopher
hess
housed
huckle
iber
iod
jf
jib
jays
jasons
jinx
ku
ky
kem
krill
kurt
loth
lps
lub
lithe
ml
mide
mumb
mists
mains
mops
mds
molar
mixtures
ns
nugg
nige
nomin
nipple
nappin
oj
och
ores
ops
oiled
owing
pust
pore
pak
pied
rans
rund
rooks
ripper
rusted
rational
sri
souse
sylv
tys
tina
tiring
tugged
tidal
tensions
toffs
tinged
ulyss
vot
vous
vix
vagr
vader
vandals
waged
wags
yucky
yodel
yolks
zin
zat
zipped
##ika
##sink
##tus
##tily
##tipped
##rams
##rotic
##ainder
##dable
##dia
##dah
##ni
##nake
##nab
##niest
##home
##hires
##cups
##court
##xis
##mical
##mother
##pter
##pol
##pink
##pired
##prote
##lide
##lene
##oire
##opped
##occ
##uf
##uper
##game
##give
##gians
##bust
##bare
##bage
##bory
##bah
##bills
##backed
##bomb
##boned
##billed
##bright
##binding
##fill
##fighters
##kum
##kiss
##kens
##yme
##years
##vine
##vents
##vably
##volution
##vascular
##zone
##zels
##zai
##wings
##wah
##wheres
thar
thal
##teak
thebes
##inav
##inians
##incts
##infl
##inette
##oum
##ouri
##outer
##oung
##oubt
##erty
endures
##aton
##atra
##llo
##edra
##edge
##onc
##onist
##onical
##onias
##isively
##orce
##orama
##ani
##anie
##anial
##aris
toting
toto
todo
toasted
##enh
##eny
##asus
##asch
youths
androph
##itans
##itism
##ittery
inked
inmate
interior
whin
whad
whelps
whoops
whirling
ith
ittybitty
##omerate
##icul
##icab
##icides
##otical
##uta
thatch
betel
beady
##alay
##alos
##aloe
##usible
hend
heaves
heidi
##eta
onc
##adonna
shee
shab
shorn
shire
shank
shiv
shined
shiner
stoke
staging
##idges
##ositive
forwards
##uro
##uras
##uroy
##urations
##urpr
withal
withhold
##chop
##chip
##church
##chini
##christ
asse
ascar
asci
##river
chac
chth
chak
chine
chie
cheep
chym
chyl
chives
chias
chases
chesh
chiant
chitter
chaser
chalet
anz
anas
anter
annot
anther
anvil
anhyd
##illess
deph
butlers
##terror
reich
reper
reapp
sodom
soiree
##resco
wasps
##rages
##rably
##iman
##seat
##rored
##roids
orbs
##ilocks
notices
notwith
fringed
fridays
neared
neville
allop
allah
atar
aren
spool
sprightly
##these
##umane
nods
##ppina
##ontin
dopp
docked
dozing
saber
suds
herded
hertz
blunders
##ulums
##ulatory
cages
cauch
caulk
cahoots
##opa
##opithec
willingly
clon
clipping
clashes
trudge
lender
leveled
leavin
##ardom
seag
seeth
sewers
shears
##stress
##storms
flack
flits
flared
flitting
flirts
flammable
goad
##owners
disj
disro
disable
disclaim
disbar
disbelie
disassem
##abor
##abull
##fearing
alist
alters
alky
alias
algar
comat
comically
##ameters
extempor
##achus
cores
coasts
cohes
coitus
outf
outgrow
crumbled
cringed
arf
brutes
abash
abey
abiding
quee
quie
quacks
boc
boz
bobbing
##artic
grann
grunge
gracie
scones
scoops
scuba
##athome
##atholic
adage
adheres
##assion
fevers
priced
pratt
prancing
prancer
##agraph
loin
loggers
##plane
twose
twits
twidd
twirled
twerp
amet
amounted
swiped
proles
calli
uner
uncover
##ilee
##ostomy
##ipid
##iputian
gregar
##eled
##elastic
mange
manmade
smoo
smite
smock
rote
roamed
rooft
rogues
therere
thereof
wellheeled
teary
teased
teaser
guano
guzzled
acin
acad
acaud
acuity
illum
dibs
diurnal
##ptus
##ptious
##pea
slag
slaw
slabs
slalom
##psin
thrace
joc
agu
agit
agate
agap
##tente
##ogg
##aways
chews
downstream
lookout
apportion
##phar
##venient
mooned
##anga
ember
empor
emulsion
emcee
gotcha
##clack
offset
thinkings
peat
pecc
pecan
##ethis
##ubles
sinuses
preen
preys
precl
canto
breather
brewers
desi
desec
glared
gluten
gloria
glitches
muggy
perps
idols
backbreaking
cary
carbo
carafe
twod
compell
compiled
composite
waft
waists
wafer
insured
hokey
foal
foibles
playground
strays
musta
mustache
resh
resid
resounds
phylum
##ordained
timehon
stewing
vermil
veraloe
##toh
##toed
headmaster
headfirst
betta
##wny
##pering
##odus
##odorous
overd
overc
overall
overloaded
didger
##ignment
specks
creases
creaky
bartend
barbit
barcel
barfed
trev
workout
cougar
grander
nameless
##beam
##beck
##beard
earring
wring
wrang
wracked
handel
handwritings
assay
assorted
asserting
helium
helsink
contused
contortion
##ancers
tellin
painst
marc
marig
marvin
marcel
martha
##eman
decid
decip
decret
decider
nighting
drifts
hardwood
belted
belittle
delaware
##angement
##cob
##cold
badab
baddie
##insky
defuse
defiled
lastly
attaining
confided
redee
redhead
smalls
##uresis
commie
consul
consists
accur
accidents
accosted
carelessness
repelled
repossessed
cravat
courth
afterlife
giraff
starg
starbucks
impose
imposed
imprec
deadlines
deadpan
airtight
runway
runaway
wanton
blackbird
blackbirds
drakes
##heit
##heated
##heating
begot
begets
##ivate
##ivist
brooms
keister
##ymmet
expulsion
elaine
parl
paran
parse
braves
braking
bragger
##attering
missin
corse
corrod
corrid
aprils
freeing
evens
##ropolis
esqu
bitty
paychecks
streaming
lauded
##ocol
##oceros
minding
refuge
squatter
squandered
collided
colloidal
drinkin
undert
underway
burb
felling
shoving
##ahed
ern
eras
ergo
ernie
ernest
hotly
##lipped
calcut
bookkeeper
bookstore
birdseye
districts
demoted
catam
cataph
devotions
engages
warlike
purity
purples
hairless
haircuts
edits
edna
##tently
suppl
suppressing
bloodstream
##ungous
lawless
biased
biography
straps
straws
griped
discours
discontin
voter
waterborne
##atingly
finnish
retro
landl
##uctively
advises
adviser
##auts
divest
divined
depot
depred
##axon
avi
avast
avouch
inflic
infidel
infractions
halter
halft
rapper
concre
concub
##velope
excites
excitable
presto
topical
fightin
hummus
humankind
humungous
lotll
breakout
flocc
countdown
monitor
moniker
opal
hopeful
armpit
##efin
poland
housework
darkened
sonof
sonnets
paving
earthlings
batted
lowers
lowland
obes
obfusc
hitlers
latex
conduction
conducive
completes
wallace
wallowed
declines
sexes
sexist
##cription
blee
bleating
tyre
ceylon
obstet
beautys
banning
banzai
veldt
flecks
fares
madd
angio
anguished
##boa
situs
transitive
goldilocks
gametes
bowwow
boycott
famished
annull
pickp
astral
saws
balding
complicated
frets
fastball
fastidious
penel
dogmatic
harvey
##amma
halfhearted
entries
entourage
flatbottomed
miserly
hurray
achoo
achond
patootie
prodig
dispel
dispensed
dryness
sightless
visc
##their
basking
castro
castration
##shire
limo
limbur
archery
magistrate
potass
potpour
judging
breathes
milan
autoc
autumns
croesus
specious
cashew
cashmere
equin
securing
geld
benn
benzo
rarer
legumes
leguminous
horseman
sharpe
catchasc
splur
splatter
splayed
splutter
christie
darlin
darryl
##mination
noteworthy
johann
petition
corns
cornfl
corneas
sirius
testy
untoward
##lores
fireworks
donne
donated
donning
##icester
requis
richards
matey
succumbs
dermal
sicker
warmly
aimless
shrank
copil
coproph
layout
wildlife
tasteless
farmland
colleg
colleges
eights
eighties
fruitless
effected
pubic
publics
prawn
chemos
gasoline
sometime
banknotes
climat
blobs
defeating
hyde
hyphen
hygien
embal
embers
flooring
cosmo
scruple
honk
##ursions
smoother
courtly
bander
bandstand
footprints
locusts
malodorous
softness
softwares
grog
grove
sandal
terrified
captor
captive
blockade
shockingly
buttress
buttock
dimly
dimples
dropdead
waning
blinding
frond
frocks
garlands
garnet
garrison
ferm
keyboards
irked
interact
constable
matthew
frazzle
valor
valence
panicked
##afraid
smiley
rotate
totaled
##guards
birdsong
fanfare
cardigan
detained
intoned
intros
intuition
blameless
ahoy
##conf
##lections
##omyce
boneheaded
sorting
taxed
unfores
immig
immobile
approbation
northwestern
husk
witless
centaur
numbering
dumbly
##riendly
sharpen
propeller
confessions
figs
##istening
buffs
buffoons
unsaid
besee
westward
westminster
bayou
masked
masquer
dissert
dissoc
dissolving
dissolute
boardwalk
charmless
successes
stocking
snowing
indecision
dangling
##flat
precip
precaut
precarious
baal
machin
symp
symbi
twentyeight
argot
savant
savors
tubular
safeguard
faltered
hungarian
spoils
##cerned
ordering
camar
camilla
wheeling
measurements
##iency
superl
aleur
swimmin
hurtin
hurtful
volu
sociable
histry
tended
tendency
axial
cadill
caduc
seniors
midget
lunchtime
galled
galling
gallows
cloudless
arranger
viii
viagra
violets
humanitys
horner
tablets
muds
gleaning
##culate
decem
deceives
conclusive
ghee
knockoff
##poise
countrymen
attractions
beastie
beasties
philanthrop
folklore
conditioned
rebelling
acquiring
cultivation
supportive
improv
broadc
cruiser
##having
differential
cousteau
cheryl
lingerie
spaniards
bendable
##agnes
beefy
athab
procession
borbory
venous
vented
venison
pollute
murray
carping
prosthesis
feta
fetish
poetically
calmed
ecu
ecze
inhaling
inhumane
lawsuit
estimation
honeybees
scarier
faithfully
aquaria
aquarius
chatty
dollop
busty
governors
toothbrush
celer
celts
celeste
brokenhearted
brassieres
instructed
heartstr
##roman
##doors
respectful
absolved
throes
commandments
fleeced
roux
rouge
stroking
codling
relaxation
ethyl
##ittin
##ittal
blankety
amphig
fonda
fondling
cathars
filmed
frustrations
chuckled
claque
clapper
committees
famously
psychokinesis
binder
advancement
pedro
pedagogical
romeo
tuned
secretive
scrawny
##yrus
jesuss
altitude
mirage
ventures
jerked
organelles
assistants
dyou
dystop
bloomer
ciner
cinque
taunting
sparkles
gnarly
homers
homage
hometown
scripted
purchases
authorities
dysm
operations
beaux
beaufort
favoured
etching
correctness
latino
traveler
celeb
synonyms
exhale
arthrop
corduroy
umm
taper
germane
fiftyfive
bouill
kennel
kenneth
deliciously
poorer
clicked
coaches
tumult
tactile
tactical
viney
woozy
unwary
negatives
hikes
hiker
mcco
communicate
steeped
steeply
destroyer
awaited
carbonate
junkies
skewered
##rograph
furthermore
chemistrys
dopey
barnum
locket
##drawn
inventors
choral
hubris
##hyth
tanked
##iotomy
crania
boomed
genesis
australians
australias
dipter
sacchar
detectable
oedilfer
cerulean
giggling
##cutting
##enesis
molds
artistry
chirur
contentious
conversing
zookeeper
ablation
tedium
stallions
##ocrisy
leathery
digesting
honesty
chopin
swaying
pulitzer
execs
dilute
itchin
conjugal
anticipate
stupidly
stupidity
cooing
ripoff
circumvent
circumfle
sackcloth
progressing
magicians
improvements
cabbie
affordable
railing
streamlined
anthropology
nuclei
deafness
scanning
sherman
##represent
unbound
espies
algor
generally
shorthand
shrivel
pregnancys
assumptions
capsules
electricians
competes
adamant
researcher
golfers
lunatic
pardoned
wanders
dodgy
dodgers
envoy
crawler
spectacles
admirer
admirers
baseballs
lyre
rejecting
loathed
davids
nicotine
christianity
ellipse
marshas
disagreed
royalty
filet
gumption
batsman
peels
wireless
profoundly
southernmost
hypocrisy
picn
##without
##renees
bashful
trimming
readership
remotely
wheaties
lucrative
cockeyed
durable
gourds
eightyear
lentils
mourner
##bellied
satisfy
alphabets
tolls
pertaining
settling
heavensent
lesion
clutched
antibl
antibiotics
dabs
##iarist
connub
lovingly
graphite
pyrenees
flushing
translates
shortstop
ayes
festoon
altercation
accepts
desktop
sanct
tapered
virtuous
platoon
platonic
abdul
portraying
patched
ranting
tuft
##ennial
anteced
subsist
gyp
wigs
##market
##pecific
##acca
hemis
editorial
fencing
vestments
converting
publishers
mending
scooped
ponderous
loopy
comedic
aegean
rendition
knotty
##actylous
chronicle
regional
vibes
amendment
sketching
grapefruit
wagers
wagging
convection
diverge
indulged
indulgence
wombat
excluded
conspired
##walking
francs
mankinds
assuredly
##charged
corona
unfairly
flapper
graciously
peppermint
digitalis
nicknames
economical
economists
molest
molten
vigorous
licence
ditto
eclips
conquest
boosting
brightened
harpoon
anemone
ancestral
michaels
dcor
vivacious
seaman
affirmative
muttering
stanza
ayeay
jacob
lampoon
bahrain
nibbles
toddlers
reclining
spaceship
decreases
gorging
yanked
baronet
satanic
epicure
northernmost
bertie
crusader
prudish
debutante
assessment
brigad
enhancement
mosquitos
corsets
oaths
sturgeon
avenge
softs
##franch
bravura
hypertension
brooklyns
screeching
legitimate
exhaustion
lynne
cohabit
suspenders
embroiled
embroidered
bazook
scorp
muffin
muffins
treasured
atmospheric
juris
jurors
asteroids
sulfate
convertible
slothful
adulthood
consoled
cyanide
thermal
reeking
hoarder
decompose
attachment
columbia
extracting
hughes
pulpit
frenzy
mitts
wipers
abnormally
cumul
quince
lodged
antidis
metaphor
metaphors
shrouded
ovens
yawns
sulk
administer
intellects
consequent
stimulate
diaphanous
avowal
cymb
##ygook
brackets
prostitution
snarling
collapses
concisely
cannonballs
initially
lighted
adele
mohawk
counselor
eccentricity
georgia
##washing
confronting
uncomfort
shadowy
staggered
wendy
chunky
reptilian
soybeans
##olithic
pandas
unconcerned
computerized
swimsuit
acknowled
distinguishing
##oooooooo
anaer
comparative
trenches
prosperous
fiddler
prowess
enigma
slogan
slogans
##figured
##starred
fluttering
craftsman
hummingbirds
transcendental
astonish
astonishing
achromatic
gnawing
fertilized
clamped
browser
unemployment
dishonor
savoury
##catcher
dendro
deepsixed
pharmacists
reassess
distillation
facetious
symphonic
cackle
parson
##modynam
ineffect
caterwa
##wheels
eyebrow
rebuilt
umpire
estranged
intensive
cappella
cappuccino
hobbes
extolling
hurricanes
atlanta
nigeria
##bulb
chastity
[...]
