<s>
<pad>
</s>
<unk>
<mask>
a
b
c
d
e
f
g
h
i
j
k
l
m
n
o
p
q
r
s
t
u
v
w
x
y
z
##g
##l
##y
##p
##h
##s
##i
##n
##x
##e
##o
##t
##a
##m
##c
##u
##r
##w
##d
##k
##f
##v
##b
##j
##z
##q
th
the
re
##in
##er
##es
##ed
to
##nd
##at
##en
##an
##ing
##on
##ou
##ll
##is
##or
yo
and
se
##ar
in
me
wh
ti
##ts
##as
ne
ve
of
he
te
be
no
de
##it
##ro
##gh
##al
that
li
##ay
ce
##re
so
##ut
my
sh
st
le
is
##le
co
we
ke
for
##ri
ma
##us
wit
##oo
its
##ow
##ld
##ra
it
si
ca
with
##ir
on
ha
##ch
##ur
ge
as
ch
di
##ck
ta
but
pl
her
ter
ri
ur
fe
##ght
sa
ly
mo
su
tion
his
an
was
pe
do
they
ba
lo
when
go
la
##ill
not
bo
bl
or
na
this
mi
can
im
fi
ni
po
sp
cl
##ust
at
qu
##ould
hi
all
ho
ra
fa
ver
con
##id
res
fro
ry
ty
##un
##ess
pa
from
tr
##ad
fl
##ough
by
red
##ent
wor
if
she
ci
vi
what
ro
ted
who
##ers
just
will
##ont
da
ting
bi
pro
sed
##um
pi
kn
cal
##th
whi
un
gu
led
##ound
bu
ble
##st
ned
our
ga
gi
now
##ly
see
hes
gre
king
tu
##il
ar
then
##ks
tw
their
ny
thats
com
said
ex
ple
##ul
##est
al
##ms
##ind
say
##nt
##ood
us
dis
out
##ard
per
sm
sw
sc
##ps
der
way
fo
en
##et
up
tra
##rea
man
pla
##own
though
cu
##ast
day
wa
qui
dr
dont
##ant
too
##el
get
ten
ked
would
has
##ct
dy
mu
du
ves
ea
sl
gl
whe
##our
##ans
tic
##ree
ding
hing
jo
##ong
tri
gr
cau
well
nes
hed
ning
##out
sin
ling
ac
br
gra
wi
##art
had
##ink
pre
sta
loo
mes
##ish
med
pr
cle
tes
##wn
ill
ses
cr
che
ring
##ds
des
##ue
##cks
vo
va
kes
men
may
ap
tor
sing
fr
know
how
##oun
##nds
##ep
ded
ven
sion
sto
new
got
down
cro
could
##ft
old
car
sha
ze
pu
which
##ys
ped
him
play
pri
##ist
bra
sn
fu
tions
bri
fri
sk
bro
cri
tle
each
##ought
gn
should
two
tal
##ls
been
spe
cant
ser
ving
tho
sho
thr
am
##ous
##ass
les
fir
ru
##ars
ved
lu
tur
lea
cla
##ins
ull
ger
ters
den
boo
low
good
them
str
ful
need
ber
than
let
ces
through
mis
##ings
great
##gs
lar
might
cra
gro
wed
swe
##lls
rea
##int
clo
son
find
try
em
tly
tro
chi
af
off
bla
cor
think
mar
stu
back
ner
sy
cha
plea
right
head
bar
wont
##bs
##ort
nal
es
par
##ff
ph
shes
must
##im
much
cur
##ight
real
je
id
bea
ed
##ath
long
flo
ran
ad
first
did
ja
ced
nu
word
sis
##ons
dra
cy
less
pen
call
tre
hy
fla
found
dro
hel
met
sen
hor
ment
bre
far
##ats
##ss
tl
dri
such
ping
most
means
que
ste
why
still
cho
ged
hu
sur
dan
round
ye
fol
best
cer
sel
##ws
bed
frie
hell
ey
fer
##ns
han
cre
mer
crea
show
chan
ear
tan
##mp
##ot
dly
whats
bir
look
big
ming
lie
hea
tea
ju
sea
##ash
bet
ban
both
war
ness
does
bout
plan
fun
star
ral
ins
bur
clear
ders
wo
tio
ker
night
ung
sma
bit
nor
ken
dou
hers
tain
ing
coo
gy
er
hear
gree
bor
dl
cen
cou
cat
##igh
bs
wr
pas
ways
ging
coun
au
ky
ot
feel
har
ges
cour
pea
work
light
last
dle
##ic
gir
wing
plo
mor
##ugh
lor
thought
pres
##cts
py
set
tas
tru
sch
##ip
hout
yes
high
free
nic
lit
tin
dar
tell
win
##pt
col
roo
left
keep
##ool
pain
sle
bad
run
ply
gain
gle
hard
##als
true
says
pli
spa
small
oh
ps
mea
vie
lets
ton
words
wri
doc
char
air
sq
known
dm
sound
things
dv
por
cli
seems
want
mas
three
len
dead
end
fra
put
soon
##lt
tis
spi
ka
bat
ki
pay
mon
near
lec
stri
wer
rent
##ak
stra
fle
kne
dear
fee
ney
gar
pes
part
cut
mean
till
peo
wal
lan
ren
gen
##am
brea
hou
##gn
ou
ler
blo
tm
lis
blue
mind
hun
yet
lear
black
top
sweet
hot
fear
mat
heard
fes
gri
eat
sun
friend
hal
guy
bal
sup
##ids
##xt
nis
sor
fat
ket
fil
##ush
went
thin
dw
sou
bel
cus
poor
ris
kin
stay
lin
kind
sim
clu
folks
ts
told
lot
lon
pra
thing
dad
god
whos
stop
##ills
##ef
plain
pur
land
food
dia
fish
las
pic
cio
##ug
rest
sla
die
rat
til
hair
fly
heart
help
cons
gly
hat
dam
tors
xi
hand
bles
fair
squ
qua
won
test
rh
own
cas
turn
buy
ball
lou
days
wan
pon
took
ries
zed
isnt
cru
hold
pan
world
four
##ump
el
seen
hin
hen
rous
##cs
foo
##ness
sit
green
wat
self
gin
start
gets
key
girl
suc
pos
bly
door
full
row
hit
kl
fec
drea
##read
dea
##bt
cing
fan
sal
sna
hoo
tree
shi
mou
tee
##ils
##ards
gue
sco
fin
form
rio
boy
##ick
grow
ud
town
gers
kers
ria
thro
cry
chee
gui
kee
bac
blood
cold
ya
tead
spr
ef
wers
##unk
fit
goes
pie
ground
lost
san
tf
guess
tec
bes
ties
next
gno
read
wee
##its
rec
##eds
hap
sus
stuff
mal
wea
looks
net
being
din
short
main
mil
glo
chr
ments
art
skin
num
rhy
bot
lay
spo
friends
mot
don
##ghts
drink
gun
fall
za
bas
feet
vil
cross
pat
sic
twe
dies
hur
sign
deep
gan
pass
pho
gal
tar
fran
wrong
joy
mus
hip
aint
gla
trac
dry
dog
ask
fen
ars
dor
dic
few
seem
cir
vel
sly
sca
rou
thus
rai
rus
tem
doubt
cess
##ows
vers
nee
sad
bright
tom
tou
pec
claim
shed
trea
book
view
od
sent
wish
pair
bring
min
meant
theyll
saw
##ench
fas
fel
cap
buil
smo
mom
earth
clai
drop
cent
yel
gran
vor
ab
kly
guys
tics
stre
sil
sions
ners
fru
port
hey
zy
bird
choo
flat
mic
spl
doesnt
pers
flu
brain
##ents
sli
job
smi
bound
##unch
xed
class
cried
dark
dum
op
grap
sme
fight
chur
pray
hro
hm
meo
shows
wood
room
mans
death
dent
fast
kids
sty
shell
add
knew
pect
hol
fact
bli
##iss
hn
cei
bus
fre
eg
val
ques
chris
vent
tac
voi
gas
suf
bloo
fur
wha
cial
bio
miss
strong
fal
past
half
bow
caught
treat
lic
pear
thir
beat
hig
dres
cool
plied
nas
ried
vy
stran
six
tried
school
ds
thri
lots
ai
lies
needs
pal
clot
sight
ric
grou
wil
nough
pin
##eld
bing
jec
fea
sue
slow
shot
kle
nus
ward
trou
##unc
crow
lent
kno
dvi
nia
arc
tent
tel
rin
sex
cep
plant
sum
fed
dit
ko
break
grand
clean
lead
gned
bill
stand
deal
##unt
didnt
watch
knows
noun
dress
sol
tai
wait
tween
pul
twi
going
act
term
##ists
fic
##ums
law
dif
dom
song
mad
spot
cul
mit
scre
speak
cel
bud
nish
slo
pit
xa
gold
tys
brought
gues
learn
dio
shr
point
jud
gua
list
band
goo
beer
lia
brot
straight
tant
##uth
wear
zo
##ap
fai
hough
##oul
cow
works
sleep
bee
hus
shar
bers
cos
sir
fell
prin
pot
dee
fect
trol
born
oc
tie
cea
haps
df
alt
sour
sul
tn
pee
press
et
teen
floor
nous
##ught
rer
duc
bought
pret
tles
gm
odd
ben
poin
sky
kil
tus
died
cles
reac
trees
bul
cash
fy
mac
ob
tend
chil
rick
board
quick
couldnt
ror
tran
lac
tric
boss
brown
felt
wel
due
ligh
##esh
eu
wind
wasnt
vin
meet
pel
dish
mem
wai
tial
sub
news
aw
bun
sand
clas
count
bum
dn
fool
ject
quic
bree
wro
tos
##ank
least
birth
lous
bear
##irt
sounds
sia
##mb
mid
bru
mers
feat
hour
ron
heat
bon
hl
worth
girls
nan
ham
temp
prai
lum
##hs
shoo
lord
pet
bled
spread
wall
ploy
ray
trans
grea
hands
shall
sne
foot
boat
gram
teac
fruit
##ud
joh
poo
damn
dness
##oud
tail
zing
sti
church
fis
mous
zi
books
hly
hind
dre
tough
chic
gus
bread
sear
ol
sort
fac
truth
dal
sell
french
ae
tack
ples
daugh
bil
non
bey
theyd
street
drin
birds
bin
sons
field
cree
fill
vic
sio
lus
walk
cros
plants
neigh
gon
poe
sau
bran
rys
truc
del
bag
pound
cell
dow
cop
tall
tum
meat
mys
plus
blu
pus
ass
loud
##uck
stan
rian
check
hie
bay
##uc
neath
rain
gni
squa
dys
##ies
sick
lad
dai
void
doo
heal
hop
sce
firm
lish
##lf
clea
dles
court
kill
sist
rial
trip
wild
spee
shop
pop
moun
rot
tight
john
toes
ley
twas
tment
coa
child
mess
mel
blow
ras
wy
front
helps
##om
gee
grin
spea
choi
nar
rac
rock
gic
vol
phy
cast
##ult
slip
keeps
ship
weight
cam
rich
brings
ricks
lows
lack
fix
bits
tful
mee
twen
swi
plai
cept
sig
ag
xe
kept
geo
swer
join
nest
ant
catch
warm
fraid
prac
paid
cin
swee
talk
fers
nea
road
sci
cia
tual
parts
gent
turns
stuck
mum
laugh
box
tress
nec
mouth
sar
sque
dvan
gest
mark
hats
tains
clim
flow
cient
teeth
cum
thre
stro
bob
ah
aus
ut
west
mai
mand
sug
vio
nings
smell
##ub
cot
cond
smart
hw
mur
pac
glish
joi
held
nie
##ith
pears
bling
jer
fif
whis
kid
wis
nel
stick
seek
heads
bis
dol
south
xy
glass
dream
kw
poi
bso
abs
thou
vey
sai
grown
tist
fail
dren
luck
kay
woo
draw
slee
il
kit
pis
scr
cup
lian
hic
mos
suit
##ung
deed
blind
##els
grows
dmi
sas
soft
boys
ret
quo
hos
screa
bank
arm
trai
tings
chair
van
zen
sap
watc
rant
cian
cream
plays
gods
psy
cid
thanks
scien
aim
lers
fresh
greek
rid
sert
##ugs
coc
soul
doing
dmit
pink
tness
fied
dents
lief
eight
##gth
rel
kets
rie
bsur
group
dread
cells
speed
##zz
neat
bug
writ
pants
##ac
##asts
cost
gos
dred
tless
jack
chro
snow
sharp
sat
send
plas
pick
cheer
phra
built
mont
dumb
##ful
tray
wouldnt
sem
dian
mons
quar
train
thinks
bid
rough
goal
breat
sys
tish
whet
sness
gainst
oil
sie
tract
hood
eggs
boun
xam
pai
gres
shout
leg
kni
gles
milk
legs
pol
reach
xo
bull
scra
rei
beg
bold
ears
step
cof
dings
pse
mew
gol
quen
bub
lings
swell
bell
chat
sam
sult
spar
quit
hings
bsurd
##up
weat
sigh
tsi
nist
lion
tand
das
wings
sual
mud
hni
ks
nut
ond
stock
broo
stea
hill
breath
kiss
thick
lim
geon
drunk
grass
crowd
bou
rect
dig
via
cham
knees
block
week
hum
zoo
lee
corn
sche
dough
nin
sold
sian
balls
ow
theo
shor
kings
proud
dreams
rum
wre
xes
gel
bos
hid
rol
fess
noi
wet
fet
ryo
grew
team
skill
kis
rish
sets
stars
ers
mong
obs
path
drug
touch
dus
swim
cheap
mass
##os
ree
seat
lights
whom
buf
cook
views
aunt
yi
worst
dled
sant
tons
mix
joe
rub
park
folk
gist
sec
trust
spell
hurt
eit
calls
trying
emp
throw
bol
nian
spring
burn
flee
chal
dogs
sno
##ord
glad
grab
search
aut
ec
##of
##ork
hai
arms
chec
crac
gh
neu
gne
tip
moon
dul
north
lid
sits
club
plot
tres
bris
rear
tia
tern
bom
ends
meal
loss
beach
starts
harm
strea
hio
flight
ought
kf
mour
tian
fits
nies
strip
pest
sers
chest
taught
twel
shoes
crew
cies
buc
gled
rings
shock
cord
lors
vet
fort
roll
pull
brid
speech
foun
moo
clue
quest
croo
gut
sought
nion
spent
trap
gry
broad
egg
neck
shri
track
gli
trick
gna
amp
stress
plies
card
east
nuts
third
pun
facts
greed
crack
hours
bush
cee
lands
crus
cars
wants
split
fans
hee
ceed
flies
roc
tals
bser
jus
nur
rit
lips
bui
fred
func
bent
##ach
butt
load
smoo
brains
toms
forms
pros
tool
chea
shown
blem
crown
tmas
hr
##fts
nigh
post
build
lions
dip
feed
blis
sym
kles
zar
figh
bye
crap
mul
xu
##wl
dim
spou
gor
lunch
stor
keen
sheep
sni
swear
noo
tails
laws
tled
##ights
neit
##itch
weal
hion
chop
dust
plans
blan
paint
bic
priest
roun
scan
finds
rents
vern
pau
smal
runs
urs
spor
proof
gat
nos
##irs
drugs
cys
weak
jac
jum
bugs
thoughts
dun
mood
vir
tears
stood
laid
spin
frown
swo
signs
sees
vea
float
rocks
gray
points
snee
psyc
bour
gay
shut
gret
phi
beef
coat
subs
thank
drag
kie
hue
tied
beast
geor
sail
peal
calm
ir
bia
bucks
stands
chief
jui
gists
mail
blin
screen
dir
foul
thi
hall
pil
eld
lest
oo
coal
sui
gift
swal
duck
blac
bark
dwe
tap
dawn
stin
terms
lys
acts
crip
farm
hearts
math
pou
vis
zl
los
brow
claims
cac
loa
blic
troy
##ffs
catc
text
guard
spend
chain
jects
hon
toe
shoul
scar
trop
fault
troo
phel
blues
beans
plen
dot
cil
pig
gie
tries
mens
luc
dless
eigh
##and
tim
keys
ros
brief
clock
shir
##ths
gai
walls
dull
bert
feels
holds
xing
##itc
##utch
nial
dac
grees
grant
match
jerk
cats
mia
sport
chef
thrill
cis
fus
jor
jour
##lo
lep
bors
bm
bills
vas
cians
bies
gio
grip
risk
punc
het
cean
gies
sweat
mount
xis
lip
nai
hips
kness
frus
diet
hits
gress
shouldnt
health
hle
mir
tect
stir
mam
rab
fled
sings
chap
task
soup
shou
dos
quet
shoot
fing
ji
pid
thum
clown
buck
boot
cers
nent
wra
sop
whod
kna
smay
duct
drawn
kens
lat
mc
tard
chin
pled
loc
uns
crys
knee
salt
mist
nap
pier
fold
hful
mut
mars
rist
tz
seed
seas
tells
noy
lax
worn
guil
skills
film
blems
sults
sei
bears
lect
ram
fos
grief
reign
xer
toi
pad
crui
cab
alp
jail
schoo
snap
gland
phelps
aid
zes
bend
spur
trus
scot
horn
charm
hay
reer
deer
falls
tua
hang
nio
pies
gras
crum
tli
squir
cay
kan
ok
plum
pond
rap
plains
teach
bees
rip
sua
clou
nys
cruel
dest
ent
zer
##orn
neo
weed
lying
backs
cler
pack
roy
cui
dli
bses
frac
flec
vou
shy
worm
crop
shoe
leaf
syn
shun
weigh
clay
gion
plex
glas
stret
wards
sins
stew
glee
flying
scrat
hant
rier
spel
prof
pia
glow
hound
jump
oe
wes
seeds
laug
scri
foe
breast
steal
fills
nen
##ne
fects
migh
poc
tooth
pup
worlds
rows
hra
jim
lars
debt
wels
haw
brush
vain
skip
tists
purc
doors
bust
sip
bond
nights
vior
cern
length
fools
cryp
smooth
sout
tends
lift
ford
sics
qual
flip
drum
gling
root
toast
oft
lio
weir
bai
blas
paul
dern
fright
stres
stren
craft
psi
kick
uth
vul
bec
boi
tricks
pru
brigh
shoc
dem
mands
sud
ryt
droo
doub
searc
bath
lour
prea
vest
##man
heed
sof
cock
nions
glan
gloo
brew
bloc
ay
pool
zle
tigh
bean
tral
cue
dling
nics
lass
tick
soa
stal
cops
tax
sway
crash
rup
spray
sang
sticks
lur
deo
lied
pep
host
wheel
bron
fron
flair
nists
gals
wash
bys
whee
syl
drew
tex
stink
plight
sues
##ads
wort
swa
struck
bang
dows
frea
vels
stun
sac
blast
flic
fres
chip
dirt
zard
lean
mains
righ
feast
bands
rob
dne
jel
forth
cad
lop
lock
cans
vert
dying
strain
hless
threat
pour
vour
stic
pains
dens
gma
climb
yer
cher
pects
bomb
frigh
pitch
vast
##ost
ceo
hern
quid
flows
kled
ul
coast
cows
##oop
blon
grey
smel
foes
brass
goods
gown
gins
nat
soun
tat
tear
##chs
plu
fid
shel
nown
smar
sink
grim
os
##ph
soil
lem
dil
rior
rits
spy
hil
dain
staff
earn
blooms
wealth
jar
nun
um
itll
tact
goat
cien
slim
trial
prey
chew
groo
counts
gw
som
wears
camp
fears
mol
cres
marks
minds
growth
leads
aa
hri
jun
mals
dex
suits
log
bliss
clan
trys
twin
tens
glu
larm
rals
truck
hook
furt
songs
weird
yard
dep
worms
blew
pens
drow
throat
knoc
strength
soo
anc
flas
sword
cuts
roots
flew
sland
frank
dant
heck
beats
blur
faith
fli
gam
trait
hasnt
esc
dver
dads
dso
pills
rush
##ull
##wd
height
maid
flesh
vens
fried
ski
fought
push
vid
thigh
noon
rights
mies
swing
slan
ships
eats
vous
tour
clip
pha
lists
drinks
sports
wrap
hys
flash
nyo
sligh
joint
stops
puts
cries
rank
hors
rists
pounds
lun
nort
wound
leat
vents
stray
drip
spain
tments
cough
bells
naught
prop
proach
brag
roof
dma
storm
cards
tol
shirt
nied
dae
fox
steel
burst
kitc
tops
sects
hew
chill
flood
roa
symp
flag
tinct
xual
troops
fon
gum
yan
dium
spen
trum
spec
cloth
drops
rors
winds
aun
xist
saint
trons
cie
knight
brand
kies
bloom
doom
cz
nant
cae
scream
months
coi
caf
##cht
gear
blown
nyt
cras
wyer
fuss
bind
pow
##he
deck
lawn
nau
pits
gul
gian
pert
hug
pset
click
breaks
dwel
schools
lust
zin
sels
tient
socks
poet
raw
traf
plau
dye
bric
cram
swea
breed
dwi
chas
moms
span
fau
verb
sman
bred
boots
craw
tling
bsor
morp
foods
hairs
bowl
dutch
gs
pill
tems
liar
diers
rium
blad
stuf
healt
swift
dwell
eart
kic
link
##uf
rein
tous
##enc
cod
fend
spit
trash
promp
hest
tools
brus
cris
yell
cret
ports
blos
lism
stays
woods
fart
sans
ux
sey
cloud
hod
guest
fond
jam
flaw
bitch
norm
knock
nue
thic
toss
belt
sies
dict
lacks
blows
blank
fier
twis
bril
bsen
gents
thril
cart
nents
tha
tacks
shee
proac
scat
drank
hung
rers
kfast
eas
pm
wow
york
veal
map
sack
pets
boa
whip
jobs
skies
gnant
strug
pitc
coach
cous
gant
tians
nets
coin
herb
nip
wholl
dap
tuc
smit
brin
snoo
vings
clau
jaw
docs
xio
splen
bars
oer
poun
wool
kel
spon
pio
blee
twist
brit
brai
struc
drain
stee
grie
thy
toy
veg
hac
ash
bog
nac
cals
arch
smas
fud
frien
sists
hub
sorts
towns
tner
brui
stream
jes
rash
stree
##irl
mond
sued
peat
mics
vies
tler
sors
snack
gment
ee
thun
mop
lam
twa
ens
enc
wheels
joys
bras
chicks
silk
tempt
clerk
gust
lue
##ism
mec
deb
lei
ants
boar
orc
nil
rail
guts
fry
chips
woe
matc
guns
smells
fields
vow
zip
hem
dei
wic
ske
crab
gross
peak
thrown
guests
dash
junk
lant
thread
neer
teo
ril
sands
fling
vils
switch
toot
apt
boom
bald
hman
threw
hills
##no
dien
fei
wors
twit
wax
slight
cheers
puz
skull
drill
creed
tsel
greens
kling
pairs
month
ghost
gour
gys
##ark
##ays
witch
cai
gels
ches
tau
rib
suns
lap
bian
bry
cheat
banks
spots
fret
screw
clouds
tit
ster
max
ast
nium
bie
mug
ducts
stam
cran
clam
tinc
pays
shrink
stiff
tet
##urs
dod
lab
boast
fuel
cords
jee
gyp
kinds
speaks
meets
joints
zens
thief
bass
km
ku
reo
##irk
herd
rians
dop
lai
pots
bias
tood
stocks
dried
dven
cuss
cheek
hno
crook
git
hness
xic
lier
forts
mach
pend
loan
lau
cling
fait
faint
knit
scul
fog
brie
clap
tank
burns
fruits
hment
groups
bats
sect
bam
bags
sphe
flus
arts
exc
rug
nals
phe
drift
branc
bump
gard
gans
junc
pf
hau
vail
tlan
cents
rons
sess
loon
rah
floo
sheet
guis
gau
slick
trim
grain
strings
adds
breasts
steep
steam
walks
hens
roug
shrie
hint
vant
wars
dean
rests
crops
string
craf
xac
streets
gis
punch
neys
soot
stum
web
mau
chow
lamb
blun
dub
drai
treats
greeks
touc
gloom
nit
vals
threa
reas
beth
chuck
dits
locks
boon
faul
ress
giant
trian
germs
flop
weeks
rell
hei
hec
liant
lend
dial
quor
pact
tuo
swers
cuz
glue
sham
pub
stron
mists
gym
dmot
xie
thumb
hs
zil
int
mend
dick
dilf
plun
peers
boards
nail
hia
frog
tras
grum
flap
steer
hunt
souls
cist
kr
##ht
##fs
##ords
tien
beard
lien
coy
chum
dier
fles
roam
brick
stub
jeans
nual
churc
zled
lout
wins
ink
tein
butc
daw
gia
cud
dup
fairs
hf
deeds
chlo
mock
lain
boats
bler
blus
hops
rack
fails
gued
buzz
print
tests
cric
firms
flock
stem
wrin
bows
reft
tients
soc
chart
sump
piz
drun
jol
hadnt
straw
sung
hatc
christ
odds
rays
lons
oa
xas
liam
leo
##owl
geons
dock
bait
boil
fights
worl
smis
tracks
quip
brac
curs
darn
rooms
stric
scratch
nou
xan
tot
meals
hack
bod
spil
cly
buff
swin
waits
chick
lert
preac
tock
clin
hob
flir
knot
tub
crit
pud
groom
flaws
shrub
kward
wrec
bunch
kish
toil
shre
asks
suck
clum
slur
prou
skil
nism
films
dwar
earths
graph
twixt
dna
poop
creep
scrub
tself
fou
gf
ough
tun
wink
##ig
##ee
tier
itc
chu
mob
golf
fie
nim
clus
trunk
trail
skirt
mors
lords
schm
clubs
glands
sculp
hast
hars
soms
moan
quent
flour
vian
scorn
rants
scho
charms
cliff
midst
pons
##oug
nels
tects
beasts
hail
mold
blen
sper
hods
roast
waist
fourth
patch
hma
roads
stretc
cun
dump
##ah
rep
hae
rien
bab
loy
lads
bols
pod
shelf
damp
gig
traits
slam
fray
nui
squat
shield
rhyth
ditch
dfas
wyers
cm
cne
pw
ups
zu
##gt
deu
cob
bap
blight
nae
rye
scro
tracts
slum
wheat
jews
grounds
cult
poem
cists
nons
vein
##itz
##ook
pends
rod
rold
gions
swel
dru
sles
trio
crass
fries
marc
march
draws
tland
steak
couch
morn
slept
slaugh
eup
branch
wreck
stretch
bv
lump
rats
sr
##atc
tims
bels
nod
tad
mits
nior
sprea
buz
buds
trips
gru
ills
barn
horns
tants
monk
vors
dful
stern
dess
nay
pump
rut
sends
coe
plis
plug
moa
tron
ducks
groan
longs
blocks
pics
hoot
gang
frui
whack
prints
limbs
bard
pings
thee
toll
dec
sting
chuc
baw
whol
seeks
greet
grams
torn
germ
boos
hants
teams
slands
fist
gars
jet
oak
sro
heel
soap
coar
kew
mall
itch
saul
moc
nag
clout
paw
muck
lark
crawl
gros
bland
beak
bsi
courts
pork
kicks
deaf
sprin
fifth
scratc
ads
cit
thea
tow
sew
seal
nep
vec
dew
sos
gems
blink
rying
tyo
pand
rolls
whim
dras
checks
tort
downs
brim
leap
offs
beam
hues
dler
cheeks
thirst
shark
teens
ak
bei
deals
cend
monds
peas
clad
dah
dab
twins
plaint
desk
shots
flam
beds
wolf
couth
halt
geek
paign
kins
##tc
goals
nius
gil
duo
snug
funds
leak
chim
dril
creet
slap
patc
shorts
grasp
thighs
bn
sre
zon
thw
rels
##outs
nex
gem
sucks
bail
tren
sheer
daft
pian
guar
scent
crust
brits
woes
nors
lens
kless
crying
reads
shoots
poems
kon
munch
pals
yum
lif
stout
coins
fork
fees
moth
peer
rop
rots
gag
gifts
perc
sket
gning
heap
clients
dfat
gosh
elds
bmit
mint
pent
pum
pins
beers
leys
caps
dians
gob
bless
fian
raq
swam
loot
pran
claws
lorn
airs
tism
scoff
hnn
stinks
aest
tart
##ha
whys
noe
deft
sails
roar
bleak
scree
trains
sled
wig
ska
tlers
pses
strict
outs
dors
ep
jen
mound
##oms
##wk
heir
deas
ceans
shat
lef
tag
terns
trous
pigs
perch
drums
stain
crunch
beac
tla
warn
wealt
freak
harsh
aar
gid
hree
kills
pout
tans
tips
heels
lewd
mag
haus
rics
doe
bolt
nails
mild
raf
daz
pim
guish
swiss
scal
slug
jos
brash
pries
broa
gner
drown
tma
yacht
springs
stroll
mirth
mun
xin
nop
sher
shal
sians
gey
chess
lyn
bonds
nign
gap
gim
tues
disc
perts
swap
dua
corps
synt
stark
coup
dmas
xion
rhe
spoil
screams
spark
crooks
snif
shirk
sheets
rex
gea
dias
nits
hog
vial
wits
zea
broom
choir
straigh
squirm
rhythm
ecs
hump
rue
vout
##gns
tod
sep
thatll
myt
weep
diz
dots
whiz
gall
scant
tents
gnal
rui
trot
nerd
floa
draft
wrath
peach
tsy
palm
costs
mounts
hounds
sperm
bw
bash
cn
gous
vr
seats
nect
ceeds
weeds
plat
loi
fies
clut
flush
biz
guards
perb
cuit
dud
grind
stac
throug
firs
tsm
rhi
bounds
shred
bench
dour
dals
fw
gur
tess
zest
toys
soi
sot
stash
witc
rig
rion
spat
sple
trout
daf
blea
als
quiz
chaps
phil
steps
wrist
mask
frain
flect
hunch
tso
shif
hurts
fluid
dwarf
bunk
kar
kout
##rr
ceit
soar
herbs
moe
loat
boas
fig
dams
bleed
blend
twork
dual
glim
voy
snot
pso
spied
numb
tomb
sweets
hral
guilt
slang
kro
kra
xf
yu
##uts
inch
mels
lics
pluck
sault
blot
nias
spill
shells
roes
tui
tue
nym
comb
dug
brat
carp
jazz
fern
ploys
slea
pests
walt
crud
scots
hroom
aims
dealt
slop
loads
knack
fowl
mort
oy
yon
tout
##ens
teed
ceal
suing
niel
rag
tyl
arn
switc
glum
groun
prez
crin
vai
croc
puc
jean
nuo
burs
bitc
girth
fraud
flea
shift
thrills
xact
shrug
bombs
swol
eel
wid
zan
##rs
thor
seo
melt
ticks
bets
beet
coas
haic
pless
fia
quin
hoc
tye
flut
flick
scoop
trie
pric
skins
react
clues
hitch
twee
hrooms
crowds
budd
peek
hway
brood
bours
mcc
dney
hnny
dons
gad
gout
zel
toun
lids
mois
bach
bligh
nib
spun
pam
gains
scor
drought
trig
stall
stack
loop
prit
frenc
crows
thrust
claw
chau
chains
jaws
droom
sents
drif
merc
womb
smack
fleas
lays
spoon
pearl
creek
thie
depth
jay
kup
mill
von
var
yar
##te
##orm
vex
det
dels
cet
spree
clic
fad
trun
flou
calf
cups
dreds
joan
grub
stag
stairs
vam
clog
wres
gens
quack
kla
blio
tning
floors
streams
thumbs
hawk
lungs
yanks
fay
gons
kas
koo
lung
pful
##la
tof
limb
sow
myth
stitc
hael
sums
blunt
frost
smug
foam
grud
broi
talks
boost
strut
ranks
trem
cert
cooks
harp
plomb
truct
fleet
tman
slack
bloods
gnos
pinch
tumn
chairs
ksi
spleen
io
ox
pant
tees
tech
liz
myo
stur
leu
pling
feeds
peg
pom
spra
trin
flin
gae
ark
scam
foil
howl
puf
puff
cracks
cya
stems
##mpt
plying
porn
lents
frail
sunk
cryo
sank
brook
##osp
bvi
bf
cums
dh
oath
vu
vat
##vs
heist
hears
lias
cey
sob
maam
##irts
ann
lair
frogs
ryl
tyt
unc
buys
smic
cuc
joes
trix
bral
stai
pria
bricks
gnals
lues
neednt
reap
clocks
gests
psis
grill
tsman
teem
chry
spoi
splat
fluo
hmen
nouns
tempts
sneer
swag
pment
lard
lins
munc
tins
sells
cem
doms
lah
launc
nah
clutch
flan
swar
tram
grun
fris
crock
snar
throng
phar
trek
hangs
crets
jug
roos
tfit
gmen
sleek
priests
bons
dard
gills
uk
hag
rius
peep
lob
lamp
rao
sheen
dand
jock
hows
skim
cerns
glea
strai
tmosp
sants
nants
snea
poets
hwa
scram
fetch
flict
bryo
bvio
dz
dult
eh
lunc
xr
zards
rean
inc
sod
sier
haul
butts
loons
mie
pops
hies
alls
gits
smith
glut
wells
vails
shops
dlo
coug
dwin
diap
glos
dnight
sneak
narc
shrewd
cs
ei
fins
jan
lush
rass
tars
##me
thug
toon
##ang
whoo
lign
shin
shant
webs
sights
halls
geant
asp
chir
pluc
rias
moi
laun
spu
hoe
rains
roid
dag
smirk
swords
scoo
traint
crush
crank
berg
sweep
curb
hym
rounds
plank
doug
charts
dward
links
xia
snail
yawn
fluf
fluen
meek
swif
sighs
smoot
drool
crisp
shriek
bess
bums
pno
##ubs
toc
whirl
veins
teent
soak
maps
chump
herds
moss
pels
loft
quer
quil
shep
dist
plaud
grit
stab
vae
zeal
gnm
serk
lua
cloc
jai
tread
glec
plian
strap
flex
spreads
johns
cinch
jerks
dolp
zling
bronc
cze
faux
mings
##atch
##ors
heights
leon
pods
quids
hions
ryw
packs
reds
pip
gaf
swan
wag
muf
howd
pulls
broc
clich
laughs
hoods
depths
dart
gou
hre
vish
xit
##hh
##ey
##orks
nem
noc
coats
sag
hist
baf
lof
gop
blou
hief
flown
cium
roi
roas
bial
stoc
spells
serts
blah
champ
rang
jacks
steed
chops
earns
wrought
strips
balm
squash
stuffs
splash
whac
hli
zie
speec
kwards
swoon
lours
preach
pys
sra
yank
zers
ther
theft
rey
beas
lil
lians
cends
lects
conds
sid
haun
bau
logs
goats
blush
nick
cled
quel
bulls
twould
scars
slit
glows
grai
cleo
croa
shaft
zeus
prie
crib
ruin
chai
droll
peaks
plots
client
lengt
spies
monks
dwa
posh
tound
cepts
slob
liefs
chalk
blanc
cism
mcg
sync
lurch
glued
bnor
aids
est
hir
ii
jin
jest
mish
veals
hells
tep
liest
chor
riot
sain
naugh
niest
spins
verw
pall
tup
smen
glis
glit
fuz
tros
floats
jab
juan
burnt
wron
peac
highs
cask
gangs
dorn
shrin
deem
sniff
scrip
script
lurk
lemn
teenth
ight
oi
rump
yup
thems
begs
lium
stool
weig
sias
hams
gean
feit
bobs
spout
quis
hian
hoa
hoar
rau
paws
shea
daun
alc
disk
foi
traught
mant
pread
##ept
brawl
skit
spear
shod
crabs
nued
trend
rald
dman
strand
deaths
freed
dsi
lumn
shook
bish
cids
fats
jill
mout
nard
thong
rem
tif
tiest
nept
stel
chun
chub
saur
flirt
roe
knuc
smot
swir
scour
slen
gnan
lug
cork
drab
brel
farms
burg
dve
fraught
gril
klo
throws
sprout
zap
fetc
ghos
dans
dous
sals
vre
xs
xal
##lst
mey
whit
teins
noah
wept
tairs
lymp
peals
lom
lod
goa
goon
quals
shei
rods
pion
whilst
guer
buo
blet
gab
smir
wail
slot
trid
vault
newt
fric
skunk
crim
jea
beams
nues
gypt
snag
knocks
tnes
bumps
pooh
mouths
owl
shirts
shouts
crumbs
demn
debts
aft
bart
dung
gings
hul
hans
om
rust
xon
##tch
##ands
reu
nean
hend
dept
limp
stench
chills
dicts
moons
doff
loid
nais
mick
nians
hids
flung
cion
knights
buts
swept
gler
glen
tria
pring
snout
brian
shocks
earl
tanks
wob
coop
auc
psed
dmo
diac
elf
hooks
tfish
tream
freight
gments
blub
warmth
cumb
jeez
gnment
boul
cest
kim
pist
##ol
thra
toad
##arr
inn
tits
teur
soy
ish
keup
##uss
tab
rim
feats
lobs
gots
nair
hics
pied
guo
twill
smash
swings
scum
jot
cred
brio
tlo
hua
ferns
batch
slain
kli
tfa
klyn
palms
tners
etc
bulk
buns
delp
sleeps
oops
maths
chefs
blasp
doubts
dneys
bals
dat
dout
ie
kent
punk
piss
xen
yen
tiff
nei
nell
vei
nois
def
sock
stunt
coil
##lds
sils
tae
tands
pew
peel
loath
nab
nix
clark
quart
fros
frow
trast
cip
ours
gand
perk
smut
cuo
dyes
dyed
wie
snic
rupt
turb
clod
nerds
curls
breeds
stead
crews
spag
kand
kney
sprung
bowls
threes
threats
bmis
jig
hrall
wounds
czar
sketc
dur
eb
hush
ruth
uh
##ouch
tid
necks
teer
beads
noid
##utz
stoo
lex
weights
##oot
caul
moans
doll
bop
ponds
hock
faw
picks
bleep
tug
swoo
cuits
slay
pris
croak
prim
fund
skirts
gnet
twos
boob
blab
blacks
curl
draf
breas
seams
dley
schn
spam
tme
tmo
matt
tson
hatch
snacks
hme
bulb
lumns
reigns
storms
troop
hawks
aunts
ax
kat
mast
mart
nul
pans
sv
vows
wench
##gg
mets
vee
veil
bends
ceps
coer
ribs
riff
ang
pey
lae
mif
fizz
nier
spoo
quir
hom
gif
grets
plets
trails
loof
prat
crest
pril
bram
snor
snip
snows
boobs
misc
nald
jew
nup
tasks
psu
tsa
dorm
slips
graphs
dsm
knob
shrubs
mourn
shrimp
nook
scott
dwich
schmuck
ail
fum
gums
iam
kh
oin
##sp
##wa
reed
reef
tocks
tilt
shil
kea
dient
pler
plump
blish
ort
roids
bim
smid
sworn
dral
trials
wiel
voir
gness
speeds
booth
trols
corns
helm
brews
tlook
hugh
yells
wol
schism
spawn
frau
dearth
bloa
purr
tfor
malt
smear
tenth
kos
dios
goof
dnap
scrab
paths
nuns
kma
bh
fest
feds
mums
nour
tv
xus
thorn
meats
whir
neers
hews
lick
coor
ween
kend
diarr
dox
pox
polls
quan
ryn
whoa
guin
pleas
triump
vac
frin
gners
chao
realm
trends
dants
trucks
dmis
flects
rism
casts
fours
posts
screws
dfa
lumps
creeps
bluff
ilk
dipht
smarts
hins
nought
tint
wen
##ea
toas
##outh
heon
mae
tam
tach
plish
blat
mio
fib
hols
verbs
pail
floun
theirs
trau
cues
glar
gless
grains
loom
crunc
prick
frid
specs
stud
ranch
penc
dloo
glect
lanc
hunk
dway
fluff
venth
sloth
sharks
gramps
coac
dusk
streak
mours
stealth
faults
width
ao
bids
dong
dint
hut
kful
pous
rout
yards
zor
tots
toug
yol
meg
mends
decks
lew
leen
cocks
ons
loe
lops
nient
spas
rand
raft
fain
flit
flun
scur
cua
dron
hash
duh
slant
trict
stains
meds
shack
trod
nud
flags
quets
surf
crees
burp
dlea
dvark
tsu
squad
bacc
yall
splas
pearls
pinc
dfish
truths
squawk
scrap
snob
dwells
folds
stalk
swamp
sooth
flask
stamps
fway
fists
hous
mins
oils
tay
##gm
##li
##ww
thugs
rears
tials
beck
dey
lifts
maw
mails
gend
gears
chy
chon
fem
saic
lyp
moths
bah
goin
boasts
nien
guing
seet
tuck
nyms
plead
sment
swish
tramp
##elt
slin
slut
joc
bray
crme
vod
turd
strum
syo
jets
drib
whyd
hull
jua
smac
bse
coln
learns
hints
gloat
bask
fluids
gasp
narch
strol
wreath
puns
pouch
loaf
clowns
mutt
viors
zinc
gsi
hso
sketch
cnic
waltz
fm
gish
oz
opt
pne
wad
xists
##upt
thump
thud
rend
toons
vets
heigh
deat
coot
dips
plow
sav
loans
launch
blers
blings
ors
filt
poac
sped
hick
hoy
hoi
raz
rails
pawn
pads
cials
cients
knic
tward
swill
foon
quits
joins
brink
stair
braw
spends
turf
tryst
mustnt
floc
ranc
seam
breach
rho
snails
scold
spru
tweet
grants
flux
dumps
knots
bulbs
hles
puss
cinc
kwa
quoth
scraw
zoom
spurn
thwar
bins
dards
xor
seum
vem
hets
heirs
beep
shud
stut
stings
stung
leons
maids
taint
fey
feu
peck
dolt
lol
nand
spri
clat
conc
tred
trough
dapt
tuf
cued
slic
jog
brats
stacks
shag
snu
fuzz
skep
cript
groa
groans
cyst
hyl
hank
norms
dlers
bsent
gleam
blog
tmost
balk
slac
yaw
smos
shrill
tzer
scotch
twain
gourd
xray
saints
bort
eins
kv
oun
oys
pree
pish
tut
tush
xw
yep
zm
##nn
ings
whoop
neas
veys
nol
sown
shim
dix
diot
taunt
riers
saf
lym
hiss
pean
dof
baa
boc
blit
naps
fiz
hier
hicks
trut
ifs
whop
proc
whiff
blets
twitc
nymp
swat
scout
cuff
muc
pron
crotch
shab
prio
clair
larms
nert
jag
drains
flak
wrig
breac
tmen
dwor
diets
squid
snac
phoe
tarc
fluent
freud
dson
pulp
benc
hlo
kwi
dults
brisk
ooh
bsorp
bsorb
threads
thwart
yarn
bunc
eels
mush
pint
xins
##sh
reen
neal
tey
nom
shan
stitch
keg
caus
##urst
chord
rials
ans
doth
lag
fiel
hoard
flights
roic
bib
prom
ard
twir
twitch
perth
glitch
graf
stamp
brad
snort
tlet
rud
leaks
claus
clams
trom
phle
tlas
quell
birt
birch
dland
ploit
hards
plaints
squas
hinks
foots
growl
hmi
zoic
tno
drenc
eighth
steaks
wretc
mongst
moods
screens
zles
bmer
scrib
welsh
cmon
bong
hv
iq
vist
woun
xle
yak
yam
zart
rew
reel
sean
seph
tels
nog
dees
dems
shuf
stil
lel
cox
coon
fords
sium
saurs
moor
moist
mobs
bawl
gog
naut
mien
mids
hoes
fab
fawn
pae
trench
vict
wills
prow
nya
dists
prank
cleft
crou
crats
fritz
braid
snatc
brows
tley
ruins
cloak
parc
flab
flaunt
starch
auk
slew
dment
dmits
dvo
cliffs
ouch
hitc
fangs
strewn
hments
bliz
dsw
awl
worthw
pools
dregs
sparks
glib
scarf
gowns
floods
coif
gulp
thai
screec
bursts
raoh
thrall
quartz
az
bough
cings
dc
gart
hort
ic
kong
pt
rind
sest
tums
uts
wrea
zits
##yd
##na
##eed
##ell
toa
toff
##orth
##arks
veo
noa
noint
sht
stunk
lees
keel
digs
taun
tert
peats
bae
boe
bots
blitz
nam
mier
clink
clash
flim
pions
guz
gail
gaps
gias
twid
twists
nyw
nying
smiss
scu
scowl
cuffs
quips
drous
dyo
duel
sling
tril
grue
nests
wield
crue
volt
vaul
torch
sku
gnat
spew
flocks
choc
hugs
creen
ploi
dmin
kits
strait
strands
scof
spry
gloss
kilt
hland
zies
scru
gha
lurks
fronts
skiing
phea
pfi
krupt
srup
clutc
hymn
angst
cp
gow
gong
jing
jit
mats
mash
rins
sass
sars
vort
wu
xers
zet
##if
reers
ands
sog
shu
stump
keo
keith
machs
urn
moat
pei
bois
nif
sput
quirk
hial
rad
raid
trist
trump
bya
sheath
bics
ungs
bleac
gaw
arr
plec
perks
scou
scents
wac
wand
quib
slouch
grunt
pren
croon
skis
leapt
berth
cramp
cloa
troit
chauf
sens
farts
drips
dang
bsint
wry
wrench
sleigh
glet
psal
payc
dwight
dwatc
salts
finch
crypt
yap
sprouts
zaar
phosp
drying
splits
hmo
mitt
shroud
sulp
gmi
browns
pooch
childs
geeks
hwest
hways
hosts
wrecks
droop
dverb
nauts
cramps
prompt
dars
eo
kest
nout
oats
qa
ref
whin
heo
hels
stank
##ried
maes
hab
chant
chunk
dill
diant
taw
plit
riad
sab
doh
dopt
orp
fim
clings
rags
faa
flint
cier
vied
gait
nyl
swung
traps
cub
waf
drud
mugs
dues
glers
wim
prep
clem
stoic
zee
marx
chaos
phal
curt
jeers
nua
cym
bret
tloo
dries
steals
huf
heaps
coul
couc
wran
colt
paints
knell
belc
hoop
hoots
quests
christs
ditc
xams
gman
fying
xem
cinct
trays
ksm
kson
bolts
snig
marsh
squirms
psia
stalks
pours
pward
bans
bings
cass
fant
hess
hart
jars
kys
kman
nards
pn
pids
pness
ugh
wart
tox
mein
meow
tiers
nects
teas
stas
kempt
maim
sius
chug
tah
herr
riums
feas
hism
peb
lais
mium
quish
hich
verts
pah
trenc
fligh
dau
guf
gual
gulf
twirl
comp
alms
swoop
swirl
dued
jolt
trils
sinks
grad
loops
pry
cleans
fren
playw
snub
snatch
broth
gnu
chia
barb
parks
penn
droit
dria
steers
certs
err
wrists
hark
dlet
plop
clien
spiel
hunts
learnt
crux
snaps
scol
mints
abc
zom
stif
nonc
hwi
bsol
hrough
jumps
crumb
clerks
vouch
tours
shrew
bver
niors
gruff
pumps
vres
tsmen
swarm
spuds
hoax
ghosts
triumph
yolk
skulls
jon
kre
kirk
mink
rar
tards
xir
##do
toed
seals
mei
tights
teu
lix
lims
leans
sial
sips
withs
haugh
chums
rient
hists
peed
pecs
doi
bagh
loin
boor
blud
poon
fag
pap
trant
trong
whatc
rom
gup
nows
twood
fop
wails
slu
slash
slugs
britc
wick
mesh
cray
snuf
fril
friar
ruf
clamp
berts
jeer
stein
hup
huh
dank
funk
darts
glean
plif
spaw
griz
dwood
belts
xial
squirt
owns
tfree
glop
donc
franks
dsa
tna
tnut
tney
hlands
dreck
squab
melts
climbs
leec
irk
stunts
flicks
lamps
bwe
rynx
pneu
aes
font
ions
kus
loun
zit
##ba
thu
toid
seu
seth
neur
noin
nold
cets
lends
coals
wend
chit
chad
taf
sax
lyo
lains
labs
blest
blasts
mias
niums
hots
hogs
rall
racks
frock
tying
cits
viar
rols
teds
knigh
bleu
bleach
twing
alps
smu
smans
cuum
trics
gris
brous
prism
clears
crat
voc
voids
torm
carl
skid
gnus
gert
craps
tross
afg
blair
flog
hud
hued
bangs
wom
kyo
sley
sleuth
tisms
straits
nisms
dwind
risks
flynn
crued
smea
hnic
thirs
dset
benz
dno
brup
brupt
sney
zier
bluish
squall
sweeps
hwes
whisk
dreamt
builds
nooks
lengths
baths
scroo
sres
thorns
schnook
svel
snuff
gush
gards
hong
hink
hath
jou
jil
kum
lla
nir
nash
pists
vins
ys
zas
##hr
toads
##orms
hex
teers
##alk
ceip
soars
kees
siest
silt
haunt
dients
plough
hert
doy
doin
goy
laps
notch
fics
clump
fax
flats
viet
roach
gib
nyon
smud
wais
muel
duff
slas
slid
graft
staf
voil
pubs
brands
broach
twot
lup
leaps
swells
troom
jah
draught
crept
ralph
burgh
slead
plia
grid
kett
glyp
squan
klin
klutz
throats
tweak
tarts
dryer
treac
splin
freu
sixth
grouch
pith
gmas
dnes
squaw
narchs
drens
traints
kso
dawns
wraps
latch
profs
strengt
gwin
gwood
cza
liens
flinch
xrays
bd
bno
dj
gz
lut
oar
wurst
yorks
zis
zons
##yt
##ield
##mm
rects
seur
hef
heis
heas
heast
noft
lib
cels
leas
keats
cain
haust
geal
ched
dics
feur
fends
sams
pees
pell
bogs
blim
mian
sph
spills
ath
ryin
flout
flys
byss
cias
cils
dall
props
galls
tux
scis
scouts
plaid
cund
slat
slud
glint
trich
brun
looms
crous
vau
app
carts
prior
tlea
tlets
thres
cloy
clois
troll
chimp
chae
jeff
trel
chom
morph
trued
lith
pliant
kiest
kneel
garb
meanw
blob
lisms
grips
dwri
dwork
souff
flyer
rios
tfo
rhyt
spli
hmic
hne
buss
wilt
tnot
hlight
camps
swims
kwar
drawl
armc
vants
bouc
owls
reek
moot
nosh
tzy
weighs
bronx
natch
lambs
chests
cranks
pfried
drunks
oaks
fount
karl
trunks
chunks
smirch
aor
bt
gful
hought
ion
kal
mould
pats
poul
rans
xil
##hms
thes
rets
tols
##att
tir
tias
nein
hep
noes
dears
lius
lient
liont
licks
soe
leum
ist
plugs
lye
bauc
hoist
rapt
typ
cic
ross
dair
bier
prod
prost
unt
blends
gawk
tworks
outr
perp
scen
cuf
drat
dya
dyin
mull
duet
grins
brant
wimp
stalls
cleus
crp
cheats
freds
pright
brics
frills
crick
gnes
gnon
turk
strung
crag
grog
tryin
troys
barks
nalds
drills
chomp
creams
chants
auld
morr
trud
roost
frai
strad
dwill
lasts
casks
cruit
shifts
riod
throt
tfin
botc
scab
russ
tombs
splur
flui
smem
halfs
shrou
shrunk
poof
rasp
scrawl
brooks
zoos
hran
bma
lawns
clumps
fiend
screech
vry
gleams
czech
kvet
noahs
wuz
souffl
ach
bards
ick
jed
jills
kir
kard
lal
lums
mow
mills
nast
rought
vit
wot
xul
xons
rees
sez
sein
seums
meth
nef
##iths
thatc
ceu
soils
##utc
sill
chink
dion
plums
feasts
felds
saun
saws
lyst
mocks
pex
docks
loam
nach
cants
ract
fronds
pands
flur
shear
ciers
rof
bien
whic
whips
giz
seech
twort
uss
diss
disks
derm
toos
dyl
slows
glot
brum
prus
vah
torc
stom
spears
serf
thras
turds
clack
strin
groin
swears
reaf
reacts
clop
troc
barbs
curds
jaun
dram
drags
hyo
hyt
dross
drid
driz
huff
earp
dlord
truis
schi
psic
dments
pors
porch
clicks
masks
strauss
blond
balt
cluck
tsw
throm
sanc
tform
gants
franc
tounds
capn
hmans
bioc
dsman
grouc
beets
tne
breec
coax
xempt
quenc
ninth
gnets
chiefs
spurs
shuns
texts
dnew
bryos
shrieks
sroom
spraw
lymph
ebb
shtick
aet
cte
fness
houn
hool
iv
kri
kons
kouts
lash
mest
mne
og
pong
rums
vard
wup
xys
yor
zly
##ai
##bo
thit
thunk
reins
rens
reeds
whel
nees
heet
heft
heats
tei
teor
teel
bead
noids
deen
dell
sox
myr
cog
kels
mah
caw
diu
taps
taff
tacts
plin
rids
loch
gogh
bof
fiant
poll
poff
clow
quy
hield
hof
hoid
froth
ryp
troun
byr
cied
vim
vien
pict
pils
unw
guel
gics
greg
coms
combs
plet
perm
fod
mann
cubs
dran
duf
slough
grail
grabs
wigs
cron
torts
stomp
crom
croach
shaw
brawn
gnar
amps
ruc
rugs
lued
turks
larks
sweats
studs
chaff
curd
flops
floss
nuan
pents
droi
huck
yew
creo
norr
dlands
bsess
pyt
glets
pliers
psin
kai
strains
slaid
slacks
xies
squi
elm
hoops
botch
spock
twear
cirr
yelp
yelps
splut
hmal
frey
bios
thrif
niac
koff
twig
clasp
sarm
cott
scraps
bosh
gneo
ritz
hry
proofs
mcdo
pauls
freaks
smelt
dwelt
kups
clinch
rhythms
pranks
lynn
mcca
quilt
srae
shrinks
kandw
phlegm
gza
sphin
bne
bha
ell
eut
fn
fue
gash
gunk
hirs
lint
llo
pard
ump
vun
xom
yuc
##ce
##dd
##isms
wham
neon
nears
veer
heists
noys
noff
deans
lits
liot
soh
sols
sheds
coons
mack
malls
##ooks
sif
##urt
gends
chords
dius
plush
sacks
sacs
lyin
mok
wasp
doon
dolf
spans
rabs
fae
verns
##unks
trums
flue
byes
prowl
pial
knelt
guv
gulls
gauc
gial
smy
swank
scin
scut
scow
scyt
dert
muz
slurs
tright
grats
brunch
clec
chem
vot
crotc
thrash
thrush
rubs
lull
clac
chie
chac
barf
phan
jeep
nups
treu
hyp
flac
flaps
teak
planks
dla
schle
schlo
wright
dmouth
fraz
lants
dwic
elk
hoof
bloodt
yach
sprint
tfelt
gloa
zai
zazz
twea
tweed
temps
smol
flub
churn
styx
dsor
dsuc
pints
twigs
slog
shrugs
zop
dfast
tni
bens
hla
churchs
zig
swig
ksa
champs
humps
glio
honc
journ
tzv
plumb
vours
binds
giants
prompts
gypts
kris
spilt
slurp
cma
rolds
mounds
tlands
scalp
kroom
sprawl
dlock
chirp
hymns
swirls
blimp
lionth
aks
ams
bous
dins
dunk
dha
fj
gump
hons
ip
kans
kip
lul
ss
vl
vn
xm
yid
yuck
##hn
toffs
sewn
mep
mez
tium
tils
neil
neart
veat
vell
offt
teurs
noons
myg
ism
wey
itt
cair
chel
chutz
diur
tags
riam
fez
tiont
peu
dolls
lox
goer
boons
blar
naest
thisll
nid
hild
hiest
rae
trish
flings
picts
gull
guet
guins
bleat
seec
tund
tuan
ards
twar
nyet
scle
drut
drons
drub
duds
staunch
clei
criss
shac
pups
brae
brahms
bria
friz
broil
clogs
corks
barns
nub
flaun
flail
##sso
chol
huc
earls
##otch
birc
warns
bitt
gyo
bsa
auf
harms
plod
ploid
truf
winks
pson
soups
flyers
xits
squig
quac
kler
fens
splay
slims
frec
slos
golds
liams
zos
cowl
beech
sirs
breech
siac
bonk
breads
lusks
bluf
dysp
hwith
murs
sapp
quark
leek
ghas
broads
gnaw
gnab
blanks
gays
dirk
borscht
latc
spelt
soaps
sacc
skips
sheeps
hsi
gfish
cme
todd
krai
##tea
bliop
czec
psalm
ack
cno
ek
hirl
jut
lards
nins
ops
oars
rint
sri
vro
vus
voo
vys
zat
zue
zam
##ear
##erp
neth
hems
teet
bez
bein
beel
nob
demp
mye
shm
stat
stork
stoop
leeds
cots
forks
mao
cao
chl
chri
chla
div
tair
butch
rils
sall
pegs
dols
loins
goers
boils
mial
clun
clans
clunk
quat
quins
quench
hilt
tring
tris
trings
flank
cig
roin
roars
romp
bund
bleeds
gians
tuff
tuffs
twad
nyan
nyard
swans
scans
scads
foy
drys
vests
sless
slings
glars
jocks
wiz
desh
frat
puck
pugn
brail
skir
skys
skids
bros
tleg
thrus
fuls
crafts
trots
troth
chif
chaw
jaunt
draugh
hye
droc
hord
tlin
drian
stews
tang
jugs
warp
warms
starc
burbs
dlings
ploits
schw
gleg
dmy
dme
masts
bloat
filth
risms
tsn
squint
louts
cruits
klay
fants
throb
sprou
tfits
bott
hurl
hnuts
furs
whacks
thirds
rinc
ditz
goop
gook
liac
zoa
bung
dnot
breadth
lusk
geof
strolls
psych
pseu
leech
reeks
kfor
twelf
cheaps
frowns
grays
dwei
blics
trooms
dosh
qualms
drooms
flicts
blurb
roofs
feign
dilfs
hfi
hfa
sroy
swamps
xford
yarns
dho
dhar
raohs
geants
hulk
glenn
spasm
spasms
pto
wreak
shucks
ceipt
gzag
ew
jess
lans
oed
rong
sous
tats
vum
vids
vlo
xman
##eat
##uch
##ront
##word
thurs
rev
seer
##arc
inks
mell
whar
tiz
hein
heid
hecks
heath
hemp
beings
liers
shit
sten
stow
stirs
coed
kends
siz
haft
hails
diest
plows
riffs
feis
feud
lyx
lyt
moy
pelt
dob
baugh
laud
naa
nios
spud
clenc
quad
hias
ryx
ryon
tyr
trists
viz
vium
victs
roac
proo
whims
guist
bue
bued
blep
gaul
gium
arns
exs
scoun
foa
whea
brunt
frit
croi
crois
carbs
puffs
brags
brig
gnats
grot
weds
clots
troin
chaf
phoo
flos
floe
jams
null
hya
flai
dros
droid
drifts
chock
hucks
jux
warts
burt
dlin
wren
tructs
tints
slet
sleet
psa
clips
spits
kac
cutc
grits
ketc
tsh
tsee
tswa
slaps
glyph
xions
colds
sprat
sprang
fitz
weeps
nett
milks
zac
wrongs
strep
prays
furl
dsy
thrift
klet
niacs
slots
pitts
beec
dfor
tnam
bosss
dnas
hlan
drear
geez
hward
thoug
xop
xos
brooch
bouts
ghou
kfi
crowns
hren
hris
briefs
chinc
tzi
stealt
riors
gwen
flips
coughs
roams
yang
crawls
kelp
phew
chucks
schmo
shields
druff
grubs
saults
flanks
dzil
whoosh
haunts
sheik
tmeal
bhu
tve
zmo
ksmith
mccain
lloyd
vlad
twelfth
ahs
bast
cf
dass
dutc
hals
jas
jays
kha
qi
qed
xl
zim
zors
##oh
##ve
##bb
##zs
reg
tolls
##ants
yow
seits
meer
neap
deon
deur
deers
lict
liars
liards
lios
stet
stint
leb
lebs
leigh
coz
kev
keis
maa
mais
##irst
haf
chou
chuf
diums
taut
plar
terc
riant
rions
urc
lyps
mog
moors
hisms
babs
goth
goil
gobs
goons
lait
notc
bok
mion
fio
fien
nig
niels
pois
spats
clench
clung
qued
quing
hiers
rak
ryan
tyy
pamp
trung
flay
cim
vii
vix
whatll
dabs
pias
piers
piest
guc
twits
nye
nyc
pleat
pleads
alz
discs
manc
cull
wau
dray
mup
whey
trill
tricts
bres
wich
clef
cress
crutch
chez
vos
torms
howls
carb
pricks
snit
fuels
brill
brims
skel
broac
struts
mism
##intz
syp
barm
adh
nuen
nuit
drol
senc
creak
dlys
funct
burr
wok
doux
hearth
scht
schno
colm
rung
gley
tongs
knowns
dvarks
putz
batc
flets
bream
tmy
lisp
grims
filc
dwards
tsar
slaw
diem
quaf
hooch
finn
growths
riah
tfi
dork
dorns
splot
dsons
pinks
kley
koi
diop
shreds
dfo
dfil
tnight
gmo
hlings
phyl
quarks
paigns
psea
brooms
kfa
kfasts
glia
bushs
cysts
jors
hley
wrac
mutts
skiv
trumps
chasm
bsorbs
thaw
pma
frying
pflo
deux
deuts
gruel
boosts
tsmans
kroach
xfi
blotc
mcco
##hhhh
srael
scripts
durn
quirks
dsmith
dsmiths
iamb
reefs
nymph
crpe
bch
dats
eer
eds
eic
gill
ib
ian
kant
kook
lt
und
wess
xim
yip
zings
zuc
##ru
##day
##khs
reof
##inch
seus
tiin
tius
heu
beards
deus
liath
ceits
coct
macs
siast
sibs
cabs
hacks
haels
chins
chtea
diff
plings
rif
rift
saut
saac
pez
pews
boll
naw
naf
naan
nials
pols
clen
clist
quill
hoon
rax
rahs
conch
rya
tyes
palls
flunk
ciest
vier
bight
bient
bium
bians
proa
pix
pimp
calms
calfs
whizz
guists
blec
tups
tufts
arth
smor
wack
wouldst
muy
slums
glitz
joa
brer
bren
brou
grands
croac
snitch
bries
frill
brol
brock
crimp
twoy
talt
lui
lud
booms
greats
larch
clos
troen
chian
blai
cort
syes
phlo
reals
jef
beaks
floyd
nuel
nuff
drac
drafts
drock
huas
roundt
cerp
creas
creeds
chang
greets
dlam
wrenc
kyard
runt
spif
kah
kia
kier
fletc
tmin
belch
tse
tset
tsour
slag
slams
squads
quaff
hoos
moul
tfoo
suss
numbs
crosss
tarr
dorms
touts
smog
strew
hnut
dse
dsum
dsey
klets
kol
kok
screed
slod
xag
deems
tosh
births
hlights
sneers
zied
bluer
bays
dooms
wyo
ahm
hwe
dolph
pism
retch
hosp
##zzzz
ksu
broods
breaths
ghoul
heek
beefs
taph
toend
cisms
hlea
jigs
tzed
spurts
sprays
##pht
spying
hright
blurt
deign
kmen
stumps
chumps
scroll
tlaw
shalt
cni
mccart
dlocks
scoot
stools
spoof
xwi
boughs
dwinds
kvetch
tzvah
splotc
aas
bj
bness
eons
fman
iz
igh
jung
kor
kith
luth
muth
oat
ous
pards
pman
pte
rur
sough
sread
tch
tass
tash
vans
vons
woul
zep
##led
##oc
##ucks
##ver
##bi
rek
rez
reat
reth
reil
toan
seuss
##arts
inns
mex
meup
tig
tills
veld
veep
hewn
tean
teps
tecs
beo
beths
nots
noir
nock
dend
##rom
lial
liet
cein
myrr
shle
shush
stats
lek
leer
lech
weft
kell
kegs
maic
ont
hah
hamp
gei
gec
gew
geing
geus
chre
chough
dib
dicks
dibs
riest
riet
riel
feits
lya
lyc
mod
doa
bao
baul
goths
miz
niard
nips
spay
clank
quist
quents
hims
hoh
hois
hocks
rands
racts
tyls
pacts
paunch
trals
fless
flum
roon
whoe
knish
knick
##ounds
gios
nowt
tubs
tuals
arcs
twalk
twerp
dism
swis
drough
drench
slush
glitc
grump
wellc
wicks
preys
crul
crouch
frum
newts
croe
croft
peds
brads
bracts
snoop
skunks
brog
gnor
speck
rups
luf
clob
clops
trolls
stuc
nuing
cyan
treet
##ssss
drier
stills
huts
ralds
smaid
smacks
borns
dlords
bsist
pyrr
trual
rook
rooks
psons
clif
flecks
knea
kneed
kneys
tmins
huns
tsf
tsey
praps
klers
fang
snags
nums
spoons
zag
zah
zack
glau
minks
klyns
silks
heyll
churl
hros
hmin
hmark
hnid
hnot
frets
dsong
rinth
pult
cults
celts
sloy
zoans
deeps
tnum
tnuts
gmy
welts
dnow
siah
poops
dreg
drews
creeks
wye
volts
xemp
scion
kwork
kworm
dmium
dreads
dredth
roughs
ksel
leeks
streaks
kfull
mooc
hrou
sniffs
veand
dwee
pouts
zler
honk
mensch
jiff
knacks
cays
vouc
leafs
psix
lurc
swab
gwri
clang
sook
dverts
czars
dwig
gsa
snoot
eek
kmar
faiths
oaf
schmoo
wolfs
lynx
cnes
scorc
scorch
sprain
dzooks
csi
mcgee
jinx
xalt
lombs
tfall
tfalls
whirls
wields
brett
bweb
sphinx
schlock
fjord
chlor
wharf
zucc
bents
cout
dt
dink
ets
eus
eights
ff
fow
jans
jous
kint
kards
kurt
nirs
rf
sard
sash
uv
uths
vra
xra
zak
##ells
##oi
##co
##ry
##kh
##zt
thar
reus
rems
toft
toim
toids
seys
whad
neum
veils
heit
heim
bev
beit
beys
nof
nods
thatch
lig
liff
cew
shad
shank
leash
maul
sids
haz
hain
gees
chis
chth
chass
chats
diy
dils
tabs
rill
feint
mox
angs
wasps
peels
baal
bair
baft
bawd
goad
laam
blip
orbs
nact
mied
miel
figs
niards
clid
quas
hiy
hium
hift
raps
fags
frot
froc
frocks
tya
tyrs
trism
flits
worts
sheat
shears
cii
robs
dais
dachs
biff
guid
guff
buk
buffs
bley
gags
gaol
giers
tud
twor
twri
nyin
pleu
perps
swad
scep
foal
foons
trad
traor
wah
wags
dring
drals
toots
slump
glam
trians
cauc
preen
loos
prong
clew
cratc
chews
vamp
fring
gott
gotc
playt
prig
prils
brium
frig
fria
skul
skint
gnac
specks
lub
turbs
lowt
themt
misp
tryo
jaz
jamb
nug
nuch
cyo
trewn
tretc
flax
horts
drie
drick
hann
kerc
norc
borg
dlights
wring
pasm
harps
morts
plier
psies
dmills
kian
straps
straws
lerts
blobs
dwith
dworm
dwalk
custs
tsies
lotll
slabs
squin
quacks
cruz
throa
throes
yah
spoils
francs
roux
smock
abb
smears
hroat
hmon
frees
vying
dsli
klee
knoll
mitts
shrank
husk
tieth
fyo
euc
dni
dnum
lusts
tumns
grinch
xecs
cumbs
hwas
murp
kweed
dmix
retc
shorn
ghee
rearm
moos
xua
blanch
irs
pouc
leph
jif
tzes
xert
dlib
sways
rupts
wheelc
umm
junct
strays
kelps
twiths
gourds
dwarfs
molds
josh
bwa
kroll
bfus
oaths
snarl
dze
dloc
whoops
scoops
yawns
hird
hirds
sheaf
kload
smirc
tload
caulk
aok
yolks
sprigh
croup
dcor
qae
hertz
bdel
##ields
whelps
byrd
yachts
cairn
veldt
myrrh
chtho
av
ain
aal
ails
aitch
bz
bist
bte
een
fys
jad
kow
ml
mck
nint
noul
punt
rs
srea
vats
wong
xme
zounds
##ggs
##lat
##yp
##ots
##ack
##ma
##ux
##dn
reps
reim
reens
tois
toum
##onk
sews
seup
meld
mead
meim
tii
vees
heer
heism
teat
teal
teus
noh
nox
dez
deth
dends
liad
ceos
##rees
sows
myths
shins
shunt
shang
lefts
cogs
cobs
coef
coasts
wei
maz
itd
siam
caer
cack
cads
caint
caws
dions
taur
plast
plunk
ploug
riat
rips
fex
fets
femp
saa
sags
mops
moirs
suo
suis
suvs
pecks
dost
doings
bails
bachs
baht
loed
boes
blins
orb
mim
imp
nicks
poch
spro
spool
cloo
quers
quant
raj
ramp
raids
fah
fand
pams
byists
cius
cions
viv
roth
roil
daunt
bius
pius
pium
guam
buh
bleen
seep
grel
tuts
tuent
tuft
twan
twang
nyi
perv
smus
smoul
swor
swas
swit
swash
scuf
foils
enw
upt
trak
manx
waft
waists
dyd
dyer
dui
trium
brut
brle
preg
prings
vaun
apr
apps
olds
shaq
shawn
briar
crid
crier
tlee
gnly
serfs
firth
ruts
leah
leac
clag
bergs
cloths
esp
siss
hyard
flau
flack
tlest
tlight
drils
choirs
hund
burb
tios
smalls
cools
pye
tincts
darth
slets
psing
dmen
dmon
dvent
endr
putt
kneck
knead
lang
tmar
hunks
grif
dwas
dways
kinks
cluc
tsit
tsigh
pram
prawn
cios
slab
tilts
squo
squis
squel
pang
elps
selfs
klis
klash
shii
finc
yawk
tfal
twell
tweight
hurs
hurch
musk
glais
dryo
scamp
abcs
dums
holm
blies
hnids
biop
dsee
tenths
koh
kov
koft
breakt
grandc
pulc
mitch
screeds
slosh
shrun
judd
dfree
sulk
tnap
pelf
bonn
hling
zia
drel
drey
wyatt
mumps
murk
xye
kwood
scrunc
scruf
plasm
ksl
kses
zooms
fett
snobs
shrift
smooc
spouts
lysts
vism
bmi
hlet
hlear
wraith
tza
spurt
squirts
dlier
clays
nens
hrain
qualm
stuns
smarck
hrift
morphs
cartw
fudd
jests
teoft
sculpt
hfly
clinc
flirts
scrod
scrolls
sru
grui
gruen
thwack
sephs
bwi
tsoe
cryop
dzu
gnments
clichd
hlia
xsan
tmeg
khan
##wain
dfall
pawns
preemp
nymphs
twirls
dsworth
wreaks
taunts
vaults
kitsch
tlooks
slui
shrouds
kvetc
tswo
krill
tsnot
dfold
tchotch
ais
bb
bunt
cind
cush
fink
fons
fte
gism
hent
ia
ids
kink
kung
kull
oot
pash
vri
vue
viss
wus
wout
wows
wenc
xings
yin
zant
##yl
##hm
##nst
##ec
##ew
##tz
##ui
##und
##ups
##wh
##vre
thins
##inn
toh
togs
toils
andr
andw
seor
sears
##arch
mews
tiu
tiw
tids
tiffs
neb
vew
hees
heen
heons
tef
teight
techs
becks
dets
debs
deup
ceus
ceals
celt
sobs
softs
shro
shay
shards
lez
lein
lems
coils
weld
weiss
keet
witchs
##raw
sib
sikhs
cais
hags
##urf
geand
chen
dii
dials
plest
riy
sais
saith
moz
mots
suds
doir
doss
bain
baits
loll
loff
lomb
goi
goings
lav
lacs
bods
bohr
blench
nax
nad
nags
miest
poid
poil
poons
pomp
spook
sprees
clar
clast
clint
clists
quash
hiu
hif
hils
allt
hoff
hoss
hoids
rach
rams
ralls
fam
faut
faust
faws
frond
ryll
tyinch
##uns
paz
viat
vich
vics
roasts
dact
bibs
knis
gams
seeps
tuh
tucks
twr
tway
twith
twurst
nyons
plebs
swick
fob
upc
pland
wam
waul
dris
dontc
sler
glin
glou
trient
grist
gruf
grce
wight
prec
staunc
staffs
staph
prha
clept
chei
mays
aprs
howll
stod
shafts
shawl
pug
braic
snuck
friars
skink
gnot
spews
serbs
ruing
lugs
stru
mightnt
craig
clods
troi
corm
ess
phre
jeo
jeu
nuz
lesst
trey
trels
flamb
brev
farc
tlar
drich
steeds
choa
crec
merv
banns
funs
starr
burps
kert
douc
dougs
bsis
bsled
kyl
dlei
dleo
dlets
ploids
sett
setts
schwa
colns
psum
dmill
clichs
tisnt
kaf
kaans
kiel
kiah
flees
cutt
bloids
tmi
liszt
bluec
dwo
riss
clucks
lotl
purrs
slav
xias
squish
rhu
cruet
pangs
fourw
watt
watts
klus
klings
kland
deac
spritz
tfl
zacs
drye
treams
chooc
fluc
opts
churls
churns
hroic
hmer
hmas
hmoud
stye
freet
gasps
dsf
dseed
knox
dith
koa
slobs
liacs
zoan
##apps
sharps
dford
dfoot
dfea
dforth
dfirst
tnow
etch
tuss
hamps
gusts
downt
xec
geoff
tresss
strop
hwood
hwart
hwort
hwards
hwork
hworms
wisps
dolts
kway
kwri
reich
psets
tsie
ksy
ksw
ninch
wretch
ghent
kfish
crusts
hred
gors
chopc
dunn
swoons
oomp
cripts
wrack
mcb
tzing
ramn
truss
haydn
tlif
scrimp
hrag
hrax
hralls
demns
pream
swain
grooms
strengths
dverbs
cafs
pments
skew
feigns
bryn
clamps
thiefs
krup
slurps
gfor
gfoot
sperms
pwa
pwards
druid
gruent
sroots
chimps
drowns
bway
vron
firsts
kraut
klaus
klands
flints
bfa
swarms
grunts
cso
czechs
hrey
thongs
klog
guern
ebbs
schnapps
sven
snorts
khar
frauds
bhang
##wwww
cnics
dswal
dcol
cpa
keoff
wimps
aesc
ceipts
squawks
vaux
ussr
tneys
croix
tshirts
skelps
schtick
schnozz
pflop
deutsc
mccoy
bcha
smorp
zakhs
prhaps
ats
aac
bg
bce
cman
ez
ein
eur
eth
els
ells
ft
fings
fbi
gats
gurs
hutch
icht
jow
jong
nans
oj
och
pp
pont
pue
pars
pver
rood
rink
rna
sut
tbo
uif
vists
xun
xly
zal
zra
zword
##low
##ya
##yds
##sa
##ia
##em
##ez
##end
##rd
##res
##dc
##bc
reid
reits
reels
toasts
##orr
yom
meon
whist
tifs
nez
neits
neup
neig
teys
teef
teits
bew
beur
noch
nobs
deis
deor
deist
degg
thatd
liy
liard
libs
liums
liffs
ceas
soons
myl
mya
shys
leut
leus
leish
iss
coq
coid
wean
kem
keits
mags
sift
simp
cah
cams
capt
chet
chintz
dims
dids
dign
tao
taft
tazz
taurs
plers
terd
urns
feal
fells
sae
saps
lyes
lyan
mof
moil
sups
suet
hish
peans
doed
doan
bais
loys
loist
whens
gois
goist
goff
lao
laic
boz
boers
boors
blintz
nads
nands
nahs
mians
miums
fiers
fils
nich
nids
poms
clers
atp
hib
hoed
hoards
conk
tyc
trunc
ciums
vip
vik
viest
roh
rois
roff
daes
dags
daub
bior
bils
bigs
prob
pif
pips
knap
bup
bubs
gaunt
gaels
gawd
giest
gigs
gimp
gilt
giums
tuit
arp
arf
arrr
tworms
nyx
pley
alf
alb
smits
smuth
swil
sward
scud
foist
##ett
traw
wab
tooths
dyish
dulls
slung
sloop
whew
hingt
trias
trills
grans
acs
brent
preo
preor
clet
cheep
desks
vaunt
frump
knoww
stoat
carr
carps
carls
shacks
prix
brach
fuf
briel
brob
gnas
gnash
shoal
ruck
lux
leach
stry
strums
ream
reand
trois
chiff
stubs
sye
syt
syu
chaun
rightt
headp
barr
nalp
nalt
floes
jax
jails
nuf
nuck
nuet
drams
cyl
cyn
cyt
cyon
cynt
hyll
founds
brecht
##sss
tlass
tlins
dribs
huz
hulls
surfs
hanks
tangs
teand
juts
bett
banc
burgs
hersc
cooc
coots
erm
dlub
bson
aught
auks
kyll
presc
liths
colts
sleads
hardt
spains
ohm
psw
dmark
deads
frap
fract
batt
nearth
straights
lank
blogs
tmus
balms
dwest
dwol
souk
tsen
tsits
tsup
tsea
ratc
flyin
squal
rha
louc
shiv
riots
growls
cryin
werst
tfed
tfis
tfour
tfee
tfoot
glock
hurls
glai
dorp
scams
hrob
hrown
hmus
hnu
hnee
dsight
feand
klein
knobs
koe
kold
kovs
sloe
xand
diom
cosh
dfi
dfoo
kilts
waif
dner
tosp
bruin
poos
poot
stiffs
ziest
hinds
drei
drec
drels
bilk
lusc
sauds
doos
catchp
sark
ausc
hwar
hworm
fifths
blinds
satc
quarts
ksand
kswa
ecc
ghet
gneiss
plotz
kfigh
gnaws
bushw
hru
hrin
hrer
storks
blinks
stints
zlies
bmits
hlets
jims
mcn
mcne
mcph
tze
tzen
tzels
tzman
spurns
dliest
hragm
swaps
swains
dneck
plucks
osh
ummm
gwi
gwa
gwash
gwig
aab
aamp
trysts
dvert
skiff
brandts
gsy
thais
thaws
pmunks
smiths
hmann
kme
kment
krit
kryp
hfas
jolts
leop
gfa
chuff
fiends
schmucks
cmi
pwre
drui
triots
sroads
tyodd
tlaws
scalps
tsmel
gurt
kram
tylc
quinn
mccar
sprai
bfoun
throngs
hauls
hiefs
sraels
mcgraw
ighth
smirks
tloa
tlock
swoops
schnooks
dsmen
iambs
hughs
spawns
kmail
triumphs
slinks
fma
zma
pnotch
dwoods
crpes
porsc
sphinc
schlep
tweaks
tnik
ksaw
vni
chrie
sousc
vlov
tshirt
ghouls
##ruit
tarrh
bjorn
baulk
bairn
mlud
rsum
aprss
twrenc
oomph
pverts
tzmann
aj
cc
cw
cv
cb
cust
cunc
dss
dba
dday
ev
eht
fals
gess
gast
gass
hirts
ig
jis
joun
kass
ls
md
mown
mirt
nd
nra
rour
sart
tc
tung
tsso
uw
uks
uls
vh
vars
wun
wath
wuss
xc
xant
xel
xans
xels
xli
yr
yurt
zay
zir
zels
##lu
##yn
##har
##ie
##not
##eet
##op
##od
##ob
##au
##rit
##wah
##kt
##vi
##vn
##bl
##jo
##que
thad
thim
thith
theists
reon
reor
reys
refs
tov
toir
tows
toirs
tocht
##ann
yowl
seurs
megs
tiart
tiums
neurs
velt
hev
heus
hends
tew
teth
teats
bex
beest
nov
noz
nols
deos
##itt
##altz
liump
liads
shul
stou
lev
leur
leth
lels
leens
##leep
coen
coad
copt
coeds
wends
welds
kei
keth
keels
fors
maws
##rap
ith
siht
caa
haa
haws
gelt
geup
chard
dik
diat
diart
diam
tamp
taic
tahs
plon
plys
pligh
plights
rieds
feck
feof
sair
sairs
lyy
lyon
lyac
moh
suv
sund
anns
peth
dok
doer
bak
loh
lois
loids
gov
goed
gomp
lagh
laut
laus
lahs
bov
bock
boid
boff
blys
blist
nak
naz
nagh
naus
mig
mip
fiat
fias
fief
nii
pov
spars
spank
att
atm
hiv
hiks
hios
homs
rads
fao
faq
faus
faun
fads
verc
ryy
tyard
paest
flen
byl
redt
sheesh
ciant
cigs
vits
vias
vians
vials
whatd
roz
rochs
dax
tingt
bip
bix
biat
prods
pians
pials
piens
calc
whif
guan
guor
bletc
gands
gii
giu
giot
greer
tugs
argh
twal
twow
tworm
plei
alm
smat
smatc
smurf
swum
swart
swork
sworth
derms
fok
fogs
wain
drer
drest
getll
keds
dyt
muu
mups
dubs
duals
duels
slats
slunk
slits
slights
slays
sluts
glub
jots
triarc
gral
grout
sint
acl
brith
broug
grads
##artz
prear
preens
prous
prats
clee
cleats
cral
crutc
chey
vak
apht
frays
crocs
carn
shaf
zem
himt
prits
priot
bract
braids
sner
snitc
fug
fuc
fulls
brix
brids
gnum
thom
shoals
lucks
luff
claps
dench
bern
berk
thang
lett
craic
reall
cloi
tlys
aff
blahs
marl
curst
##aths
didst
jain
jabs
nucks
nuals
cyp
cyx
cye
treal
treads
mett
brec
tlong
tlings
tlic
tlights
driac
choms
chocs
hui
surp
cerb
creu
creon
creel
creants
nesst
ralp
woff
douts
erst
ergs
errs
ernst
bord
coups
pasc
harts
dleg
gird
pload
plops
schl
schis
schne
schrd
darks
winc
sleight
plift
ohms
psm
writs
dmor
dmans
dmea
dmarks
dva
frae
kau
kib
kien
langs
blots
tmor
tmans
liss
fests
gria
sorp
dwon
dwit
dwal
cusp
tsl
tsin
tsick
damps
xiom
squats
squits
rhett
crues
crual
fourt
blyo
klu
klon
klist
deach
scolds
riods
cryos
yams
yaws
tfly
globs
gloats
donts
gunt
basks
muss
dorr
scaf
fasts
capp
abk
chook
hrop
hroo
hrow
woodc
styp
blia
bliot
hna
hner
busts
frei
freigh
biosp
dsay
dsim
dsup
dsand
kleg
kleys
klempt
nuss
kop
koffs
zoi
houghts
ceand
dfl
dfro
dflo
dfrom
gmouth
skye
tusks
sandth
dnou
breeks
wroth
siacs
hler
hlar
sneys
pooc
ziz
zips
luscs
brants
cellp
blued
bluing
rasc
narcs
tfuls
scions
ahhhhh
cotch
bism
kwell
kworms
kwear
woof
scroun
mosp
rett
quod
gosp
bullw
ksf
ksman
ksli
kseat
steams
limn
bouf
ninc
dusts
snog
gher
gney
gnee
lidh
kfur
mooch
shril
glie
glian
heets
hres
hrust
nosp
bourg
bourn
georg
screenw
thicks
oop
oohs
spendt
trophs
hlee
buckw
mcque
unsc
tzo
tzel
trusts
hays
synch
scrim
hrai
hawt
crypts
droops
drools
gloos
sylph
swax
swabs
sacr
grimm
somm
juns
blurbs
brandt
deckc
gso
gsle
pmen
pmunk
bleeps
archc
eeg
leif
deigns
skee
skeet
kmark
hnop
pfront
chowc
quors
hsa
hsay
krat
hfree
hfront
proust
schmaltz
schoen
srupt
tadt
sauls
blessd
raqs
hnnys
aargh
rheu
tsyo
bways
fwork
psoi
xfo
xfoo
xfree
yuh
bfoo
bfoot
dhow
snarls
skimp
eif
chirps
croaks
zeuss
mcgui
xswain
frosh
durst
stoops
tforms
kmai
nours
dongs
bahn
bsei
brawls
preempt
dworms
tlett
hvil
stilts
crouc
rinds
gongs
cloaks
prying
krem
rarm
rarc
bwebs
noints
wombs
gwoods
scowls
tzva
fjords
vnor
shmuck
draughts
schwartz
ewt
tswain
schmoes
xles
schnoz
deutsch
##zzzzzzzz
shlep
droughts
dweeb
dten
rfas
vrai
abbr
xmex
sproc
squelc
kwoods
kslap
hflying
shrooms
captc
stryc
##harp
schrdin
aer
awn
bp
bba
cins
dg
dp
db
dhe
dsso
ead
ems
eps
eft
eff
fd
fars
fna
gd
gids
gouts
gtea
hrea
hbo
ix
ich
ils
js
jlo
kad
kous
kot
kush
ll
lath
lha
ms
mt
mle
mri
mch
mult
mna
mba
mwah
nill
nong
nays
pc
pir
qis
rir
rith
tink
uf
ust
vs
vay
vass
vards
vark
wum
wul
xt
xz
xur
xult
yas
zw
zou
zus
zins
##gi
##go
##gu
##ggh
##lin
##ling
##hl
##ho
##iz
##ng
##ni
##xa
##ees
##ends
##my
##mt
##cn
##ca
##ua
##ring
##rush
##vil
##bas
##bst
##bleep
##jt
##zh
thp
tht
thm
reun
reish
regs
rebs
remp
reup
reos
revs
##inc
tog
tok
toin
##atl
##ouc
##ount
##orls
yob
seit
meu
meits
tik
tizz
neor
vean
veers
veth
heh
hean
heth
heil
heals
heeds
heesh
tets
teors
bem
beu
noor
noam
noffs
nolds
dein
deast
deel
dews
deic
deam
deens
lii
lir
liv
cec
cees
sods
##utt
myan
myard
shus
shuck
shuc
shlo
leis
leck
leers
leil
leks
lews
leuts
coll
cods
welt
##riend
mahs
maud
macht
sient
siasts
sikh
caen
caan
caust
cail
cains
caerp
haes
hais
haff
geu
geis
geas
geist
geot
asts
ching
chows
chitc
chads
chve
chvre
taj
taht
tawk
plath
plic
terw
feen
feld
feurs
sah
lyu
lyer
moll
moats
suh
tionst
ankhs
doch
bax
bads
bahs
gops
goans
laz
lall
lags
boing
bolls
bohm
orcs
nault
miant
mials
miens
canth
cancn
fibs
niu
niers
niet
nicht
poft
pochs
spys
spunk
spork
clart
clarks
clonk
quot
hied
hians
raks
faf
##idt
##idth
rym
ryc
ryb
ryes
ryls
tyi
tyw
paa
pails
froms
trat
tror
trent
trul
fler
byy
byt
byas
civ
vius
viks
viant
rog
rox
roons
tedt
dao
daps
dacks
dains
daff
daws
daids
dahs
biu
bions
prol
prov
proot
pii
pient
pients
##the
##tht
##thms
whig
bleo
bleb
bleats
gah
gaz
gaus
gaff
gauss
gied
gils
arks
twards
twatch
nyll
nyans
pleo
pleats
smin
smon
smoun
smount
swot
swills
swards
swatch
scyl
derw
foh
fops
eng
ents
traz
plait
wands
wains
drou
muh
muds
muffs
duk
dups
slus
sloo
slink
sloug
slouc
glies
joel
joans
joists
trien
trims
triot
triums
caux
wellw
nesh
acc
brest
brung
grac
grau
gramp
wiv
wies
prets
staid
cleic
crons
crump
crith
vots
menc
apb
frre
frent
stopt
croy
croons
zei
zeo
zees
zeiss
puer
pucks
pugs
pedt
snark
snubs
brians
brights
briand
frizz
sko
tleen
gny
shoulds
serb
ruff
leand
berks
craws
grom
groes
cloids
sonn
troe
troa
trow
troon
troid
chias
offw
backc
chav
chaus
barc
barts
barth
phils
phry
curbs
realms
beah
longst
ranth
nuc
wordll
drabs
trews
tretch
hythms
droids
brep
tlast
tlays
dric
drias
drians
driff
choy
cerpt
bedc
crex
mert
creaks
changs
betc
nesss
funt
burrs
tioc
smaids
erg
bork
dlu
dlit
catn
bsu
wris
pasts
harks
cours
plos
pyo
pyor
truest
schro
schisms
darm
colc
plifts
psid
psom
psai
meand
charg
dmou
dmout
dvar
clio
frains
putts
tiss
kiens
monts
fleck
garts
peos
rench
geng
bloid
bloons
tmap
tmouth
hunc
learnd
grift
halts
dwan
dwing
dwrit
dwidth
clued
tser
tses
tsle
tsam
tsuc
tsof
prah
fishs
ratt
heartt
glys
xiest
xims
handt
squif
wonk
casm
ponc
crup
cruing
elms
henc
klins
klight
snaf
hoofs
treets
shiel
teems
finns
cryer
cryal
cryorr
guild
yack
sprats
tfil
tfood
tfight
tflo
tfield
gnoi
gloc
zaps
zaars
crossc
tarp
tarch
dryas
dorf
circ
fruc
zying
choos
splish
splint
splos
brainc
slie
opht
meos
roomt
kidsll
blips
hnes
hnull
furls
nasts
dsit
dsur
wilts
##eldt
dview
kof
kob
xap
goofs
dfre
dfol
tnigh
tnip
peeks
gmund
kiln
welk
awls
dnought
tosc
hlers
hlons
hlids
poohs
fisk
zio
zion
dalf
frenchs
luss
brang
delf
bluest
gnio
squalls
healths
leyn
twasnt
messrs
swifts
agd
geold
neand
ahc
ahhh
viol
viop
smartp
hwo
hwitz
hworks
wisp
souths
xyl
kwal
kwoo
kwash
woos
kitts
scran
scrump
scrubs
hosh
psyn
chrom
satz
plasms
kse
ksin
kset
kslo
digm
viands
doughs
rumps
wreat
bosch
fleets
chalks
norths
rearms
oughtnt
gliest
punks
smooch
hron
hras
zarts
xuals
gorn
snips
irv
irks
dweight
zlin
scarp
mensc
jerkll
bmo
liph
hleen
buckt
mcf
chinks
tzf
tzin
tzers
ramps
tlier
psie
cockc
ayr
soaks
deoff
dirtll
dnee
chert
gwe
gway
gwort
gworm
gwea
aah
hrigh
glues
gluing
fliv
flier
skier
skied
skiers
skiffs
slants
fonz
fonts
gsm
gsuf
spitz
xioms
twaf
fryer
skeins
hmanns
bryan
bryant
bryants
titc
kmans
pfis
pfree
pfry
zilch
krin
kras
dawg
hfor
christc
fouls
gfis
gfoo
gfried
golfs
schme
schmidt
flours
cmy
pwi
pwal
pwith
veinch
triol
slaughts
dfuls
coex
srooms
akc
fianc
jens
pimps
scald
lync
lynch
lynns
cned
grinds
tsmo
fwit
tesss
krau
krab
xfriend
yuk
blotch
tweets
kooks
##lax
bflat
dhim
dham
##vsk
laird
frisk
dandt
bryop
hlias
highsc
xsic
tloads
khm
khay
khrush
bhut
tvoi
wreaths
fmy
pnea
thwarts
xwell
zmos
hloa
tletts
hve
iqs
stilt
pta
cpu
psalms
hmop
hmond
ksmiths
bvert
romps
gibbs
glyphs
freuds
bde
dje
tleax
lithp
hmics
bton
jaunts
guelph
cronk
fner
hsia
voom
shmoo
bundt
thrusts
schwar
rongs
adhd
tfiel
pflops
bche
ltbleep
liaths
tworld
twright
prongs
skulk
saab
dseek
krupp
jowls
chiffc
mcnutt
mcneil
gwigs
tloaf
vnik
kopf
ksfoot
khrushc
ltbleepgt
ait
aps
ael
aars
aam
abt
bx
bc
bst
bant
bful
bbb
ct
cd
cj
cath
cver
dound
dree
doun
dunt
dht
ddo
ddd
ees
eon
eis
eal
eers
echt
evs
eww
fp
fut
fard
fash
fhe
fno
gough
gps
gath
gcs
gads
gsso
gday
hould
hums
hirt
ik
icks
jant
jons
jowl
kur
kars
kool
kals
kirt
korn
katc
ksso
lnd
lind
lats
lunk
mr
mct
mung
mme
nba
nword
nsa
pough
qw
rra
rown
sd
tg
tss
tays
tce
ui
uo
vill
vash
wist
wads
wurs
xar
xot
xip
xxa
yn
ym
zre
zun
zans
zys
zars
zils
zman
##gd
##less
##lown
##lic
##yr
##hy
##hp
##icks
##ign
##xs
##eg
##tt
##ml
##mps
##ci
##cis
##cch
##uk
##uz
##ron
##ras
##rath
##wish
##dh
##ky
##ka
##fl
##bis
##bjo
##zx
##qh
##qf
##qua
thas
thal
thur
thac
thel
thees
theis
theah
reb
reit
rends
toal
toic
toush
##anc
##lll
yobs
seis
seers
seil
secs
meb
meis
meor
whud
whup
tix
tib
tiad
tict
nend
neus
neet
neans
neils
negg
veu
vend
veus
veish
hek
heep
heic
hegm
tez
teart
teos
beil
noed
noan
noel
noac
deh
dev
deet
deins
dells
deits
deists
deism
##roid
##ald
cef
ceon
ceur
ceim
myum
myls
shn
shard
shuts
stip
sthe
lears
leint
leums
leith
leos
isc
isms
coet
cols
coak
weh
wem
weer
weys
keer
keit
##rien
##right
maf
mab
witz
##oom
##ools
##ldw
itz
sied
sior
sixt
sifts
caut
caff
cahn
witht
onc
hao
hach
habs
haug
haunc
hazs
##cher
geer
geat
geit
geld
geur
geism
asl
chup
digh
dight
dief
taa
talls
plink
plash
plonk
herst
herms
rii
rims
rifs
url
urp
feo
fein
feer
fews
sawn
sads
lyl
lyw
lyns
lyup
mov
moir
moid
mogs
molls
movs
suer
suals
ank
ankh
pem
peus
doid
baz
baas
baum
baks
bamp
baud
loes
loess
loists
goet
gogg
laa
lak
laf
laer
lairs
boks
bops
bocks
boars
bleds
blights
blcher
orn
mik
miur
mict
micks
canst
imps
fiy
fick
fids
niw
nims
nibs
poa
pock
pocks
poach
clids
clarts
atc
quu
quads
hij
hius
hoer
hoing
hoic
raa
raed
raint
raws
razz
rafts
fais
fack
fawl
verd
resh
ryi
ryans
ryons
tyd
tyan
tyons
tyards
tyits
tyrr
pael
paic
trasts
flouts
byo
byan
bying
byls
ciu
vig
vion
vient
vips
viars
roan
roint
daid
dail
daist
daim
daic
daup
bik
biar
biers
biot
proe
prot
sedt
pien
piad
piels
kning
knits
##thats
gud
guas
guls
bues
blex
blear
bleps
neds
nedt
gao
gac
gael
gier
grem
greys
greeds
tul
tuis
tuet
tuents
args
twy
twoo
tworn
twatc
twrap
nyuk
compt
plee
pleb
plein
pleis
alw
outt
sments
smuts
smens
swood
swith
scup
derk
derns
fot
trams
manll
plands
plaits
cuu
waa
wak
wafts
quicks
drus
drant
drouth
dyg
dyb
dyll
dyers
dyard
mucks
muff
dux
duen
duar
duit
slers
sleds
glings
wheats
dingt
joist
joss
triad
trients
triarch
caugh
wellt
acdc
brys
brins
breds
brays
wia
stags
stabs
loopt
mesc
prons
prcis
clep
cleer
cleat
cleon
cleis
clems
clegm
chek
chets
chems
ringt
vaal
kesh
singh
frou
deds
stoats
crot
croid
crocks
cark
zeu
pugh
prion
prigh
primp
braa
brab
brauns
snes
snouts
brier
brien
briers
brils
frights
brox
bromp
criers
cricks
cribs
gnin
gnight
gnons
shouldst
twod
beens
thresh
firn
ruch
ruhr
luv
turs
turfs
clab
gerts
tersc
booths
stras
berm
berths
misms
crai
groe
grok
groat
wedt
reams
emt
emts
tromp
chig
chiv
chiang
blag
blaut
blains
marr
stuart
stuarts
sya
syc
syet
chack
phu
phat
phen
jeb
jell
beall
edll
adr
adz
jaf
japs
jags
nuk
nuys
wordst
drad
drais
drail
trec
trev
treks
hyn
hyrs
hyatt
flabs
flails
helf
helpt
horr
brez
tlit
tlip
tlam
tluck
drio
dright
pingt
stei
steels
hux
huan
hups
earps
birl
liebc
juans
bants
warps
woh
woz
woks
bitts
coos
gyn
gyll
gyar
erd
hearths
dlar
dlum
dlong
dlist
dlins
dlums
bsey
wrat
wras
wrung
wrens
aux
augh
augs
kya
workll
girs
girds
wingt
pyr
pyw
truer
truant
schu
schra
schist
schic
freew
litz
winch
gleed
gleans
psit
psys
psars
viets
dmay
dmass
dmost
dmund
dvil
fraff
kam
kahn
kied
kias
kips
lecs
strag
flet
fleer
fleur
fleam
renc
breact
ouc
oud
lisk
blackt
matts
heards
grier
grich
grids
grills
eatll
balks
ketts
filch
dwet
dword
dworks
soug
tsay
tsun
tsys
tsim
tsons
tsand
tslo
purs
purls
landt
slags
slaught
flyo
flya
xier
quap
wonks
rhon
rhum
cruo
cruft
panc
fourc
fourths
elp
elks
ginc
girlc
hith
hitz
klan
klud
deand
snaz
hooc
scoffs
riop
boyc
boyll
growt
gerst
riahs
cheech
bloodc
yaps
teads
fitt
fitch
tfe
tfast
tfel
tfla
tfea
tfields
bests
dinks
shortc
glob
glocks
chres
chriss
skinks
botts
spoor
mott
gung
zaz
zacks
feetll
tweigh
tweeds
hurc
signw
phold
franz
dryers
scabs
routh
roust
raign
minh
smoc
smocks
smosp
zyass
flubs
hrol
hroi
hroa
hmy
hmash
hmarks
meold
blier
hnet
busk
busch
valt
chrism
missll
sixs
schoolc
dsin
dser
dsel
dsour
dsoun
dsits
dsels
dsof
dsea
aix
wilf
noughts
kog
koc
kolds
knowsw
pults
culp
sloths
xae
diots
liah
zol
zoe
zov
zoons
beeb
beeps
huss
dfe
dfu
dfan
dfly
dfel
dfour
dfee
dfruit
tnu
tnin
tnights
peeps
gme
gmar
gmic
duets
awk
bungs
dners
brud
bruv
bruit
hlon
hlor
hligh
hlic
nanc
zias
ziers
ziah
hindt
dret
crosst
delts
cellst
bluc
bluet
stanc
stanch
riants
sickw
doof
popht
coachs
richt
agm
xeight
scia
sarn
sarms
flowc
flowrs
threet
bobw
ahf
cotts
hwear
niell
kidll
kidst
xyz
kwor
kwas
kwit
kwells
scrum
scrunch
mosc
quos
quoll
saph
fiedt
snoww
knicks
polk
xoc
scrag
mudd
ksan
ksons
nutt
limps
zoop
ownt
reem
glads
ghi
gneur
kfas
kfil
kfli
kflow
mourns
vetch
moots
eggt
eggw
shrimps
hring
hrum
hroud
crapll
mulc
mulch
gorr
keens
snia
wealths
duns
swog
gretc
biah
dirnd
dirts
dweed
zlers
loafs
troph
shirl
shirks
journs
bmoc
xism
jib
thumps
mcba
mcwh
tzu
tzee
tzoh
griefs
scotts
niop
tliest
wests
hram
liop
psias
glooms
ayrs
deop
bysm
dnez
dnecks
ceoff
ginss
gwy
gwit
gwell
crests
hria
junks
logg
loggs
depp
blurts
dsoc
skiings
nyoldw
foxs
czan
gulch
gulps
clickt
plauds
chasms
gsl
gse
gsw
gsoh
codds
crisps
thau
pmas
coachw
snook
streep
eew
twait
frye
maxs
tetc
dodd
kmo
kmas
kmart
kulls
reoh
hnold
hnoids
xics
liert
pfro
pfal
rahm
hsm
hsman
hsee
kru
kring
hfli
hfield
hflown
chloe
noug
chickll
shrek
shrews
gfil
gfight
gfroid
chuk
cmur
pwort
pweed
##gtgt
cobb
scrol
druids
gruy
gruo
bawds
boosh
srow
coarc
sprints
dahl
dahn
dabc
gilts
bni
bna
bner
bnut
bnai
pinsc
tlaid
hausts
pimms
rhein
bwai
vred
vral
tsma
dours
fwo
fword
fworth
##rrr
##rring
psoil
kroac
xfin
oyl
mcclu
scorns
koos
kools
flinks
bfe
bfish
liasm
csa
csin
csec
csharp
pnoe
pnoic
dolphs
##hhh
nocc
bauch
mcgre
mcgees
mcgrath
jinks
rumph
dvec
xsuc
xsuf
xalts
omg
brioc
klift
frosts
katz
##ggd
kosh
bho
tvi
tvas
hutc
minsk
bseil
fmu
fmans
fmouth
hoyt
rhond
feuds
concr
xwing
xwells
hmia
hvar
hvol
xleg
xley
dsword
azh
cpes
cpas
gawks
arrgh
hmoid
ksmit
hesss
pning
pnel
pnia
pryn
abcd
twoods
dsaw
sleuths
jilt
bnob
djan
tfox
hnets
bti
btu
moulds
lionths
sprawls
whelk
byrds
drants
gzags
bney
bhaa
lloyds
schloc
dsorp
tniks
sso
ssri
cairns
flaunts
ekg
ekp
vroom
shmucks
dsyo
cfo
xless
##bbbb
choux
bokml
schtu
ltlt
ryall
joab
phloem
strewth
hweh
twerpll
tsfoot
dweebs
gsaw
dtat
fflo
rfa
bzi
squelch
bbee
treyf
dwolf
hragms
##wwwww
arrrr
mcpher
kmeup
cva
tcell
erstw
schnei
dwalks
dflight
tzvahs
bball
jsut
rithm
vsha
wulf
shlock
chvez
sloops
crithp
schroe
tzfeldt
khmer
dhtel
ddots
gcses
mcta
kflips
aen
aon
ald
aad
aum
aard
ags
aight
aws
aic
bq
bth
bhe
cill
cbo
cgi
dd
dq
eq
ean
eck
eun
ect
eep
elt
fs
fous
fff
fays
futz
fhr
fco
fbis
gg
gv
gb
gst
gss
gord
gve
ht
hz
hll
iu
iis
iim
iac
jy
jal
jast
jits
juth
jads
kt
kch
kree
kist
kuc
kirs
khe
kirts
lb
lch
mn
mm
mcs
mows
mmm
mbi
mbas
ng
nw
nont
nart
nith
nvre
oll
oth
omp
oeds
oos
pd
pz
pss
pthe
qe
qer
qir
ront
rast
rart
rrring
sf
sz
sont
sats
sdo
sgi
tp
tt
tb
tj
tll
tast
tump
ua
uc
uz
uch
uhs
uhh
vt
vle
vould
vad
vont
wt
wut
wys
wiss
wens
xat
xest
xils
xirs
xens
xlax
yl
yess
yad
yul
yung
yuns
zh
zut
zme
zna
zsa
##gan
##gms
##ln
##les
##lan
##lish
##lass
##lash
##yo
##ym
##yzx
##pw
##pz
##phs
##hw
##hb
##hil
##hns
##hids
##ib
##ich
##ims
##nq
##nou
##nas
##now
##nom
##xc
##xym
##ean
##ems
##ect
##eft
##ews
##eak
##eiz
##ox
##tl
##tn
##ab
##ain
##ams
##aim
##mes
##mor
##cy
##uhm
##uinn
##rn
##red
##rgh
##rns
##whe
##wyd
##dl
##dri
##doug
##ki
##ke
##kts
##four
##fai
##vw
##vd
##bre
##bol
##boom
##jef
##ze
##zq
##qs
thon
thth
thous
thash
thgu
thefts
reans
reist
rempt
toor
toar
toow
tont
toap
tofs
toarc
##ndt
##oup
##orld
yog
yod
seast
sext
segg
seisms
sevn
##arm
##arns
meill
meers
meish
meep
meys
mecs
meows
wher
whor
whump
whuts
whorls
tior
tiur
tiim
tihs
tiac
tiarr
neg
neen
neis
neel
neass
neim
neids
neof
neths
vez
veen
veor
veit
veun
vells
veits
veux
hez
heur
heum
heys
heids
teit
teun
teof
teisms
bek
beed
beon
beal
noer
noit
nost
noms
nops
noans
nocks
nogs
novs
dek
deit
deish
deys
delt
deef
defs
deggs
##itts
##roll
##ghs
thatth
lill
lils
lilt
ligns
ceor
ceil
ceap
ceup
ceof
ceorls
soin
soan
sots
soid
sops
soids
soirs
myp
myi
myc
myd
myes
myal
myst
myhr
shl
shp
shon
shra
shill
shish
shic
shills
shme
shboom
stans
stenc
leh
leor
leps
leuss
##let
##leigh
coh
coes
coan
cois
coit
coth
coel
coep
coys
cocts
coids
coors
wex
wein
wees
wets
kep
keor
keas
keish
kewl
keups
forc
forb
##ries
##riot
##rieds
mak
maor
maus
maun
mams
macks
maug
##usc
witt
itsh
sien
sills
siums
cax
cand
caal
caid
caos
withp
##irls
haut
haist
haunch
haud
hafts
haitch
haism
haisms
##che
gep
geen
gell
geists
asc
asss
chch
chid
chers
chong
chugs
chirk
dih
dior
diel
diep
diort
tak
tav
taed
taen
tais
tait
tacht
ploo
plars
plins
plats
plci
terp
ternt
riu
rik
rij
rigs
rifts
fef
feard
feys
feist
sak
saft
lyi
lyard
lyim
lypt
lyits
mods
suin
suers
sunt
suant
hisk
hisll
wasn
pein
peon
peons
doz
doat
doit
doers
doest
doans
dopht
baer
baers
bams
baps
bact
bawn
baist
baath
loth
loms
lochs
goh
goe
gof
goid
goest
gols
gogs
goss
lalls
nott
notll
boin
boant
boink
boins
boids
boists
bohp
blant
blong
blriot
orr
nao
nav
nall
nams
naff
naids
naud
nachs
miy
mii
mich
mils
milt
fip
fift
nik
nichs
pog
poy
poh
poes
poen
poffs
spad
clon
clis
clit
clys
clads
clhids
clwyd
clbre
quon
quats
quills
quists
quels
quorn
quatch
##ouldnt
hiz
hight
hiart
hibs
hiums
allw
hok
hov
hoen
holl
holt
raes
rait
raut
raul
raest
raunc
ramb
fap
faits
faht
cong
conn
cont
conchs
froa
ryard
ryings
rymb
tyn
tyin
tych
tyim
tyam
tyand
pax
pak
pav
paes
pahs
paud
pabst
fromt
trle
treds
trna
flon
flers
flench
flays
byc
byd
byish
byand
byob
bykt
redw
ift
shec
shein
cib
vick
viid
vicks
vions
viot
viums
roys
roald
daa
dak
dach
daks
dands
dacts
biy
bif
biv
biont
bims
biums
biffs
prows
seds
pik
piat
piel
piums
piads
kner
knes
knur
knuck
knac
knroll
calx
calt
##tha
##thee
whio
guings
leds
bux
buan
buls
bleck
bleism
##stop
nedw
nedd
gaa
gak
gaun
gaws
gails
gaffs
gien
gior
gius
gild
giasts
grels
tuy
tuw
tuums
arg
archs
thens
thenw
twil
twings
tways
nyd
nyas
nyun
comm
exp
ext
pleez
##uls
alg
##mss
##inds
disms
perms
smes
smed
smil
smet
smists
smyt
swont
swort
swats
sworm
scows
scull
wayt
foin
fois
foft
enp
##etl
upw
trae
trao
trand
traight
##reak
manw
manns
plac
cuer
cuis
cuir
cuant
dayt
waugh
drent
dround
drue
drang
toop
kedt
woulds
dyst
mue
muk
mulls
muez
duing
duad
duum
slans
slord
glay
glans
glug
wheys
wheals
jop
joad
jobt
jodh
triu
trif
trios
grat
gren
grals
sinc
sinll
lingc
brough
brue
briss
brunc
brists
brnn
grah
grafts
wii
wien
wiit
wiff
prew
preas
preow
preps
stap
stav
loots
priss
prhy
cley
clets
cleons
cleos
clefts
clefs
clegg
cren
crist
crunk
crunt
cratch
crcy
voh
vox
vols
voirs
vogt
vag
vax
vair
vaugh
menll
apl
torst
singhs
frut
frys
frous
frass
sionll
stoa
newss
downw
croat
cromp
crohns
coulds
shah
shau
shak
shaut
shagg
zey
zev
zell
zeit
zeals
zevs
puy
pui
puk
puis
prid
pried
prigs
brax
braz
braun
brachs
snou
snas
sners
snel
fuiss
briums
brigg
skan
skun
skits
skank
brom
broon
broch
brocks
broils
bromt
crio
criz
crich
gnis
gnit
gnings
gnath
gnness
gnap
gnors
twoe
twoan
talc
talw
spect
sern
shos
thrum
amc
amf
amnt
##oush
lests
rugh
veds
luts
lups
leahs
clacks
tersw
boop
booc
boops
strunk
stroud
straths
fult
berp
berr
berghs
letc
misch
larn
crae
groc
clomp
closh
tryt
trya
tryon
troms
troast
troot
troids
troits
troac
trovsk
chib
chiz
chibc
blae
blaa
blau
blaw
blain
blabs
blairs
blauts
corf
corms
thinkll
marts
syr
syd
syll
syas
syth
syph
chach
pleaf
pleand
rightll
headt
headw
esl
esn
esq
parch
phip
phnom
phred
phtha
idd
edl
floyds
ranths
adc
adv
didn
jae
nux
nuent
nubs
drah
draa
drau
drach
draff
cyat
cyass
penh
trep
trei
trex
treo
tret
trew
tref
treed
trean
trect
treif
hyr
hyel
hyls
hylls
hyand
fland
drog
droy
drows
dropt
helms
metz
seng
horp
hords
mentt
breg
brey
brein
brels
brevs
bremss
farl
farn
farr
##atsch
##ssee
tlu
tlay
tlatl
drix
drial
driest
dricks
meanss
queg
quells
steen
steins
stearns
whym
whyw
chok
chocks
huis
huatl
surd
danl
yez
yeth
yews
yecch
bestt
selst
creat
crean
creens
merck
earnt
##mpts
dlye
dlya
birr
birk
liech
heah
heact
teaks
seach
seands
betz
banh
wark
planck
burl
burc
burms
derst
woi
wold
wock
woid
woad
wols
kern
kerb
kerbs
nightt
douk
hersw
taints
ingt
cooh
coom
coof
coops
coolt
gyl
gya
gyms
gyang
erf
erb
errr
dlan
dlow
dlot
dlgan
cens
coud
bsin
bset
bsleigh
wrough
wrest
waysll
kyand
harn
courth
workw
dleys
girt
ploc
plods
mork
morns
lorc
pyx
pying
pyon
pyist
pyand
tasc
trua
trub
trues
truing
truism
truants
scha
schil
schul
schel
schif
litt
tinks
darc
darch
darns
colms
sleg
slel
sleut
sleys
gleys
glegs
glects
plio
spac
psen
psly
psel
psue
psick
psos
tong
tonc
tonk
chark
airt
knownst
dmu
dmont
dmins
dmuch
dves
dvow
porp
clia
threew
lenc
lench
deadw
frag
frack
fraun
fraugh
soonll
spik
spiv
spiels
kap
kao
kaa
kais
kiing
kios
straus
fleu
knells
neyt
neyd
garh
cuth
lanns
lancs
breams
houc
bloon
tmay
tmel
tmark
tmuch
lisks
hott
grio
griest
sord
sorb
ketch
filf
thinth
dwy
dwes
dwot
dwights
dwatch
dwatt
dwres
souf
souch
poors
simps
clud
tsan
tsis
tsas
tsur
tsul
tsoun
tsars
tsac
tsled
tskts
prae
thingt
godc
purl
landc
restt
slavs
diems
tilth
flyings
hatt
damnd
damns
xii
xiel
squids
squinch
rhom
casms
louds
wang
ponts
crub
cruen
hinx
rousw
foos
selfc
fullt
klr
klong
klim
klom
klux
klatsch
salz
snai
snaur
shiz
shied
mouc
mouf
teec
finks
boyg
boyz
throbs
cryst
cheez
coldt
yaks
yawl
sanct
tfow
tfur
tfink
tfights
tfords
tfeed
tfif
tfrom
tfrien
gnog
gnost
happ
malts
netts
glost
donk
gunn
gunst
gunks
zaf
zags
zaak
basts
twei
twears
passs
tarn
glao
dryad
feng
dorks
dicc
velts
slys
slyt
rouc
rouk
rusts
temn
cesss
neem
wishll
minx
felpz
centt
vorc
vord
abl
strei
strews
nerst
heyd
zyl
zyz
zyas
splis
sploo
splod
splain
fluents
slicks
jobll
smia
dumm
dumbs
smeans
hrot
hrops
hroats
hrows
hroot
hmm
hmed
hmar
hmuc
hmmm
hmitts
meoh
mansk
deathc
fastc
addr
pectll
hnis
hnoo
hnos
hnell
hnya
freest
falt
falc
halfc
bowc
coolth
vyish
dsat
dsen
dsre
dsub
dslo
dsno
dslin
dszq
aig
palp
shotll
klep
klea
klear
klead
klept
dviews
niah
rinch
rinks
rinths
plantt
koy
koan
koch
billt
pulps
twix
lawd
dombl
culm
culc
culch
sloes
pitt
xau
dioms
bandt
goos
beert
tantt
zog
zod
zoon
zoth
zoism
husks
cosp
potts
deemp
fectll
trolc
trolz
ocd
ceall
dfis
dfill
dfirs
dfield
dflat
sours
sulks
tny
tnings
peech
noush
gmal
gmies
gmac
beng
kilns
tusw
tusk
bulks
fyi
fya
fyings
trank
welch
meetc
meetll
clasm
dnan
dnough
dnigh
dnows
hlra
hlars
hlench
hlies
hlung
hlook
##hsb
shoop
shoosh
snead
snells
snext
fisc
zigs
zizz
dreis
toughs
breadt
binks
fieldw
creem
branks
delk
delph
dowst
bluent
bluffs
rianth
gnia
gnias
gnios
ladd
doop
dook
tmentt
coaf
wyn
narm
nark
rockst
swigs
xey
nestt
neac
neall
neach
sarc
ahh
aht
ahd
utt
utc
viols
cotc
cotll
hwal
hwords
hwatch
murt
murph
whisks
kidd
southw
xyy
xyo
xyls
kwith
kwatc
kwurst
thouth
kays
wools
woofs
drawk
pisms
scry
liants
deedll
retts
satts
satch
leggd
xol
xoid
xopht
reichs
samll
##uphsb
tsix
tandt
hniks
hniel
ksun
ksum
ksits
ksee
ksword
ksvil
kissll
bouch
humpt
bosn
bosc
fetts
ryoh
dusks
##osx
yips
spellc
springc
ecg
ecp
gho
ghan
neuf
gnec
gneu
kfro
kfoo
kfight
kfoot
kfield
kfeat
kfront
kfields
sersc
vett
founts
gutc
glion
glios
ampc
nutst
punts
punct
puncts
ceex
lipsc
smooths
hrought
hrals
hrlic
feedll
zarks
gorm
weald
blancs
dunks
dungs
biacs
dirks
thia
thiol
swalk
dwea
dweat
dweis
dwear
taphs
visms
zlo
zless
cacc
guardt
honks
troots
phelp
giec
miah
lephs
bme
bmen
bment
bmeat
riskll
liphs
dietll
gresss
gresst
healthw
hlegm
jian
smays
mcd
mcna
chinch
napst
napht
pierm
tzis
tzro
tzits
guilts
cabg
phelpss
scotc
crumm
okw
beests
neop
neoht
dlie
shunts
plexd
lioz
psian
pruitt
gloop
deobs
texs
dnear
gmag
ceol
umps
slimn
slimb
chewc
gweed
gwyn
aahs
hrig
hrio
hrill
hrium
hrigs
clanks
gluts
depts
blurs
skims
slangs
hysc
specd
rorsc
czer
coign
coifs
powr
gulc
zincs
dwiel
gsu
gsit
gset
gsel
gsons
gsand
gsman
gsee
gsring
liarch
lismw
uxll
seyc
pmi
pmo
pmar
pmom
pmost
boaz
dapts
snooks
woolf
fudds
eec
twains
fryin
threadll
boomc
tauk
bryl
bryt
titln
boastll
kmy
kmay
kmus
kmarks
kmeat
kuhs
hnesss
lauds
fogg
pfor
pfet
pfish
pfull
raht
gisms
blunts
dubb
hse
hses
hsing
hsoun
hswish
hsyo
grumps
kron
krups
tiens
stubb
hfin
hfirst
hfools
lainn
oafs
dockll
totll
knott
dnae
gfar
gfast
gfel
gfree
gfeld
gfork
gfields
gfruit
gfrieds
tungs
schmat
schmen
schmear
##ahd
cmo
pwit
pwel
pworms
pwright
triomp
sry
srou
srent
dessc
bawk
srock
akh
dabb
geekll
bners
bnot
thwac
trength
norskt
mothw
hnners
hnnies
hnnie
aarp
aarrgh
swissc
muns
sherm
lyngs
rhea
rhem
rheum
rheims
spoilt
todds
bwah
cna
cnun
vring
nectt
tsmin
tsmar
tsmart
tsmens
rhian
fwe
tsoa
tsoon
tsoap
karls
##rrrr
damss
psop
psoc
psoid
krob
krock
kraft
xfoot
yuks
thors
mccl
mccann
vexd
koot
ksia
myob
sturm
pegg
spraut
flinc
bvia
dhon
dhya
vuit
lahst
swarth
tramck
tramps
pharm
csar
csas
csle
csqua
whoos
hoek
teenths
quilts
hrew
hreb
hreat
blount
twouldnt
dwai
mcgir
mcgru
mcguinn
hirst
misht
riott
naughts
ighths
daunts
scours
klompts
dansk
vreign
xsi
xso
xser
xsac
xsha
xsla
xsec
noahd
sheiks
shirtst
bartks
dmod
gmentst
tlop
kliest
uhl
swoosh
prisms
schnau
tmeats
tmoor
hmeat
##gggh
veeps
spooks
homz
pratt
psuit
tsall
dormll
khi
kher
kmaid
kmaids
bhin
bhak
guinst
scurf
tsuj
tsuit
tsuob
smentt
bsets
fmi
fment
fmdoug
pneas
pneic
trystll
scrawls
sprig
sprigs
troughs
kve
kva
kvells
xwood
zmat
shanks
bibb
rudd
hmias
zoics
hva
hvahd
fawns
dvok
dswept
dcup
dclass
kongs
ptoo
shticks
shtetl
baez
scuff
scuzz
skuas
kitsc
scruff
cpe
shui
wandt
sleighs
gmia
eod
marxs
ksmans
kmann
pni
pnot
ughs
gulfs
pryor
abcp
hroughs
trongs
dsai
dsaint
bwehr
hnics
hongs
bdam
dji
djinn
djem
heisms
sphy
chomps
tfold
hnev
bto
tirp
achc
kirks
wotc
ussrs
tswell
tsworth
tsweet
krieg
##boy
whelp
plinth
goghs
sloughs
shawls
huckc
squib
hryn
bnets
bneys
bhai
fnor
fners
fnarr
guvf
dlams
schlocks
zopp
cmae
ssi
vning
xmen
xment
xmins
srie
chlons
schweiz
heinz
baughs
briggs
psall
dsym
tziest
sheikh
##zsc
leighs
nignt
culll
tmyown
xfianc
mccoys
eics
ibn
ibms
seusss
blecch
phlox
tsex
dsec
dsend
fmanns
tchai
hahd
choughs
##ssssssss
fowls
jousts
angsts
squinc
yahd
dnie
dnik
bze
mckin
mcken
sreac
wongs
meadhb
saacs
sprog
espn
dryop
kohl
tswold
aisc
vries
##what
cheng
howlllll
kafr
tflan
dsfoot
kswing
kswim
mcbri
mcbur
bgirls
ftus
ftbol
ojd
cahnt
alfvn
pswich
hwarz
aampp
pwrec
pwreck
pwrecks
schlepp
vniks
ajr
cbers
lsha
mdear
vhen
vhun
xcu
faqs
schlub
psmac
tslur
klonck
tflying
tzohs
hraib
gsley
gslegs
##zzzzzzzzzzzzzzzz
dgrns
dheas
llan
llke
msu
mter
mchugh
xurb
zwords
zouks
thpi
thtre
nietzsc
smounts
dmouths
dwangs
tslee
splishs
splosh
dfrey
dfreys
psynch
cmyk
djeu
schwarz
bstee
bbbe
dddu
eersh
fpxym
lnder
mris
nsaid
qwer
tgif
tcells
wursts
shnook
keerg
feoff
feints
hijk
gaols
twyth
braunsc
tlamps
driopht
sarnts
dirndls
mcwhi
gslist
hfliers
pweedt
ffffai
fhrer
gva
gstring
hlluhm
kchel
lchaim
mbius
wti
thththee
maugg
brueg
brnnhil
vaughn
phipps
tsktsky
dszquphsb
mcnabb
meadhbh
dgrnsia
fpxymqf
aq
aan
agh
aur
aust
acks
aash
axt
aef
aos
aand
aitc
achs
auls
bk
bink
bint
bss
bists
bph
bgm
bbi
bco
bboy
cg
cq
cll
cth
cish
cds
cness
ciss
cword
cday
cxa
cka
dx
dgh
dut
dood
dast
dush
dunc
datc
dounds
ddc
eum
eks
eet
ebs
eath
eugh
ept
ehs
easts
eos
eths
eig
eosp
eol
ezs
ewwww
ewwwww
fc
fv
fll
fts
fxt
fne
fha
fme
fbo
fca
fze
fstop
gp
gould
gink
gint
gitc
gtt
hh
hb
hct
hread
hirk
hha
hgo
hgu
hssee
ind
iar
iit
iil
iard
ians
ials
ieds
ights
ilf
iand
ihl
iosx
jp
jd
jf
jro
joo
jir
jue
jist
jass
jic
jool
jush
jums
jord
jman
jve
jzs
jwain
jmy
jnq
kp
kc
kd
kk
kou
kun
kont
kul
krea
kast
kath
kats
kash
kums
kors
kurf
kci
kssee
lg
lp
lk
lle
lra
lont
lart
lort
lhe
lno
ltc
lli
lco
lma
mh
mb
mll
mra
mxt
mump
mrs
mla
mnst
mres
mgo
mho
mmy
mjt
mka
mboy
nt
nc
nk
nb
nust
nink
nass
nars
nath
nats
nump
nunc
nbo
nco
ngo
nca
nbas
njt
nras
nqf
nmes
oes
oor
ots
oust
oad
oers
oul
oms
oast
oink
ods
ows
oards
oom
oac
oof
pg
px
pk
pv
pb
pess
pth
pood
pws
pows
pirs
pna
pba
pirst
qg
qo
qt
qin
qes
qing
qus
qlo
qah
qsp
qyt
qgo
qbjo
rg
rx
rk
rre
rard
rort
rath
rpt
rco
rma
raths
rca
rbis
rnas
sll
sts
sind
sast
sree
sss
sssss
sbl
tk
tq
tust
tath
tte
tvs
tday
ug
uj
uen
uor
uck
uff
ult
uht
ufs
uvs
ugg
uggs
vc
vink
vums
vitch
virs
vhe
vitz
vla
vli
vna
vlax
wl
ws
wd
wou
wir
wur
wour
wans
wals
wunk
wud
woud
wuf
wirts
www
wuns
wnot
wwhat
xv
xart
xoun
xort
xness
xiss
xunc
xful
xup
xlo
xno
xla
xors
xwa
xdo
xve
xarts
xnot
xho
xni
xthe
xdri
yp
yh
yx
yt
yv
yed
yent
yers
yest
yans
yins
yick
yens
zn
zz
zur
zess
zink
zort
zats
zigh
zic
zool
zness
zzz
zup
zork
zirs
zne
zha
zvi
zron
zzx
zzzzzzzzzzzzzzzzz
##gr
##gb
##gts
##goo
##gir
##gul
##gls
##grrr
##grrrr
##lm
##lc
##ler
##lit
##lut
##lad
##lant
##lot
##lip
##leds
##luc
##lung
##lup
##lng
##ye
##yet
##yuck
##yatt
##pp
##px
##po
##pa
##pu
##pd
##pll
##pans
##pds
##pff
##pgt
##pya
##hg
##hu
##hf
##her
##hes
##hls
##ham
##sr
##sch
##sim
##she
##iv
##ier
##iks
##iws
##nc
##nes
##ned
##nns
##ngg
##nif
##nyr
##xl
##xp
##xx
##xv
##xra
##ek
##eb
##eq
##ein
##eal
##eck
##eps
##eel
##ears
##eith
##oe
##oq
##oon
##oor
##oar
##old
##ops
##oht
##ty
##ta
##tu
##ted
##tut
##top
##tthats
##ail
##afs
##mi
##mr
##mf
##mj
##may
##mad
##mul
##mant
##mot
##mac
##mrs
##moi
##mwah
##cm
##cu
##cr
##cw
##cra
##cli
##cze
##cgb
##uh
##uo
##uj
##uen
##uad
##uel
##uds
##uot
##ucs
##uzz
##uob
##uhl
##rg
##rx
##rt
##rc
##rk
##rb
##rq
##ray
##rre
##rent
##rst
##runk
##rud
##ritz
##rco
##rling
##roup
##we
##wt
##wen
##was
##wir
##will
##ward
##wans
##wim
##wee
##wlll
##wjef
##woar
##wrt
##di
##de
##da
##dv
##dit
##dus
##dont
##dns
##dco
##dlu
##kn
##kx
##kc
##kf
##ker
##kll
##fx
##for
##fro
##found
##fft
##fif
##fux
##fhls
##fuj
##vo
##vc
##vf
##vz
##vq
##ven
##vst
##vitz
##vres
##vpx
##be
##bm
##bal
##bur
##bms
##bwlll
##bfx
##jl
##jns
##jouldnt
##jpu
##zo
##zd
##zing
##zki
##zbur
##qk
##qv
##qrs
##qui
##quad
thay
thour
thars
thits
thuck
thne
thli
thonk
thgir
thcra
thet
thew
thef
theer
thell
theor
theist
thews
theisms
reh
reis
reut
reur
reill
reks
reet
reart
reight
reigh
reic
relt
recs
reums
reuth
reesh
reism
reht
regg
##inns
##ern
##erts
##erns
toz
toing
toit
tost
toans
tods
toass
toins
tobs
toath
tolt
towl
toand
tovs
tohr
##ndst
##atls
##ength
##anw
##angs
##anns
##onts
##ouls
##ouths
##lln
##llc
##llhe
##isch
##isps
##orp
##orps
##orths
yoh
yoll
andll
seh
sek
sef
seq
seld
seill
seent
seins
seim
seult
sechs
seism
seors
sehn
##arl
##arff
##archs
inz
inll
inst
meh
mek
mees
meen
meing
meit
meont
meil
mears
meons
memp
meot
mept
meunc
meuc
mekh
whan
whas
whitch
whwh
whler
whtop
whuzz
tiat
tiun
tiess
tiks
tiul
tiet
tiast
tiel
tiot
tiam
tiap
tiels
tiitch
tichs
ticht
tirr
tirs
tiarc
titht
tihg
##tsch
##ask
neh
nek
neut
neill
neun
nead
neest
nems
neast
neant
nells
neint
neons
neic
neef
necs
neums
neels
neasts
neos
neht
nehw
veh
veing
veas
veut
vech
veel
vect
veint
veort
veim
veats
veigh
veac
veup
veos
veig
heing
heks
heps
hect
heings
heff
hecs
heils
heits
heasts
heurs
hevs
hehn
hegms
teg
tek
tev
teb
teing
teon
teis
teut
teest
teim
teic
teals
telt
teup
teism
teirk
teww
teif
beb
beor
bech
beent
beart
beons
beigh
beils
beick
beits
beels
beos
beism
behn
noen
noll
nomp
noic
noits
noels
noism
noht
nofs
noosp
nopht
deld
deir
deun
deess
deont
deum
deil
deps
dect
deim
deight
deons
decs
deesh
deirt
deof
deurs
deisms
##row
##ghh
##ghee
##alt
liw
liin
lich
liun
liast
liys
lipt
lients
lifs
lihp
lijns
ceg
ceh
ceb
ceat
ceing
cear
cech
ceum
ceant
ceys
ceass
ceums
ceism
##rec
##rez
soes
soed
sond
sost
soys
soss
solt
soirt
soom
soac
sovz
myis
myar
myit
myers
myest
shis
shum
shue
shool
shug
shirs
shads
shurt
shve
shver
shvi
shshe
shwe
shjouldnt
stough
stent
stound
stys
stents
stouts
stoush
leed
leit
leid
leet
leant
lecks
leins
leim
lehs
leasts
lechs
leurs
isp
isnd
ists
isps
##lel
##ley
##lee
##leas
cov
coir
coown
coass
coss
coits
coap
coels
coffs
cohn
coanc
wez
weis
weill
weth
weel
weths
kec
kef
keb
keur
keun
keard
kells
keint
keim
kemp
keigh
kext
keef
kehs
keand
keif
keiths
kexc
forw
forps
forths
##ric
##rips
##rights
##riends
maj
maed
maing
magh
maill
maks
maet
mads
maist
maels
maos
mawk
##usts
itss
##owt
##ldx
##ldz
##rac
##rain
##rawk
itbs
siu
siat
cag
cav
caes
caat
caas
cait
caun
cands
caats
caic
cahs
cault
caffs
cawk
cavs
cazh
cakc
caorp
withc
withw
##irm
##irth
##irms
oncs
hak
hav
haq
haar
haas
haum
hawn
haight
haigh
haeld
hawl
haffs
hauf
hahn
hakh
##chd
##chan
##chent
##chha
##chlc
##urd
##urk
##urv
##urrg
geg
gev
geb
gez
gein
geun
geth
geans
geish
geys
geass
geim
geats
geic
geals
geits
geom
geach
geurs
geens
gelds
gexp
gefhls
asms
asls
chay
chus
chust
chul
chud
chung
chork
chha
choush
chher
chta
chvres
chrain
diar
dich
diad
diks
diast
diong
diish
dills
diak
dizz
diffs
divs
diors
diarc
##cke
taes
taan
taim
taxt
tamb
tafts
tampt
taqs
buth
butw
butz
plust
plown
plip
pleds
plasts
ploop
herm
herw
herch
herps
herns
terr
terst
terrr
rix
riz
riks
rills
riats
ribt
urr
urgh
fems
feep
fels
feic
feesh
feggs
saar
saus
saks
sact
samp
sahs
sachs
lyd
lyb
lyll
lyit
lyum
lyest
lyish
lyings
lyards
lyand
lyths
lyitc
lyph
lyism
lyell
moin
moer
moas
moet
mols
moff
moight
molt
moeds
mohs
moffs
mohr
suu
suun
suist
suls
sugs
sugn
suac
tionc
tionw
hisn
hisd
hisks
hisht
hisssssssss
wast
washs
pek
pef
peen
peing
peis
peut
peid
peet
peart
peys
peath
pemp
peick
peists
peesh
pehs
peens
doar
doal
doet
doct
dods
doft
doort
doons
doic
doirs
doffs
dochs
dofs
dohhhh
theym
baq
baat
baad
baint
baff
bapt
baiss
loq
loen
loing
loal
loks
loant
loish
loint
loac
lofts
loirs
loffs
locht
lotht
lovd
lovst
whenpff
gom
gok
goan
goar
goas
goch
goong
goim
goists
goism
gofs
laed
laas
lach
laul
lact
laft
laint
laim
laits
laffs
laurs
lauss
notw
notd
notb
boq
boer
boed
bost
boet
boong
boings
boam
boxt
bobt
boac
bohms
boinc
blor
blay
blust
blent
blum
blard
bloun
blass
blash
blunk
blirts
blatch
blted
org
ork
orf
orts
orft
orff
naj
naed
naat
naor
naur
naid
naun
naish
nawn
naic
napt
nacs
naits
naht
nadd
naoh
naoc
thiss
thisw
thisss
thisssssssss
miat
miar
miad
miers
miast
miits
miels
miht
canh
canw
canths
cannn
imxv
fih
fion
fich
fiest
fict
fians
ficks
fiats
fiqh
niv
niat
niis
niar
niid
niad
niks
niant
nict
niff
nilt
niens
pok
pob
pold
popt
poids
poils
poits
pofft
spass
splt
spha
sppo
clust
clough
clant
clong
clunch
cloop
cloot
clvre
##ustr
##ustnt
atv
atb
atms
atmp
qud
qub
quus
quess
quings
quint
quort
quils
quith
quism
hii
hik
hior
hiel
hict
hiass
hiff
hiac
hiorr
hox
hoat
hoas
hoit
hoir
hoers
hoil
hoft
hoight
hoons
hoac
hoffs
hovs
rav
rais
raar
raal
raus
rair
rael
rawn
raep
raist
raic
raam
raef
racs
raits
raac
raof
rawl
raand
rachs
faur
faid
fabs
faff
faugh
faught
fahr
fauns
verst
vernt
conw
const
consss
resc
resw
resd
resk
froy
frod
froin
froing
froad
ryr
ryd
ryk
ryor
ryar
ryas
ryit
ryal
ryck
ryill
ryass
ryim
ryits
ryac
ryand
tym
tyen
tyor
tyas
tyal
tyow
tyun
tyers
tyum
tyish
tyep
tyass
tyings
tyuc
tyos
tychs
tyisms
tyett
##ungs
pag
paf
paan
paing
pags
paugh
pacs
paunc
pawl
paol
paern
trer
trar
trest
trush
trents
trisms
trarch
tritt
trnes
trwee
flis
flor
flust
flind
flard
flink
flug
flump
flitch
flitc
flalk
flche
flrez
##oughgt
byi
byn
byx
byu
byw
byb
byin
byen
byon
byll
byit
byans
byist
byings
byif
byatt
byng
worf
worps
iff
shey
shem
sheu
shew
shef
shees
sheing
sheers
sheil
sheest
sheings
shemp
shevc
cik
cif
ciut
ciur
ciess
ciul
cips
ciot
cibc
vih
vif
viers
vilt
vichs
whatt
rok
rov
roed
rost
roks
roms
roet
roins
roim
roils
roand
roism
tedc
tedw
whoil
whomp
whoac
justw
willw
daer
daas
daal
dack
daet
daep
daint
daums
daud
daubs
daarr
daisms
tingst
biw
bied
bick
biid
biad
biest
biant
biel
bilt
bilds
biarc
bionts
proi
proen
prock
proid
proft
proars
probs
proic
proand
sedc
sedw
##umps
pior
pight
pilt
knu
knoo
kners
knum
knet
knel
knep
knuts
calp
calk
calst
calks
##ththt
whigs
whiffs
unm
unr
unf
uncs
unkll
gug
guh
gub
guen
guck
guers
gups
guart
guals
guents
guvs
guang
ledt
bua
buir
buel
bunds
buick
buhs
buell
bupht
buhhh
buurrg
blel
blei
blees
bleing
bleor
bleas
bleus
blech
blecks
blebs
bleim
bleits
bleists
blearch
##stll
nedc
nedll
neddd
gair
gaard
gaint
gabs
gaic
gaits
gaud
gault
gaah
gip
gih
giar
gick
giam
giac
gifs
giqh
givq
noww
nowdv
##lyn
##lynn
##lyphs
seew
hesw
grei
grec
greb
greent
greers
greish
greins
gregg
kingt
kingw
tuen
tuum
tuil
tupt
tuvw
##ilk
arl
arb
thent
thenc
twed
twent
twont
twest
twink
twash
twam
twuz
twoup
twinds
twrec
nyy
nyes
nyum
nyel
nyist
nyls
nyip
nyards
nyup
nycht
nyang
nyuls
nyrq
comps
exds
exmrs
plew
plev
plees
plean
pleth
plect
pleish
plext
alk
alcs
alfs
sayt
##oods
ush
usll
usps
ussss
disch
perl
pern
perw
perf
perths
pervs
smer
smun
smers
smul
smast
smist
smars
smids
smush
smuck
smuc
smne
smism
smatch
smouth
smma
smmor
smmoi
swed
swen
swon
swow
swent
swound
swath
swic
swang
swors
swrap
swaths
scad
scound
scats
scunt
scba
scutc
derc
derd
derf
derv
derth
derfs
wayw
foc
foz
foll
foers
fobs
foort
foight
foals
fofs
enr
upll
trag
trax
trab
trall
traar
traks
traord
trawl
trautz
traoc
traab
##reac
mants
plax
plaids
thoughs
cuing
cuon
cual
culd
cuck
cuish
cuums
cuyp
cuhl
wae
waw
wav
wawn
waals
wacs
waww
wahr
quik
quiff
drans
drout
drins
drush
drump
driss
drung
dritch
drays
dratc
drme
drcch
toops
##elf
getz
teng
tenz
kedw
hass
hasll
hasts
dyp
dyc
dyan
dyas
dyck
dyad
dyass
dyings
dyash
dyak
dyits
dyup
dyand
dyarc
mux
mund
muon
muus
muir
muels
duy
duer
duas
duans
duffs
duads
duarc
vesw
vesll
vesms
eam
eac
eaps
slar
slong
slish
slue
slins
slub
slook
glon
glid
gleds
glums
glud
gluck
glords
glens
glors
glhw
whets
wheesh
##ours
##ansk
ticst
hingc
jod
jof
jogs
##ongs
##ongk
trier
triat
trius
triest
trids
tript
triads
trichs
triarchs
gring
grys
grug
grrre
nesq
ningt
ningw
sinn
sinx
sinth
sinst
lingh
lingt
lingw
acll
acth
brust
brans
brons
brals
brums
brord
britch
brno
brens
brni
brrring
brles
brlot
brcke
graff
graafs
wix
wio
wiw
wier
wiest
wiak
wights
wiht
wiqh
wipd
hadn
hadst
pref
preed
preal
preins
preash
preads
prefs
preoc
preups
stau
stawk
stapht
looth
mesr
medt
medw
pras
prent
prum
pratc
prnyr
cleg
cleit
cleant
cleart
cleish
clews
cleef
cleuss
tesc
tesw
illc
illw
sesh
sesw
cring
cror
crut
crun
crans
crout
creds
crays
crma
crhy
crmes
crche
crmant
crdit
cheon
chear
chewn
cheung
cheops
ringd
ringll
ringst
desc
desw
desll
voon
vost
voys
voff
vogts
vaw
vav
vaes
vais
vaks
vains
vaim
vaids
vahs
vaands
kests
meng
mength
mayt
mayb
maynt
apg
apd
apk
torg
torp
torr
tord
tork
singt
fror
fras
frans
frats
frith
frres
frdri
frustr
knowt
knowst
howh
howt
howm
##ouns
dedt
dedw
venc
venks
sionw
stoi
stof
stoor
gotw
gotll
crol
crof
croz
croad
crost
crols
croats
croot
couldn
couldt
couldst
carc
carw
carks
carrr
shai
shaun
shaws
shahs
shaht
zein
zean
zead
zeks
zeins
zeac
zehr
puh
pua
pues
puan
puch
whichw
whichll
pedw
himw
himb
playc
prian
priis
prids
prions
prics
prights
priums
prigg
brau
braes
brack
braum
brams
bracks
braists
brawk
sned
snal
snur
snid
snil
snest
snoun
snick
snull
snuts
snyn
snyet
fuh
fui
fuo
fua
fuu
fuw
brip
brias
briard
briars
brios
frip
frio
friu
frits
friard
frigg
sker
sked
skus
skirl
skwa
broy
broe
broin
broid
brods
broim
broot
broths
cria
crits
crias
crial
crius
criest
crips
crics
criol
tlei
tleu
tlek
tlean
tleing
tleit
tleish
tleft
tleist
tlegs
tleom
tleac
tleox
eachs
eachw
gnle
gnow
gnong
gnue
gnous
gnic
gnits
gnorm
gnni
gnless
gnlish
gnfux
twoed
twoen
twoand
talp
spewn
serd
servd
vingt
vingc
thoi
thoe
thoth
shoi
shoer
shoed
shoat
shoess
shoats
shopt
thron
thrums
thrup
amt
amw
amb
amxl
lesh
lesm
lesw
ruh
ruo
rues
rued
ruct
runds
ruchs
##arsh
vedt
luh
luer
luing
luch
luent
luct
lulls
luann
luanns
luurv
turnd
leall
claes
clait
claun
clags
clairs
gerw
gerd
gerth
tersh
denk
denns
denwrt
boof
lowp
loww
lowd
lowst
goodh
goodt
goodc
goodst
goodnt
themw
strat
strats
strull
strgg
strouth
fulw
berl
berc
berms
berht
thanx
cesw
misst
greatt
##gssch
larc
larf
mightll
crax
crags
craunch
craunc
grol
groll
groas
groest
groins
groats
groof
wedd
swegs
reax
reaps
cloin
cload
cloff
clomb
sonp
tryy
tryi
trym
tryc
tryw
tryd
tryed
tryor
tryish
tryits
tryists
tryism
emg
emps
tlying
tlyas
tlyits
tlyoh
trob
troer
troas
trold
trock
troad
trops
troim
troic
troof
trovs
chih
chii
chio
chiu
chits
chich
chibs
chics
chimb
afl
afm
afc
afk
afb
afdc
blax
blaps
blawn
blaff
blazh
cors
corc
corb
corch
cornt
thinkw
marm
marv
marms
marcks
marcs
marrs
marggh
stuy
stuk
backw
nerw
nerf
sying
syst
syass
chak
chab
chaz
chaat
chaar
chait
chaul
chawn
chacks
chaud
chaffs
chahms
pleam
pleafs
rightw
headc
headth
headst
barg
barms
barnt
barfs
barrs
wonth
nalw
eschs
essss
esrb
##fffs
phin
phis
phun
phong
phish
phoun
phys
phirst
phru
phlat
phni
phlan
phwoar
phfound
##imb
mucht
curr
curch
##ightnt
jem
jeth
jells
jebs
jeesh
jeffs
jewd
edg
edh
edt
edd
flot
flob
fload
floort
rann
rangs
adl
adp
adt
adst
adls
adcs
adbl
firstt
firstw
jap
jao
jau
jaks
jawd
cedt
cedw
nuh
nuant
nuits
nuums
nuels
nuchs
nuhm
wordt
wordc
sism
sisw
sisnt
drap
drae
draes
dracs
cyc
cyr
cyw
cyd
cyans
cyyzx
lesss
treen
trear
treus
treum
treans
treys
hyd
hyan
hyis
hyun
hyst
hyic
hyph
hyorr
flaut
flams
flapt
drox
droe
drom
drod
droil
drotc
drosp
drosh
drovsk
drobwlll
helfs
horstll
brex
breu
bref
brear
breit
breet
breys
breic
breug
brehms
farf
farb
tlon
tlow
tlid
tlish
tlim
tlash
tloud
tluc
tlph
tlua
tlatls
tlength
drik
drius
driel
drids
dript
dricht
drixs
pingw
mostll
quem
quec
stend
steth
whyy
whye
whyt
choil
choip
choak
chott
gedt
huo
hual
huers
huil
huds
hunds
hubs
huot
huists
huac
huffs
huism
huang
huisms
danc
danw
danks
danls
dangs
roundw
yets
yech
yeps
yecht
yeggs
cernt
cerfs
selt
selm
selts
selft
selbs
selbst
##wsi
bedh
bedt
bedd
beddn
helll
hellt
helld
eyr
fert
ferm
ferr
hanc
crep
crem
creer
creant
creels
creinch
creggs
merp
merw
merll
mercs
mertz
creaght
showw
chank
tanc
##mpie
##mpeft
##ott
dlyi
dlyoh
birls
birns
birchs
bigt
liec
liets
heapt
teaw
teall
juc
juzt
seac
seand
seall
seact
seandt
betn
betll
betts
bann
banll
botht
warks
warnt
nessc
nessw
boutt
planc
planll
funll
funth
starchs
ralf
insh
burk
burj
burts
burrr
dersc
wog
woy
wop
wos
woa
wof
woar
wocks
wogs
woids
wolln
tiod
tiond
tioch
tiobs
tiochs
kerd
kerll
kerch
kerds
kerkn
ungt
ungll
smai
smam
smau
smaw
smail
smails
bitll
bitchs
bitbl
norp
nord
norst
norks
nords
norns
kenw
kents
kenss
doul
doup
doum
douch
hersh
hersd
tainst
gyy
gyt
gyw
gynt
gyard
gyps
gyish
gyings
gyits
gyzs
ern
ert
erk
hearm
hearrr
borr
borst
bornt
borgs
dlus
dlust
dlid
dlast
dlight
dlies
dlost
dlatch
dlitt
dlthats
dlvo
cenc
catl
catt
catv
bsing
bsas
bsit
bsel
bsight
bsons
bsam
bsump
bsies
bsup
bsword
bsnot
bsharp
bsky
bslash
bsleds
bsnif
bsmac
bsrud
bsfor
bsquad
wray
wrang
wrzbur
pasch
passt
pasms
gingt
aughts
kyy
kyp
kyi
kye
kyt
kyr
kyd
kyes
kyed
kyat
kying
kyis
kyish
kyds
kyls
kyass
kyup
otc
otch
otnt
otct
ottn
harb
harch
gesh
courb
peand
peall
workc
workst
lightt
dlew
dleen
dleill
dleish
dleits
dleends
girld
wingd
ploa
plof
ploon
ploss
ploic
ploads
presm
pyu
pyd
pyin
pyings
pyxs
setc
tasm
truo
truent
truet
truist
scher
schus
schet
schists
schors
scheldt
schvitz
scharff
schott
houtt
yesc
highc
freec
litc
tinqv
darr
darms
darnt
tellt
##ptpw
rool
roond
rools
slep
slev
slend
sleal
slems
sleast
slews
sleights
sleig
slevs
sleggd
badh
badc
badd
runn
runts
plyn
plya
plyin
plyoh
glei
gleis
gleft
gleand
gleinc
gleggd
hardn
hardw
plie
plias
spae
spau
spaish
ohg
ohs
ohld
ohhhhh
pser
psan
psus
psil
psist
psous
psot
psids
psud
psuc
psman
pshe
psha
psang
psli
psna
psma
psless
psfl
pslet
pslee
pschent
meac
meaz
meall
tonw
tonks
wrights
charl
charr
airtc
squs
dmal
dmus
dmid
dmash
dmigh
dmic
dmunch
dmunc
dmud
dmom
dmub
dmens
dmme
dmatch
dmuz
dmned
dmirth
dmilk
dmightnt
soundc
thingsll
dvou
dvents
dvai
dvtthats
porc
porr
porks
clian
cliant
clift
cliath
cliaths
masc
threep
endl
endt
fram
fraf
frab
fracts
putc
tisn
tisc
tisw
tisch
spick
spiff
kaw
kak
kab
kaj
kaat
kaan
kaing
kaor
kaar
kait
kack
kaid
kains
kaons
kaards
kaits
kaph
kaah
kavs
batz
kii
kix
kif
kij
kians
kiff
kiak
payp
monc
strix
stria
strim
wert
werd
werk
rentw
rentz
rentll
fley
flews
fleiss
fletch
fleggd
fleisch
knec
kneest
knews
kneads
kneux
feec
feew
feets
garm
garr
garw
garll
garch
garth
garbs
partt
partc
partll
tillc
walp
wald
walts
lanh
lanx
lanz
genc
genz
##amgtgt
breacht
houl
houts
ound
bloi
blom
bloor
bloch
bload
bloms
bloss
blocs
blochs
blomm
tmou
tmoo
tmad
tmil
tmass
tmons
tmic
tmills
tmunc
tmoul
tmens
tmol
tmarsh
lisz
lischs
yett
topht
sweetw
hotc
hotw
hotch
matg
matm
gric
griot
grics
grimb
grifts
grichs
grioc
eatw
eatst
sunch
sunks
friendw
halk
halps
guyd
guyst
balp
balds
niss
sorg
ketw
filmp
thinw
dwent
dwont
dwink
dwings
dwort
dwash
dwang
dwants
dwyn
dwham
dwuel
dwisps
dwowt
souc
souks
soupt
soult
belp
belm
belps
cusks
cusss
linn
linc
linz
linns
lincs
kindt
cluet
tsed
tsing
tsou
tsor
tsal
tsre
tsid
tsent
tsum
tsout
tsank
tsful
tsights
tsno
tsli
tsounds
tsurf
tsleep
tsvil
tsqua
tsright
tspya
tsven
prap
prax
praw
praes
prams
thingst
thinggrrrr
dadw
godll
stopll
##efg
purt
purrr
landst
diah
diaz
fisht
fishll
fishnc
picc
picll
ciop
##uggs
restw
restrx
slaun
slaws
slauts
dieth
ratst
flyy
flyll
flyont
flynns
helpst
glye
glya
glynn
hatll
hatchs
damk
damnt
torsll
xib
xiid
handc
blesh
fairw
fairrrr
fairpw
squit
squill
quag
wonts
testt
rhus
rhys
rhne
rhee
rhimb
ownw
ballc
loul
louth
daysw
ponk
tookll
zeds
zedt
crua
cruf
crull
cruor
cruck
cruds
cruels
crufts
holdw
fourr
fourdc
elc
elb
elph
elfs
elrd
seens
hinc
hinw
fooss
sith
selfr
ginst
ginks
girlw
girlth
succs
posp
poshs
blyr
doorc
fullp
fullc
fullw
hitll
hitht
klou
klar
klit
klun
klum
klest
klink
klish
klot
klam
klunk
kluck
klost
klark
deah
cingc
fanc
salk
salph
snae
snapt
snacht
snaux
hooh
hoond
hools
shih
shia
shies
shivs
teex
teell
teends
guem
guec
guew
guez
guell
formx
formll
formst
rioch
boyt
boyd
riac
riams
riacs
thros
throgg
throggs
cryy
cryn
crya
cryll
cryers
cryest
cryot
cryosp
cheec
cheeps
guilds
keem
keec
keek
keeq
bloodll
coldcr
yac
yaww
yawwww
teadh
teadd
sprit
sprue
spratt
efl
efs
efvf
fith
fitc
fitchs
groundt
lostw
sanh
sanst
tfu
tfes
tfre
tfest
tfans
tfigh
tfac
tford
tfeat
tfront
tfreak
tferns
tfouls
guesst
guessw
besw
besb
gnoff
weem
weech
haph
susd
stuffmm
malp
malm
malw
malst
weap
netm
beingt
dinc
dints
shortz
milf
glol
gloi
glom
gloin
gloms
glops
gloam
chron
chray
mentst
artt
numt
rhyams
layg
spol
spoy
spold
spocks
friendsll
motr
gunll
gunts
zae
zain
zaitc
zandt
zausc
zallc
basc
basst
feett
twells
diesw
hurst
hurchs
deepc
deepll
passw
phol
phoam
galt
gald
galts
tarf
tarz
tarms
tarns
tarchs
franck
joyll
joynt
musd
musts
musks
glac
glacks
glaff
drya
dryin
dryan
dryth
dryls
dryads
dogw
fenp
fenz
fengs
fenss
arsp
dorc
fewt
slyn
slyer
slyest
slyish
scag
scall
roup
routs
raif
temt
cesst
neek
neeps
sadr
tomst
touf
tought
pecdl
claimt
claimst
treand
bookt
viewd
odz
wishw
pairt
minll
minth
minths
fasc
caph
capns
caphs
smond
smost
momd
eartht
centw
yels
grank
granf
granth
vorts
abg
abm
abr
abd
abj
abq
abls
abgm
abmt
abhf
klys
klyen
klyor
klyold
guysll
silmm
frub
zye
zyo
zym
zyin
zyit
choof
choob
chooks
chooss
flatt
splats
splays
splotch
perst
flud
flues
fluck
fluish
fluffs
slia
jobc
jobst
smian
smias
classd
classll
criedw
darkc
opp
opx
smee
smeer
smees
smean
smeant
fightw
fightll
churr
hroh
hrom
hroc
hrod
hroes
hroid
hroad
hrolls
hmes
hmat
hmoo
hmir
hmur
hmad
hmong
hmars
hmort
hmunc
hmuch
hmma
hmustnt
meof
roomd
deatht
deathw
dentc
dentw
dentll
fastw
shellst
factll
blix
blie
blik
bliest
##issc
hnin
hnas
hnit
hnay
hnle
hnus
hnur
hnort
hney
hnarc
hnry
hnarch
hnyuck
hnward
frem
freer
freon
freys
freights
chrisll
venths
voigt
gasm
gasms
bloop
blooc
furc
furd
furrn
whap
whai
whaa
whaz
whaell
missh
strongt
falx
falk
falks
falms
falds
pastt
bowst
higgs
dresc
dresw
drests
pliedt
vyn
vyt
vyin
vyll
vyit
vyow
vyum
vyans
vyand
vyww
sixw
sixths
dsu
dsan
dsis
dsal
dsri
dsoo
dsont
dsound
dsout
dsings
dsint
dsick
dsies
dsful
dsha
dsla
dsubs
dsouch
dsna
dsell
dsuch
dsve
dsnot
dsharp
dsvil
dslic
dsnas
dslet
dslant
dsley
dsreac
thrips
ricll
groupt
groucht
noughs
pinw
pincht
bingt
feaf
feall
suez
klei
klew
klees
kleas
kleins
klemp
trouvs
crownt
arcll
tentw
rinn
rinx
rints
sexc
sexw
plantc
plantth
fedt
feddd
ditll
diths
kom
kod
koz
koes
kond
koit
koid
kobs
komm
cleanll
billl
dealth
watchs
nounp
nounth
solf
waitt
waitw
tweens
twied
lawt
domg
domt
domd
madh
madd
spott
culs
mith
speakw
celps
budds
nishs
nisht
sloa
sloin
sload
slops
slogs
sloads
sloign
pitzs
xall
xaut
xalls
xacts
xauc
goldw
diod
shru
shrdlu
pointt
judds
guap
bandw
bandz
goot
gootz
liap
liabs
brotch
wearll
zof
zoin
zoar
zold
zoid
zoil
zoms
zoars
zoins
zoids
zoths
zoyl
##apr
faik
faict
cowp
cowls
sleept
sleepw
beek
beezh
beexs
sirh
potch
deex
deek
deez
trolp
trolx
trolr
trolf
trolv
trolb
trolcs
occ
ocds
dfin
dfit
dfun
dfound
dfind
dfrea
dfue
dfills
dfits
dform
dfla
dfelt
dfeed
dfif
dfear
dfeat
dfinch
dfields
dfinc
dflax
dfreak
tned
tnor
tnar
tnas
tnet
tnort
tnach
peex
peec
presss
ett
etr
teenw
boughtn
pretv
tlesh
gmin
gming
gmus
gmill
gmys
gmight
gmats
gmarch
gmuz
gmouths
oddll
skyn
skyc
skyr
skyes
tusb
diedw
cashs
casht
cashll
fyl
fyy
fye
fyt
fyu
fyin
fyes
fyat
fyon
macp
macd
tendr
rickt
rickst
boardt
quickw
rorg
rorst
tranc
trants
tranth
tranks
tranqs
tricc
bossw
bossll
welks
welchs
windc
windw
pelts
pelgn
pelcgb
dishs
subw
awg
aww
awks
awnt
awwwwww
awtn
awdl
bunn
bunts
bunks
sandt
classt
bumt
dnis
dnal
dnur
dnep
dnort
dnights
dnuts
dnorms
dnouns
jectt
bearf
siahs
##mbjo
midr
bruc
bruk
bruz
brued
brucks
bruins
bruhs
bruzz
merst
featt
featll
hourt
hourth
hourst
bonc
hlu
hled
hlas
hloo
hlink
hlam
hlud
hlos
hlord
hlne
hlost
worths
lumt
shoof
petts
spreadt
spreadst
wallt
wallc
rayzd
transs
greand
sneu
snew
snell
snear
sneads
foott
gramt
gramw
##udl
johhhhh
poofs
damnw
tailt
zingll
sties
stijl
fism
fisms
zian
zial
zims
zions
ziac
hlya
drex
drein
dreas
dreys
chicw
breadst
olf
olms
truthw
dalp
dalt
dalst
aeb
plests
bilts
bilks
nonr
nonw
beyw
beygls
streett
binw
binth
fieldt
siop
sios
siopht
lusct
walkw
plantss
sauc
sauk
branchs
rysp
rysm
delft
bagt
poundss
dowt
dowz
copd
tallt
blui
bluis
bluens
assc
assw
assll
loudc
rianths
hiec
hiell
bayt
rainn
gnih
gnie
gnib
gniac
squabs
squaws
squawl
dysc
dysr
sickt
doob
doobs
hopc
hopst
killt
killst
sistll
rialw
wilds
wildt
rotc
rotf
leyd
coag
coact
coapt
childt
melc
wyg
wyt
wya
wyc
wyf
wyan
wyang
wynn
frontt
geex
narr
narks
rockll
volk
shipt
weightt
camw
camcm
richw
fixx
bitss
meem
meec
ceptw
sigg
signt
xex
xeat
xeunt
geop
geoc
nestl
nestls
catcht
warmt
warmll
fraidt
cinth
cincts
sweek
neaw
neaf
neands
roadt
roadll
ciac
stuckw
mumm
mumms
tresst
marktl
teeths
teetht
teethll
stros
strom
stroz
strown
bobc
ahg
ahll
utf
westc
maims
vios
vioxx
smellt
##ublf
condt
hwer
hwant
hwash
hwick
hwac
hwark
hwea
hwarts
hwyr
hwuh
murd
glishs
joik
helds
niec
nieth
blingt
jerch
whisp
stickt
bisp
xyp
xya
xyas
kwe
kwon
kwow
kwill
kwould
kwad
kwart
kwings
kwort
kways
kwee
kwatch
kwea
kworth
kwalk
kwrap
kweak
kwouldnt
bsod
bsoid
bsoil
bsoils
thoull
thoult
woot
wootc
ilh
scrums
scritc
scrbal
scruggs
lianst
hicw
mosh
mosk
blindw
dmia
dmiums
boysd
quof
quots
quocks
bankt
armw
armst
vanw
rantt
rantll
ciants
cianst
creamt
creamw
godss
psyl
psyo
psyum
psyish
thanksw
lerst
cocl
pinkc
tnesss
liefc
eightt
relc
riets
bsurds
speedll
neatt
neatr
bugst
pantst
pantsd
costt
gosn
gosz
dredt
tlesst
snowt
sharpll
satt
builtt
trayf
roughp
snesss
snessw
sieg
knie
knias
knigssch
xof
xoft
xomp
xosp
begf
beggs
earsh
steph
stept
stepc
dingsc
psey
psex
pseed
pseth
pseand
pseems
mewwwwww
swellc
saml
quitc
quitch
tsig
tsia
tsias
tsial
tsiest
lionst
dasnt
wingsll
hnia
ksas
ksur
ksad
ksil
ksim
ksight
ksof
ksla
ksands
ksna
ksai
ksve
kswain
ksnou
ksnow
ksrent
ksqui
nutts
stockd
stockst
broog
brooc
kissc
limm
limw
limbt
geonw
crowdt
boug
bouk
bouth
viandst
blockt
blockfl
humt
humb
leev
leevs
scheis
scheiss
owt
theop
proudt
rumpt
gelb
bosp
bosns
boscs
wett
ryos
kisch
kisst
rishc
ersh
ersc
drugll
drugst
swimp
##osh
reeg
reew
reeb
whomps
tonsw
folkll
hurtt
bolg
bolk
bolcs
springll
burnll
burnss
chalms
chalph
snod
snots
snoek
ecb
ghat
neuch
gnea
gnew
gnees
gneat
gnean
gneis
gneor
gnecks
gneys
lidl
sitss
trests
rearth
rearns
tiag
tiaw
bombt
beachll
hiol
hiops
flightc
kfo
kfin
kfis
kfit
kfill
kfun
kfly
kfood
kfel
kfos
kfork
kfights
kform
kfla
kfurt
kfirst
kfew
kfruit
kfron
mourll
stripd
chestt
chestw
taughtc
ringsw
vetts
rollt
speechs
mook
moof
mooth
moogs
moofl
spentt
spentw
gryl
gryi
grye
gryt
gryand
glii
glik
glial
gliet
gliff
gliac
trickll
gnag
gnae
gnail
gnawn
gnaits
ampl
cardc
cardst
cardss
ceem
carsw
splitt
heend
heeps
ceedt
ritt
buicks
bentz
loadll
smoos
smoov
smoosh
brainsll
prosts
blemt
hrro
hray
hrus
hround
hrist
hrings
hrists
hrub
hrne
hrman
hrism
hroug
hrli
postc
feedt
blism
zarf
byends
dimps
gorts
gorms
storrs
sheepll
snib
snial
snians
snigs
sniows
nooh
noob
hionll
paintt
vernst
pauds
proofw
gatt
nosw
dunns
virm
veag
veall
floatt
gretch
phial
phials
beefc
dragt
dragw
kiev
kiell
tiedt
pealt
irt
irc
irvs
juif
mailt
dirl
dirr
thio
ood
ook
coalw
swald
swalks
duckll
ducktl
barkc
dweard
dwears
dweak
dweeds
tapp
stinx
lysc
matht
pouf
pount
visc
zla
zlings
zlatt
losn
loaft
textc
honts
toex
toevs
scarfs
tropps
faultt
bluesll
plenn
##andh
rosp
rosh
dacc
matchs
catsll
miahs
jours
jourd
##lock
borsht
bman
bmus
bmod
hett
hetts
ceanw
xisms
lipp
lipth
naif
knesss
gressw
hleas
hleez
chapll
taskw
taskll
jie
jia
jik
jips
thumpt
thumbt
bootw
bootll
nentt
wracks
soph
knab
knaht
mce
mco
mca
mcin
mcat
mcal
mcman
mcno
mcla
mcve
mcau
mcvi
mcmor
mcwhe
mcmul
mcwir
mcghee
tardw
naph
hfuls
marsc
tzar
tzut
tzap
tzos
tzling
tzsim
tzwas
laxll
filmst
seifs
bearss
bearsgrrr
lectt
ramns
padm
padll
cabgd
glandt
charmll
haydns
reerc
hangll
nioc
nioff
piesw
crumps
tlia
tlion
tliers
tlicks
kann
kants
kanst
plumm
plumbs
rapp
raph
suall
neoh
neols
weedt
backss
royl
royt
dlif
dlian
dlich
dlians
shyer
shying
shyish
shoew
syncs
clayw
plexs
stewd
rierw
piaf
houndw
oeb
scried
scrims
scrips
foehn
stealw
hrac
hrams
hract
hraim
debtll
welshs
haww
brushs
brusht
sipll
bondll
flipc
rootll
liots
lioth
weirds
psied
psion
psians
psions
kickd
prui
droog
drood
droots
droolt
doubth
batht
preak
glook
glooks
ayg
ayp
ayn
ayt
ayck
ayns
tralt
dlingt
lassll
tickt
crasht
sticksw
bronn
bronts
galsll
wheek
sylp
sylphs
stinkst
swah
swags
dowsw
sacst
dirtc
dirtft
leanns
robb
dneeds
jelt
caddd
lopp
lopx
gmax
gmain
gmaid
cherc
cherchd
ceod
quidp
ulm
greyw
natt
natc
tatrk
tearn
tearth
fidst
smarc
smarch
smarcks
sinkt
grimms
ospds
dilft
dilph
riorc
ritsc
spyi
jarn
umd
goatc
preyt
gwed
gwan
gwing
gwou
gwor
gwar
gwas
gwal
gwow
gwould
gwent
gwil
gwish
gwards
gwith
gwork
gways
gwatch
gwarts
gwells
gwald
campt
campll
campst
molts
aaf
aav
hril
hrix
hric
hrills
hrios
hrifts
hriah
junn
juncts
clangs
gluons
truckt
depps
drowth
sooh
soots
flasks
cutst
frankll
blurps
flix
flie
fliers
dsoi
dsoa
dsoff
heightt
heightc
skix
skif
skiin
foughtt
pushc
vidl
rightsw
eatsw
vousd
phae
phall
sportss
hysp
flashw
nyobs
jointt
rankt
naughtt
dmah
dmaa
dmaid
dmaic
daeh
daew
hewt
roah
flagg
tinctt
gumt
trumw
trumst
clothw
saintw
czap
czol
nantt
coigns
cafst
gearw
fussll
powt
##hea
deckt
psett
clickw
lustt
lustr
lustw
cramd
dwicks
dwigs
fauw
faulds
verbll
bootsw
tlingt
bsorpt
gsin
gser
gsat
gsing
gson
gsro
gsal
gsound
gsour
gsought
gsint
gsim
gsic
gsam
gsits
gsuc
gsup
gsno
gsuch
gsled
gswain
gsnot
gsnou
gsfour
gsfro
gsongs
liarc
liarchs
linkst
tousc
toussr
brusc
brusk
yelln
cretw
cloudll
cloudst
hodg
jamll
bsens
nentsw
thaat
kfastw
pmy
pmed
pmat
pmid
pmans
pmout
pmins
pmot
pmens
pmarks
pmuch
pmoc
pmucks
pmeal
pmucs
boams
gnantw
nipll
brinks
clautsch
jawk
xiop
barsc
kelgr
piod
bleend
bleeth
twistt
britt
britts
grieg
thyn
thyes
nacl
smask
friens
frienj
rasht
snackt
eeh
eeth
eeks
twah
twall
twaist
ensp
chicksw
chicksll
silkw
debll
nilg
fryo
frya
fryw
fryed
fryers
vowls
hemt
hemd
hemps
deik
skein
skeen
skeers
skeww
skeann
crabll
guestsw
neert
teop
switchs
worsts
drillt
klingt
monthst
lapp
bianc
bryc
bryec
cheatst
bankss
screwt
titr
titll
titch
sterns
maxg
niumt
crang
cranng
labb
jeeps
jointst
kmin
kmes
kmou
kmins
kmac
kmee
kmatch
kui
kuo
kua
kuk
reop
reoc
reobs
##irkth
dopp
dopts
hnoh
hnoid
hnesst
lauts
briec
briek
fruitst
hmentt
groupsh
groupsc
bamps
artss
excp
bumph
pfa
pfu
pfar
pfef
pfels
pford
pfla
pfol
pfeed
pfries
pflut
pfriends
rahd
rahnd
gaux
gauds
stringsll
vantr
punchn
webb
maux
mauw
mauds
chowk
lambll
nitz
betht
chuckc
faulk
heims
hecw
tuol
swerst
publl
hsin
hsle
hsur
hsent
hsuc
hsos
hslo
hsah
hsouth
hsuch
hsyl
hslin
hsends
hsmy
hslash
hsfour
hsuhl
zilw
dickd
peersmr
nailst
hiah
trask
kry
kred
kran
krest
krish
krys
krist
krub
krubs
krusc
coyc
brickll
dawls
giacs
cudc
dupd
hfo
hfro
hfal
hfre
hfoo
hfur
hfun
hfish
hfort
hfeld
hfists
hfult
hfork
hform
hforks
hfried
hfrom
hflow
hfron
hfrien
hfeel
hfangs
chloa
chloes
blerz
flockt
flockw
sumpn
xasp
liamst
liambs
leoc
leoft
cursc
cursd
noum
nouch
noust
nouzh
xants
mealsw
spilts
clinks
knotts
kishw
shreks
prouts
nismt
filmsw
dnag
dnaps
foult
gfin
gfay
gfra
gfigh
gford
gfights
gfla
gfea
gfrom
gfinn
gfeet
gfox
gflip
##eeps
chua
chuz
chuet
fiev
schmie
sculpts
flourt
viants
ponss
blenz
hmax
hmae
hmain
hmael
hmaels
repl
haec
loyst
shelfs
dampd
cmin
cmes
cmor
cmil
cmel
cmys
cmic
cmos
cneo
pwin
pwan
pway
pwow
pwood
pwork
pwords
pwatch
pwell
pwmf
pwllhe
pwrights
zuh
zuhn
ryell
wheatll
rodt
drubs
triop
steakt
steakll
branchll
wreckw
bvum
sred
srat
sren
sring
sras
sray
srough
sround
srank
srud
sruc
srays
srcw
tadd
grues
gruhn
monkll
desss
naym
nayv
coemp
moax
hootch
whackw
printsk
theeth
bawld
bawls
germll
fistll
jett
sroo
sroc
srocks
sroot
moccs
grosch
bsie
adsl
adsls
towts
townt
sewww
dewt
whimt
tortw
cladll
dahls
dabll
deskw
niuss
slapp
bnra
bnid
bnard
bnos
bnah
bnitz
bnuts
bniz
srev
srein
sreal
thwim
thweet
nexts
gemst
trens
scentt
norsk
feesll
motht
pinsk
fiancs
prang
hnnot
noex
skaz
epns
jenn
jenns
deasw
tlams
tlawn
harshll
gidt
poutt
doeth
doegs
boltt
pimm
scalds
tmau
tmaps
munct
nopqrs
pertst
corpss
snifft
diasc
diasms
humph
sepp
weepll
wraths
tsyin
tsyet
tsyel
mountsll
spermst
bwy
bwo
bwin
bwink
bwith
bwork
bwatc
bwatt
cnut
cnot
cnuob
vru
vran
vris
vrit
vray
vrons
vryt
platz
platch
loign
dudll
firsh
tsmas
tsmay
tsmith
tsmac
tsmos
tsmouth
tsmuch
tsmarts
benchs
fwed
fwar
fwood
fwort
fwot
fwits
fwords
fweed
fwew
fworld
gurn
gurd
gurds
gurns
soign
sotr
riggs
spatch
spleens
wristll
maskt
tsol
tsoh
tsoc
tsold
tsoil
tsops
tsoft
tsoons
hurtst
karc
ceitll
soarrr
bleedll
psol
psoz
psoils
krol
kros
kroo
krows
krooms
kroyd
krap
kraal
krams
krauts
xfe
xfra
xfur
xfil
xfel
xfour
xfans
xfish
xfac
xfords
xfect
xfirms
yucks
inchw
melsh
nymst
combc
carpw
jazzs
fernn
sleaf
hroomt
dealtt
oyls
tylst
arnll
jeanst
fraudll
thorp
thorps
seoh
seoff
ticksd
plesss
tyem
flickll
mccor
mccra
mccree
mccom
mccord
mccraw
mcclel
dneyd
zelf
zelps
bachll
trigll
depthc
yarr
clics
stagg
gensc
klax
klamp
hawkst
lungt
lungst
pfuls
##lack
##lairs
ksix
ksie
ksier
spleenll
pantt
techll
myod
myohn
sturts
sprad
sprach
sprains
foilt
cryops
sankt
bvie
bfi
bfin
bfed
bfat
bfan
bfree
bfif
bfoc
bfields
bfend
bfgoo
bfoq
bflock
dhu
dhan
dhus
dhur
dhals
dhak
dhud
dhoop
dhol
dhandh
vuh
vues
vuhl
lairds
priams
reapll
psisnt
tsmanw
sneerw
lahk
lahhh
nahl
clutchw
flann
swarf
frisch
snarf
throngll
cretsc
gleaf
nantst
sneaks
hwacks
dzo
dza
dzer
dzas
dzoo
dzun
dzig
dzee
dzho
dzinc
dzhu
dzongk
ehh
ehhh
zardsw
sodd
haulm
wellsc
dload
dloads
glosp
sneakt
cse
cson
csre
csons
csits
csno
csau
csmy
csbjo
csles
csnow
csvw
cspans
csalt
eik
tarsw
whoom
chirm
chirr
hoex
smirkll
scooc
scoob
bergll
sighsp
besss
pnoan
mossll
distt
fauxs
swann
laughsw
dartt
hrep
hrec
hreas
hreys
vishs
vishd
xitkx
lofft
gopc
squashs
squashc
hlio
hliks
srap
srags
srafts
reyk
sidh
sidd
baux
bauds
cleop
cribn
cribll
dwain
dwall
dwait
dwaist
dwalls
mcgo
mcgin
mcgar
mcgel
mcguf
mcgla
mcglin
mcgluc
mcgiv
mcgurk
mcglynn
hirrr
jinn
scripps
siasm
siasms
quisp
hoaf
hoarth
pawsll
nuedt
dsix
dsias
dsign
roem
sleng
gnants
dvei
dvein
dvect
klocks
kloft
klogs
kloss
kloads
klompt
klosss
zapgtgt
vret
vreux
xsus
xsud
xswa
xsyl
xsect
xswim
blett
gabll
poohd
hulc
ommm
reux
dmoor
diacr
tfishs
tfisht
kimc
pistt
##olks
thralls
innngg
ishw
nairn
tlots
tloss
klie
klier
klips
tfair
tfact
bunsll
iell
kenth
punkd
pissll
tiffll
defg
defn
sockst
coilc
frosch
frownt
gandt
gandc
ruptt
turbll
steadt
jiggs
durns
uhm
uhc
##ouchgtgt
lexll
caulks
dollc
bopp
swoos
primps
schni
schnoo
tmeat
tmeis
tmob
troopst
axg
nults
pansk
svi
sve
svo
sva
sver
sval
svear
svbst
svefg
##ggggh
##gggggh
veex
veecks
cepss
angls
anglng
peyc
niert
pletst
psuch
psuds
psuits
tsais
graphsw
dsmy
dsmo
dsmas
dsmay
dsmel
dsmans
dsmos
dsmarl
schmuckll
khy
kho
khal
khans
khars
khoi
oinks
tocksw
gnessw
kmaar
kmaal
bhan
bhun
bhca
bhbjo
bhmi
fedsll
tva
tven
tvre
tvent
tvil
tvic
tvba
tvia
tvthe
tvlit
tvty
tverts
tvelf
thornst
whirr
whirrr
lickll
poxs
dfael
tamms
blatt
mioc
studw
ranchll
dloom
hunkd
fluffll
streakt
aoc
aob
aold
loeb
randc
faints
slantll
trictw
medsc
medsw
quetsw
quetsll
burpll
dleaf
tsui
tsups
saics
bahl
bahf
syoh
hsoon
waltzd
fmo
fmin
fmis
fmri
fmind
fmast
fmho
ozs
pneus
rendt
cootc
ploww
blingsll
kwai
kwaan
kwall
feyn
nandts
spright
snuffs
yawks
smosh
kvas
kvel
kvic
kvah
kvtu
xwe
xwas
xwould
xwars
xwings
xwee
xworks
zmas
zmay
zmir
zmul
zmull
nolpht
dixs
dofft
bocc
priots
nertll
dworld
dworst
freudll
hlock
kwik
kwiel
musht
nealt
answ
dothnt
roics
twirpll
pertht
phlegms
ploitw
hinksh
hmius
hmiac
bongs
hvi
hvo
hvan
hvel
hvart
hvark
hvod
hvjef
hvuds
xlet
xlets
xlead
xleys
prowls
dswer
dswant
dswish
dswings
dswith
dswords
dsworths
dswissc
burstst
azldx
dcon
dcors
dcell
dcbas
dccli
dcdi
dclairs
icbms
pter
ptan
ptis
ptree
ptah
ptya
ptuo
toamp
veoc
noaf
shta
shtum
shtunk
shtiks
shtric
boehms
gapsll
scuds
sculls
dyoh
spryish
pfield
srupts
cpi
cpo
cpus
cpap
cpac
cpos
cprco
wuh
wui
wups
keoffs
moatt
quirkll
byaws
sheaths
gawp
gawps
arrt
sleighd
hmoy
hmoss
eoj
stoics
curtll
christst
gmanc
ksmi
ksmo
ksmen
kysrn
pnes
pnut
pnet
pnic
pnig
chugc
tahn
pahk
dauw
dauk
pryors
gnues
driacs
certst
hwiel
bverts
kret
kreu
krein
krels
krebs
rarl
rarts
teuch
lixs
fopll
sluo
sluffs
friarc
bwean
thuh
seups
tafkf
smuch
risksw
thirsts
dnoi
dnocks
hwests
scrooch
joust
llaw
goyl
goyng
voilt
burghs
burghll
tartst
pithth
squawls
ksod
bda
bdis
bdus
bdont
bdrips
bnod
bnobs
bnoff
djo
djoo
djet
djel
djsa
djinns
djurd
gzap
gzac
gzeb
##mmmwah
blimps
sphyn
flysch
plaidh
brunn
chimph
dwrights
souffls
spliff
spliffs
hnec
hneck
hnecks
hnevs
boucl
reekll
bta
btar
btle
btus
btam
btrees
btwsi
kalt
kalb
tirw
hepb
istj
rosss
crpon
bricsw
lastst
halfsc
poofw
vryq
wuznt
kirch
lalt
vitt
xults
seinc
feldschlc
rofl
rofft
vahts
curdsw
hyop
hyoh
huffc
dlordt
schia
schild
tswit
tswun
tswap
tswatch
tnec
tnean
tnear
gnetst
ivf
kril
krid
krib
kright
kripp
##bols
whelks
cogw
plinks
quyc
greggs
cronks
shawms
gnarl
nuants
hrye
hryns
mccaf
mccall
mccains
bneu
bneusts
bhaar
fni
fnu
fnow
fnel
fnight
fnord
liott
sohns
spansk
faex
smyo
smyr
smyes
scowld
chiem
dlamp
schlei
schlecht
dsorbs
tniy
tnips
hlaf
hlab
hlaid
ksau
ksacks
gliop
glioz
slurpll
cmax
cmaest
tlandsw
ipx
sse
sser
sses
ssim
ssha
ssem
sslup
vlen
vlbi
vnors
vnstop
xmy
xmi
xmis
xmar
xmad
xmans
xmot
xmyr
xmoor
mezs
caird
cairds
chelm
chelms
chelps
riamb
peux
nidvs
hildr
trishs
nubll
bsau
beechw
dirkll
hsix
hsie
hsias
gfishs
cmeism
ninsc
sric
sries
vros
vroo
nobbbbb
shma
shmart
chlon
chlort
nyanks
draughs
ploitst
schwan
schwinn
schwann
mastst
tsnou
tsnoo
tsnow
tsnub
tsnatc
tsnif
liacn
psychx
hfiel
hfiend
hfiends
hfall
dhoon
dholl
dharm
ewws
vlovsk
heaths
lierss
dobbs
niosc
spudst
prooft
gauls
foams
psack
tswains
dsyi
dsyes
tzia
tzian
tzias
sheikhs
zmoi
cfa
cfin
cfor
cfar
cfil
cflat
cflow
cfda
cfirm
qiz
qizt
xlin
xler
xlac
xlvi
yowls
maaz
maams
poisd
mancc
wauk
vosptpw
snitt
skelp
syphs
schtop
schticks
slawth
splott
dfod
dfods
gmop
gmoi
gmoid
kfall
kfalls
pfloat
##hhhhn
ibm
lter
ltoi
ltod
ltgul
undr
##ruqk
nawf
smorph
phloems
dracc
cerpts
dlamps
tsend
tseach
tfoots
tarrgh
dsew
dsets
dsewn
dseach
kolff
kokh
ziedt
hwei
hwein
hwehs
hweig
ksuit
ksual
ghoulst
heekd
bjer
bjau
bjarm
bjrling
fmann
fmannst
muths
mutht
soughts
sreads
retht
shleps
chreo
chreim
lyalls
doall
bauls
baulks
clopss
tsfi
tsfor
tsford
tsfools
tsflung
tsfrac
tsfours
tnutss
xempw
veandt
gsail
gsaws
kmarch
sphinxw
chlorp
dti
etsc
ffo
ffor
ffuts
fflow
ffleas
ffolks
kurtzs
rfac
##cop
mauls
chasss
chassd
baird
bairds
bairns
tyall
twrights
wahbs
dwitht
ummw
aalp
aald
bzy
bzas
bzug
btecs
fysch
mlad
mlord
mckim
mckib
mckeith
mckuen
rset
rsums
xmem
xmeans
##otsc
heismt
saall
suoq
sprogs
fahl
buhrs
twangs
sworl
dydx
dydw
aprn
oldsc
bergsc
dwasnt
prawns
squog
hurchrc
dseems
kohns
kslin
kslash
kslip
hflyer
hflyers
sruff
tauntsw
tswolds
bbut
bboo
bbug
bbees
ftew
vrid
##whamgtgt
techsc
shroom
sudss
nagss
tuhd
twrit
wauls
glints
slavl
tflu
tflic
tflesh
tflank
tflies
hroics
dsfa
dsfor
dsfree
dsfull
dsfeet
dseedw
knoxs
tnoww
hwoodt
kwright
kwrights
ksyo
kswe
kswant
kswept
oompf
mcbind
mcbell
mcbean
bryng
krupps
pwais
pwaist
##wwwwwn
bgas
bgirl
bglad
bgosh
eurggh
ethc
elss
ftes
ftbols
jongg
ppa
ppink
ppos
ppens
pppa
ppears
rinkt
tbonds
zraz
zrael
simpl
cahd
laics
bozll
nichts
knapp
arrrrrrr
arrrgggh
arrrghh
cyng
cynth
##ssslan
pswing
psway
pswel
psweeps
hnuh
koeck
xandr
dfix
drecc
hrunds
mcnal
mcnug
mcnee
mcnea
mcphat
mcphee
mcphail
ummmm
gwild
aampm
aampr
aampw
aampd
gsyi
gsyes
gfalls
chuffc
tloafs
schlepps
ccu
ccar
ccitt
cccu
ccorps
cwi
cwith
cwords
cwea
cworld
cvu
cven
cbe
cber
cbet
dssel
dssunk
dssee
dssuch
dsswans
lse
lses
lsat
mdi
mdu
mdma
ndi
ndon
ndas
ndash
ndras
tcri
tcli
vhi
xca
xces
xcel
##ktw
##vnf
##joanw
tetht
forscht
haag
taics
plonts
lohw
migrs
attn
prousts
cleek
snerd
cyprs
ralphs
schlong
schlitz
schlumps
schnee
schnell
psmust
psmans
psmith
festsc
tslit
tsloo
tsless
dfloo
dflour
dfroing
dfloor
dfromt
hlerz
ksfoods
bourgll
tzoth
cryptst
gsleeps
draughtst
##zzzzzzzzzing
aert
bpil
bpos
bpoe
bpde
dga
dgling
dpi
dpan
dpnq
dpeft
dbe
dbouch
dbuot
dbdus
dhea
dheep
efffffs
fdi
fda
fdic
fdcop
gdus
gdel
gdask
gdansk
hbonds
hbomb
jsfuj
mses
msas
mta
mtier
mchen
mchut
pcna
pclu
pcmad
pczki
rithms
vsam
wulft
xty
xtre
xtri
xtras
xzoo
xzip
xzea
xzoon
zwe
zwing
zoux
##guess
##gghh
thpee
thpeak
thtuck
thtres
thmi
thmo
thmith
thmirkth
mahsh
chvezs
spunkll
clonkw
provd
giedt
dukk
accp
croyls
skoff
gnyes
troamp
chiasm
dluow
courscht
schrott
fleckd
tsleg
tslets
tflop
tfloss
dfolks
hwitzs
psync
chromst
kseggs
mcfly
mcfig
mcfinn
mcfries
tzfree
gwears
gweeds
gsmo
gsmot
gsmith
gsmiths
pfrying
gfoots
schmead
schmecks
pwalks
khmers
tvoix
btonn
fnerd
shmoos
aamc
bxing
bxvi
bxwill
bcup
bcups
bcdco
bstil
bbbri
cty
ctle
ctos
cde
cdma
cdiz
cja
cju
cjotsc
cvern
dreec
dddi
ewww
fpa
gpsing
gpsless
gpsfif
houldn
ikbfx
kurd
kurts
kurds
koolst
lndle
lindt
mrna
mmea
qwyatt
sdhe
sdrow
sdrawk
tget
tssu
tssay
tssad
zreel
zrevpx
zmanns
tibbs
shnur
geerr
geerrr
taacs
urpp
bampb
goggc
impss
protg
twyths
twooh
pleeth
wiaht
hync
steiffs
wohk
woznt
wingtrs
schrafts
schramm
fleurd
tslots
tsloads
gincd
tfeels
tfelth
dfeel
gmeis
gmeatt
gmics
brudch
kworts
ghiac
dirndl
mcbain
mcwhor
gwyns
gslap
gswin
gswea
gsworth
kmoth
pfalz
hsmi
hsmans
hsmart
hflier
gfilm
pwortt
bnizs
bnail
tsmall
##rrrnt
bfeudl
mcgrew
bhoy
bhoj
tvian
ltltker
ltltouchgtgt
ltltwhamgtgt
bzier
dwolfs
arrrrggggh
aonb
bqe
bqdont
bthom
bthoom
bhees
ddim
ddos
dqed
dqmot
eeph
fsat
fsrit
fcock
ggon
ggot
gbye
gbxra
gssuch
gsswish
htoo
htwen
hzea
hzib
iuds
jutht
kty
ktown
lbar
lbeck
mnid
mnchha
mminds
mmmpie
mcsha
mcshea
mmmthats
mmmmmmwah
nglish
ngroup
nwar
nwords
pda
pdes
pzip
pzig
psse
pssuch
qeop
sfo
sfrom
szec
szcze
sdog
tpit
tpray
ttet
ttjpu
tbno
tblack
tjean
tjruqk
tlly
tlloh
ucmj
vtam
vtoi
vleis
wysch
yesss
zhu
zhay
zmead
zmeans
##kii
thonx
thashjt
thguoh
thguoht
meersc
whorl
ceofs
shlos
shlubs
shpi
shpritz
shmeg
haunchw
chcho
chchchan
rijn
peinct
goeth
clysm
congrs
contd
knurl
amfm
amfrr
blawg
syrm
syrms
esnl
edlp
edlwt
advts
drahz
drachmt
dlyex
coombs
gylts
gylph
gyall
bsinth
bsleighs
schulz
slelps
dmunds
kapps
kiosk
kiosks
strausss
dwyf
klrung
klrungs
klimt
sploos
hmmun
hmmhes
hmmma
hmmmguess
klearnt
gmalms
dnoughts
hlraum
phelpst
mcdou
mcduck
piermc
piermch
tzroy
tzroys
gseems
fweeds
mcclas
mcclutch
mcgrues
hvaz
hvaul
pnied
pnias
bdamn
thtret
hijklm
mcwhiff
thththeetht
thththeeththt
fpxymqfv
fpxymqfvnf
bklyn
bsses
bpharm
bgmy
bbiab
cge
cqar
cllew
cthul
cdswhat
dxing
dghai
ddcup
eughs
fcus
fvapr
flly
ftse
fxtep
fnec
fhaon
fbomb
fcamp
gpas
goulds
gtter
hhour
hbom
hctiws
hgoktw
hguo
hsseem
ihlbm
jpeg
jdrunk
jfe
jrotc
jushjt
jzsef
jmyrr
jnqmpeft
kpis
kcups
kdka
kkkii
kurfrst
lgre
lpyds
lkie
lheu
ltcoughgt
lliw
lmao
mhon
mbon
mllord
mraow
mxtzo
mrsa
mnster
mgoal
mjtu
mkae
nter
ncos
nkru
nbui
nboz
ncaa
njtublf
nqfee
pga
pxee
pking
pvoi
pbra
pthing
pwsyp
qglyphs
qoph
qtbe
qloxc
qspwjef
rgle
rxo
rko
rreal
rptez
sllosx
ststut
sssound
sssssssslan
sblood
tkill
tqeq
ttell
tvso
uorh
vcday
vhee
vlaams
vliet
vnaoc
wlil
wsing
wdors
wirtsc
wwwow
xved
xdok
xveep
ypldz
yhk
yentl
znmay
zzyzx
zzzap
znee
zhao
zzxjoanw
zzzzzzzzzzzzzzzzzzzzzzzzzzing
thourth
thneet
thcram
todss
tohrw
whwhwhe
shveet
mailll
chtait
hissssssssssss
dofsc
dohhhhhhh
whenpffft
blounts
naocl
thisssssssssss
cannnnn
splted
fahrt
verstn
flindts
flalkdh
daarrgghh
guangz
nedddt
gaahhh
nowdvds
wawng
drcche
slishll
glhwein
wheesht
grrreat
prnyrq
crmaill
frdric
snyngs
skwau
gnnicht
gnfuxk
strggling
eschsc
adblrs
hyorrk
tlphri
tluav
huacn
beddng
burrrrrrnt
bitblts
bskyb
wrzburgs
schorsch
ohhhhhh
psheil
pshaw
psflows
tmensch
dwuelph
fairpwll
elrdl
yawwwwwwwwwn
abgml
hmuchc
dslaw
feddddd
kommst
tnachts
johhhhhhhhhn
hwyrn
kweeks
scrbaln
knigsschls
kslaps
kflag
kfronts
hrney
hrlich
mcnoll
mcveer
mcwhee
cadddd
gsfroms
pwmfa
srcweed
csvwell
xswai
innnggg
svbstan
##ggggghhhhh
dcclii
cprcoast
sphynx
nobbbbbbbbb
xlvii
ltgulpgt
eurgghhhh
arrrrrrrggggghhhhh
ccorpsll
dpnqmbjo
mnchhau
tqeqp
