#version: 0.2 - Trained by `huggingface/tokenizers`
Ġ <
A H
I H
t h
I Y
Ġ a
E H
D H
A E
A Y
n d
i n
Ġ s
E R
Ġ< >
t e
Ġ th
U W
A A
r e
E Y
A O
o u
o f
O W
Ġ c
Ġ w
H H
Ġ b
Ġth e
o n
Ġ m
Ġ h
Ġ i
e nd
Ġ f
Ġ t
e r
x t
of te
< |
| >
end ofte
endofte xt
Ġ d
e s
N G
a t
l l
o r
e d
i s
a n
Ġ p
e n
in g
a r
a s
S H
Ġ l
y ou
A W
Ġ g
Ġ n
Ġt o
t s
Ġ you
C H
o m
J H
l e
i c
o w
u s
Ġ in
g h
v e
Ġa nd
T H
a l
a nd
a c
U H
Ġ of
a y
i t
Ġ e
th e
a d
Ġb e
h e
o t
u t
r i
k e
Ġw i
l d
o s
Ġs t
i d
Ġh e
i r
Ġ on
a m
Ġth at
i on
Ġw h
Ġ re
Ġ r
Ġm y
Ġi s
w h
c h
o o
e t
i m
l y
a ll
te r
gh t
Ġw e
Ġs h
c e
u n
Ġd e
Ġi t
Ġf or
u r
Ġm e
Ġ j
v er
re s
t o
r o
Ġc h
Ġwi th
Ġa n
Ġyou r
r a
i f
en t
b ut
Ġ o
s e
us t
Ġa s
i l
om e
Ġ k
Ġw as
Ġh is
Ġs e
Ġi ts
i ll
q u
a te
Ġ ou
Ġn e
ou ld
i ts
g e
p e
er s
u m
es s
r om
l i
Ġl i
c t
w e
Ġn ot
ou gh
k s
th at
a in
o re
Ġa re
Ġc an
on t
wh en
Ġn o
o l
Ġthe y
Ġ or
s t
u p
Ġa ll
Ġp l
i th
u l
re d
a ve
Ġs o
Ġth is
a k
O Y
Ġa t
a b
ow n
a p
Ġh er
Ġd o
Ġs p
Ġw or
Ġb l
Ġi m
f or
in e
ac k
Ġf e
c k
Ġ v
w ith
ou nd
i ght
Ġl e
n t
a ke
on e
o p
ar d
as t
s o
os e
Ġc l
a re
i ve
es t
Ġt r
an t
at ion
te d
i g
Ġs u
Ġc on
ou s
Ġ te
Ġwi ll
a id
Ġg o
m y
n ow
am e
oo d
Ġf rom
Ġs ome
is t
ou r
Ġf l
Ġb o
i e
Ġon e
ac h
Ġj ust
i te
e l
is h
Ġ us
i nd
Ġc om
Ġ qu
Ġe x
Ġg r
Ġc o
Ġb y
ic k
u d
Ġc r
Ġou t
Ġ y
an s
Ġs he
Ġ up
on g
Ġa r
re e
Ġli ke
ar t
a g
ac e
p l
Ġs c
in k
a v
Ġwh at
Ġh ave
as s
Ġou r
Ġse e
Ġa l
Ġa b
y s
Ġd is
f e
Ġthe ir
Ġl o
e p
the y
Ġs ay
th er
u e
oo k
ou t
Ġb r
Ġa d
ing s
ic e
as e
n e
u re
b e
Ġb ut
i le
Ġwe re
os t
he re
th ough
Ġ en
Ġp ro
us e
i p
Ġwh o
r y
Ġ un
Ġa m
ad e
Ġa p
Ġ ri
Ġthat s
Ġg re
res s
Ġp r
Ġw ould
Ġwh en
Ġs aid
Ġs m
Ġc all
Ġyou re
Ġr o
ic h
a w
d e
Ġd ont
i v
i es
Ġto o
Ġb u
f f
th is
i gh
s h
Ġg u
Ġm ore
Ġp o
Ġm an
Ġt w
Ġn ow
m s
id e
ver y
a il
an ce
n ed
all y
Ġg et
ay s
a ir
Ġa c
Ġh as
ar s
Ġm o
Z H
ac t
or t
Ġk now
wh at
a u
Ġh ad
a ge
c l
th en
m e
it y
Ġthe n
Ġc he
n o
Ġwor d
a th
b le
Ġo ld
an g
o g
Ġne w
is e
Ġp e
f rom
im e
Ġwe ll
Ġd r
Ġj o
Ġa g
Ġs l
p s
z e
Ġh im
Ġd own
p t
Ġh o
u ch
as h
a use
ion s
ou ght
os s
Ġe m
Ġof f
Ġm ake
Ġne ed
s he
u nd
is s
Ġm ay
b y
en s
b l
p le
ic al
Ġbe en
p h
Ġ ke
Ġc ould
Ġg ot
or s
Ġi ll
ak es
ter s
ab le
Ġs k
Ġth r
Ġd ay
in ce
oo l
Ġs pe
t ing
u ll
p er
Ġb re
Ġf r
Ġg l
Ġc le
Ġp re
ar k
p ed
Ġh es
li ke
Ġthe m
Ġg ood
on s
Ġcan t
Ġc ar
i an
Ġd es
Ġth ink
h is
the res
Ġgre at
v es
Ġqu ite
m ent
Ġw ay
Ġsh ould
i re
Ġthe re
n ot
u g
w as
ow s
Ġp er
e ll
Ġs w
f t
u b
Ġi f
o nd
v en
Ġa w
Ġf ind
te n
Ġin s
Ġb ack
Ġm ight
Ġe ach
t y
you r
at ch
Ġl if
ur n
i a
Ġs we
or n
Ġst r
ir st
i ous
v ed
f ul
ra in
Ġtw o
Ġri ght
Ġf ri
th ing
Ġ end
u ck
ct ion
Ġh ow
Ġw here
b er
Ġl ook
Ġm ade
t le
ar m
l es
Ġm ust
h es
an k
that s
Ġthey re
Ġw ont
Ġl ong
Ġt ime
Ġw a
Ġf o
j ust
o d
or d
Ġm uch
Ġcall ed
am ed
Ġhe ad
Ġs te
in t
Ġi ve
Ġfe el
en ts
l ess
ak ing
b s
Ġa f
Ġre s
ig n
al s
the re
Ġp le
wh ile
Ġthr ough
Ġpl ay
n ess
Ġb ri
Ġp h
Ġt re
s ince
Ġth ose
Ġc re
m an
i x
Ġth an
l ed
s aid
Ġb ar
s ome
wh o
Ġwor k
Ġne ver
n g
Ġn ame
Ġm ar
Ġsu re
g g
Ġb est
ri ed
o c
Ġpl an
Ġyou ll
an c
Ġh igh
Ġf ound
Ġt ake
Ġk n
Ġc ou
i z
Ġus e
us h
o ck
w here
Ġbe t
i al
Ġe y
in s
at s
l s
Ġh and
Ġhe re
Ġe ar
Ġi d
a le
Ġlif e
in es
Ġon ce
Ġf irst
Ġcom p
a f
c ause
Ġlo ve
u ff
Ġc ur
Ġo ver
Ġs ur
Ġthe res
a ther
Ġb ig
u te
er t
en ce
Ġp ain
we ll
ir d
Ġwh ich
d o
b o
u c
Ġw r
Ġb ro
k ed
an ge
c om
h er
Ġthe se
Ġme an
Ġhe ll
w ill
Ġs n
Ġh ard
ate s
ou se
Ġg e
wh ich
ate d
Ġy e
b r
Ġ und
Ġas s
Ġsh ow
Ġst ill
es e
ic t
Ġre p
Ġc ont
Ġfri end
Ġp art
Ġde c
Ġf un
Ġ ter
Ġyou ng
Ġd i
it ion
Ġme ans
Ġd id
re n
i ld
qu e
you re
Ġte ll
Ġm ost
Ġn ight
ro p
Ġhe l
Ġcle ar
Ġke ep
ic s
c o
d ay
Ġe very
c an
Ġc a
Ġpl ace
n ing
Ġd ri
v ing
Ġb ad
Ġde f
u res
Ġc ome
oo ks
g r
Ġn amed
te s
ul t
Ġat t
Ġf ine
re ad
Ġcom m
ar y
Ġs er
Ġl et
Ġap p
l f
Ġl ast
Ġc are
k ing
is ts
Ġg ive
h ow
Ġsm all
Ġtr y
Ġa ct
Ġc our
it ch
se e
a im
Ġs up
Ġcon f
Ġt ri
Ġp ass
Ġg ir
Ġan y
they re
us ed
a red
Ġc ra
j e
or y
Ġth ought
ver s
Ġf ar
Ġde ad
Ġim p
Ġp ri
a h
Ġre d
Ġd ou
Ġst ar
ud e
Ġth ough
in ed
g et
Ġaw ay
i ly
and s
Ġre ad
li ght
Ġa ir
Ġple ase
Ġhe ar
Ġgo d
Ġl im
Ġre m
Ġ z
ol og
p ing
Ġword s
i b
Ġe at
h as
Ġs ound
Ġsu ch
Ġsh es
Ġb ed
Ġr un
y m
Ġwh y
ou d
Ġap pe
Ġch o
Ġd ra
Ġcon s
Ġle ft
Ġm akes
Ġf ace
Ġtr ue
Ġbo th
Ġyou ve
Ġbe g
re am
on es
ic ks
at ter
im es
id s
Ġre ally
li e
ou n
l o
we re
w ays
Ġdo es
a z
Ġw ant
ation s
Ġad d
Ġc or
Ġin to
it tle
Ġbl ack
Ġth ings
ie w
Ġo p
Ġac c
Ġs ch
a x
am p
Ġp ar
Ġc ol
an ts
Ġli ght
Ġus ed
d y
Ġh ome
Ġf ol
b t
Ġab out
Ġt ra
Ġswe et
f ore
i ed
Ġc ap
m ed
Ġ er
Ġ very
l ing
Ġon ly
d er
Ġch ar
le t
Ġf ree
Ġb it
ke t
Ġth ree
um b
op le
Ġm ind
Ġb all
Ġso on
Ġk ne
un k
ap p
Ġs ou
Ġ own
an e
Ġm us
Ġfe ar
Ġm iss
c c
Ġt urn
g s
pl ain
Ġkn own
th r
ar n
Ġf ish
ress ed
Ġgu y
d ont
Ġwi fe
c ks
n y
i red
Ġc ause
ofte n
c re
Ġco ll
al k
o y
um p
d d
o h
Ġde ar
Ġex p
Ġh ot
n er
sh es
Ġan t
Ġst op
ill s
the ir
Ġto w
Ġfe ll
Ġth ing
Ġc ame
ic ally
Ġhe ard
Ġhe art
Ġf all
Ġde p
au gh
Ġb ird
Ġl ess
au ght
av es
Ġre f
Ġar t
Ġk ind
Ġbl ue
p r
Ġd ist
iv es
Ġs im
en se
Ġc ut
Ġst art
Ġs et
ac ks
Ġst ri
Ġh ed
at ing
Ġn or
Ġh air
Ġre c
Ġwh ite
Ġfl ow
a ter
Ġto day
Ġp ay
a ut
un ch
o ld
us s
Ġg ra
e very
Ġp ut
Ġne ar
te nt
un g
c ome
Ġb ur
Ġsay s
Ġf ood
ap s
r ic
g l
Ġc at
Ġl ad
Ġr ound
av ing
Ġ ve
Ġc al
Ġp ur
u es
Ġ ver
Ġde v
Ġad v
Ġgr ow
ou nt
Ġde m
c on
Ġl aw
Ġw ent
Ġi nd
Ġag ain
Ġg ri
Ġwor ld
Ġpe ople
Ġund er
Ġey es
Ġv iew
Ġdr ink
ar ing
Ġman y
k es
un t
Ġwith out
Ġe l
Ġhel p
c i
e m
Ġ often
Ġal ways
Ġ ed
Ġs qu
en e
you ll
Ġbl ood
Ġs ad
Ġd am
Ġcl ass
Ġst ud
Ġh or
Ġpo or
z z
Ġto ld
Ġs le
Ġsh o
ill ed
pe ct
h ave
t r
Ġfol ks
om s
th ers
Ġf ull
a pe
Ġwa ter
Ġs al
Ġv o
e k
Ġwhat s
Ġb i
Ġl and
Ġb ra
Ġto p
Ġl ittle
he res
st r
Ġte n
m ay
one y
what s
ore d
Ġwh ile
fe ct
Ġd iv
Ġsome thing
Ġc ri
Ġf in
Ġl ar
ot t
Ġsup p
c he
Ġe ven
Ġw ar
Ġb ab
c ts
ard s
it ing
w ould
Ġd ad
o ke
Ġ es
m er
Ġl ine
Ġw in
Ġd one
c ed
g er
i er
Ġt as
th ese
Ġm en
Ġde ep
Ġre al
c le
y es
Ġb rain
if f
Ġwho le
Ġf act
ve l
Ġst ay
g re
i ze
u th
Ġs ing
Ġt ur
Ġst ate
c ted
Ġin v
Ġr h
Ġe le
ie ld
Ġqu ick
Ġst uff
Ġst re
Ġs ame
g o
Ġre t
Ġab s
ed s
te ad
Ġon es
Ġgu ess
g ed
Ġw ri
Ġg one
as ter
Ġc ell
Ġn ice
Ġsee ms
on ce
Ġw ed
as ed
Ġco ld
Ġho pe
Ġre st
Ġgr and
Ġbet ter
Ġl ot
t w
Ġst ra
pl ay
ain s
c ri
Ġsu b
r on
is ed
b ed
e f
Ġse en
u ct
Ġs un
ll y
Ġaf ter
Ġh um
Ġp res
Ġt ree
g n
m ade
Ġm in
Ġg en
Ġfl o
u al
an y
Ġsh ort
h ad
Ġh ouse
te nd
Ġbe h
Ġcr y
Ġh al
Ġbu y
te red
at ic
ul ar
f l
Ġm on
Ġa v
Ġho ld
o b
Ġf ac
e x
Ġd ark
Ġf ly
Ġp ast
Ġis nt
Ġo b
Ġc e
Ġcl aim
Ġf our
th ose
Ġle ad
je ct
Ġcl o
Ġw om
se lf
Ġb oo
ow ed
am es
li p
te m
Ġp ers
ll s
c er
u it
Ġm et
Ġde l
Ġar ound
Ġey e
Ġs on
Ġb at
Ġfor m
p o
Ġe xt
Ġbe l
Ġpr of
Ġwr ong
Ġst and
Ġm om
Ġf re
at ive
Ġre l
w or
Ġc op
Ġfe et
Ġcou nt
thr ough
ow er
Ġcour se
Ġf ool
Ġtoo k
Ġtow n
id es
Ġbe fore
Ġsp r
Ġw ish
Ġwh os
Ġsk in
Ġf ight
Ġear th
Ġdou bt
Ġw all
Ġsch ool
Ġb ill
wh y
Ġgo es
Ġgre en
Ġo ther
Ġf at
Ġf ail
t ake
Ġbe lie
Ġlim er
Ġl ate
g u
of f
Ġno thing
Ġs ign
le ts
re w
ip s
us ing
Ġse x
Ġco nd
Ġcr oss
Ġas ked
s uch
ert ain
m o
Ġl ost
Ġbe aut
Ġf air
Ġcom ple
Ġbri ght
c r
he ad
Ġy es
n a
Ġe v
Ġj e
u red
Ġfe w
Ġins tead
in ks
at ure
Ġf a
Ġch ild
Ġo h
Ġbre ak
Ġs ide
Ġd ays
Ġne xt
id d
ain t
r act
Ġl ooks
af ter
Ġg ame
Ġsee m
m ents
op h
Ġy ell
Ġad m
ct or
Ġgir l
Ġwi nd
in ess
Ġh ar
Ġh it
Ġge ts
Ġg ave
i ans
Ġb ook
Ġt y
Ġde cl
Ġgr ound
Ġb an
Ġy et
o id
Ġw he
Ġh app
is m
ar ch
ll ing
c all
Ġf le
Ġas k
Ġm ad
Ġex c
el s
c y
Ġb us
Ġch r
p ly
ce pt
Ġye ars
Ġcoll e
f er
Ġstr ong
ack ed
Ġbo y
sh ould
Ġm a
Ġdo or
Ġal so
Ġe as
t ill
Ġlar ge
Ġf am
u ts
Ġcom es
u le
Ġc ase
Ġf ast
Ġw ond
Ġd ream
Ġle ts
ad d
res t
Ġjo b
g ot
Ġdo g
Ġgo ld
m ost
Ġk ing
Ġtre at
e ach
Ġm ess
Ġs it
Ġo dd
Ġt imes
Ġtr ans
Ġa ff
Ġw ood
um s
Ġb al
Ġd en
Ġf it
Ġe ver
Ġr ather
c es
Ġa int
Ġc ool
as on
Ġl ow
Ġdra w
Ġd a
as ure
Ġfl at
m in
r ow
Ġc y
Ġag ree
y le
Ġgu ys
i ble
ir t
ter n
Ġd ie
Ġp en
Ġb ow
Ġsp l
Ġbr ing
Ġb as
Ġse c
li ed
Ġp ol
Ġli ve
ur ch
Ġde ath
d is
Ġw atch
av or
Ġqu e
Ġm is
Ġf ore
y e
Ġfe l
he l
Ġyou d
Ġse a
Ġye ar
Ġe f
Ġcle an
y l
Ġm ed
Ġme et
Ġfriend s
s w
Ġme ant
Ġkne w
i ent
Ġdo c
Ġcou n
Ġro om
you ve
ke ep
Ġ ent
al th
Ġc ir
Ġp ick
ud ge
Ġc ow
for m
m on
Ġh ur
Ġd ry
Ġle ave
ac ed
ail s
Ġs ol
Ġc ook
c ent
il t
ren ch
o ve
Ġv is
n s
re nt
am s
i que
Ġm oney
ll ed
m a
Ġp at
Ġs aw
Ġpr ay
Ġd rop
Ġd ate
f ull
ith er
Ġd ig
Ġo bs
Ġp ie
li es
Ġbe at
om et
ck ed
Ġspe ak
Ġwond er
ir th
Ġpro d
c ould
Ġm aking
Ġt al
e red
o ther
Ġk ids
id ed
Ġd ire
Ġb le
d id
ut ion
m ake
Ġth ri
Ġd in
or m
ou ch
Ġm ine
end s
Ġp os
Ġs ight
Ġle g
olog y
Ġsl ow
Ġte ach
Ġsm ell
ou th
Ġh op
um ber
Ġsle ep
w ard
Ġhe av
Ġdis p
Ġsh ot
Ġhal f
Ġl ack
Ġre g
Ġb oss
Ġf il
we en
g es
Ġc aught
Ġch ance
Ġk ill
Ġpl ant
Ġcl ose
Ġc ertain
Ġdoes nt
er y
if t
ri es
d es
Ġar m
Ġp ot
Ġl ab
ro l
Ġen ough
Ġter m
un e
j o
Ġb ud
ing ly
if ic
Ġex plain
Ġsp ot
Ġs ong
Ġt ried
ir m
u ly
Ġn ose
Ġe gg
Ġle arn
th an
Ġt ill
Ġde al
Ġle ar
Ġc ast
Ġwor th
il k
Ġm ag
y et
bl es
th es
at ures
Ġp op
ve red
ent y
Ġfeel ing
Ġhor se
s p
Ġs ince
ad s
ro te
Ġex pl
oo p
Ġknow s
u ce
Ġs at
man y
l and
ra ph
or ts
Ġsh ows
i um
Ġc ash
gh ts
il ity
ish ed
am b
igh ts
ast ic
ig ned
g ing
id er
Ġwh ose
Ġg ree
Ġch ange
Ġsim ply
p ped
Ġbe ll
Ġch urch
Ġstra ight
Ġbe er
Ġshe ll
h aps
Ġle aves
Ġo thers
our s
Ġl augh
iz ed
os is
Ġw al
Ġr om
o te
Ġd ance
Ġan g
cl aim
a e
in ts
Ġi gn
Ġp rom
Ġbr own
tw o
Ġr are
Ġspe c
is ter
Ġwri te
ow ing
Ġr ul
ur s
bo th
g y
ic es
Ġsh ed
Ġneed s
Ġtur ned
Ġp et
ac es
il ed
Ġrh y
Ġre ach
ent ion
o ver
Ġf ill
Ġp u
iv en
te st
Ġl oud
Ġg al
os ed
Ġcom plain
Ġc ried
Ġte st
Ġa li
of t
Ġc ro
Ġb en
Ġf ire
Ġr a
ist ic
Ġc and
um e
f irst
l ook
Ġb li
it al
Ġde b
Ġcr it
Ġbu ild
am m
y ing
Ġsp ace
Ġins ide
Ġm ist
i as
Ġa ch
er ic
Ġn er
le ct
Ġg un
do es
Ġto m
Ġdis c
Ġdis play
d s
m akes
Ġm ate
Ġen gl
ple ase
Ġwa it
Ġs y
Ġbe ing
Ġen g
b all
Ġb ag
Ġno te
Ġwor se
Ġsk y
c ar
Ġm or
e th
Ġw ine
ess ed
Ġd ress
Ġe qu
Ġwe ve
Ġtre es
Ġmus ic
Ġt akes
ke y
Ġsh r
n own
p ro
t il
Ġc atch
is on
Ġtr ou
a ul
Ġs ick
Ġm er
Ġp al
see ms
t on
Ġk iss
Ġbo dy
Ġdr ug
Ġtas te
c ame
res h
Ġmo ther
a ks
d ing
Ġs um
Ġb ase
Ġsp o
Ġsp read
Ġwor ks
ite s
Ġcr ow
Ġs in
ound s
Ġsu cc
b ing
Ġle ast
e ts
Ġw arm
Ġpl ain
Ġro ck
Ġmo ve
Ġl ord
Ġwe ar
b u
m en
if e
Ġte m
Ġy a
t ty
Ġf ame
Ġl uck
Ġcan not
Ġar ch
Ġfo ll
Ġs ix
c ess
k en
Ġd ish
Ġfr uit
Ġb urn
h ed
Ġa im
Ġb er
Ġre qu
ce ed
full y
Ġf ix
Ġo k
Ġpo int
Ġfel t
Ġm al
i o
l er
Ġt ough
ers t
Ġbo x
Ġf rench
Ġde li
Ġdes ign
Ġdid nt
Ġwi ld
Ġcho ose
omet imes
Ġb irth
Ġsh op
Ġeas y
ak en
Ġgr ou
Ġf arm
ot ic
Ġli ves
th us
Ġsh all
Ġsu ff
Ġchr ist
i ted
i ence
Ġr ich
Ġflo or
at or
is ion
Ġst yle
Ġdes p
Ġop en
a ff
he ll
Ġst ick
Ġdam n
Ġb or
Ġg as
Ġtr uth
Ġpro v
Ġappe ar
Ġa ut
Ġs our
Ġs ense
te ri
Ġb ought
us ion
Ġstr ange
Ġcomple te
Ġso ld
Ġb ank
il s
c al
k y
with out
Ġcon v
Ġstre et
a the
Ġd er
Ġre v
Ġsh ar
Ġs ir
Ġf ive
Ġqu est
Ġc orn
on y
Ġt rain
Ġp ra
ab ly
Ġd on
at t
Ġp ull
Ġwas nt
Ġte nd
Ġbr ought
Ġnew s
in y
ap er
Ġgo ing
o om
Ġm ass
end ing
Ġbre ath
Ġcour t
d own
e ch
s ay
Ġs ail
Ġb and
Ġbu ll
Ġlong er
t ic
Ġs a
om b
us es
ol es
Ġr ing
Ġgl ass
w ay
Ġc ost
Ġf er
Ġt ight
er ous
Ġn ation
Ġr ule
Ġdes cri
u el
w ed
z y
ent ly
Ġpro te
wh ose
me ans
Ġcould nt
Ġdri ve
Ġgir ls
Ġg ro
Ġan sw
c a
ict ion
Ġter ri
Ġr ain
ap ed
Ġsc r
Ġlook ed
Ġfo ot
Ġbelie ve
Ġb are
Ġh on
Ġbe ar
Ġbe come
Ġme at
Ġan n
Ġche m
bl ed
Ġpers on
Ġs us
Ġg ives
to p
Ġal one
Ġpro ble
e ven
Ġc ab
an ted
u ed
ut ter
Ġse ll
ak ed
we l
Ġbo at
Ġatt ack
p y
ar r
it ten
if ul
Ġdo ctor
pl oy
iv ing
Ġhe res
igh b
Ġbre ad
Ġsound s
g en
Ġs and
Ġm atter
an n
Ġfor ce
Ġdis e
air s
Ġche ck
oc ks
Ġhand s
Ġl a
Ġc as
Ġd augh
Ġmean ing
Ġsh ock
und er
Ġp ower
Ġw ays
Ġd read
Ġn one
ch ed
Ġcl im
be cause
y ed
Ġa ge
Ġli e
Ġlike ly
Ġpre tty
Ġlad y
Ġi ce
Ġf ate
Ġpr ice
Ġspe ed
Ġlimer ick
Ġg er
os ing
g ress
Ġth in
k er
Ġw alk
Ġl ines
Ġe ase
Ġr is
Ġsh ip
og raph
ad es
Ġrhy me
Ġ ur
te en
Ġl ay
Ġre ason
Ġex am
Ġke y
in al
Ġf ur
m ore
in a
al ed
Ġo cc
Ġbl ock
th s
Ġc up
er k
ot ion
Ġk id
Ġne ighb
ain ed
Ġget ting
Ġop p
m as
an a
Ġthey ll
Ġver se
Ġs or
Ġsh are
Ġch ick
Ġne at
ie f
Ġsur pr
a res
j oy
as ts
Ġwi de
st ill
Ġtr uly
aw s
Ġb ree
Ġsm ile
anc y
Ġstar ted
Ġbeg in
Ġb ooks
Ġh y
Ġsure ly
Ġbeh ind
es ts
ra id
Ġplan ts
Ġav oid
Ġb ound
Ġbro ke
b ack
e ver
Ġvo ice
b et
Ġhe at
Ġcom b
Ġsm art
Ġfr ont
Ġbab y
te ll
Ġv al
Ġjo h
Ġs ne
Ġf resh
r al
s ays
Ġc ity
Ġb ot
Ġh ide
Ġf ield
Ġsome one
Ġsec ond
Ġbli nd
t ry
Ġs ize
Ġd im
ic ed
Ġe ight
Ġre ve
il es
Ġbl ow
Ġclear ly
c ut
Ġf ing
Ġt all
ur al
Ġam b
Ġche ese
ang u
Ġh u
a ze
Ġp ress
Ġst one
Ġr an
b es
Ġs ent
Ġb ac
Ġp an
ri ght
m ight
Ġs ens
Ġb um
Ġr ot
Ġm ark
ag es
Ġplay ed
p re
Ġc u
Ġc ard
er ing
Ġho le
Ġem b
Ġdou ble
Ġfam ily
r or
Ġs il
Ġsh ame
Ġcr ack
Ġp ort
Ġcap t
Ġfell ow
Ġlear ned
Ġt aking
Ġto t
ast y
Ġcir c
r ation
Ġs now
Ġs lip
Ġsh ape
Ġper haps
p ers
Ġt alk
Ġw rote
if fe
Ġbl ame
Ġar r
Ġf ra
ill y
Ġen s
Ġbird s
Ġclo thes
Ġth ick
Ġm ix
Ġcon st
Ġb one
Ġl ose
Ġwe ight
Ġres p
u ction
on ed
Ġh ate
Ġar ri
p es
Ġf an
en g
ur d
o pe
Ġs oft
al ing
Ġk no
und red
Ġcri me
b od
m ber
Ġf ro
Ġare nt
ag ed
Ġaf raid
Ġd et
ic ious
Ġflow ers
re l
d ge
Ġb orn
Ġst ore
Ġtr ick
Ġpro p
Ġca used
Ġcomm on
Ġf avor
Ġj u
we ve
Ġte eth
p ut
Ġt ong
Ġbo ld
Ġen joy
Ġpre fer
Ġele ct
Ġs ometimes
Ġas t
ang ed
i res
Ġh us
Ġd est
Ġto ol
ash ed
Ġdi ed
o es
w are
Ġd anc
Ġst uck
am a
Ġte ch
i et
r ound
Ġt ax
Ġh at
Ġin f
ge ther
Ġsou th
s et
Ġs ort
Ġw it
ac ious
et ic
s y
Ġc ute
is ten
Ġde light
Ġab ove
Ġpr oud
aw n
cl es
Ġconf ess
call ed
in ing
Ġi r
Ġd ar
Ġan other
ash ion
Ġrep lied
s ed
Ġth re
Ġwe e
ra te
Ġbr it
Ġbro ther
Ġcol or
e z
o e
Ġm ain
Ġf ig
Ġapp ro
Ġdise ase
Ġs av
Ġs que
ay ed
se l
Ġam eric
Ġjo y
Ġshar p
Ġb ite
Ġl angu
Ġin ter
ne y
Ġlook ing
Ġph ys
Ġp ure
Ġwe ek
Ġstud y
Ġengl ish
g ar
m aking
th ings
ad ed
ab out
pl es
fe ction
Ġt ouch
Ġp ink
act ion
Ġcre am
Ġm orn
Ġg ard
Ġin c
Ġsh out
Ġcl ub
Ġsee k
Ġal as
tent ion
o on
Ġh undred
os es
Ġte a
Ġbo ard
Ġlo ts
Ġdr unk
Ġrul es
al though
Ġe p
m al
Ġa ud
Ġw est
Ġsee med
Ġwr iting
Ġque en
Ġp ark
id ent
Ġlimer icks
Ġgrou p
Ġth us
Ġc ent
Ġm as
Ġm outh
Ġh arm
Ġd umb
Ġr ose
ch es
Ġch arm
Ġbu ff
Ġmay be
m it
Ġi de
Ġim m
Ġbut ter
Ġwom an
Ġm at
Ġn umber
Ġli es
Ġbo d
Ġpr act
Ġche er
d r
Ġt ail
ive ly
Ġhus b
o le
Ġd ro
Ġsu it
Ġm ount
om y
Ġbet ween
com es
Ġcho ice
Ġc os
on ic
ke ts
Ġv i
Ġpar ts
Ġn ames
il ing
Ġke pt
Ġpre p
Ġsucc ess
Ġb ay
Ġm ilk
Ġhel ps
n ers
Ġd ang
Ġsu gg
Ġc amp
en ed
Ġcon c
Ġex per
Ġgr ace
b re
c ant
k in
o ts
in to
Ġs igh
Ġf illed
Ġst ock
for t
Ġgo al
Ġtri p
w s
Ġh ang
Ġf ut
Ġd ent
Ġp aid
ir ty
Ġr ace
ver se
Ġsc re
sh ip
Ġwom en
Ġansw er
oo ts
y n
Ġund erst
Ġquick ly
Ġdaugh ter
Ġd ut
as es
Ġbe ach
Ġgr ass
Ġjoh n
wh os
Ġfor get
Ġbeaut iful
g ive
t ime
w atch
Ġa unt
Ġl ater
it ys
Ġbe cause
Ġsou l
v al
Ġme re
Ġjo ke
Ġgl ad
l ine
m es
Ġm ach
at a
Ġp ig
Ġgr ows
ud d
e ze
m iss
Ġme m
Ġpre c
Ġph r
Ġadm it
Ġgree k
i ke
t a
Ġs ym
Ġp ath
they ll
Ġel se
i or
Ġhe alth
Ġpl ate
ap h
Ġfl u
Ġgr own
be ing
bl ing
Ġcell s
f ish
Ġp oss
Ġb ore
Ġd ue
Ġp air
Ġme l
Ġou ts
Ġthey d
Ġswe ll
Ġbeaut y
Ġh all
Ġt v
Ġl ed
Ġr ub
ur ing
Ġthey ve
ap t
Ġadv ice
Ġabs urd
Ġhu ge
f ind
Ġf irm
er ve
Ġst ro
Ġex pect
Ġcont rol
Ġheav en
Ġ u
re me
Ġd u
le y
ad ing
idd le
Ġb ott
is ing
Ġl ist
Ġg ar
Ġj udge
Ġbo b
Ġcrow d
Ġd ough
Ġto gether
ra w
Ġty pe
Ġtrou ble
Ġse arch
Ġper fect
Ġyell ow
Ġbus iness
Ġef fect
Ġpu bl
on ly
Ġbr ings
ord s
Ġsour ce
Ġa te
Ġd iffe
Ġo il
m et
u ous
Ġp ants
Ġor der
Ġche ap
Ġpe ace
Ġem ploy
Ġcoun ter
Ġtech n
a i
c ons
Ġm ill
it ions
Ġme asure
Ġch est
Ġsc rew
Ġspe ech
Ġsur v
Ġdiv ine
r ac
Ġc red
oo th
Ġri de
Ġser ve
Ġgod s
o res
y ond
th ink
Ġou ght
Ġbut t
com p
Ġexp ress
r ing
Ġc am
Ġe ars
ri end
Ġhe ld
op s
Ġsa fe
Ġp or
Ġfor t
Ġne ck
Ġappe ars
Ġes c
Ġhapp y
Ġst ory
Ġen c
Ġfr ank
anc es
r s
r up
Ġd om
Ġcon ce
ail ed
Ġplan ned
Ġchar ge
Ġf al
Ġl oss
Ġcr own
Ġlif es
Ġcur se
Ġlangu age
he y
Ġco ck
ou l
Ġw re
Ġw ise
Ġf ather
Ġn ut
Ġde fe
Ġus ing
Ġread y
Ġkne es
Ġbel ow
d om
g an
m ing
Ġt it
Ġli qu
ag er
Ġsc ore
Ġspe ll
Ġt or
Ġwe ak
qu ite
Ġpre v
Ġchild ren
f ound
g le
Ġc ree
Ġg ent
ct ors
Ġs ave
Ġb ath
is es
Ġp in
Ġle gs
Ġbo ys
Ġdis co
c ket
Ġb on
Ġg iven
Ġst ress
Ġan im
Ġro ad
Ġac id
Ġsw im
Ġm ans
Ġsk ill
Ġplan e
Ġspr ing
Ġhur t
Ġbree ze
m at
t was
Ġb a
ar ian
Ġre pe
Ġr um
oo ps
ver n
Ġcon cer
fe red
be fore
Ġpur s
Ġm atch
Ġsc ene
Ġal ong
hel ps
e y
Ġm ention
Ġp un
Ġse lf
Ġv ol
Ġegg s
b it
h aving
Ġa x
Ġa ction
Ġf ab
Ġt on
Ġfe ed
e e
Ġs en
Ġh ung
and er
Ġwould nt
Ġdec ided
b i
h old
Ġt able
er al
Ġg all
Ġch air
ul ts
Ġwor st
Ġbu b
ush ed
Ġd ust
is ted
ct ions
Ġneed ed
ren ce
b on
v y
Ġd an
Ġp ost
Ġr ad
Ġv ict
Ġtr ust
Ġok ay
c ont
Ġth inks
Ġw et
end er
Ġr ough
t oo
ant ly
iv ed
Ġpain t
Ġpri de
Ġw on
Ġm id
it ive
Ġr ude
ur ned
Ġj ack
Ġcl oud
ach ed
Ġco ver
Ġun s
Ġkeep s
cre t
x ic
Ġse ven
Ġmo d
Ġgard en
Ġw anted
Ġf light
Ġt aken
Ġd uck
or ous
Ġsho ot
in c
Ġme th
Ġdis s
Ġap art
oun ce
Ġnor th
Ġb ones
Ġh om
os h
ter y
se m
Ġhis t
Ġqu ar
Ġlo c
Ġun f
Ġpart y
Ġind e
in o
Ġb es
Ġh am
Ġh av
Ġl unch
Ġto es
Ġbe came
Ġde ce
Ġturn s
o ot
w he
Ġth ird
or ing
Ġst ars
Ġte am
Ġshe ep
Ġbr and
Ġfr own
Ġimp ress
c ul
Ġm um
Ġr ate
Ġse at
Ġli ving
Ġ x
en ess
Ġk ick
Ġab le
pt ion
Ġsup er
wor k
Ġcon ne
pl ace
p or
Ġb iz
Ġh ip
Ġt um
Ġg le
Ġn umb
Ġin cl
it ies
Ġwith in
Ġbo ot
Ġphr ase
m ar
Ġp itch
Ġn et
Ġin cre
Ġthink ing
Ġplay ing
Ġpie ce
o de
v ation
Ġh orn
Ġd are
Ġp ow
Ġmo on
gg ed
Ġdream s
u ally
Ġb omb
Ġf if
ant ic
Ġcon cl
Ġte xt
Ġtry ing
Ġeat ing
Ġtong ue
Ġs am
ra p
Ġbu ck
Ġdem and
Ġh ook
or ge
Ġup on
i xt
w ood
Ġbe yond
Ġst or
id ing
Ġde ter
Ġtr ack
Ġbo nd
Ġcom ing
Ġar g
ag n
Ġsc ream
Ġbu ilt
Ġpe e
iz z
b al
h y
te ned
Ġb un
Ġh ors
Ġre nown
Ġsp ort
Ġser ved
Ġdin ner
u ri
Ġs end
en ter
ro om
ak er
ug s
Ġatt ract
Ġprod uc
Ġsurpr ise
i ant
Ġw ings
Ġm aster
Ġwh is
Ġme al
Ġas tr
Ġro b
Ġsho es
Ġcond ition
Ġhusb and
b ly
Ġs au
Ġc ad
Ġbe ast
ge on
ip ped
Ġlet ter
Ġrh ym
Ġret urn
b ar
Ġp aper
Ġst age
led ge
Ġquest ion
Ġm ot
at in
Ġp are
Ġwe ather
Ġtw enty
Ġcra p
g ic
h or
i est
on na
Ġh aving
Ġp i
Ġp ill
Ġp red
Ġr ise
Ġqu it
Ġsc he
Ġs ys
Ġt ar
Ġe ast
Ġdo gs
Ġsor ry
p ar
Ġd ull
Ġre ce
ess ion
Ġar ms
me an
Ġcomp u
uc ks
Ġfun ny
Ġma j
in ct
Ġb ang
Ġm ood
Ġe c
ol ate
Ġpl ot
Ġv ac
ne w
ne ar
Ġcle ver
Ġbri ef
iz ation
Ġcont in
Ġbat tle
Ġmist ake
Ġ ze
Ġ vers
Ġm ur
Ġdo ing
ath ers
Ġfac ts
m ans
p ass
Ġa uth
ou ts
Ġc ult
Ġan ge
if ied
Ġlo ose
Ġcre w
Ġpra ise
Ġ est
re ct
Ġh ours
Ġt aught
Ġto s
Ġend s
Ġhead s
Ġcount ry
Ġach ie
Ġsugg est
of fe
al y
Ġmy self
ur red
Ġas h
Ġbl o
ag r
Ġlet ters
Ġpass ed
Ġfol k
Ġsim ple
Ġlack ing
n or
Ġc ake
Ġb ark
Ġd well
an ks
Ġg ain
ve re
ra b
Ġgr in
pl us
ne ver
Ġpro cess
Ġrem ain
Ġsupp ort
w ont
Ġc ure
Ġn at
Ġr at
Ġv an
so on
Ġro ll
Ġche w
Ġbro ad
Ġimp ro
Ġspl it
Ġa head
Ġf ashion
Ġd rain
Ġst at
Ġst ink
Ġre gre
Ġj ud
Ġsu c
Ġgre w
Ġview s
Ġfoll ow
Ġac qu
Ġthr ow
Ġph one
b ers
p ir
r ys
c us
c op
g ood
l ic
an te
ar ted
Ġg h
al ity
Ġsp ent
Ġri ver
Ġbrain s
Ġproble m
Ġfavor ite
e v
Ġf ed
Ġin st
Ġhe y
Ġsh own
Ġch er
Ġch op
Ġpl ans
Ġsp an
Ġsm oke
Ġro le
Ġke en
Ġph ot
Ġthan ks
Ġser v
Ġhum an
Ġfing ers
Ġinde ed
Ġb ul
Ġd ressed
Ġp ack
Ġl ing
Ġlove ly
Ġdri ving
Ġboo ze
wel ve
bod y
i ers
r it
Ġb ush
Ġt ale
Ġbe ware
Ġre lie
et y
ol f
ab l
ap pe
Ġtw ice
Ġstar ts
Ġbeg an
Ġf red
Ġl ass
ro ph
Ġterri ble
g in
m ic
Ġh ost
Ġre me
ch ing
li te
Ġpr os
Ġaf ric
Ġbeh av
Ġthri ll
d i
end ed
Ġf ans
es h
ac he
Ġbe ef
Ġfor got
Ġdis gr
Ġpo et
Ġswe at
Ġpri est
Ġvis it
o ll
Ġwas te
Ġv ir
Ġcon ve
Ġlo ves
Ġdra g
ci ent
Ġth ous
re ed
Ġh un
Ġn ine
Ġin fl
Ġst rain
Ġch ap
Ġwas h
Ġli kes
Ġswe ar
Ġkn ife
k nown
ch o
all ed
Ġtr ade
el ing
Ġcall s
Ġfr ance
ten s
Ġres ult
Ġph il
Ġmorn ing
f ace
Ġa le
Ġm aid
os p
Ġwh om
ur y
ate ver
pe cted
Ġcl ue
ens ion
Ġlaw s
s we
Ġt our
ri te
ap ped
Ġgo vern
Ġdi et
Ġsupp ose
Ġdecl ared
offe e
ri age
Ġch at
ate n
Ġcon str
Ġfl ash
Ġmar ried
Ġali ve
Ġdrug s
u its
ri e
Ġte ars
Ġap pl
Ġsm o
ute s
Ġrep ort
Ġameric an
h and
o x
Ġs ought
Ġd um
Ġd ip
Ġin t
de f
Ġcertain ly
a ud
i qu
Ġa er
Ġc av
Ġse ed
Ġpl ays
Ġle af
Ġcr u
Ġshow ed
Ġdef ine
Ġunderst and
c ol
i us
l ittle
Ġw ants
Ġb ent
Ġh oney
Ġg ut
Ġg ift
Ġin te
they ve
Ġro cks
Ġpri ze
Ġfa ith
Ġchick en
w ise
Ġs ed
Ġc ust
Ġc ars
Ġm ud
as ing
al es
Ġch oc
ul s
Ġv en
sh ed
Ġappe al
Ġstri fe
h a
Ġc ott
ra ge
li g
Ġsp in
Ġknow ledge
je cts
Ġh ill
Ġi ron
Ġt ick
you d
Ġwe aring
Ġgu ard
Ġem br
Ġcre atures
Ġthough ts
Ġlaw y
b ol
Ġth ank
Ġt u
ir k
Ġch ief
Ġwr itten
com ing
Ġcons um
Ġrec all
Ġsqu are
Ġob ject
Ġpubl ic
r os
th ree
Ġs light
Ġst ates
Ġsc ar
Ġpass ion
Ġhear ts
Ġcons ider
az z
Ġcolle ge
e c
Ġb ust
Ġm ut
Ġh ue
Ġf et
Ġf ond
Ġp up
Ġp ush
Ġst ood
Ġun til
Ġap ple
Ġbri de
Ġwork ed
Ġmiss ed
b or
f ree
i ter
Ġc li
Ġh our
Ġp sy
ac ing
the m
Ġhe ed
Ġr u
Ġwe alth
Ġj erk
Ġch ose
Ġbl ues
Ġco at
Ġbre w
Ġres ist
bo ard
Ġcal m
Ġign ore
g ree
Ġ ess
om ed
Ġch in
ol ved
Ġcl own
Ġpo ison
Ġcar ry
Ġf lies
Ġin str
Ġbe e
Ġse as
Ġsu bl
Ġtoo th
Ġsw all
dd en
Ġpos ition
Ġteach er
Ġfut ure
k ind
Ġth ro
Ġm ale
Ġt ip
Ġt ub
Ġp helps
it is
Ġr ou
et te
Ġbr ass
Ġbu cks
ord er
Ġter ms
Ġacc ount
Ġsou p
Ġed ge
Ġgen us
Ġdiffe rent
g ers
k a
Ġs ister
re t
Ġb ene
it z
it ic
ge ts
Ġat tention
Ġsp oke
Ġfle e
Ġscre en
Ġmeth od
f r
Ġa u
nd er
er v
Ġn uts
im p
Ġde bt
Ġm ic
Ġm ort
Ġe ur
ri d
el ess
Ġco de
Ġun cle
Ġbu g
Ġwonder ful
Ġm ath
as y
Ġo ce
Ġag o
may be
vel op
claim ed
Ġhav ent
Ġsuc ceed
Ġc offee
Ġr out
Ġsh ut
Ġli ps
Ġv ar
Ġjo e
Ġste p
Ġcomm and
Ġobs c
Ġregre t
i ver
Ġm ac
Ġre ar
Ġj ail
Ġo x
Ġdo ll
Ġcl ock
Ġcr ash
Ġlo ver
Ġlo ved
Ġfr ust
e ar
m ust
n ts
s te
Ġl ands
le ft
Ġj ump
ul ous
Ġac ts
some thing
lo ts
a ur
f ol
p et
x ed
th y
Ġc ous
Ġc art
Ġl ink
Ġbe ans
Ġst ands
am ent
Ġyour s
Ġcom pe
Ġy ield
Ġbu gs
Ġins ane
Ġcra w
Ġgrow ing
Ġvo te
Ġtas k
Ġwall s
b ro
w in
Ġa id
Ġb end
Ġf oul
Ġt im
Ġl ou
Ġin se
it t
ast ing
Ġsc ience
Ġrem ark
Ġouts ide
e g
Ġc ats
Ġt welve
or se
Ġco vered
Ġpro per
Ġrun ning
Ġflow er
Ġgra b
idd en
Ġlab el
Ġgal ore
s ure
Ġs ore
Ġsp end
Ġgr ay
Ġpo ints
Ġfri ght
Ġball s
Ġadv ance
Ġsad ly
Ġfre qu
Ġsum mer
h al
l ands
s c
ar re
Ġn on
it ting
Ġpl aces
Ġsp ir
Ġal arm
Ġpr on
ang ing
Ġwork ing
Ġstri p
Ġsal es
Ġfa ult
Ġcred it
as ures
Ġg ay
os er
Ġst ir
Ġr ab
Ġse es
Ġal b
Ġsk ills
Ġhors es
v in
w r
Ġa qu
in ation
Ġp ict
Ġyour self
Ġdis may
Ġhim self
Ġple asure
anc ed
Ġbro ken
oun ced
Ġdrink ing
l ong
Ġc ub
Ġf ancy
ing ing
Ġl aid
Ġst ream
Ġan no
Ġli ved
Ġbl oom
Ġsm ooth
og en
by e
tem pt
Ġrel ax
Ġproble ms
Ġbott om
whe ther
b orn
Ġb ol
as ion
as ant
Ġyou th
Ġr ome
Ġr ange
Ġis s
ch er
de red
Ġfeel s
com m
Ġhard ly
Ġbeg un
Ġbra ve
Ġcomple x
Ġyell ed
Ġfil m
Ġris k
f illed
h ood
u v
in ted
Ġb its
Ġb ind
er ved
as te
Ġl eng
ic ate
Ġde te
ag ue
Ġad ore
Ġche f
Ġbre ed
Ġste w
Ġrun s
Ġlad ies
Ġgri ef
Ġsubl ime
r oss
z ed
Ġs ite
Ġt un
Ġl ake
Ġst are
all en
Ġac cept
Ġconf used
Ġchrist mas
Ġd awn
an ch
Ġp a
Ġsu e
Ġdr own
Ġaw are
Ġcare er
Ġesc ape
Ġsys tem
i ri
Ġt il
Ġp ed
Ġl ust
Ġch ain
ab s
iv al
Ġear n
Ġpres ent
Ġfail ed
Ġbiz arre
s l
Ġb ills
Ġb ored
as p
Ġn ature
ld om
Ġan cient
um in
ol ute
ag s
Ġam az
ff ic
Ġmo v
Ġshould nt
ug g
Ġcont r
Ġmet al
c os
f ly
z en
Ġm iddle
Ġp age
and y
il i
Ġk illed
Ġsp ouse
for med
Ġdes igned
Ġcre ation
Ġdev ice
Ġspec ies
f ar
r ay
s pe
t urn
w ant
ic ian
it or
Ġr ank
Ġch amp
Ġk in
Ġsp are
Ġv ill
Ġspe aking
Ġton ight
c or
p ted
p ire
Ġs ink
Ġw ore
Ġb itch
er ves
Ġd re
Ġp ale
Ġl it
Ġn ude
Ġdo ctors
Ġsu ck
Ġco al
Ġen ter
Ġper form
Ġpri me
d en
w ar
Ġc ough
Ġb acks
Ġt ro
ad y
am ps
ch ar
Ġch ill
Ġco ast
Ġho ll
olog ists
Ġexc ess
Ġfam ous
Ġreme mber
a ver
p a
s m
on se
Ġbe au
Ġk ings
Ġno tes
ne ed
be ll
Ġoff er
Ġsal t
Ġext reme
le te
Ġbl essed
Ġfe e
Ġfe m
Ġcr ude
Ġgir lf
Ġer r
Ġsub st
Ġsus p
h ib
l in
Ġd iff
Ġp ool
en cy
Ġbe lly
Ġher o
Ġcall ing
Ġjo in
Ġmiss ion
Ġnor m
Ġagain st
Ġwin ter
tend ed
Ġdrop ped
Ġrom ance
Ġsuff er
Ġdesp air
a it
c ing
c ertain
i ally
re al
Ġd ot
ac c
ill e
Ġcan n
Ġres pect
Ġcat tle
gu ess
f our
er o
ic ket
ow l
Ġsh aped
Ġal though
bo y
Ġrem o
ib ly
Ġdev il
Ġdecl are
Ġappro ach
Ġmach ine
Ġdisgr ace
m r
p ts
Ġt iss
Ġin tent
ir l
Ġr age
Ġfor th
Ġli ghts
ack ing
Ġy or
Ġbr ush
Ġworld s
Ġsub ject
Ġwhe el
Ġchem ical
Ġexam ple
Ġdest ro
Ġchoc olate
k now
Ġg iving
Ġst aff
ab les
Ġsu gar
Ġhigh er
Ġrep ly
Ġevery one
Ġdisc uss
c ial
f ast
th rop
Ġc el
at ory
Ġn aught
it ude
Ġst om
Ġpl aced
Ġco d
Ġab ound
Ġpo ll
ber t
p ie
re at
Ġb id
Ġf lip
Ġr ow
Ġwe l
Ġde gree
Ġse cret
Ġwor n
Ġfe ars
Ġfl ood
Ġsay ing
ten se
Ġmar riage
ines e
oun ts
Ġrec ord
Ġgra ve
Ġpur ch
Ġtal es
Ġresp ond
Ġfal se
Ġrhym es
b el
h ip
Ġa h
Ġa ust
Ġs ides
Ġc ig
Ġc ath
al so
ver t
Ġse ldom
ul ate
Ġmo ved
Ġjo kes
Ġdist ress
Ġcry st
Ġbel ong
Ġscr atch
r is
t ook
Ġf uss
Ġp ap
Ġp iss
en ted
Ġto ast
Ġor gan
ak ers
Ġte en
av ed
Ġsn ake
Ġmaj or
r un
y al
ou red
Ġb atter
Ġm ent
Ġt iny
Ġd un
Ġl isten
Ġg n
Ġn oun
Ġst ation
Ġsh ore
Ġcl ay
Ġfl aw
Ġpro of
Ġbre ast
Ġfind s
Ġstop ped
Ġstud ents
Ġprof ess
Ġfre ed
Ġrev iew
Ġnumb ers
p ort
Ġm ir
Ġm ouse
Ġh its
Ġd irt
Ġbe es
Ġre le
ver al
um ps
for d
Ġv ain
less ly
Ġcomm it
Ġread ing
Ġinv est
Ġstre ng
Ġb ou
Ġm ail
Ġp oo
Ġg ames
ri al
Ġsh y
ul ation
Ġbl ond
Ġsc ri
Ġpro b
ens ive
Ġfun g
Ġbuild ing
ca used
Ġauth or
Ġpsy ch
c end
l ers
in ch
Ġs its
Ġc iv
Ġt une
Ġp il
as ted
Ġwh atever
ro d
Ġfl air
Ġex ce
ud es
Ġsw ift
Ġass ist
Ġwed ding
Ġext ra
Ġfool s
Ġcapt ain
Ġgent le
d ays
r ons
is nt
am ing
Ġno ise
Ġam ong
Ġap t
Ġsw itch
Ġdef ined
Ġadd ress
Ġflo at
Ġbot tle
g od
m ine
Ġw ake
Ġh ab
im s
Ġsh un
Ġj our
Ġv ent
Ġsome what
Ġsee king
pt y
Ġtra vel
Ġmom ent
Ġbare ly
Ġtot ally
rup t
Ġpare nts
s im
Ġc ave
as c
Ġg ang
Ġwe ird
Ġse eds
olog ical
Ġstart ing
Ġdam ned
Ġaff air
Ġdefe at
c ast
th ought
Ġd ys
Ġbe et
Ġsh ri
to l
il ar
Ġpl us
ul f
Ġsp ark
Ġbl ast
ick ed
av y
ass ed
Ġgu ide
Ġag reed
Ġcre ature
olog ist
Ġfall s
Ġgri p
Ġhop es
Ġneighb or
Ġsens ation
Ġthre at
Ġexper t
Ġmere ly
Ġs i
Ġh ay
Ġf aster
Ġt one
Ġp it
Ġp ep
Ġp light
you ng
Ġch uck
Ġri p
Ġro of
ug ly
Ġfo e
Ġcur t
Ġtell s
Ġdiv or
gre at
Ġstre t
Ġfac es
Ġev ent
Ġexc use
Ġkno ck
Ġsau ce
d a
d ers
j oh
l ife
Ġf av
Ġn ar
us ted
Ġst icks
Ġr ings
Ġfor ms
Ġj es
Ġo per
pe ople
pe cts
Ġso le
ap es
Ġsu dden
fe cts
ther n
Ġmo der
Ġfo ld
Ġsus pect
a ult
b ra
m uch
s es
in ter
Ġs ilk
Ġh en
Ġf ake
Ġp ound
Ġg onna
ic y
us ter
Ġbe an
Ġj er
Ġch ic
Ġbl oke
Ġtr icks
Ġcr ust
Ġcr uel
Ġy ard
Ġsc ot
Ġal most
Ġro ot
Ġapp ly
Ġfin al
Ġhold s
Ġprod uce
Ġdeb ate
a a
d ou
m ate
o th
r ical
Ġ utter
Ġt rop
an es
Ġp est
as k
Ġn ights
Ġn asty
Ġr ush
ch ange
Ġj ell
Ġtr uck
Ġen er
ang er
Ġfo x
uc ed
Ġdef in
Ġkne e
Ġsing le
Ġclaim s
Ġcop s
ific ation
Ġafric an
Ġthro at
d ri
r ot
nd ay
Ġw ra
Ġh oles
Ġf its
Ġt act
Ġd ub
at o
if y
um n
um ent
Ġgood s
Ġmean ings
Ġter ror
Ġver b
Ġgri m
Ġsho e
Ġsupp ly
Ġpray er
Ġbud dy
Ġsy n
Ġarri ved
Ġserv ice
a unt
b age
z ing
Ġd ash
Ġst un
Ġst orm
if orm
Ġse ason
Ġwor m
Ġfe ast
Ġfe atures
Ġv ine
Ġpe ar
Ġoff ice
ty pe
Ġste ep
Ġdec ide
Ġact ing
Ġguess ed
Ġbelie f
Ġdescri be
Ġprote ct
Ġresp onse
Ġgle e
Ġfrust ration
n es
Ġ om
Ġc ore
Ġc rop
Ġd ata
ve t
Ġwe ed
Ġde er
Ġde velop
Ġan ap
Ġle an
aw k
Ġsw ing
Ġuse ful
Ġcor rect
Ġmus cles
Ġmed ic
Ġheav y
Ġra ise
Ġoce an
d raw
h o
h ouse
w ards
Ġf ills
Ġp aul
ac y
he m
Ġre ck
Ġv es
Ġco ach
Ġun ique
Ġem er
Ġstr uck
Ġmar ket
Ġcont ract
gr ound
Ġmiss ing
Ġstri ke
cr oss
Ġspec ial
iven ess
Ġthous and
f all
Ġb out
Ġf ant
Ġf amed
Ġd ol
ll a
Ġp unch
ar a
it ation
Ġre act
um ped
Ġpl enty
Ġtr ad
Ġfl esh
Ġal ph
ne ath
Ġpro ceed
Ġro d
Ġro pe
Ġfo es
Ġear ly
Ġhear ing
Ġbur st
Ġhapp en
Ġreach ed
Ġcomplete ly
Ġpract ice
b ur
b ird
g iving
Ġs illy
Ġf i
at ors
Ġg own
Ġch anged
Ġcan cer
Ġv ast
are nt
Ġbu zz
Ġsur geon
je ction
Ġmus ical
che ck
Ġcolle ct
Ġmess age
Ġmeet ing
Ġcrit ics
Ġclim b
d ue
e ither
l est
v ol
te l
Ġc ows
Ġw is
Ġb ake
Ġb ass
Ġp ub
Ġl osing
ch ant
Ġch ip
Ġch allen
Ġo ed
Ġne g
Ġso il
Ġbl iss
Ġfl ag
Ġdr um
Ġdes ire
Ġdel icious
bet ween
Ġtechn ique
Ġgirlf riend
l or
v ent
Ġa ug
in ate
re h
Ġm ax
Ġm aint
Ġr oots
Ġde gre
qu et
um es
Ġbl ess
Ġgo at
Ġar my
aw ay
de ar
Ġsl im
she ll
Ġmar ry
Ġcur sed
Ġca uses
Ġchar ac
min al
Ġra ised
Ġtem per
Ġrelie f
w ater
Ġa th
Ġs ang
Ġs ale
Ġt we
Ġl atin
le ction
ve ls
Ġse vere
ol ic
Ġher b
Ġsp orts
Ġfl or
Ġex act
per haps
Ġacc ord
Ġhor ri
Ġdraw n
Ġmix ed
Ġju ice
Ġfrequ ently
u zz
Ġa z
te e
ll e
im ate
Ġsh irt
Ġo l
Ġwor ry
Ġtr ash
Ġfl ows
Ġwere nt
Ġpo le
au x
Ġcra ft
Ġbit ter
Ġturn ing
Ġref er
Ġnear ly
Ġfig ure
Ġhist ory
Ġcompu ter
fol ks
b ri
b ab
g ave
Ġ ing
Ġf und
or ted
ar i
Ġg in
Ġe t
am ond
Ġr ac
Ġins ist
Ġres ults
Ġkeep ing
Ġant i
unt il
Ġstud ent
po or
Ġrout ine
n ie
o k
r as
Ġm c
Ġh ol
Ġd ine
or ies
Ġp ir
Ġp ace
Ġp ills
Ġe ve
Ġr ash
Ġse ts
Ġall ow
ap an
Ġte s
Ġdis g
Ġman ner
iss ion
Ġgl oom
Ġgood bye
rain ed
Ġpain s
Ġfin ally
Ġfly ing
Ġmed ical
Ġcand id
r ich
w ent
Ġg als
ic le
Ġof t
im ent
Ġfor ced
ur b
Ġj im
ent ial
Ġat tend
Ġlo g
Ġam ph
Ġtw ist
Ġjo int
Ġend ed
Ġcur rent
Ġsing ing
Ġce le
Ġeas ily
Ġshr ink
Ġchem ist
Ġdang er
a un
c s
c ious
c ried
n al
Ġw oo
Ġw ave
as ked
Ġn ur
ic ular
ad o
os ite
Ġhe ight
Ġwe ap
Ġwe igh
Ġdo pe
Ġv ow
op es
Ġbr on
Ġpr ince
Ġcou ple
lo ve
play ing
Ġev il
Ġprov ide
Ġange l
Ġembr ace
d le
i k
i ac
r am
Ġs ons
Ġw itch
Ġw aves
gh ten
he ar
Ġli p
Ġle aving
Ġcl am
Ġfl ed
Ġpo pe
Ġapp lied
Ġbal d
Ġpol it
Ġsong s
Ġsche me
h um
l ast
m p
Ġw ing
Ġthe ory
Ġm amm
Ġd ick
is y
Ġp ity
le ep
Ġbe ars
Ġk en
Ġsp y
Ġte ar
Ġgr oss
Ġcr ook
Ġy er
Ġsc ary
Ġri ghts
Ġste el
Ġbar n
Ġca using
get ting
oph ob
Ġpol ice
Ġfix ed
Ġsurv ive
Ġvac ation
Ġstreng th
Ġdegre es
c ount
e ks
l if
Ġth igh
Ġm s
Ġf are
Ġf ier
Ġl ame
Ġof fered
it ter
Ġr ap
ct ic
ous es
ide red
Ġsk ull
Ġpre y
Ġwa x
Ġkn ight
Ġfun ction
Ġser ves
Ġclaim ed
Ġdire ct
des p
Ġner ves
Ġens ure
Ġspir it
Ġleng th
l aw
is ms
Ġp atter
Ġn est
us ive
Ġre sem
Ġsh akes
Ġde ck
Ġsp ain
Ġhas nt
Ġlif t
Ġste am
Ġbri dge
Ġtre asure
Ġgrow th
mo ther
Ġfle w
Ġda ily
Ġble ed
Ġbor ing
Ġneighb ors
Ġcu is
Ġcott on
i ents
w ind
Ġa ver
Ġt ank
Ġt ied
Ġd ude
Ġp ier
le ar
Ġe ager
ri but
Ġwi f
Ġis land
Ġdo om
Ġim ag
Ġfl avor
Ġqu iet
Ġri d
Ġche ek
Ġtre nd
Ġplan ning
Ġge orge
Ġexplain ed
Ġblo oms
o li
r ous
s is
Ġs ke
Ġm art
Ġr uss
Ġo pt
se ts
ul a
Ġbo g
Ġlo ad
Ġmo ves
Ġsl ick
af fe
Ġmost ly
zz zz
Ġbas ket
Ġtal king
Ġmag n
look ing
Ġsym bol
Ġpow ers
Ġgovern ment
Ġstom ach
joh n
a ire
j un
m om
t in
Ġb ast
Ġd ame
Ġst iff
Ġre nt
ill a
ap ping
Ġtr oops
ag le
ang le
Ġoff ic
bl ack
ph al
gg ing
Ġcomm un
az y
Ġind ian
Ġmon ths
Ġchr is
Ġrare ly
Ġdisplay ed
ograph y
Ġnat ural
n ight
w ing
Ġs ly
Ġc enter
Ġh i
Ġd ess
en es
Ġsh ips
Ġj ac
Ġj unk
Ġch ina
Ġo bt
Ġk itch
pe l
ol ar
Ġbo om
Ġal t
Ġbr u
Ġun c
Ġgre y
Ġpo nd
Ġgl ow
Ġdes ert
Ġdi amond
Ġdep art
Ġbur ned
Ġsol ution
Ġshr ub
bet ter
Ġdisco vered
Ġconve y
Ġcust om
b ig
b by
f riend
h igh
Ġ ut
Ġa ce
in n
Ġs is
Ġc it
Ġb ump
Ġf ir
ar ante
Ġn ic
Ġn ons
Ġe ats
et ing
Ġsh ade
Ġch or
if erous
Ġfe ver
Ġdis gu
they d
ne ys
Ġpro ve
ress ion
Ġgl ance
Ġcre ate
Ġimp ressed
Ġrem ains
Ġcap ital
Ġref use
Ġgen es
Ġboo ts
Ġstand ing
Ġban ned
Ġwal king
Ġprefer red
Ġdut ch
Ġsen ten
Ġyor k
b a
i ate
p ired
t aking
v ous
Ġc ord
Ġg rain
Ġin tense
Ġmy s
Ġj apan
Ġo d
il f
ol ution
Ġso cks
ab ility
Ġcr is
Ġsw ord
Ġhand y
Ġsn ack
Ġcol ors
Ġabs olute
Ġengl and
Ġfing er
Ġgh ost
h op
v ity
Ġs ings
re r
Ġb in
Ġd ed
es ted
Ġp ause
ing e
Ġre lig
Ġch rom
Ġso ci
Ġbl ink
Ġtr ace
Ġgr an
Ġdr inks
Ġsk ip
Ġhand le
app y
Ġart ist
Ġpick ed
Ġhop ing
Ġtot al
a ters
b ound
c ra
f ive
g ue
n ic
Ġth or
re p
re es
Ġc lip
Ġh ack
Ġf ought
is c
Ġg ate
it ty
id ence
Ġre ign
ch an
Ġsh ine
um bs
Ġbl ank
Ġlo cal
Ġstr ict
Ġbro thers
Ġstop s
Ġinv ent
Ġcop per
Ġschool s
Ġwatch ing
Ġpress ure
Ġbrit ish
Ġprec ise
Ġliqu id
Ġwif es
c ur
g ant
u x
Ġ ugly
th m
Ġw ink
Ġh ood
Ġg ig
os ter
ate st
pe red
up id
are t
Ġfl ame
Ġab use
Ġpr one
Ġmo ld
atch ed
gr and
Ġtri es
Ġcra zy
Ġz oo
Ġfin ish
Ġbow l
Ġfore ver
Ġdire ction
Ġcand y
Ġeng ine
Ġger man
Ġhom es
Ġachie ve
b ac
c il
d ad
d ro
f ix
g ain
o tes
te ms
Ġm il
Ġl y
Ġl ying
Ġg oo
gh ter
ac ts
os ition
Ġsh ake
Ġch art
se arch
Ġpl astic
Ġwho d
Ġwa ters
Ġfo res
cre te
Ġfull y
Ġclo th
Ġexpl ore
Ġmount ains
Ġrou te
Ġciv il
c at
Ġc oo
Ġt ack
Ġl oo
Ġe ither
Ġst all
ir ts
am in
Ġsp ine
Ġle ather
Ġup set
Ġsc ale
Ġdis appe
Ġlo vers
Ġact ions
Ġmon th
Ġtool s
Ġfif ty
Ġfem ale
Ġdivor ce
Ġc ens
Ġm all
ar ts
Ġg am
om a
ic ation
gh ted
ri er
Ġr am
Ġme ter
Ġch inese
Ġan ts
we ar
ain e
Ġcon cept
Ġwill ing
Ġany thing
je cted
Ġbel t
Ġrequ est
Ġsil ver
Ġlawy er
Ġprob ably
c ond
g ard
Ġs ar
Ġth read
on om
Ġm ult
Ġm unch
Ġf ence
Ġt in
Ġin fer
al ways
os en
um ble
Ġv ile
so lete
Ġcl ick
Ġcon tent
Ġte x
Ġco pe
Ġcr an
Ġun like
Ġgu ts
ail ing
Ġmo b
ort ion
ang es
Ġjo bs
Ġsur m
Ġshow ing
Ġcont ro
Ġhel ped
Ġca res
Ġappe ared
Ġcri es
Ġele ph
Ġsign s
Ġty p
Ġwood s
Ġbal ance
Ġlaugh ed
Ġsold iers
Ġbegin ning
sel ves
Ġide al
Ġmat ters
Ġcous in
Ġtiss ue
b est
d am
l ock
t ow
in ous
in ity
Ġs aint
Ġb om
Ġh ub
or ph
Ġp y
Ġl un
Ġbe ard
se ls
Ġcl erk
Ġsu f
Ġgr ant
ud ed
ag on
Ġdis aster
Ġlo an
Ġpro ject
Ġac ross
Ġsk ies
Ġfr ame
Ġsw ay
Ġswe e
Ġstr uct
Ġear ned
read y
Ġz ero
Ġbab e
Ġhold ing
Ġfac ed
Ġpie ces
teri a
Ġconv ention
Ġconst antly
Ġtit le
Ġanim al
Ġtos s
Ġbene ath
c u
l ar
Ġ ted
Ġf art
er a
Ġp ine
Ġto e
ic ted
Ġin tern
Ġbe comes
Ġst ones
Ġr ice
un less
Ġj aw
to ld
Ġch ron
st and
Ġwor ms
Ġbl oss
ation al
Ġfl our
ach es
Ġsc ared
Ġpro gr
Ġgu est
ber ry
br ing
Ġdri p
Ġdri ll
Ġact or
az ed
Ġce ase
keep s
Ġble w
Ġhon est
Ġdanc ing
Ġaust ral
b b
d on
n ame
o v
Ġ ow
Ġf ired
Ġt ired
Ġt asty
Ġd or
Ġl acks
Ġst ressed
Ġit ch
Ġj ar
Ġch ips
Ġo re
ill ing
Ġnot ion
Ġbo ast
Ġab hor
og y
Ġpe te
Ġjo ined
Ġmar y
Ġwr it
Ġtell ing
co h
Ġimp ort
Ġz one
Ġop in
Ġbi ke
Ġbreak fast
Ġtreat ment
Ġvis ion
Ġdar ling
Ġvi ol
Ġdut y
f oot
m ix
w heres
z o
Ġs af
Ġm ap
Ġh idden
an na
Ġbe ck
he t
Ġhe ck
Ġre jo
Ġch ore
Ġse lling
Ġne ath
Ġbl ows
fe rence
be red
Ġgre ater
Ġwa iting
Ġcur ve
Ġrem ove
Ġfre t
Ġwhe els
hel p
Ġreg ard
Ġbud d
Ġcrit ic
Ġrequ ired
Ġpull ed
Ġdro ps
Ġposs ess
d ed
d ain
e lect
f it
i ance
r us
Ġs ack
Ġc er
Ġc ards
Ġp ul
Ġp uff
Ġbe re
Ġbe ats
ri ous
Ġst ays
Ġmy st
Ġwe ep
Ġj am
Ġch icks
Ġne ither
el t
Ġar ts
pl aced
fe cted
Ġpro gress
Ġgre atest
Ġbre aks
Ġcar p
Ġste al
Ġge ar
Ġtra it
Ġeven ing
Ġden y
Ġlear ning
Ġwal ked
Ġgun s
Ġhon or
Ġfur ther
Ġperfect ly
Ġimpro ve
Ġsubst ance
Ġblond e
Ġnur se
c ence
e qu
g ent
Ġb unch
Ġd rew
ar se
Ġl amb
Ġg um
Ġn uc
ad a
Ġfor med
ro b
Ġan al
Ġne ur
up on
Ġle w
ach ing
Ġus es
ag ing
Ġlo ck
Ġbr ick
Ġche at
Ġdr am
Ġbre aking
Ġpre tend
Ġmight y
Ġfri ed
Ġbri ll
anc ing
Ġass ume
Ġdec ay
Ġbeg u
Ġcop y
Ġcy cl
Ġspl end
Ġsec ure
Ġdig est
bu y
Ġopp osite
Ġide a
Ġbehav ior
b ow
c ry
i am
k ers
m ind
p ose
t om
u ght
Ġs igned
Ġp ose
Ġp acked
om an
le aving
Ġor ch
Ġcl iff
Ġshe l
pl ays
Ġal tern
Ġpr in
Ġmo le
Ġgl ory
Ġsur face
Ġpri v
Ġadd ed
Ġdep end
Ġes che
Ġlead s
Ġfight ing
Ġfarm er
Ġreve aled
Ġsque eze
a ign
b ased
m od
in i
Ġm ush
er c
Ġn ick
Ġwh ale
Ġde ed
Ġch a
are r
Ġgo ose
el f
Ġsc ient
Ġbr ook
Ġpr ison
de c
de m
Ġche cked
Ġdr ank
Ġthr own
Ġgl o
ven ted
Ġsn ap
Ġser ious
Ġcond uct
Ġner ve
Ġarri ve
Ġprev ent
Ġswall ow
Ġinse cts
Ġpiss ed
Ġanap est
f le
n el
o ch
r ome
Ġw ound
Ġb ish
Ġm r
Ġm otion
Ġh ug
Ġh ills
Ġd ies
Ġd irty
en ch
Ġl ap
Ġe ff
Ġst y
Ġst ing
Ġwe ars
Ġan ch
Ġas leep
qu is
Ġnot ice
ol ve
st one
Ġdo ors
Ġfl ock
Ġcom ic
Ġgr ade
Ġab str
Ġen h
Ġpr ose
sh ow
sh ows
Ġpo lite
Ġcomp an
Ġdec ision
Ġdep ressed
Ġpur ple
Ġtas tes
Ġden ied
Ġmaint ain
f ather
g ives
o int
r ant
v is
in er
Ġs li
Ġb aw
Ġf oss
Ġg aze
al d
Ġe con
Ġe gy
Ġbe have
ri an
Ġst upid
Ġr aw
Ġmy th
Ġde af
Ġch agr
Ġsp ite
Ġsp iri
Ġle e
Ġcon gress
Ġshe et
Ġab l
Ġab dom
ne ither
ip es
Ġgre ed
Ġgre ens
Ġag gress
Ġstr ing
Ġbar b
some one
Ġtra il
Ġmind s
Ġbi ble
Ġdad s
Ġbat t
Ġwind s
Ġef fects
Ġgro an
Ġamb ition
Ġslip ped
Ġmount ain
Ġfab ric
b id
e ve
g al
r ist
t ical
Ġs ac
Ġt ab
Ġt ie
it ious
Ġor ange
up s
Ġfe ared
Ġbo il
Ġqu ote
Ġsc ra
Ġcre ated
Ġpain ting
Ġdi agn
Ġatt acks
Ġpass ing
Ġdem ands
Ġlaw n
Ġpres ident
Ġsit ting
Ġmag ic
Ġrom an
Ġbirth day
Ġstro ke
Ġbub ble
Ġmod el
Ġoed ilf
Ġdess ert
a ic
b ook
d ep
e at
m ark
s up
Ġc uts
Ġw oe
Ġt an
Ġd il
at oes
Ġto ps
ic les
Ġbe lls
Ġsome how
ree ts
ag ain
ace ous
Ġsc an
be at
Ġche ers
Ġho ly
ash ing
bl ood
Ġfeel ings
less ness
Ġsn iff
Ġdec or
Ġdef end
Ġcare ful
Ġcons idered
Ġnor mal
go ing
Ġlead er
Ġwhe ther
Ġang ry
Ġign ored
Ġsne eze
Ġtrop ical
Ġdisg ust
f ts
h am
i en
l ost
Ġth ief
on ents
Ġd amp
an th
Ġp ays
Ġl ump
om as
Ġin no
al t
ad der
id ers
Ġsh or
Ġch ase
Ġan x
Ġbl ade
Ġfe at
Ġfe ather
Ġv it
Ġgr amm
av en
Ġal ready
Ġam ount
Ġem otion
Ġke ys
Ġaw ful
Ġcap s
Ġdist ance
Ġret reat
Ġlead ers
Ġspr ay
Ġval ue
Ġprofess or
b ad
d ie
e xt
l ord
Ġw ary
Ġm ates
Ġm ild
an as
Ġp its
Ġp our
Ġn um
Ġn ap
Ġe th
Ġe re
ri ends
Ġre place
et t
Ġde e
ro oms
Ġor ders
Ġpl uck
Ġcl ar
Ġcon vers
Ġab er
ep t
Ġen e
Ġac claim
Ġjo ints
Ġaw ake
Ġrep air
Ġcont ain
Ġtra p
gre en
Ġhum ans
Ġcook ing
Ġslow ly
Ġsmell s
Ġpu zz
Ġur ge
Ġdro ve
Ġenc oun
Ġrepe at
Ġtos sed
Ġeur ope
hal f
Ġkitch en
d ist
n amed
u h
v est
Ġ os
Ġa pe
Ġw arn
is f
Ġre action
Ġfor ces
Ġli ver
Ġli ked
st ick
ak in
Ġex pected
Ġsc are
ne xt
Ġpr ices
Ġtw as
Ġsl ice
ens es
Ġcar bon
Ġper ch
Ġfo rest
Ġob solete
Ġspo ts
Ġluck y
athe red
Ġshock ed
Ġinc red
rac ted
Ġconcer n
Ġstor ies
Ġpi pe
Ġze al
Ġinte rest
Ġtu be
Ġdete ct
Ġfreed om
Ġjell y
f ashion
j ack
l ow
p ull
Ġth irty
Ġb ars
on ym
Ġm ug
at tered
Ġp ac
Ġl ower
it ar
Ġr ail
Ġr ug
Ġme asures
Ġj un
Ġas c
Ġno body
Ġv oc
ish ing
Ġdis dain
iv ity
Ġmo an
Ġmo ving
Ġem pty
Ġbre asts
Ġper fection
Ġfo cus
Ġhigh ly
Ġacc ess
Ġcut ting
Ġhair y
Ġpres cri
Ġdoc s
Ġleg al
Ġteach ers
does nt
Ġtem pt
Ġsuff ice
Ġforgot ten
Ġwash ing
Ġcuis ine
Ġsuf fered
m outh
s pr
Ġw and
Ġb ail
on ian
ac id
Ġch am
Ġch ances
Ġan swe
if ts
Ġfe ature
Ġcl osed
Ġte nt
Ġsee ing
be y
Ġap ples
Ġstr ings
Ġpar is
ane ous
Ġbeh old
Ġcond em
keep ing
did nt
Ġast ound
Ġfort une
Ġdisco ver
Ġcru ise
Ġnar row
Ġene my
Ġanswe red
i ation
w ords
Ġth umb
Ġw ard
Ġm oms
Ġh aul
Ġf aint
Ġf uel
Ġt ap
Ġn un
Ġn ations
Ġin k
Ġin n
ay ing
it ted
Ġe ld
the tic
Ġst ocks
ro ll
qu es
ul ent
Ġat l
Ġat tempt
ard on
ag ger
Ġgu ests
Ġmo ck
Ġfr uits
Ġend ure
Ġtra ffic
Ġfree ze
Ġwind ow
Ġpat ient
Ġsav ed
Ġcamp aign
Ġexpress ion
Ġmoder n
Ġpolit ical
f ic
h ard
s top
u ation
Ġa we
Ġf urn
an o
Ġn ary
Ġe g
Ġbe coming
Ġst reets
Ġre search
Ġme ets
Ġch ow
Ġch ir
Ġbl own
ie l
cl ose
cl ass
Ġpe as
Ġwa ist
br is
br ought
Ġrem orse
Ġve t
Ġblood y
Ġstud ies
tr ue
Ġhum or
Ġfac ing
Ġadm ir
Ġgold en
bu ild
say ing
Ġwee ks
Ġwre ck
Ġquar ter
Ġjes us
c ular
s aw
s ometimes
w rote
y ell
Ġa es
Ġm ons
Ġh oo
Ġh int
at ically
or ical
Ġg olf
Ġin tr
al o
Ġe aten
Ġst ub
Ġde ft
Ġch im
Ġse veral
li nd
Ġall er
Ġcom fort
Ġgu arante
no thing
Ġspe aks
Ġpre gn
Ġcar n
Ġdri ves
cre et
Ġwri ter
Ġdecl ine
Ġcolle ction
Ġgree ks
Ġdeli ver
Ġgrou ps
Ġbod ies
Ġprep ared
Ġsigh ed
Ġmill ion
Ġrenown ed
Ġiss ue
Ġthor ough
d og
l ines
p ri
Ġs no
Ġth irst
ou ted
on ia
Ġh unt
Ġd ates
Ġd itch
Ġd ye
Ġp ad
Ġg ather
Ġn in
am ong
Ġr ust
Ġsh ared
ur ance
Ġsp ice
for ts
Ġex ist
Ġsc ant
Ġad j
Ġen thr
Ġpro ved
Ġro am
pt ic
Ġmar sh
Ġbad ly
Ġatt acked
Ġcol our
Ġdist inct
Ġfood s
Ġcri minal
Ġret urned
Ġabs or
ex p
Ġadm ire
Ġty pes
Ġprod uct
pro d
Ġburn s
Ġtend er
Ġansw ers
Ġger ms
Ġbac on
udd le
Ġscrew ed
wr iting
Ġegy pt
Ġspiri ts
b an
l a
t akes
w alk
in cl
Ġc able
Ġf ile
Ġt ang
or ious
Ġl end
Ġto y
Ġwi d
Ġwe b
if ty
li ghts
Ġor dered
Ġsu its
ist le
Ġcom pl
Ġgr oo
Ġcr unch
Ġsc off
Ġal coh
ys is
fe ll
Ġbr ood
sh aped
Ġmo thers
Ġpe ak
Ġspe ct
Ġbre athe
Ġper ple
Ġstr ay
Ġend ing
Ġsur f
Ġsur round
Ġstay ed
Ġdel ay
head ed
Ġcir cle
form ation
than ks
Ġcro ps
Ġprote ction
p art
Ġa ur
Ġs of
Ġs tern
Ġs orts
Ġth rew
Ġw ool
Ġm os
Ġh osp
er n
Ġd ried
Ġd ying
or ic
Ġn atures
ot ing
Ġwi re
Ġsh ad
se ven
Ġli z
ul es
Ġim pl
for ce
Ġcl er
Ġco in
Ġac ute
Ġgl ue
Ġste er
Ġge m
Ġpart ner
Ġca es
Ġcra b
Ġsou ls
Ġadv ent
Ġbra w
Ġtown s
Ġlate st
Ġban ks
Ġhapp ened
Ġcomplain ed
ball s
Ġburn ing
Ġocc urred
Ġcomb ine
Ġfield s
miss ion
Ġvers es
Ġmur der
Ġpict ure
desp ite
e re
h im
i os
s ide
s ix
u ity
Ġ ult
Ġc ac
Ġb ats
Ġb ased
or row
Ġg ym
id ae
ch a
ce l
Ġj ane
qu it
Ġnot iced
Ġfl op
Ġcr ass
Ġal k
Ġwhen ever
sh ips
Ġpo e
ple te
Ġpre ach
Ġste m
oc r
Ġdef ense
Ġpri m
Ġer ror
Ġref lect
Ġcri mes
Ġeven ts
Ġstra w
Ġgen er
Ġglass es
Ġbot an
Ġpan ic
Ġcloud s
Ġfung us
Ġhab it
Ġshakes pe
h it
r h
u bl
Ġ oo
Ġm use
Ġh id
Ġh ind
Ġt ape
Ġd at
Ġp ic
le g
Ġan te
li a
Ġpl um
Ġbl and
Ġbl adder
Ġfl av
Ġsc ul
Ġsc orn
Ġlo nd
Ġri dd
Ġpr ot
Ġem ph
gg y
Ġass um
co pe
Ġcor por
Ġsim ilar
cle ar
Ġmin ute
Ġclo thing
Ġprof ound
Ġfail s
Ġtal ent
Ġkiss ed
Ġreve al
isten ce
Ġmach ines
Ġliqu or
dou ble
Ġtrad ition
c ap
c atch
l ooks
n is
o ted
o bs
s k
s ur
t urned
Ġ q
Ġb light
Ġl ur
ir s
to day
Ġan gl
li ve
Ġim age
Ġex tend
Ġgr ad
pl ed
Ġsc ots
Ġdis miss
og n
Ġend e
Ġhand some
Ġdec ree
Ġview ed
Ġdam age
Ġfin ished
Ġpers u
Ġje ans
ract ion
Ġwhe at
ye ar
Ġsum m
Ġdaugh ters
Ġocc asion
Ġdim in
Ġdent ist
Ġcree p
Ġba it
Ġhung ry
Ġrad io
mean ing
Ġslight ly
Ġener gy
Ġdisgu ise
b its
b out
v as
Ġb ib
Ġb aked
Ġh ound
Ġh ired
Ġf og
Ġf ib
Ġf iction
Ġt ort
ar ks
Ġwe bs
Ġit al
Ġse w
ol s
Ġsp it
Ġex ceed
Ġlo cked
Ġold er
Ġpe ers
Ġswe ep
Ġaf ford
gg er
anc ient
Ġcomp ound
Ġevery thing
Ġatt ached
Ġconf usion
Ġcor p
Ġcol on
Ġfall ing
Ġdev otion
Ġsex y
Ġmass es
Ġtax es
Ġfrank ly
Ġcompu ters
Ġinstr uct
Ġmov ie
Ġcharac ter
e ating
g on
i pe
r um
Ġth y
Ġb os
Ġh aw
Ġt orn
es ter
Ġl one
Ġto il
it ll
Ġst ole
id ents
Ġfor ty
Ġan at
Ġk ate
Ġso ap
ous ly
Ġfl aws
Ġco b
Ġdis cer
Ġbr anch
Ġad am
Ġen v
ress ing
Ġtre ats
Ġbig ger
bo x
com mon
Ġter se
Ġdi pl
Ġca pe
Ġread ers
Ġrem ote
Ġfish ing
Ġve gg
Ġbra z
Ġbab ies
Ġsex ual
Ġodd s
Ġthri ve
Ġang le
Ġcirc um
Ġloc ation
Ġastr ay
Ġbere ft
a ft
c kets
l ings
Ġs ap
Ġf ights
Ġd ense
or ys
en n
Ġg y
Ġg au
am ic
wh ite
Ġsh er
Ġde bris
to ck
Ġch osen
Ġan k
se en
Ġli ed
Ġpl ed
Ġtr acks
ood le
Ġal ert
ne eds
Ġam aze
Ġri g
Ġsm iled
Ġro yal
ath y
und erst
Ġwhere ver
Ġge ek
Ġany one
Ġtra ve
Ġtow er
Ġkind s
Ġset tle
Ġhair s
po int
Ġfre ak
add le
Ġpat ients
Ġgro om
Ġconst ant
Ġwit ness
Ġconcl usion
Ġspan ish
ribut ion
Ġrejo ice
b ill
g est
l im
t iny
v o
Ġf ert
Ġg ained
om en
om ic
le aves
ic ult
Ġin fection
the red
Ġr ates
Ġme als
Ġo ak
ge ons
um ents
li er
Ġso cial
Ġsp ending
Ġtr unk
ist ics
Ġup per
Ġsc ott
Ġbr an
be lie
Ġpo cket
Ġman age
Ġman ners
Ġtw in
Ġsk irt
Ġper f
Ġfind ing
Ġwa iter
Ġtri al
Ġpass es
Ġcho ke
Ġmus cle
Ġsqu ir
Ġcount ing
Ġaff l
Ġaff airs
Ġcook ed
Ġsat isf
Ġner vous
Ġequ al
Ġdish es
Ġdesign s
athe tic
Ġmark ed
Ġbrit ain
Ġimm ense
Ġanim als
Ġproduc ed
Ġhun ting
Ġhorri ble
Ġchagr in
c ue
f ield
Ġb ash
Ġf ry
Ġd ing
Ġd ice
Ġp izz
ic ity
Ġe li
Ġr ay
un cle
Ġde pl
Ġme chan
Ġits elf
Ġcan ned
Ġus ually
ick er
ile t
ress es
Ġpo tent
Ġsl ide
Ġthr one
Ġcra ve
Ġrec ords
Ġdem on
Ġes p
Ġmin or
head s
add ing
Ġent r
Ġhop ed
Ġrequ ire
Ġterri bly
Ġscr ub
iet y
Ġsudden ly
z er
Ġs ake
Ġm iles
Ġd aw
Ġd arn
Ġd andy
Ġp ressed
en ing
Ġg our
Ġn urs
le ave
gh ast
Ġst am
Ġst ain
am as
Ġsh ield
Ġan throp
we aring
ab et
Ġdo ck
Ġcl in
Ġcr ank
Ġy ach
Ġshe lf
ag o
ag ged
cl im
Ġfr act
Ġsw ore
Ġtre m
Ġcor ps
Ġpur pose
Ġclass es
gre g
ex cept
Ġwind ows
Ġfil ms
Ġprom ised
Ġbase ball
Ġhealth y
Ġpurs ue
Ġincl ude
Ġobsc ene
c ir
l ate
p in
r ick
Ġa pl
Ġth ou
Ġb unk
Ġb ane
Ġd ur
Ġd ating
or ial
Ġl at
Ġl ent
ot y
Ġst itch
Ġsh orts
Ġch um
Ġan ne
when ever
st uff
Ġle ap
Ġte ase
Ġar d
Ġri fe
Ġro oms
Ġhad nt
Ġgot ten
per ate
od ed
Ġmar ks
Ġpain ful
Ġchar ms
Ġsim pl
Ġwin ner
Ġwri ters
Ġgen eral
Ġbuy ing
Ġce re
Ġform al
Ġbill y
Ġrul ed
Ġcand le
Ġfarm ers
Ġquest ions
Ġcab bage
Ġarr ange
Ġcharm ing
Ġdeter mine
g ment
Ġa k
re f
Ġf ist
er m
er ving
Ġd ict
ed e
is tent
Ġp uts
ic a
Ġin vented
Ġbe asts
ut ch
Ġhe al
Ġwh ack
Ġpl ates
Ġv ital
Ġle vel
Ġcl os
el ed
Ġex cept
Ġco y
ag ree
Ġlo gic
Ġpro c
Ġwho ll
Ġro de
Ġcar ried
Ġshould er
Ġaf fect
Ġbri m
Ġcomp are
com pl
br ings
Ġadd ition
Ġexp and
Ġset t
Ġdiv ide
Ġtur key
Ġeng age
Ġtrou bles
Ġfro g
Ġcos m
Ġdang erous
Ġincre ase
Ġpred ict
Ġremo ved
Ġmys tery
c ers
d rop
g ie
p en
v ia
ou st
Ġm ens
Ġh ence
Ġh itch
ing u
Ġin j
gh tened
os ity
Ġre ward
Ġsh rew
Ġde eds
ra ted
Ġas king
il ty
um ping
Ġall e
Ġsu nday
Ġsc enes
Ġdis creet
Ġad s
Ġro ast
Ġro lls
igh ter
Ġper t
Ġste ak
Ġwr ink
Ġpart ies
Ġact ive
Ġtri m
Ġbeg ins
Ġdem ise
Ġstud ied
Ġob jects
Ġobs erve
Ġchrist ian
Ġaud ience
Ġprep are
Ġsym pt
Ġrece ived
Ġlawy ers
Ġmethod s
Ġobsc ure
Ġimag ine
fashion ed
Ġlond on
b us
d ess
s ing
v a
v ille
Ġa us
Ġa ghast
Ġw ars
Ġm our
Ġm ile
Ġi ra
or al
ic an
it ution
Ġe igh
Ġbe ak
res ted
Ġat test
Ġwor ship
Ġfl irt
ud s
Ġab and
Ġgre et
Ġpo ly
Ġpo em
Ġem p
bl er
Ġsw ine
Ġple a
Ġcre ed
Ġbar rel
Ġmar ch
ins tead
Ġcomp ass
Ġrem ind
Ġve get
Ġbi bl
Ġmon k
Ġce iling
Ġpen ny
Ġheav ens
Ġexplain s
Ġpop ular
Ġwal ks
Ġspo ken
Ġshop ping
Ġperson al
Ġchemist ry
Ġfier ce
c ous
h en
m ond
o ons
r ad
s en
Ġc ul
Ġb il
Ġh ike
Ġt art
Ġd ive
Ġd ime
Ġp oop
Ġl azy
he ard
ke ys
Ġas ide
Ġli ber
Ġbl u
Ġbl ur
Ġv all
ous ed
Ġlo ath
Ġad op
Ġad just
Ġun able
Ġpr int
Ġro ads
Ġdr ool
Ġsl ave
Ġneed ing
Ġdes k
Ġfri es
Ġplan et
Ġcomp any
Ġser ies
Ġser ving
Ġpar as
Ġpar ade
Ġgra ph
Ġgri nd
Ġfour th
Ġrel ation
Ġhar sh
Ġef forts
Ġsleep ing
Ġben ign
Ġbag s
Ġbreath ing
Ġfoot ball
Ġemb arr
Ġmem bers
iqu es
war f
sim ply
Ġstret ch
c as
h ar
i vers
l orn
l oc
o ys
r ine
w ord
Ġa rom
Ġa rab
re ls
Ġthe sis
Ġt ig
Ġd av
es tern
ll ent
ar ound
Ġl out
Ġl uc
Ġn aked
ad ian
Ġbe aring
ri l
Ġr ant
Ġsh am
un ks
st art
Ġall owed
Ġpl at
Ġat tem
Ġbl an
Ġv ic
Ġv ice
Ġcr acked
av a
fe eling
Ġbr is
Ġbr ut
ip ping
Ġsm iles
me ant
orn s
Ġcou ch
Ġsle pt
Ġsun ny
tern al
Ġtom orrow
Ġdesp ite
Ġdom ain
Ġconcl ude
Ġsenten ce
Ġgramm ar
b as
g ri
i als
r an
Ġa e
re ally
Ġc akes
Ġw ow
Ġb ir
Ġb order
Ġh og
at ives
Ġp aw
ar ies
Ġl ark
Ġfor s
Ġj une
pe ction
Ġv irt
Ġbo ats
ish ly
Ġex otic
Ġar c
Ġar k
ag ne
Ġpro claim
Ġac et
Ġsl ack
Ġye arn
Ġdri ft
Ġacc ounts
Ġant ic
Ġve x
Ġadv ise
Ġwin ning
wor ks
Ġban ana
Ġbus y
Ġble ak
Ġbell e
Ġfoll owed
Ġcorn er
Ġclub s
Ġemploy ed
Ġmill ions
Ġpow der
Ġvir gin
Ġappl aud
Ġdevelop ed
Ġfant astic
Ġlew d
again st
a que
f aced
l ot
p ol
p ick
Ġs ans
Ġc age
Ġthe me
Ġt ails
Ġd ial
Ġd orm
or a
Ġp ump
Ġl es
Ġl am
Ġl acked
Ġn ail
ac le
Ġbe f
he arted
Ġst ores
ro g
pe e
ct ure
Ġno on
Ġsp ider
Ġfe min
Ġfe athers
Ġle ak
Ġfl uff
Ġar row
Ġad ject
be ar
Ġri b
de ep
Ġbu cket
Ġold fashioned
Ġsl augh
Ġcar to
Ġaw ry
Ġins pect
Ġaf ar
Ġcur ves
lo ved
Ġwri tes
tw enty
Ġdel icate
Ġcross ed
Ġque er
Ġfore ign
Ġkill ing
Ġrhy thm
Ġfill ing
Ġdanc ed
Ġbehav i
Ġcann ib
Ġdefin ition
Ġsurm ise
Ġimport ant
Ġbraz il
c ase
e yed
m ons
s n
t ri
u ke
v i
z es
Ġc z
Ġm ice
Ġh ues
Ġh ips
Ġf anc
Ġt ut
Ġt ame
Ġp ardon
Ġl atter
le ad
it ors
am y
Ġre nd
Ġre vers
Ġsh ark
Ġme xic
Ġno vel
Ġv est
Ġcl ing
Ġcl out
Ġfl ush
Ġfl atter
Ġgu ilty
act ive
Ġag es
Ġthem selves
ious ly
ful ness
Ġres ide
Ġconf use
Ġz ip
Ġacc ident
Ġwar ned
Ġform ation
Ġfair y
Ġcast le
Ġgree ce
Ġprom ise
Ġcrit ical
Ġger m
Ġcu rious
Ġdanc er
Ġattract ive
Ġcult ure
Ġling u
Ġcraw l
Ġpict ures
Ġdrown ed
Ġdestro y
Ġbish op
Ġscul pt
Ġbibl ical
a us
c est
e ight
g as
n et
p res
Ġa is
Ġs ins
Ġw olf
Ġthe e
Ġh ouses
Ġd ucks
Ġg iant
us ions
Ġin tell
Ġe up
os ts
os oph
ir teen
Ġwe ary
il ies
Ġk icks
Ġse par
ge e
Ġcl ot
Ġte ens
Ġfl ick
Ġqu aint
Ġex ha
Ġex claimed
Ġex erc
Ġdis plays
Ġlo ving
ne red
be h
Ġbut ton
Ġgu itar
Ġche eks
Ġpe er
Ġho ot
Ġill s
Ġaw a
Ġcou rage
Ġdri ver
Ġtri ps
Ġlim bs
Ġtow ard
Ġadv ised
con f
Ġed itor
Ġsqu at
Ġsal ad
Ġtop ic
Ġten s
Ġje w
Ġje ws
Ġexc iting
Ġef fort
Ġsol id
Ġexpl os
Ġelect ric
Ġhusb ands
Ġhang ing
Ġrub ber
Ġdiffe rence
Ġconne ction
Ġstat us
Ġcher ry
Ġvir us
Ġappl ause
Ġpron ounce
Ġthigh s
Ġaver age
Ġeleph ant
Ġdiagn osis
Ġult imate
Ġira q
a is
a rest
b ot
m us
o ids
r ition
s on
u ing
u ted
re nd
re qu
Ġf id
Ġf ade
Ġf iddle
er ate
Ġd up
Ġd uring
Ġp ile
en c
as ons
om p
ic ing
Ġe ll
Ġwi ves
os a
Ġst ark
ir ls
Ġis lands
Ġsh irk
Ġfor ward
Ġch atter
Ġas ks
Ġas sem
Ġk not
Ġse lect
qu ick
um my
Ġle is
Ġgo als
ish ment
Ġco c
Ġcr am
Ġal g
Ġab ide
Ġbr ow
Ġaf fection
Ġtre ated
Ġcou p
do ing
Ġge e
Ġcont ri
co vered
oun cing
Ġadd s
Ġsou thern
Ġref ers
Ġpur se
Ġmin us
Ġrel ated
Ġwish es
Ġexc ite
Ġboy friend
Ġsy ll
Ġappear ance
Ġdescri bed
Ġrot ten
Ġir ish
Ġbutter fly
watch ing
Ġflu id
Ġpor k
Ġincl ined
Ġbun ny
Ġcompe te
Ġcele br
Ġbast ard
Ġtex as
Ġpoe ms
b one
b urn
h ab
i ot
m ined
v als
w rite
re ne
Ġc ass
Ġc ache
Ġw oes
Ġd ab
Ġd ug
as ia
Ġg oss
Ġin tended
ir on
Ġr ats
Ġis le
Ġfor k
Ġfor mer
Ġj ames
Ġch au
Ġch lor
se qu
we ight
st ri
ab e
Ġbl owing
Ġv icious
est ic
Ġsu bs
Ġcon tend
Ġfl ing
Ġjust ice
Ġex change
pl ant
Ġsc ent
Ġpro test
Ġwho lly
Ġun known
Ġap ost
Ġri ding
Ġtw ins
Ġag ent
pt ions
bl ue
ph er
Ġill ness
Ġcomp et
gr owing
Ġcare fully
lo ad
Ġref used
Ġsho ts
Ġdeep ly
Ġsing er
Ġje wel
Ġdire ctor
Ġdisp ute
Ġreg ion
Ġbor row
bod ys
Ġvict or
Ġdoll ar
Ġmov ies
Ġpap ers
Ġunc outh
Ġhosp ital
Ġshakespe are
b ble
b ott
d ra
f riends
g ans
g ian
p an
s al
w ide
y a
Ġb red
Ġm ars
Ġm irth
at ical
is ions
Ġp as
Ġin qu
al as
Ġbe ating
ri f
ke w
Ġst inks
Ġwh ore
Ġre ject
wh od
Ġch ann
Ġk itten
Ġse cre
Ġli br
Ġdo z
Ġbl ocks
for ms
Ġte ams
Ġfl ames
Ġpo ker
Ġac he
Ġche cks
Ġneed le
Ġdes c
uck y
Ġste ps
Ġple asant
Ġbri ts
Ġapp all
Ġact ors
Ġcor re
Ġtra pped
Ġgra pe
Ġsqu irm
Ġvo ters
Ġabs ence
Ġrest rain
Ġmin utes
Ġwom b
Ġprof ession
Ġda ft
Ġda isy
Ġlab or
Ġali en
Ġlord s
Ġtend s
Ġsor row
cons ider
Ġdom in
Ġpurs uit
Ġconne ct
Ġcontin ue
Ġcli ents
Ġess ential
Ġpurch ase
Ġneighbor hood
Ġalt ar
Ġmult ip
Ġalcoh ol
g one
m m
n ine
u ter
v iew
w al
Ġth under
Ġm oo
Ġt ad
Ġd yn
Ġl ion
Ġl ace
Ġl ime
ic ient
Ġe agle
Ġbe w
os cop
Ġr uth
Ġfor lorn
Ġch anging
Ġch anges
Ġas sets
we ed
Ġor ig
Ġdo zen
Ġcon ver
Ġgr asp
Ġshe er
ag ues
ag ging
Ġal ter
Ġpr ick
aw are
igh ted
air y
Ġac ne
act yl
Ġknow ing
no te
Ġsl op
Ġper ce
Ġaw oke
Ġwork ers
iz zy
ah s
Ġchar ged
Ġput ting
Ġcal f
Ġten se
wor ld
Ġearth s
Ġdraw ing
Ġwal t
Ġrom ans
Ġcomplain t
Ġben ch
Ġsy nd
Ġshoot ing
Ġbol t
Ġrele ase
Ġbou quet
Ġves sel
Ġchallen ge
Ġweap on
Ġsplend id
Ġexerc ise
a el
c ave
g lo
g rab
h ot
i ums
l ad
s ir
Ġs ixt
re ly
Ġb isc
on er
Ġt ips
Ġg ap
Ġn it
ic ts
ic it
Ġbe ers
ot a
ri dge
Ġst al
Ġhe m
Ġr ud
Ġsh red
Ġme as
Ġj ones
Ġch ess
Ġse al
Ġall ure
Ġher d
Ġsu cks
Ġcom ed
Ġab st
Ġun less
Ġam ple
Ġdr ac
Ġsk i
Ġsk illed
Ġspe lling
Ġdes erves
Ġdes perate
ug gle
Ġaf l
Ġhard er
can e
Ġcour ts
Ġtri be
Ġlim b
Ġappe aling
Ġcame l
Ġdep ends
Ġref rain
Ġpay ing
Ġunder ground
ci ally
Ġsupp lies
Ġwar ning
uct ive
mo thers
Ġque ens
Ġdisp ar
Ġprom pt
Ġspo il
Ġopen ed
Ġconv in
Ġnation al
Ġdescri bes
Ġla unch
Ġocc urs
Ġvict ims
Ġfif th
Ġrece ive
pass ed
Ġwel come
Ġpurch ased
Ġpir ate
Ġtyp ical
tow ard
Ġfoss il
Ġyach t
d ig
m ates
n ut
n ce
p ast
Ġa the
in et
Ġs an
Ġs ket
Ġc af
Ġw o
Ġb ing
Ġb ess
Ġm aker
Ġf rol
Ġd ump
Ġp ies
Ġp atch
Ġp ounds
Ġp ages
Ġto ll
al ous
ot ions
ut ions
Ġwi z
os aur
Ġst ake
Ġhe ap
am ous
Ġr ack
Ġr oses
Ġsh ant
Ġsh iny
un ning
Ġj ung
res p
Ġch ains
se x
um bled
li ance
Ġno ted
ol ves
ak y
Ġsome things
Ġcr uc
Ġar ose
Ġar rest
Ġbr ash
Ġen jo
de v
Ġgu ilt
Ġgl am
Ġins pired
Ġplay er
Ġhigh est
Ġass ign
Ġdou b
Ġz est
Ġfell a
Ġsho ve
Ġten nis
Ġdad dy
Ġfact or
Ġinv olved
Ġstuff ed
Ġhal t
Ġrel ate
Ġcross ing
Ġground s
Ġpat ience
Ġbud s
sp read
Ġsail or
Ġopp onents
Ġsurpr ised
Ġdet ails
Ġenjoy ed
Ġwit ty
Ġmas se
Ġbuff alo
dr ink
Ġstro ll
Ġvol ume
Ġvict im
Ġest ate
Ġfund s
Ġrelig ion
Ġesche w
Ġleis ure
h i
t ra
t ried
z a
Ġs avor
Ġc au
Ġb ard
Ġh ose
Ġh ank
Ġf en
ar ia
Ġg orge
Ġn ix
om atic
os ure
Ġst out
Ġst ance
Ġwh ine
Ġre verse
Ġr os
ly n
ly s
Ġsh oots
Ġsh apes
Ġan ger
Ġo er
Ġas kew
ain ing
Ġno d
ul ted
Ġle mon
Ġcl aws
ant a
ant i
ood les
Ġsome body
Ġco arse
Ġcr ush
Ġcr ushed
Ġab d
Ġad ored
Ġro ar
Ġsl ope
Ġgot ta
Ġshould ers
Ġaw ard
Ġswe ets
Ġres ort
Ġbri d
Ġpain ted
Ġwr ist
Ġbro om
Ġdri ven
Ġgod dess
Ġdev out
ci ted
Ġgrand ma
Ġsub mit
oph ag
Ġhur ry
Ġpot atoes
Ġarch ite
Ġdeli ghts
Ġphys ics
Ġproduc ts
Ġthous ands
Ġcryst al
Ġpil ot
Ġvegg ies
h on
m ia
o thers
p ay
w ich
y ll
Ġth w
Ġc off
Ġw heres
Ġh unch
Ġf ines
Ġt ones
Ġd ana
Ġl amp
Ġe go
ch rist
im al
Ġme ll
Ġj umped
ro ad
Ġwith draw
Ġall eg
Ġso d
Ġsp ill
Ġbl ush
Ġcl oser
Ġfl ap
Ġgr ub
Ġcr ud
Ġcr ooks
Ġshe ets
fe w
Ġam use
Ġnow here
Ġmo de
Ġsl am
Ġstr anger
Ġple ased
Ġcur ren
Ġass ured
Ġapp alled
vers ion
Ġread s
lo pe
Ġexp ressed
Ġstri ve
Ġgra te
Ġbur y
fl ow
Ġbelie ved
Ġfle x
Ġwatch ed
Ġdig ital
Ġspot ted
Ġign or
bu ilt
Ġsail ors
Ġpower ful
Ġeight y
Ġarr ay
Ġkno cked
Ġu k
Ġwre cked
Ġfab ulous
Ġbrand y
Ġincre ased
Ġscream s
uri ous
sm all
pie ce
Ġoper a
Ġchor us
Ġinno cent
Ġsympt oms
f ed
f ers
s end
s to
Ġs id
Ġs ung
Ġc en
Ġc ue
Ġm ike
Ġh are
Ġp out
Ġp airs
Ġg ore
Ġg ifts
Ġn ie
Ġn ip
ic kets
ac ity
Ġe aster
Ġbe am
Ġwh ip
Ġr ays
un ity
Ġde mean
if orn
Ġo bey
Ġk ent
Ġse ction
qu er
Ġv ig
Ġcl ap
Ġtr out
Ġcon ced
Ġcon crete
Ġsome where
Ġus age
Ġgr acious
Ġco ins
Ġco gn
Ġpo ts
Ġche es
Ġpe ep
Ġpre m
Ġper u
Ġsw iss
Ġins pection
uc ted
Ġass ert
co ll
ym ph
Ġchar les
Ġball et
Ġsoon er
Ġve in
Ġel ation
Ġele gant
Ġtrans l
Ġpen ned
could nt
Ġlaugh ter
Ġcro ck
Ġner d
Ġpal m
Ġcomb ined
Ġcirc us
Ġphys ic
Ġexper ts
Ġunderst ood
Ġheaven ly
Ġprev ail
Ġsuper b
Ġsam ple
Ġange ls
Ġanno y
Ġanno yed
Ġscri pt
Ġpep per
Ġwra th
Ġwis dom
hum an
Ġdisappe ar
Ġdoz ens
a ired
f ted
u ate
Ġh atch
Ġd y
Ġd warf
an ny
as m
Ġl oop
ve y
ac ted
ad or
ot ch
ri a
Ġst ated
ir ing
am eric
Ġo v
Ġdo ts
Ġsp erm
Ġbl amed
Ġbl unt
Ġim per
Ġcl aw
Ġtr ous
Ġcon j
Ġcon ven
Ġbo on
Ġco ke
Ġco vers
Ġcr icket
Ġout come
Ġen tered
Ġdr ama
Ġjo lly
Ġho tel
Ġaw k
Ġste ad
Ġple as
gr ant
Ġref lection
Ġdist ressed
Ġcal cul
Ġind ul
Ġprof it
Ġspr ings
Ġhar vest
Ġdecl ares
Ġfle et
Ġdraw s
Ġsucc umb
Ġann ual
Ġclim bing
Ġtrick y
Ġfig ures
udd led
Ġunf air
Ġham mer
Ġbond s
Ġphot os
Ġrab bit
Ġcig ar
Ġpregn ant
Ġconvin ced
d oc
f ill
f ine
f ight
g ies
g ical
i ge
th al
Ġa y
Ġc ush
Ġb amb
Ġm ig
Ġf est
Ġd ah
Ġl ic
Ġg ently
Ġto xic
Ġst able
am ph
Ġre b
im m
Ġsh ift
ro ts
Ġan aly
pe ts
st ud
Ġso ar
Ġdo ve
op les
Ġcl an
Ġsu nd
ag ers
Ġsc ales
ost on
Ġun w
Ġap h
Ġbu nd
Ġhas te
ang s
Ġnew ly
Ġpe ek
Ġho lly
ash es
Ġfr ost
Ġgl are
Ġstr ugg
ord ers
Ġres to
Ġplay ers
Ġpart icular
Ġdi ver
Ġconf irm
Ġlim it
Ġcho ir
Ġown er
Ġhor m
tr ans
Ġpres idents
Ġmon arch
Ġcir cles
Ġreg ular
Ġkill er
Ġtom b
pro v
Ġfoll ows
Ġfra ud
Ġast ute
Ġsque ez
Ġbuff et
Ġpract ical
Ġdent al
Ġattract ion
Ġdrag on
Ġsmo king
uls ion
Ġwealth y
Ġlabel ed
Ġchamp agne
Ġexce llent
Ġreck oned
Ġalph abet
Ġmamm al
ophob ia
Ġsis ters
Ġbloss oms
Ġprogr am
Ġnuc lear
c ook
f ire
i kes
p he
s ter
t ight
u k
Ġa uss
te ries
Ġc uss
Ġw anna
Ġb apt
Ġt uck
es ome
Ġp als
Ġl umber
Ġg ag
Ġg ene
Ġto ys
us hes
Ġin test
and a
he ld
Ġhe el
Ġre co
all ow
Ġsh ir
Ġsh iver
ur t
Ġj et
se ll
il a
Ġno ble
ol a
ap se
Ġdo d
Ġbl under
Ġv ap
Ġcl og
Ġcon n
Ġus ual
Ġqu ack
Ġex cl
Ġex hib
Ġar ise
Ġsee ks
Ġab ys
Ġlo cks
Ġlo aded
Ġsm ack
Ġro lling
Ġman kind
og ue
Ġpe a
Ġpe ach
Ġfr anc
Ġgood ness
Ġgreat ly
Ġaw fully
Ġlif est
Ġph ony
Ġplan es
Ġcur ved
Ġfun ctions
Ġatt ic
Ġact ually
Ġtra its
Ġref le
em ploy
Ġed ible
cle an
go es
Ġskin ny
Ġhar ry
Ġpray ers
Ġthri lled
Ġarm or
Ġbuild ings
Ġcatch ing
Ġpal ace
Ġaut o
Ġtight ly
Ġcas es
Ġocc ur
Ġchick ens
Ġmain e
Ġphys ique
Ġconc ur
Ġprec ision
Ġsearch ing
Ġconcer ned
Ġmod est
Ġhorn s
abl eness
hand ed
Ġinte res
Ġvar ious
Ġlink ed
Ġtun es
Ġamaz ing
Ġment al
Ġmir ror
bird s
bab y
Ġow e
Ġdram atic
Ġbrill iant
b red
b ought
e ves
m aster
m atic
n ies
s or
t own
t ail
Ġs oo
Ġw ins
Ġb ach
Ġm uck
is er
Ġp im
Ġp ate
Ġp ant
le en
the t
Ġst ol
Ġon to
ce ll
un ate
Ġde w
ur ate
ur ity
Ġj an
ra ise
Ġas ian
ome ter
Ġse qu
Ġse ats
Ġpl ug
Ġdo e
Ġfe es
ist ically
Ġfl ute
ie u
Ġex ec
pl an
Ġun st
Ġap ology
Ġri vers
iv orous
Ġbu ried
Ġac ade
Ġac compl
Ġmo ist
ang led
Ġsl ang
Ġcar ries
Ġdes cend
od es
Ġcomp reh
Ġye ah
Ġdef ines
Ġapp lies
Ġsmall er
Ġread er
Ġbed s
Ġcho osing
Ġcons erv
Ġsch m
Ġfell ows
Ġdep ression
Ġve xed
Ġinv ention
Ġret ire
Ġprof its
wor m
ye ah
Ġobs essed
Ġspec ific
Ġmove ment
Ġtrain ed
Ġsa us
Ġfer n
Ġfra g
Ġconc ert
Ġglad ly
Ġdoll ars
Ġbless ing
Ġexact ly
Ġhol id
Ġweap ons
Ġunlike ly
Ġanch or
Ġeld er
b in
c key
d ar
d iv
d uring
g ra
g raph
p at
v an
Ġth irteen
re m
Ġw ander
Ġb ip
Ġh ides
Ġt ons
Ġd al
Ġd it
Ġd art
or ay
Ġl en
Ġl ung
Ġg ast
Ġg osh
Ġto ad
Ġin tend
it ate
ad v
Ġst ash
Ġst ored
Ġwh iz
Ġr ue
Ġsh outed
un es
ver b
Ġk er
Ġv iv
Ġle ague
ous ing
Ġsome ones
Ġex tens
Ġsc and
Ġsc ored
be aring
Ġam p
au nd
Ġdr ought
Ġke t
Ġthr ust
Ġpre z
Ġstr and
Ġmust ard
br own
Ġcour ses
see king
Ġconf using
Ġgir th
Ġz ing
lo at
Ġexp osed
Ġref ined
Ġgra pes
Ġsal vation
Ġvo ices
ger y
Ġsun s
Ġob ama
Ġboo b
Ġfool ish
Ġfail ure
idd ing
oph il
Ġhapp ens
Ġclean ing
Ġthri lls
Ġmer ry
Ġaim s
Ġdeli ghted
Ġsold ier
Ġblock ed
Ġbac hel
bre ak
Ġscre amed
Ġcam era
Ġswim ming
Ġdece ased
Ġec st
Ġjud ges
swe et
Ġexpert ise
Ġcurt ain
Ġstruct ure
cu z
Ġabdom inal
Ġdiscer n
Ġperf ume
Ġsatisf action
Ġvall ey
Ġawk ward
b ul
c in
e w
e le
e ur
f ried
g iven
i j
k n
m aid
n orm
s ub
Ġ ot
Ġ um
Ġc ert
Ġb ands
Ġm utter
Ġh ers
Ġh ail
Ġf uzz
Ġt s
Ġd ated
Ġp all
om es
le gged
Ġin ch
Ġe b
ad er
Ġhe ated
Ġwh im
Ġr aid
Ġr oles
un ction
ro ach
Ġch al
Ġan cest
ent al
st ay
Ġbl acks
Ġus eless
Ġlo ot
ip er
Ġri des
de cl
Ġgu ll
Ġman aged
Ġac ce
Ġsk ins
Ġgl um
Ġcar pet
Ġph ase
Ġkn ack
Ġsn oo
Ġfriend ly
rop ri
Ġapp arent
Ġdra ft
Ġant ique
Ġrec ently
Ġrest aur
Ġcry ing
Ġhit ting
Ġhur ts
Ġdeal t
Ġprom ote
Ġber ries
Ġstick y
ca using
Ġhy p
Ġsne ez
Ġcirc ular
Ġfra il
Ġproud ly
Ġbod ys
Ġcos ts
Ġpig s
find s
Ġconce al
oll en
Ġmic ros
Ġstir red
Ġvill ain
Ġdiff icult
lif es
Ġpatter n
Ġbleed ing
Ġintern et
c en
e er
f old
g a
i op
m n
o be
r ics
s ad
th ur
Ġs ust
Ġs ails
Ġc ed
Ġb im
Ġb ile
Ġb ites
Ġm oss
Ġh ates
Ġh ated
Ġt a
Ġt ide
Ġl is
Ġl ore
Ġl ens
Ġl oser
Ġn ative
Ġto ilet
Ġe ch
Ġst o
Ġst ack
Ġst airs
Ġre ly
Ġr and
Ġwe eds
ce eds
un like
Ġde an
Ġit ll
Ġj azz
Ġch aps
Ġas pir
Ġse aled
um en
li ps
ain ted
Ġare a
Ġor n
Ġbl end
Ġshe lls
Ġab ode
out ing
Ġen chant
Ġpe ter
Ġcar b
ment al
Ġsw am
ale x
Ġcomp ared
uc ation
Ġrep ute
rop os
Ġevery ones
Ġconf l
Ġacc ent
Ġball oon
Ġsle eve
Ġpast a
Ġext inct
Ġsign al
Ġfle as
Ġpray ed
jo in
pro of
Ġspo on
Ġlay er
Ġwide ly
Ġthre ate
Ġphys ician
Ġide as
Ġpaint ings
Ġkick ed
Ġchew ing
Ġox y
Ġscot land
Ġtemper ature
Ġcris p
cra ft
dam n
Ġlun gs
Ġcham ber
Ġridd le
b ish
b ute
b acks
c up
c are
g led
g old
i at
m ith
m el
p ur
r ors
s ent
t is
t ie
v ious
Ġa ri
Ġs ends
te em
re gard
Ġb ic
Ġm ol
Ġh az
Ġi tems
er ts
is ters
Ġp athetic
ar ms
Ġl in
Ġl ance
Ġg a
Ġn ails
us k
it a
Ġe el
ri x
Ġre cl
Ġre asons
Ġr av
Ġr att
Ġsh ares
Ġj uly
st ar
st ra
Ġpl umb
ab or
Ġher self
Ġsp ree
Ġsp here
Ġsp aces
Ġcl ich
Ġcl ues
Ġbo ost
Ġgr ouse
Ġsc old
Ġsc oop
Ġab used
Ġdis order
Ġbr ute
Ġun h
no on
Ġdr astic
Ġsl ur
Ġgl ands
Ġend orse
Ġste ady
Ġbar ber
Ġfound ation
bo ys
Ġhell o
gr ow
Ġcomm er
Ġdead ly
Ġimp lies
Ġacc used
Ġset ting
Ġstri king
Ġstri kes
Ġstate ment
Ġlead ing
Ġcy st
Ġpick ing
Ġang les
Ġmor al
gen cy
Ġjoh ns
Ġsne er
Ġprep aring
Ġcree k
Ġdeter mined
Ġvill age
ho ly
Ġjac ket
Ġnons ense
Ġopin ion
Ġpriv ate
Ġecon om
spr ing
Ġcondem n
Ġalk al
year old
Ġshrew d
Ġenjo ys
b ath
d in
d ish
e ld
j ud
m ad
o is
p to
p op
r ise
r ations
Ġa ck
Ġs age
Ġs ank
Ġth ie
Ġth umbs
Ġb our
Ġm ama
end a
Ġd ow
Ġd and
Ġp ian
Ġl ick
Ġl ouse
Ġl ane
Ġg ory
Ġto dd
Ġe lf
ot ted
ut ation
Ġhe els
oo ted
Ġsh aring
un a
Ġde but
Ġde als
Ġj ury
ro it
Ġch ape
ra ther
se veral
Ġk ills
li ved
Ġcan e
Ġsp ied
ig s
Ġcon test
Ġbo v
Ġbo ther
Ġcr us
Ġy anks
pl ing
Ġab ate
Ġdis se
Ġun ion
Ġri pe
ich ael
de ad
Ġpo nder
Ġtw itch
Ġsl ime
Ġdes erve
Ġins pire
Ġste pped
Ġste aling
Ġbro ker
Ġass ault
Ġrep orts
Ġact in
Ġsup reme
Ġconf essed
oun ted
Ġcor al
Ġdep os
Ġnear by
Ġdev ils
Ġel astic
che m
Ġflo ors
Ġrel ations
Ġev idence
Ġdin ing
Ġexpl ode
Ġshr ug
Ġarch aic
Ġdeli vered
Ġaut umn
teri or
Ġtrain s
Ġdescri bing
Ġneat ly
Ġdet ail
Ġdest r
Ġmem ory
find ing
Ġpin ch
Ġax e
Ġmid st
Ġest abl
Ġachie ved
Ġjud gment
Ġru ined
Ġpoison ous
Ġremark ed
Ġperform ance
Ġdestro yed
Ġves sels
Ġaug ust
Ġaustral ia
mind ed
Ġcaes ar
Ġslaugh ter
Ġais le
Ġgoss ip
Ġtrous ers
a gh
c aught
c apt
f act
h h
k ins
l ater
t ion
t les
x y
th ed
Ġa il
Ġs ip
ou p
Ġc inch
Ġb ers
Ġb ows
Ġb ounce
Ġh ag
Ġi tem
Ġf izz
Ġf ulf
is to
Ġp orn
Ġl urch
Ġn avy
Ġin tention
Ġwi ts
Ġst ool
id ly
id ity
Ġre placed
Ġr ye
wh atever
Ġfor b
Ġme ek
Ġj aws
Ġch airs
ent ric
Ġwas hed
Ġcan adian
Ġor gans
Ġat m
Ġdo omed
Ġsp leen
Ġle x
ard ly
Ġtr act
Ġtr ump
ist ing
Ġcr acks
Ġbr un
Ġmo th
Ġche ating
arm ed
Ġste ve
Ġbar ge
Ġbar red
Ġmar vel
uff ed
Ġge ez
Ġcomm ents
Ġacc r
Ġtra gic
Ġfish es
Ġexp ense
Ġant ib
Ġdep th
Ġgri ll
Ġpres ence
Ġmon key
mo ve
cept ion
Ġcoun cil
Ġcook ies
Ġdeal ing
Ġmag ical
Ġra ising
Ġmal es
Ġsail ed
Ġbac teri
Ġsil ence
Ġcapt ure
Ġelect rons
Ġbott les
Ġhung er
Ġtum my
Ġtour ists
Ġconstr uction
Ġyield s
Ġpron ounced
Ġstream s
Ġopin ions
Ġincred ible
Ġperple xed
Ġstol en
c ate
e en
i ar
i otic
t im
y p
Ġa ard
in as
Ġs ag
Ġs ten
Ġs unk
ou x
Ġb alk
Ġb aker
on ent
on ge
Ġf asc
Ġd ave
Ġd ud
an ke
Ġn ib
Ġto days
om in
ic ide
Ġin come
ac les
Ġre nder
Ġre comm
Ġr ag
Ġde fect
Ġfor d
ro ck
ro lled
Ġan th
ra ged
if ted
Ġo c
Ġse am
ill es
pe cially
li est
li ving
Ġcan vas
ab bed
Ġcon ten
Ġar thr
ink le
Ġad or
be ware
Ġun it
Ġam en
Ġsm ar
Ġsm ith
Ġsm ash
igh ten
sh ine
Ġem ail
Ġem per
Ġmay or
Ġgl ut
Ġgl orious
Ġsw ollen
Ġins urance
od s
Ġhead ing
Ġsn akes
Ġass ure
Ġser ge
olog ys
Ġlight ning
Ġchar ges
Ġexp ensive
Ġrec r
che t
Ġele ction
Ġmin eral
Ġdark ness
Ġcoun ts
Ġloud ly
Ġrequ ires
Ġclim ate
Ġsne ak
Ġsens es
pre tty
rac ts
Ġnut rition
Ġbub bles
Ġunf ur
Ġdece it
Ġarg ue
Ġwhis key
Ġrhym ing
Ġsche mes
Ġtar get
cho ose
Ġmaid en
Ġiron ic
Ġinse ct
umin ous
Ġcig aret
Ġjapan ese
Ġenh ance
Ġanx ious
Ġvit amin
Ġthorough ly
clear ly
Ġapl omb
f ood
g i
h u
k ids
r ont
r ows
y ield
th ank
Ġa ld
Ġa ra
Ġa my
in law
Ġc one
Ġc ooks
Ġw rap
Ġb s
on ing
Ġm ound
Ġf owl
Ġt ies
er b
er ie
Ġd ose
Ġd iction
Ġp aste
en gl
Ġl air
Ġl ush
Ġg el
Ġn u
Ġn il
Ġn igh
al ph
and ing
Ġe lite
Ġbe aver
ke pt
Ġst an
id al
Ġhe ars
wh om
un ts
ur a
Ġo ath
se a
se lling
Ġse m
pe lled
Ġher bs
Ġv ary
op en
Ġcon tempt
Ġte e
Ġcr ows
Ġy ank
Ġshe en
Ġsc ope
Ġbr ace
Ġad ieu
be en
Ġbut cher
Ġun t
Ġpr ud
Ġbu lly
sh all
Ġmo ll
og ical
Ġag ed
Ġsl ug
ple asant
Ġthr ong
Ġhow l
Ġbri g
Ġsn ore
Ġrep ubl
Ġdec re
Ġcons ume
Ġant ip
Ġless on
Ġrec ogn
Ġflow ing
Ġbur gl
Ġclass ical
Ġfin anc
iff ed
Ġnice ly
play ed
Ġwish ed
Ġcolle agues
Ġbas ic
Ġent ire
ific ent
Ġcast ing
Ġexpl o
Ġrom antic
Ġeng aged
Ġequ ip
Ġkiss ing
Ġdesp ise
Ġprov o
Ġprov ides
Ġann ounced
Ġhy dro
Ġtong ues
Ġmain ly
Ġchop ped
Ġess ence
Ġcath olic
Ġjour ney
Ġwra pped
Ġpear l
love ly
zzzz zzzz
Ġchron ic
Ġencoun tered
Ġital ian
Ġcannib al
Ġcz ar
Ġsecre ts
cave man
Ġbers erk
d ry
f in
h aped
h ole
m art
o er
p as
p uts
s ounds
Ġa ye
in te
in fl
Ġc inn
Ġc unning
Ġw ag
Ġm end
Ġm im
Ġh ym
Ġh iding
Ġi re
end ers
Ġf ires
an ne
an throp
as er
Ġl ac
Ġg ist
Ġto ot
om at
Ġin her
al g
Ġe h
Ġe ffic
ad le
he a
Ġst ared
Ġhe ir
Ġon line
ion al
Ġre n
un ting
Ġan em
Ġas p
ome ters
Ġk it
Ġse ize
Ġall ows
Ġsp at
Ġv amp
Ġgo of
ick en
Ġy o
Ġab und
Ġbr at
ne ts
Ġen li
Ġpo ke
Ġsw oon
ven ge
Ġfri ghtened
Ġste wed
there ll
Ġtre k
uc ts
com b
Ġye ast
tes s
Ġatt or
Ġapp end
Ġconf ir
Ġtri pped
Ġcol umn
Ġlight ly
Ġind ust
Ġele ven
Ġce ased
Ġclo ver
wor ms
gu ard
Ġcond itions
mo ving
keep er
Ġwonder ing
Ġpop s
Ġsat an
Ġcro c
Ġwarm ing
Ġmass ive
Ġavoid ing
Ġcomb at
Ġgard ens
Ġhundred s
bre aking
Ġprec ious
Ġastr onom
Ġpare nt
Ġsys tems
Ġacqu ired
Ġphil osoph
Ġresist ance
Ġcous ins
ogen ic
Ġcryst als
Ġbeet les
Ġdiamond s
Ġcustom ers
Ġsoci ety
Ġscient ists
Ġmos quit
Ġsynd rome
Ġmell ow
b ooks
c our
c ys
d el
g age
h ill
h ope
l ay
n one
o os
r ays
te ous
Ġc ot
Ġc ly
Ġb atch
Ġm op
Ġm ule
Ġh ull
Ġf as
Ġf athers
Ġd all
Ġp ipes
ar p
ar ily
Ġl ament
Ġg or
Ġg ab
Ġg ills
ic ion
al most
Ġbe gg
Ġbe aten
he ars
Ġst acked
Ġwh ales
Ġwh irl
Ġre ap
Ġr ang
ly ing
Ġch ol
Ġas ia
Ġk l
Ġli ar
we ls
Ġpl aster
ul ed
ant age
Ġgo b
Ġgr at
ud der
ag u
ass es
Ġab o
Ġbr icks
Ġad orn
be came
Ġen em
Ġun fort
Ġsm irk
Ġgu ards
Ġtw it
Ġche ered
Ġpe ts
oss ed
Ġoff ense
Ġgl and
Ġins ists
Ġstr uggle
Ġfo am
od y
Ġaf loat
Ġcomp ounds
bo ards
uc es
Ġshow er
Ġapp et
Ġair s
Ġbed room
lo ving
Ġown ers
Ġtow ards
Ġdist urb
Ġsle ek
Ġfin est
Ġsub jects
Ġfail ing
Ġhapp ily
Ġspl ash
Ġpol ish
Ġvis ions
Ġobs ess
Ġobs erved
Ġpos itive
Ġsmell y
jo e
Ġpet als
Ġali g
Ġspread ing
Ġcrow ds
Ġber ry
Ġsour ces
teri ous
cal iforn
Ġtrain ing
Ġpull ing
Ġbull et
Ġsand wich
Ġdise ases
Ġval ues
Ġemb ry
Ġport ra
Ġmas k
Ġmel t
cul es
Ġpros pects
Ġpoet ry
col ored
Ġswall owed
itic ians
Ġlou is
Ġhab its
Ġjour nal
Ġfav ou
Ġmedic ine
Ġaccord ing
Ġmamm als
Ġchrom os
ett i
Ġmons ter
Ġemph atic
Ġbran ches
Ġpizz a
Ġentr ance
cir c
Ġdav id
b ore
c oun
d one
l am
l aid
p rom
p ack
w ait
Ġa j
in ting
Ġm ont
Ġm ull
Ġm att
Ġm rs
Ġh a
Ġh os
Ġh unk
Ġf ount
Ġt ag
Ġd ung
Ġd uct
es is
at i
Ġp uss
Ġl inks
Ġn ay
Ġn ile
us tered
Ġin fect
Ġin form
al ong
ke l
Ġwi l
et ys
Ġde test
Ġch alk
ra ising
Ġli ly
Ġat oms
Ġwor ried
Ġbl uff
op l
Ġcl utch
Ġex e
Ġex h
Ġex cited
Ġar med
Ġdis agree
Ġad apt
Ġbut ts
Ġpr ints
Ġbu ys
Ġtw isted
Ġche wed
Ġjo ck
Ġsl iced
Ġoff ers
was nt
ub ber
ia h
Ġstr ut
arm ing
Ġkn ives
Ġcomp ose
Ġsn ail
Ġca us
gr own
ym es
Ġadd ing
Ġfear ful
thr ow
Ġcoll ar
Ġcoll apse
Ġfall en
Ġdist ur
con ne
Ġvo tes
ott a
Ġbab ys
Ġret ired
Ġhum ble
Ġfat al
Ġwhe eze
Ġbring ing
Ġmis er
Ġent w
Ġtal ents
Ġble ep
Ġdin er
Ġleg it
Ġteach ing
Ġdisp ers
Ġcand les
Ġshop s
Ġchrist ians
Ġscr am
Ġur ine
Ġran ks
Ġcent ral
Ġimm ers
cret ion
Ġastr on
Ġdwell ing
Ġlands c
comm od
Ġexce l
Ġbeet le
Ġshri ek
Ġneg ative
Ġtes ts
Ġcandid ate
Ġfare well
Ġbom bs
Ġsaf ety
Ġaltern ate
Ġlone ly
Ġclos et
Ġsepar ate
Ġcoc aine
Ġlifest yle
Ġholid ay
Ġoxy gen
a er
b en
b ib
c ation
d an
f ing
g ling
k no
m rs
n ice
r ayed
s ch
s erve
t ons
t ween
v ae
w n
w ash
y ard
Ġs ow
Ġs ab
Ġth orn
ou rage
Ġc ate
on a
Ġi l
Ġi v
Ġf aux
Ġd ome
is ation
ing le
Ġn a
Ġn as
ac et
ot al
os ph
im ents
ce phal
Ġj est
li b
Ġsp un
Ġwill iam
Ġqu er
Ġqu al
Ġqu iz
Ġgr am
Ġco co
Ġar rested
Ġsc al
be ars
Ġpro ced
Ġun us
Ġam orous
Ġpr inc
Ġsm itten
sh ot
sh owed
Ġpo ets
Ġpo etic
Ġpe oples
Ġag n
Ġgl ob
Ġcle ans
Ġpre fix
Ġcar ved
Ġaw ait
Ġwa ited
Ġste ms
Ġthrough out
Ġbar be
Ġid ent
Ġsn ug
Ġass ess
Ġdef l
ib ility
Ġcho ices
az ing
Ġcor k
Ġchar ts
Ġdist ract
Ġstri de
Ġbi ology
Ġes teem
Ġob vious
Ġstand ard
wor thy
Ġma am
Ġent ice
Ġpat rons
Ġpos h
jo ined
ias is
Ġber lin
Ġsail ing
Ġthin ner
Ġsil ent
iffe rent
Ġfro gs
Ġcommon ly
Ġdar win
Ġvi br
Ġgar lic
Ġeffect ive
Ġought a
Ġconce aled
Ġbes ide
Ġmot or
Ġdismay ed
Ġiss ues
turn s
Ġholl ow
Ġrespond ed
Ġrele ased
Ġhen ry
Ġgroo ve
Ġfrol ic
Ġecst atic
Ġunfort unate
b ys
c orn
f o
f at
f red
g ate
i i
i the
o ly
p ot
w a
w ri
w all
in v
in ent
Ġs ums
te re
Ġc um
Ġb art
Ġb az
Ġb oston
Ġm uff
Ġh ounds
Ġt ables
Ġd azz
ed ing
Ġp ins
Ġl ard
Ġl ions
Ġg est
Ġg ates
Ġn ud
om orph
le tes
ke red
Ġhe ights
ch ild
Ġfor give
Ġch ump
Ġk il
Ġli ter
up t
Ġall ey
Ġpl as
Ġle vels
Ġcl ocks
ig ent
Ġte le
ame l
Ġcr ashed
Ġar se
Ġar cane
Ġsc or
av oid
Ġad here
Ġgu ile
act ic
me red
Ġho oray
Ġneed nt
Ġdes cent
Ġthere fore
Ġfri day
Ġste ed
Ġbar gain
gg le
Ġkn it
do ctor
ange l
Ġca ution
Ġact ual
Ġsweet ly
Ġheart y
Ġve l
con cer
pect ive
str ong
Ġbab es
Ġcell ar
wor king
Ġsol ved
Ġeng ra
car bon
Ġju an
Ġappro ached
Ġsigh s
Ġaunt ie
Ġposs ibly
Ġhall s
Ġfirm ly
Ġexpect ing
Ġrepe ated
Ġconcer ns
Ġimpress ive
Ġcli ent
fr ont
fol k
Ġjer ks
lar ge
Ġbudd ies
Ġorch est
Ġpac ific
Ġguarante e
Ġexceed ingly
Ġcorp se
Ġpotent ial
Ġcere br
Ġfemin ine
Ġrevers ed
Ġsixt y
Ġfines se
Ġsaus age
a fe
b are
b right
c ule
d ress
d ressed
e ct
f a
f y
f ifty
h oo
h ist
o qu
s am
v able
Ġ ll
th ic
Ġs ie
Ġs ights
Ġth ug
Ġth omas
Ġw age
Ġb aking
Ġb ah
Ġb ount
Ġm ines
Ġt ire
Ġt icket
Ġd na
at ious
en ic
ing ed
ar ians
Ġg us
Ġn ave
Ġin ner
ut ing
Ġst ale
Ġst yl
Ġr ows
ch ron
Ġsh ines
Ġj acks
res ent
ro bes
Ġou ter
um ns
st yle
ul us
ul ting
Ġso b
Ġsp ur
Ġsp onge
Ġbl ed
ound ing
op p
ted ly
Ġgo ats
Ġgo lly
Ġfl oo
Ġcr os
Ġshe pher
Ġsc am
Ġsc ree
Ġsc raw
Ġal mond
ip h
Ġun i
Ġri vals
Ġro y
Ġro lled
Ġro cket
ps y
Ġem otions
ens ed
ph il
Ġill eg
Ġfr is
Ġper cent
Ġper formed
Ġfri ghten
ber g
Ġste alth
oc y
bo at
com plete
Ġge ms
Ġdef ining
Ġatt ire
read ing
Ġact ress
Ġact iv
Ġconf ined
Ġpri ests
Ġrem ained
Ġwant ing
Ġcap er
Ġcap it
Ġer a
Ġfree ly
Ġdep ths
Ġart ists
Ġve ins
Ġinv ite
Ġinv iting
Ġele ment
Ġgrand pa
Ġgen ius
ob ia
ative ly
Ġlate ly
Ġsign als
Ġbal m
Ġfit ting
Ġque asy
Ġent ry
Ġsol o
Ġcook ie
Ġcomplain s
Ġfoll owing
Ġris ky
ograph er
Ġbac teria
Ġhang s
Ġdecided ly
cont in
ixt ure
Ġdum ped
Ġconsum ed
Ġholl er
Ġcommit tee
Ġreact ions
Ġruss ian
Ġwrit ings
Ġbegu ile
quis ite
Ġaggress ive
ext ra
Ġstub born
Ġenthr all
Ġscott ish
Ġbachel or
b rain
c ock
c uss
d ream
f elt
g un
h ung
n as
p id
p ies
s s
t t
th in
Ġa ft
in the
Ġc res
Ġc uc
Ġc ured
Ġthe ft
Ġm int
Ġf ad
Ġt at
Ġd c
Ġd ared
Ġd aring
en ny
as is
Ġl yn
Ġg ad
Ġto x
Ġin ept
ac on
ot omy
am ents
Ġthat ll
Ġr acing
Ġsh aft
un ct
Ġme ad
to gether
Ġch urn
Ġch ased
Ġch illy
ra ught
Ġse lls
Ġcan oe
Ġbl ot
so ci
Ġcl ums
Ġsu bt
Ġfl own
Ġbo ards
ish ness
Ġqu ake
ick ers
Ġout do
pl ate
Ġsc ars
Ġsc atter
av al
Ġlo af
ip al
Ġun seen
Ġam iss
Ġap ropos
Ġgre ase
Ġsm ashed
Ġac ted
Ġmo ose
Ġsl ob
Ġho ard
Ġgl ows
Ġback ed
bs ter
Ġbar bar
Ġmar ine
anc er
Ġbet ty
Ġover se
Ġsur gery
uc ing
Ġass igned
Ġrep ose
Ġdi vers
Ġapp reh
Ġred uce
Ġadd iction
Ġcor rupt
Ġsch olar
Ġbit ing
Ġfish er
Ġdist ingu
Ġnor thern
Ġwhite s
Ġlad s
Ġclass ic
Ġbi kin
Ġreal ity
Ġstay ing
Ġpres ume
Ġav ail
Ġcount rys
Ġspr out
Ġstrong er
Ġaff irm
Ġdrop ping
Ġworth y
Ġann ounce
Ġemb ro
Ġfamily s
Ġelect rical
Ġcolor ful
think ing
Ġsafe ly
Ġquar rel
Ġru in
Ġtub es
Ġamaz ed
ili ar
Ġextreme ly
Ġtiss ues
Ġcel est
Ġbatter y
Ġnoun s
Ġsole mn
Ġchallen ged
Ġfir ms
Ġmush rooms
Ġabstr act
Ġeigh teen
resp ond
Ġgorge ous
Ġmarvel ous
Ġfavou rite
b lind
f its
l og
p ow
s ave
w ow
w ife
y er
th inks
Ġa then
Ġs ax
Ġs ulf
Ġc s
Ġc us
Ġc ine
Ġc act
Ġb icy
Ġm aps
Ġh ats
Ġt ony
Ġt onic
Ġd ens
Ġd izzy
Ġp li
Ġp el
Ġl ure
Ġg ender
Ġn ag
Ġin hib
id a
Ġwh ist
Ġwh istle
Ġre vel
Ġre eling
Ġr amp
im mer
Ġsh ades
Ġch aste
Ġas ter
Ġpl ank
Ġsp ies
Ġsp illed
Ġfe eds
Ġv in
Ġv ul
one l
op ping
Ġcon cent
my s
Ġbo iled
Ġex quisite
ud ing
Ġout rage
Ġar teries
Ġsc our
Ġdis k
Ġad en
Ġpro claimed
Ġun kind
sh oot
Ġpo inted
cl ock
me et
Ġsl ap
Ġsl oth
Ġill usion
Ġcar ri
Ġcar ol
Ġaw esome
ten ess
Ġins pir
uck ing
Ġtre ad
man ent
Ġbar on
uff le
Ġcur b
bo b
ict ions
Ġdec ades
gr ad
Ġapp oint
see m
Ġtri ple
Ġcons ult
Ġcol ours
Ġown ed
Ġdep arted
Ġstri ps
Ġrec ent
Ġcal end
Ġbra ke
Ġlar vae
Ġgrand mother
Ġmon ks
Ġpast or
Ġce ment
Ġcount y
Ġother wise
off s
min ate
Ġtal ks
Ġreg ions
Ġexpl an
Ġmor ph
Ġdress ing
Ġplain ly
Ġder ision
Ġneighb ours
Ġposs essed
Ġdu ke
Ġliqu ids
Ġvol can
ee ee
Ġimpress ion
Ġarg ument
Ġmot to
Ġinst ance
Ġinfl amed
Ġconstr uct
def ine
Ġspin ning
bor ne
Ġdun ce
Ġcommit ted
sim ple
Ġproceed ed
Ġamph ib
affe ine
Ġbasket ball
Ġbru ised
Ġstrict ly
Ġnum erous
Ġincred ibly
onym ous
Ġliz ard
Ġcorpor ate
Ġlur k
Ġende avor
Ġgau ge
cous in
Ġadject ive
Ġmultip le
b rew
e li
l isten
m akers
p aid
r owed
u ent
w est
Ġa ide
Ġs ession
te x
re nder
Ġc ess
Ġc ors
Ġc ents
Ġb ert
Ġb orders
Ġm am
Ġm ute
Ġm aim
Ġh ass
Ġh awk
end ent
Ġf ou
an ing
Ġp is
Ġg ul
us ts
Ġe cc
ri ls
ke ty
ion ed
Ġre ct
im um
Ġme mber
Ġj ay
Ġj ake
ra ised
Ġo de
Ġse lection
Ġso ak
Ġdo ct
Ġsp out
Ġle xic
Ġtr oop
Ġcon vert
Ġex em
Ġex istence
Ġout fit
Ġup st
ong s
fe it
Ġlo ads
Ġen orm
au th
Ġpe el
Ġjo an
Ġag ility
Ġem pl
Ġspe lls
Ġspe lled
Ġgl oss
ond er
Ġback wards
Ġfo lly
Ġres our
Ġph arm
Ġmar ie
oc rac
Ġear ning
Ġcomp act
Ġwr ought
Ġsn oring
br it
Ġcont ra
Ġcont ains
Ġdri vers
itch es
Ġany more
Ġsound ed
Ġcons on
Ġadd ressed
pr of
Ġstri pped
Ġbur nt
Ġdev our
Ġed ges
Ġsqu ash
Ġsad dle
Ġsal mon
Ġland ing
str uct
Ġquick er
Ġstuff s
Ġafter noon
Ġgen etic
Ġflo ats
po ts
Ġfat ig
na e
Ġadm ired
Ġhar bor
Ġbas is
Ġprod uction
Ġmist aken
Ġdress es
Ġshr oud
Ġtem p
Ġmal ign
Ġpra ises
Ġterri fic
Ġbot any
Ġprop ose
Ġinf in
Ġfeed ing
hold s
Ġseven teen
Ġunf old
Ġhook ed
Ġarg uments
Ġphot o
Ġbul b
Ġgrab bed
Ġresem bles
Ġobt use
Ġcontro lled
Ġnuc le
Ġdee med
Ġbib li
Ġarom a
Ġawa its
Ġtens ion
Ġcorre ction
Ġaard v
a qu
b ug
b uck
f if
s at
t ick
th and
th irty
re c
Ġw icked
on ies
at us
is se
an ed
Ġp oured
Ġl av
Ġl akes
Ġl aund
Ġg arn
le arn
ic he
Ġin fected
Ġbe m
ot rop
os y
os ers
Ġst alk
ch al
ch ief
ch anged
Ġsh ack
Ġde xt
Ġde lect
Ġde ploy
Ġan ew
if er
Ġo y
Ġo li
Ġas cend
Ġse v
Ġse rene
Ġcan al
Ġat om
Ġher oes
Ġsp ar
for get
Ġcl ad
Ġcl ause
Ġcon tem
Ġex claim
Ġby e
Ġy og
Ġab ort
Ġab road
Ġun pleasant
Ġam ounts
Ġdr one
Ġag rees
Ġneed les
Ġsk unk
Ġthr owing
Ġfr ay
Ġins isted
Ġstr ang
Ġmar kets
Ġsur pass
Ġshow ers
ict ive
Ġfun eral
Ġnight ly
Ġatt ach
Ġdou bled
Ġbeg s
Ġcor ne
ump y
Ġdep ri
Ġdep ra
pr it
Ġdist raught
Ġgra v
Ġcal c
Ġver bal
Ġlar ger
Ġwin ters
gre w
cri pt
Ġob li
Ġwall et
Ġhar p
Ġfle a
Ġodd ly
Ġwood en
Ġcy n
Ġagree ment
udge on
Ġpos itions
Ġfil es
Ġlaugh s
Ġmate rial
Ġbag p
Ġaim ed
Ġdesign er
Ġdon key
Ġexam ine
Ġhy pe
Ġran ch
Ġport ray
Ġarr anged
Ġir an
Ġsav ings
Ġsque al
Ġameric a
Ġmem br
Ġreme m
Ġale x
Ġsmo ked
Ġoce ans
Ġexcess ive
Ġdub bed
Ġstun ned
Ġbron ch
Ġcit iz
Ġbloss om
Ġbrook lyn
Ġsty les
Ġtab oo
yell ow
Ġbraw l
Ġmexic an
Ġchann el
Ġmeas ured
Ġabst ain
b ie
e asy
f are
h s
i ency
m is
m ers
n uts
o ven
p ic
p ent
p ress
r ice
r icks
s um
t re
w itted
Ġ owl
Ġs ul
Ġs ass
Ġs ites
Ġs ending
Ġc rest
Ġc oop
Ġc ities
Ġw rest
Ġb aff
Ġm are
Ġi rate
Ġd oo
Ġd airy
ll ar
or ter
an ic
Ġp ud
Ġp unk
ar l
Ġg ents
Ġg ale
the art
Ġbe ts
Ġbe agle
os al
Ġst im
Ġr ump
Ġr opes
wh ys
ter ing
Ġsh rie
ra g
if ies
il st
li ked
li kes
Ġno one
Ġno bodys
Ġpl ural
Ġso da
Ġsp ins
Ġsp ices
Ġbl og
op ia
Ġcl a
ind er
Ġex tent
Ġy aw
Ġy arn
Ġlo gs
Ġro ver
Ġbu lls
ort ing
cl osed
Ġnew sp
Ġdr ums
Ġjo king
bl in
ull y
per fect
Ġgl ac
Ġcar go
Ġper il
Ġper mit
Ġswe ater
Ġres cue
Ġcur led
br ush
Ġass es
que red
tes ts
Ġatt ain
Ġcomm ands
Ġtri te
Ġtri bes
olog ically
Ġop ined
Ġchar lie
Ġart istic
Ġkind ly
Ġhed ge
Ġadv anced
Ġworld wide
Ġstud ying
Ġbi as
Ġland ed
Ġinv ited
Ġext ract
Ġfre ud
wor th
Ġwhe ez
Ġbus ted
Ġcy ber
Ġobs ession
omet ry
Ġign oring
Ġloud er
Ġcrit ters
Ġsy rup
Ġbase ment
Ġmal igned
Ġbor de
Ġprov oke
Ġclim bed
Ġfur ry
Ġemb ark
Ġarr ows
Ġfra grant
Ġfro zen
Ġphys ical
mal es
Ġu h
reme mber
Ġgar bage
Ġcam er
Ġboot y
Ġpitch er
Ġacqu ire
Ġpros pect
osp here
Ġtour ist
Ġint act
Ġfaith ful
Ġfet ch
bro ke
Ġerr atic
Ġbelong s
Ġcrust ace
Ġrod ent
Ġrefer red
Ġruss ia
Ġmagn ificent
Ġod or
Ġswee ter
Ġpul se
Ġpuzz le
Ġnin ety
Ġaffl iction
Ġembarr ass
Ġblan ket
pol iticians
Ġexha ust
Ġjung le
Ġcoff in
ropri ate
Ġsten ch
Ġenem ies
Ġunus ual
b ows
d est
d ated
f ur
f fe
f ting
g les
o of
p al
s pl
s ters
t al
Ġs not
Ġs acked
te in
Ġc uff
Ġw ail
Ġw estern
Ġb ung
Ġb udge
Ġthe ms
Ġm ast
Ġh ys
Ġf ats
Ġf ren
Ġt anks
er vation
Ġd itty
Ġp iled
en er
Ġn ost
Ġto bac
le cted
us ters
it ous
it udes
Ġe rect
he e
he avy
ri ll
Ġwi eld
Ġst ur
Ġre x
Ġre venge
Ġr az
Ġr aces
Ġr apt
Ġsh od
Ġsh aking
Ġsh irts
un ge
Ġme te
Ġj ab
Ġan ten
il itys
Ġor ation
Ġpl ots
ab ol
ap ing
Ġsp ike
Ġbl ister
Ġim pe
Ġim ped
Ġv ault
op y
Ġcl uster
Ġcl aire
Ġcon gr
ie val
Ġco x
Ġy awn
Ġar ro
pl ess
ink y
Ġal ice
Ġab rupt
Ġad ept
be th
Ġen th
Ġam ber
Ġam used
ress ive
Ġman ic
Ġwell known
Ġcar rots
ug al
Ġper manent
ub er
Ġfo il
Ġplan ets
Ġkn ights
Ġcur ry
Ġsur geons
Ġsur gical
Ġsur render
Ġsn out
Ġca fe
Ġz oom
Ġcho res
Ġexp ound
Ġant id
Ġcut ie
Ġcal am
Ġadv is
Ġdem ocr
Ġview ers
zz le
Ġbi o
Ġsing ular
Ġgrand father
Ġcry pt
Ġban anas
Ġda ff
Ġcy cle
Ġpol es
Ġpol ar
Ġdeath s
Ġmis underst
Ġboss es
Ġclose ly
Ġmag ician
Ġmist akes
Ġach es
Ġwarm th
Ġbox er
Ġprov ided
Ġpull s
Ġfer v
Ġcas k
Ġlay ers
Ġbum ps
Ġslip per
Ġconc ise
Ġgrace ful
Ġbul k
Ġgovern ments
Ġven us
know ing
Ġflip ped
ara oh
Ġcharac ters
Ġobt ain
Ġnons top
Ġshor ter
Ġsof tw
Ġprim ary
Ġdismiss ed
Ġanat omy
Ġpled ge
Ġbrut al
Ġcache t
Ġorig inal
Ġholly wood
Ġrand om
Ġcinn am
Ġalig ned
b at
d ire
f al
f et
g ence
h ence
i ters
i od
k ill
l ack
l iness
m pt
o ter
p rote
r ost
w it
Ġs aves
Ġs aving
te xt
te ach
Ġc uck
Ġc affeine
Ġw ench
Ġm es
Ġm ah
Ġh one
Ġh ick
Ġi g
Ġf ay
Ġf use
Ġf ates
Ġt ou
Ġt att
er ted
Ġd ia
Ġd ips
an ia
Ġp ouch
Ġp aws
Ġp ushed
en a
Ġl ax
Ġto wel
Ġin ches
ac ular
ut z
ri ft
Ġre ef
Ġre jection
Ġre hears
Ġr ains
Ġr het
Ġsh ocks
Ġch ills
ra tes
Ġk h
um ed
um bling
own ed
ap per
Ġsp urn
Ġbl asp
Ġv at
Ġcl od
ant is
Ġqu ell
Ġex it
Ġy up
Ġar bor
Ġdis app
Ġlo yal
be e
sh ort
sh owing
cl oth
Ġnew t
Ġdr u
Ġjo ys
Ġsl aves
Ġsl owed
Ġsl umber
Ġem pt
Ġper se
Ġsw an
Ġright ly
Ġhow ever
Ġph en
oc ious
Ġhigh way
Ġey el
Ġund one
Ġcont act
co al
Ġatt itude
see ing
Ġconf ident
Ġcra bs
Ġlim its
Ġsound ing
Ġcons ol
Ġadd icted
Ġer otic
let ter
Ġtow ers
Ġkind a
Ġcat al
ci um
Ġed it
Ġvo id
Ġfact ory
Ġpres ents
Ġgen erous
Ġav ow
ob ic
Ġmet als
Ġfair ly
Ġfam iliar
Ġaff ix
Ġsec urity
Ġcoun ted
Ġcoun ters
Ġsleep s
Ġsince re
Ġwal es
Ġdeb ts
Ġmor als
Ġpal ms
Ġmove ments
Ġtem pted
Ġcas ual
Ġris es
Ġkid neys
Ġhy per
Ġsecond s
cut ive
Ġhu gh
Ġfra ught
Ġconfess ion
Ġthre es
Ġameric ans
Ġdro ll
Ġsugg ests
Ġmem ories
Ġsearch ed
Ġsurv ival
Ġcrown ed
Ġpun ct
Ġmid night
Ġmod els
Ġimpro ved
Ġcav al
Ġcav ity
Ġconsum mate
Ġobject ive
Ġbreed ing
Ġcann on
run s
Ġbelief s
Ġdol ph
Ġath let
Ġath letes
Ġcandid ates
Ġbron ze
Ġsoci etys
Ġconvention al
Ġanal ysis
Ġnick name
Ġcompan ys
Ġbatt les
Ġatl antic
Ġassum ed
Ġclin ic
Ġcarto on
Ġbehavi our
Ġthie ves
Ġserge ant
Ġcigaret te
Ġuni verse
b ush
c ost
f ig
g ins
i w
j im
m ir
o zo
p it
p our
p ings
p ple
r in
s ol
t ies
Ġ umb
Ġa ids
Ġa iling
re g
re y
re ci
Ġc ep
Ġb ale
Ġm und
Ġh ire
Ġp ious
Ġp add
Ġp omp
ar ys
Ġl id
Ġg ur
Ġg out
Ġg athered
Ġto me
om ical
le ading
the mat
Ġbe ver
Ġst unt
am ics
ch ants
Ġwe ave
Ġsh ave
Ġj ig
Ġj ug
Ġch ub
Ġch ord
Ġo vation
Ġse l
Ġse p
Ġne ut
ge orge
Ġli ghter
Ġso ber
Ġbl ah
Ġv or
Ġv ag
op ed
op ter
ish es
Ġar sen
Ġsc ores
Ġab e
fe el
Ġlo om
Ġad ren
Ġun b
Ġam assed
aw ed
de li
Ġtw os
Ġtw ent
Ġac res
Ġac rob
Ġche ated
og ist
ze ch
Ġem pire
Ġcar riage
Ġper k
Ġsw ings
Ġsw amp
Ġaw ed
Ġswe lling
Ġwa its
Ġple ad
Ġph ones
some ones
some things
Ġover ly
Ġge ese
Ġrep ent
Ġter rain
co ld
Ġcomm ission
Ġlim p
Ġcons ent
Ġchar ity
Ġcoll aps
Ġcoll ision
con st
Ġhelp ful
Ġbra g
Ġbra v
Ġcri b
Ġce real
Ġfre ight
Ġbill ion
Ġfew er
Ġtrans port
Ġyear ning
Ġmed ieval
Ġcow boy
Ġdire ctions
Ġdisp atch
Ġpot ato
Ġmag az
Ġexpl oded
Ġben ed
Ġcrit ter
Ġner ds
Ġmor on
Ġrich es
Ġbor ne
Ġbank er
Ġconv ince
ca uses
Ġbum mer
Ġcard inal
Ġprop he
Ġelect ron
Ġshout ing
Ġpubl ish
Ġbutt ons
Ġsuper ior
Ġtum or
Ġdemand ing
Ġpi geon
Ġauth ors
Ġinst all
Ġinst alled
uls ive
Ġpush ing
Ġinstr ument
Ġcontr ast
Ġflaw ed
Ġemer ge
count ry
Ġshel ter
Ġshel ves
Ġprin cess
Ġabsor b
Ġshad ows
Ġtig er
Ġattem pts
glo bal
Ġwiz ard
Ġnie ce
Ġdemean or
Ġunst able
Ġelder ly
norm al
Ġfinanc ial
a ar
d ys
d ifferent
g irls
l aws
m ies
n at
p os
p ost
r r
r ust
s in
s ought
s cre
s inging
Ġa ven
Ġa top
in is
Ġs iz
Ġc et
Ġw oke
Ġw ob
Ġb ong
Ġthe r
Ġm ating
Ġf atter
Ġf ighter
Ġt id
Ġd ign
at ics
ll o
Ġp ension
as ingly
Ġl u
Ġn om
Ġn oses
Ġin formed
ad ays
Ġwi res
Ġst atic
Ġhe ather
Ġre jected
Ġr ated
Ġwe pt
Ġsh ook
Ġan gu
Ġan agr
Ġas pire
Ġne phe
um ph
ol t
ul se
ap ers
Ġsp iders
Ġbl anc
Ġle ct
Ġsu g
Ġcon form
Ġbo or
Ġbo iling
Ġqu art
Ġqu ality
Ġgr ands
Ġgr ouch
Ġar thur
Ġdis ci
Ġbr ittle
Ġad ul
Ġad ult
Ġad ams
Ġpro l
Ġpro jects
Ġwho ve
Ġun its
Ġun ite
Ġro bert
iv ation
Ġpo ckets
Ġman e
Ġag ents
Ġoff end
ens ation
Ġspe ar
Ġdes ired
Ġper pet
Ġswe pt
Ġhead ed
Ġbri des
Ġbar ley
Ġplan ted
Ġbet ray
Ġsn acks
rop he
Ġevery where
tes ted
Ġcare less
Ġpri zed
Ġcor on
Ġsch n
Ġbur s
Ġbur den
Ġround ed
ci ence
Ġed ucation
Ġsqu ad
Ġblood s
Ġsal ute
Ġdiv ision
Ġfin er
Ġsupp osed
tw ixt
Ġmin er
ob ile
Ġboo th
Ġpers ons
Ġdel usion
Ġsit uation
Ġbow ls
Ġmis ter
Ġcoun sel
Ġpick le
Ġhop s
Ġreg al
Ġbud get
Ġdeal er
Ġber th
Ġla ure
Ġexam ples
might y
Ġcirc uit
Ġarr ayed
Ġkno cks
Ġdest ined
Ġexper ience
Ġfut ures
Ġdut ies
Ġphr ases
gle cted
Ġincre ases
Ġbun s
Ġcontin ued
Ġmath s
Ġproper ly
Ġproper ty
Ġerr ors
Ġpoll en
Ġpoll ution
Ġassist ance
Ġnar c
Ġstun ning
Ġneg lect
Ġtes ted
Ġpatter ns
Ġoffic er
Ġinvent or
mix ed
Ġmyst ic
Ġbegu iled
Ġconvers ation
Ġvoc ation
Ġwashing ton
Ġvic ar
Ġbir ch
beh ind
Ġrestrain t
Ġsket ch
Ġdoub ts
Ġconced e
Ġconserv ative
Ġcly de
Ġabo ard
Ġempl oys
c it
c ard
f lies
g irl
i able
i br
r ums
s it
s erved
w ish
Ġa ar
Ġa light
Ġs anta
Ġth ong
Ġc erv
Ġw ines
Ġb c
on ys
Ġm and
Ġf able
Ġt out
Ġt ug
er ation
Ġd ag
Ġd yed
is p
Ġp ist
Ġp ip
Ġl as
Ġl oses
Ġl ymph
le ads
Ġin ve
Ġin formation
ac s
ac ent
Ġbe ep
Ġbe gging
os cope
Ġr ick
ch inese
et ime
all ine
Ġsh outs
ce re
Ġde em
Ġde comp
Ġj ill
Ġch illed
Ġch ili
ra ine
Ġse ct
Ġne cks
pe ll
we ars
ain ts
Ġpl ow
Ġdo gg
Ġsp urned
Ġbl ing
ose ph
Ġcl ark
Ġcon jun
Ġex ped
Ġex pects
Ġcr amp
Ġen l
Ġun ner
Ġap es
Ġri ot
Ġro ared
Ġac ro
Ġdown ed
Ġho bby
ens ions
ph en
ph one
Ġsk im
Ġsw ords
Ġback ward
Ġlong ing
Ġwork er
Ġcur l
Ġcur ls
Ġpain ter
uc ket
br inging
Ġund e
Ġfriend ship
Ġyoung er
Ġdi aph
co lle
gr ass
Ġcomm end
Ġcomm ander
Ġcra ving
Ġfar ms
Ġimp ly
Ġpri or
Ġrem arks
lo ves
Ġsch ed
Ġsch ism
Ġpar ad
Ġcol umns
Ġdist ant
Ġel bow
Ġbra h
Ġdiv ided
would nt
Ġmen ace
Ġtur k
Ġele ments
Ġhope less
Ġgrand mothers
Ġsun shine
Ġmin ister
Ġbuy er
ex pl
ex pect
Ġpers ian
Ġrel ates
Ġje wels
Ġhar b
Ġexc uses
Ġbow els
ye ars
Ġdig ging
Ġworth less
thes is
Ġbell ow
Ġcro ak
bu ying
Ġaut om
Ġfer ns
Ġprote in
Ġprote cted
Ġcab in
ograph ic
Ġneighb our
Ġsens itive
Ġpract iced
Ġrum or
Ġrad ical
inc ol
Ġham let
Ġwhis pered
Ġreturn s
Ġze us
Ġash amed
Ġdrain ed
Ġling ers
Ġdip h
Ġint ri
def in
Ġven om
Ġcott age
bro ken
Ġcomplex ion
Ġchef s
spe ak
Ġnaught y
Ġswift ly
aa aa
fall s
Ġflor a
Ġdick ens
Ġfier y
Ġshrub s
Ġded uce
Ġeleph ants
Ġstruct ures
stand ing
Ġmole cules
build ing
Ġaller gic
Ġshad ow
Ġadvent ure
Ġbotan ical
Ġmechan ic
Ġproc li
Ġaband oned
Ġattem pted
Ġell ip
Ġathe ist
Ġignor ant
Ġhorm ones
Ġauss ie
ocrac y
Ġtatt oo
b and
b ag
b ies
b ene
b illy
c ac
c ro
c ity
d im
d ate
f air
f athers
l ady
m or
o ose
s ign
t ain
v ings
w oman
w estern
Ġ owed
Ġa unts
Ġs ire
Ġs often
te ch
Ġc ite
Ġw ounds
Ġw ages
Ġb h
Ġb ould
Ġb oun
Ġthe at
on ious
Ġm it
Ġm cc
Ġh amm
Ġh aun
es us
Ġl ag
Ġl ux
Ġn ook
Ġn ause
Ġn arr
ic able
Ġin it
it ure
Ġe cho
the less
Ġbe ams
Ġbe ads
Ġst if
am i
Ġre bel
Ġr ave
Ġr ook
Ġr use
ch uck
et ics
all el
Ġwe ights
Ġme g
Ġj ot
Ġj ur
ro be
Ġch ime
Ġk itty
Ġli b
Ġno ah
Ġall s
Ġpl ag
Ġpl ague
ul ations
Ġso y
Ġbl ouse
so ld
Ġtr amp
Ġcon sequ
ach ie
Ġy en
Ġy el
Ġy anke
Ġar gu
Ġdis mal
Ġdis cretion
Ġbr ad
Ġun l
Ġam id
Ġam using
Ġpr ost
Ġsm id
iv a
Ġman ager
Ġac ron
Ġmo z
Ġmo nday
og ram
Ġpe aks
Ġdr oop
Ġag low
Ġsl ain
Ġho b
Ġmake up
Ġspe eds
Ġgl ove
Ġcar rot
ub s
Ġres ent
Ġcre ator
Ġover head
Ġsur real
com fort
Ġund ressed
Ġrep utation
Ġpart ake
Ġclear ing
Ġdef ence
Ġlet ting
Ġcra te
Ġair pl
Ġappe als
Ġacc urate
Ġdear th
Ġstop ping
Ġpur r
Ġadv ances
Ġdam aged
Ġfact ors
Ġstate ments
Ġflo ating
ob i
Ġob ese
Ġmom ents
Ġspr ung
gu ys
Ġfle eting
Ġask ance
cy cl
Ġcolle cted
Ġtrans fer
Ġque ue
Ġspeak er
des cri
Ġequ als
men ted
Ġaut os
zy me
Ġprote cts
Ġcheck ing
Ġris ing
Ġcup s
Ġkid n
Ġsoft ly
Ġthre ats
Ġdrunk en
Ġep ic
Ġmas tered
Ġtechn ical
Ġsurv ived
hold ing
Ġdece mber
Ġhorn y
Ġscream ing
Ġwhis per
Ġmur dered
rab ble
ev il
Ġling er
rit ious
Ġdum my
omed ay
Ġlou ise
Ġremark able
Ġsales man
Ġchamp ion
Ġtro ll
Ġcath ed
run ning
Ġreck on
Ġpir ates
Ġtrend y
Ġmys terious
Ġgran ny
Ġprecise ly
Ġviol ent
Ġsaf er
Ġbeck oned
mod ern
Ġscra pe
Ġencoun ter
Ġhaul ed
Ġstam ped
Ġaband on
Ġexcite ment
oscop y
Ġarchite ct
Ġcurren cy
fight ing
Ġschm uck
Ġscand al
Ġsnoo ze
Ġconfl ict
Ġdepos it
Ġunfur led
Ġburgl ar
Ġcelest ial
Ġcinnam on
Ġprol ific
a ust
b read
c ore
d ies
d iss
f ro
g ys
h ows
j a
k iss
l ined
m ines
n umber
o the
t ro
u ition
v s
w on
th ro
th od
Ġs om
Ġs ine
Ġs omeday
Ġth ump
Ġc ory
Ġw rench
Ġb ums
Ġb ounds
Ġb inge
Ġthe ories
Ġm iffed
Ġh ust
Ġh ooks
Ġh ither
Ġh aze
Ġh atched
Ġf aded
Ġt ires
Ġd h
Ġd w
Ġd ix
or ters
ed es
Ġp and
Ġp he
Ġp anc
Ġp acks
Ġg ains
Ġg affe
Ġin h
Ġin ert
Ġin ane
gh test
ac ross
it ters
Ġbe th
Ġst ag
id el
am ar
Ġre pt
Ġre str
Ġr andy
im me
Ġsh aken
ur ous
ur ry
to cks
Ġch is
Ġch ur
Ġch ant
Ġo z
Ġse iz
ate ly
Ġne glected
um a
Ġcan ine
st ones
Ġpl ump
Ġpl ains
Ġso ck
Ġat omic
ab by
Ġsp am
Ġsp ines
Ġv om
Ġv owed
with in
Ġle ech
Ġtr um
Ġte ther
Ġcom ment
Ġqu iver
Ġgr anted
Ġout look
Ġy ummy
av age
Ġal tered
Ġal right
Ġab ac
ne ur
be yond
Ġen qu
Ġpro gn
Ġam end
Ġri val
Ġsm arts
de ath
Ġman h
Ġche aper
Ġpe an
Ġsl ender
bl ock
Ġfr antic
Ġgl ide
Ġsw ish
Ġins cri
Ġple asures
Ġph araoh
Ġtre asures
gg in
gg ers
Ġbest ow
Ġbest owed
where as
Ġear l
Ġear ns
Ġcur ly
can not
gr ade
Ġapp ropriate
Ġtri als
Ġtri umph
Ġimp art
Ġcho ked
Ġop ine
Ġpar rot
Ġexp ire
Ġflow ed
gl ass
Ġver ve
Ġdem ure
Ġsupp lied
Ġes pecially
Ġreal m
Ġcry ptic
Ġpast ry
Ġje ts
Ġdraw er
Ġbow el
yl on
Ġsol ve
Ġvis iting
Ġtal ked
Ġexplain ing
Ġben z
Ġcrit ique
Ġeng ines
Ġequ ally
Ġmer cy
Ġspo iled
Ġtem ple
Ġrequ ested
Ġdescri ption
Ġbree zy
Ġreve re
Ġamb ig
Ġamb itious
eng ers
eng ine
Ġfro ze
Ġenjoy ing
Ġappro val
Ġmas ters
Ġbuff oon
Ġsugg ested
bre ath
Ġbeach es
Ġconce pts
Ġwre ath
Ġnut ritious
Ġcree ps
Ġrum ors
mar ks
Ġstor ms
hor se
near ly
Ġcult ures
Ġcust ard
fly ing
Ġexcess ively
Ġnorm ally
Ġremo ving
Ġpil ots
Ġshri mp
tol ogy
Ġtrend s
Ġrelig ious
Ġreign s
Ġfores ts
Ġsar ge
Ġcompan ion
Ġtempt ation
Ġnun s
Ġperple x
Ġimpl ore
Ġwebs ite
oust ic
Ġliber al
Ġsyll ables
Ġprofession al
Ġafl ame
Ġpate nt
Ġrestaur ant
stra ight
Ġpian o
engl ish
Ġil k
Ġcact us
Ġexplan ation
Ġecc entric
Ġdelect able
Ġtobac co
Ġarro gant
b ase
b ones
c ream
c uts
f resh
h ips
i h
m ass
m ister
o inted
p ine
p oc
s uc
t imes
t alk
t ically
v il
Ġa i
in se
Ġs ard
Ġs ult
Ġth ud
re ve
Ġb ak
Ġb ure
on ics
Ġm u
Ġm ater
Ġh ush
Ġf ash
Ġf eds
Ġt ally
Ġt ib
Ġt uss
Ġd ast
Ġd usk
Ġp c
Ġp es
Ġp ith
ar ium
Ġl or
Ġl il
Ġl ists
Ġl umps
Ġn ant
it able
Ġe w
Ġe there
ad ers
Ġbe gged
ri p
ri le
ke ting
Ġwi g
Ġhe aling
Ġre ed
Ġre ference
Ġre plete
ch op
oo h
et tes
Ġit ching
Ġme ats
res pect
to pped
ra h
il ation
Ġse ver
qu est
Ġou ghter
li an
Ġli que
ct ive
ct omy
Ġno pe
Ġno things
Ġno vels
Ġpl acid
Ġbl urred
Ġbl itz
Ġv ide
op ic
Ġcl one
Ġcl ink
Ġtr ay
Ġtr usted
ig ation
Ġwill ow
ist ical
Ġfl ask
Ġqu ad
Ġy um
Ġy ore
Ġy ol
ans as
Ġsc at
Ġal umin
ys ix
ep s
Ġbr ac
Ġbr ine
Ġun real
Ġam mon
Ġri bs
Ġsm ut
sh r
Ġpo d
Ġpo lls
Ġac ids
Ġhas h
ang les
ang ular
Ġjo ker
Ġag ing
Ġag ape
Ġsl og
Ġdown s
bl ow
Ġsk irts
Ġgl owing
Ġcar l
Ġins ult
Ġend less
Ġcre ates
Ġcre ating
Ġbar r
Ġid le
Ġcomp ute
Ġsn ag
Ġstar ch
Ġhear se
Ġdra b
Ġcol umb
let te
Ġbit ten
Ġexp ose
Ġexp osure
Ġant im
Ġant ig
Ġless er
Ġgra vity
Ġsqu awk
Ġsad ness
Ġtas ks
Ġstre ak
Ġguess ing
Ġsub tle
Ġmon keys
ex pected
Ġboo bs
Ġdel ish
Ġext r
Ġrel uct
wor ked
Ġbelie ves
cr ack
Ġev olved
Ġyell s
Ġboy friends
Ġlarge ly
Ġtrans p
Ġbal oney
Ġcy an
Ġpen is
Ġbow ling
Ġspl at
Ġmis led
Ġclean ed
Ġdig it
Ġpop ped
Ġspec s
urs ion
Ġtest ing
Ġspo res
Ġsix teen
Ġmal ice
Ġsuff icient
Ġrich ard
Ġdamn ation
Ġder mat
Ġcost ume
Ġval id
Ġfresh water
Ġreve als
Ġreve aling
cut ting
pre p
Ġcrack ing
Ġcrack ers
Ġcapt ured
Ġconst rain
Ġfan atic
Ġkno b
Ġdelight ful
Ġaud ition
Ġgrass es
Ġscrew s
Ġspeech es
Ġloss es
Ġbath ing
Ġpurs ued
Ġsen ate
Ġuns ound
Ġfashion ed
ev olution
roph y
Ġafric a
Ġtick le
Ġmut tered
Ġremo val
Ġapproach ing
Ġment or
god s
Ġstret ched
Ġterror ist
Ġdol t
Ġalph a
Ġflor al
Ġresem ble
Ġcommun ity
Ġhub by
Ġdigest ion
Ġaltern ative
Ġemotion al
Ġvoc al
Ġtempt ing
Ġattempt ing
Ġguarante ed
Ġenthr alled
Ġegypt ian
Ġaur a
Ġinstruct ions
Ġank le
Ġmour n
Ġbris k
Ġfluff y
Ġappall ing
Ġslop py
Ġbamb oo
Ġchape l
Ġgeez er
Ġilleg al
b rate
b rained
c ong
d u
d rew
f ooted
h ands
j an
l acking
m id
n ial
r ade
r ically
v ial
w ore
w ild
Ġ urn
th ouse
Ġa a
Ġa kin
in qu
Ġs os
te t
of ty
Ġw ack
Ġb age
Ġb ese
Ġb ends
Ġm ature
Ġf idd
Ġf udge
Ġf umes
Ġt is
Ġt ickets
Ġd ul
Ġd ak
Ġd ors
Ġd actyl
an al
Ġp ans
Ġp ail
as ters
Ġl est
Ġl ous
Ġg ush
le e
le x
ic ulate
Ġin cess
Ġe lo
Ġe ternal
ut in
ri de
Ġst amps
Ġwh ipped
Ġre li
Ġre ne
Ġr ushed
Ġr aven
wh ilst
ly ph
Ġsh in
Ġch as
Ġch ops
ra pped
Ġo ven
Ġas hes
Ġk at
Ġwas ted
Ġwas ting
ill o
ol is
Ġpl aque
ul as
Ġso pr
Ġsp acious
Ġsp raw
Ġle f
Ġcl osing
Ġtr am
Ġtr aces
Ġtr ucks
Ġcon verse
Ġfl ak
Ġbo bs
Ġgr umble
Ġco ats
ick le
Ġcr adle
Ġsc um
Ġal oft
Ġal oof
Ġdis qu
Ġdis arr
be comes
Ġen z
Ġpro ves
ip her
Ġam pl
Ġpr ow
Ġsm iling
Ġbu ts
Ġbu oy
Ġac es
Ġac anth
Ġpe ck
Ġho ck
Ġho ckey
Ġoff ensive
Ġoff spring
ug n
ven ts
Ġins ults
Ġlif etime
Ġbri e
Ġtre n
Ġtre ating
who ll
Ġmar x
Ġfound ed
Ġey ed
ins ide
Ġcomp ar
Ġdi verse
que en
Ġtell y
Ġtry st
Ġconf ront
Ġimp act
Ġred uced
Ġz ones
Ġdra gged
Ġop ens
Ġmus ics
Ġant if
Ġref ine
uss ed
Ġdev oted
Ġgri pe
Ġunder neath
Ġed ward
Ġten or
Ġcri min
che on
iff s
Ġele cted
aster n
Ġhum ming
Ġav ian
Ġwom ans
Ġboo zing
Ġdel ayed
Ġrel ish
Ġspr ayed
cr ow
Ġfa ults
oid al
Ġdraw ers
Ġpen gu
Ġpen chant
hel ped
Ġmed ia
form ing
ific ant
thes ia
Ġreach es
Ġali gn
Ġra ft
amm ing
Ġequ ation
Ġequ ipped
Ġmusic ian
Ġtrou bled
Ġkiss es
Ġspread s
Ġaim ing
Ġber n
Ġsuff ix
Ġgas es
Ġshar ks
Ġring ing
Ġocc up
Ġopp ort
Ġopp onent
Ġcapt ains
Ġprop het
Ġelect ro
Ġdanc ers
Ġsque ak
Ġameric as
Ġinter tw
Ġtouch ed
Ġaud acious
Ġdefe ated
Ġswim s
Ġmatch es
Ġdust y
Ġfif teen
Ġwhis ky
Ġrob bed
Ġreturn ing
Ġvers ion
Ġblo kes
Ġling o
Ġpros per
Ġscar red
them atic
Ġmic robes
Ġsucceed ed
ear ly
turn ing
Ġintent ions
Ġcel ery
Ġwel sh
Ġfung i
Ġcurt ains
Ġemer gency
Ġing en
Ġrac ket
Ġhol mes
Ġrap idly
cu li
Ġglo at
Ġabl aze
Ġgreed y
Ġaggress ion
Ġanx iety
Ġaber ration
Ġaes thetic
Ġwid th
Ġpreach er
Ġflav ors
Ġtradition al
Ġrend ered
Ġjew ish
Ġinqu ired
Ġbisc uit
Ġthw art
Ġgrate ful
americ an
Ġindul ge
Ġbund le
Ġsqueez ed
Ġinteres ting
Ġmoist ure
Ġdestr uction
agh etti
capt ain
Ġhass le
Ġaardv ark
b os
b ud
b ark
e gg
f ancy
g ia
g onna
h appy
k ate
l ift
m ur
p ain
p aul
r ants
s er
s qu
t or
t welve
u ge
w y
Ġ oodles
th omas
Ġa uction
Ġs ter
Ġth ugs
ou b
Ġc ic
Ġc ull
Ġc olog
Ġc aves
Ġc owed
Ġb ony
Ġm i
Ġm ish
Ġm ixture
Ġh ens
Ġi i
Ġi ck
Ġf ated
Ġt ush
Ġd ir
Ġd ined
Ġd rench
or ms
Ġp ony
Ġp ests
en ough
as ive
Ġl isted
Ġl incol
Ġg ums
Ġn ought
Ġto ts
ic ulous
Ġbe a
Ġbe mo
ut tered
Ġwi pe
Ġst ained
am en
Ġre arr
Ġr ation
ch air
ch anging
oo oo
im o
ter m
un te
ur st
Ġj ailed
Ġch unk
Ġo int
se y
Ġk o
Ġse af
up p
Ġall iance
Ġat ro
Ġher ald
Ġdo dge
Ġbl ades
Ġbl ubber
Ġfe males
Ġv ows
Ġv ague
Ġle cture
op her
est ion
Ġtr ice
ig o
Ġcon quer
Ġcon quered
Ġfl are
Ġfl utter
Ġsc out
Ġsc rap
Ġsc rabble
Ġour s
Ġdis m
fe ed
fe ar
Ġtheir s
Ġbr us
Ġbr am
Ġbr ink
Ġbut ch
ile m
Ġpro jection
Ġam ass
Ġap olog
Ġri gh
Ġpr at
igh ters
Ġman ure
Ġtw ixt
Ġmo or
Ġmo ans
act y
act ions
cl ad
Ġjo ining
Ġdown hill
ens ible
bl ers
Ġbre ach
Ġpre ced
Ġpre fers
Ġthere ll
ell ed
Ġlif ted
ious ness
Ġwa res
Ġfo li
ord inate
Ġaf fected
Ġkn uck
Ġhell s
Ġsn apped
Ġge ars
Ġpart ners
Ġevery day
Ġca ut
Ġser mon
how d
Ġsmall est
itch ed
Ġtri gger
Ġpass age
Ġpass ions
Ġpass engers
Ġtra v
Ġant is
Ġfell er
Ġcame ls
Ġstri pes
Ġpay ment
Ġbur p
Ġver bs
Ġwater y
Ġten th
Ġtur d
Ġinv ade
Ġabs ent
Ġcell ular
Ġgrand mas
ex plain
Ġmet aph
Ġext re
Ġbright ly
Ġje an
Ġwond ers
Ġaff lic
Ġfit ted
Ġfel ine
Ġthri lling
Ġpos ts
Ġpop ulation
Ġsat ur
Ġpet ite
Ġreach ing
look ed
Ġsick ness
Ġmal t
Ġpra ised
Ġbull ets
Ġchem ists
Ġcas c
Ġsurpr ising
Ġcomb ust
Ġarri ves
Ġsav our
Ġep is
Ġmouth s
Ġharm less
Ġcheer ful
Ġjohn ny
Ġposs ible
Ġmel od
Ġdu ress
Ġtechn iques
cons cious
Ġfal ter
Ġtor so
Ġweak ness
Ġmans ion
Ġdiss ent
Ġhist orical
Ġhook er
Ġarg ent
Ġsuggest ion
Ġregre ts
Ġrelie ve
Ġlass es
Ġphil ip
Ġcust oms
Ġmut t
Ġfet us
Ġmort ar
ear th
bro ther
win ning
Ġtro y
char ge
acc ord
Ġutter ly
Ġvine gar
Ġgloom y
Ġvow el
Ġcris is
Ġdisappe ared
Ġdisgust ing
Ġperch ance
Ġwand ering
Ġpeas ants
Ġsurround ed
Ġsumm ers
Ġfert ile
Ġgour met
Ġsett led
Ġembarr assed
Ġdup lic
Ġalg ae
Ġsyll able
Ġcelebr ation
Ġdyn am
Ġperce ive
Ġcomed y
Ġprompt ly
stud y
Ġthreate ned
Ġack now
Ġlex ical
Ġattor ney
Ġdall as
coun ter
Ġna ive
Ġbount y
Ġfrighten ing
Ġoverse as
Ġsev enty
Ġraz or
Ġmisunderst ood
Ġsoftw are
Ġumb re
Ġmagaz ine
Ġnant ucket
a es
a ise
b irth
b ury
f s
h ome
h orn
i ries
j u
l it
m os
n n
s us
s ame
t ails
u a
u et
u ries
w ants
w omen
y o
z ab
Ġ ul
in th
in ers
te lls
Ġc ym
Ġc amb
Ġb arm
Ġthe ater
Ġm ash
Ġm oses
Ġh uff
Ġi con
Ġt int
Ġd ill
or r
is in
Ġp act
Ġl ice
Ġl ays
Ġto ler
le ys
ic ans
al a
it ute
the l
Ġst ab
Ġst ains
Ġwh it
Ġwh oop
Ġre pl
Ġre bu
Ġr on
Ġr ake
Ġis ra
et ically
Ġsh amp
Ġsh ining
Ġsh ady
Ġde arest
Ġme ters
to days
Ġch asing
Ġan om
se es
il age
qu ette
ge red
li ves
Ġli gh
Ġli king
Ġli bid
Ġcan s
Ġcan on
Ġno ve
st ream
st icks
Ġpl umber
ave ment
ab ove
ap ple
Ġdo le
Ġdo ver
Ġv ia
Ġv od
Ġtr an
Ġcon greg
Ġcom ical
Ġgr ades
Ġco ax
Ġco cks
ick ing
Ġcr umb
Ġcr umbs
Ġout of
Ġar tery
Ġab ack
Ġlo ans
Ġlo bby
Ġlo bster
Ġbr uce
Ġbr istle
Ġen zyme
Ġwho a
Ġsm ug
Ġro gue
iv il
igh ed
au te
Ġjo es
Ġsl ut
Ġsl ides
Ġthr ows
per se
Ġcar ing
Ġdes ir
Ġsw inging
Ġins ight
ber ries
ank y
od d
Ġres ides
Ġcre ws
Ġhand les
Ġcomp ressed
Ġcomp oser
Ġsur ve
Ġass aul
que ts
Ġhel ping
Ġdri lling
Ġdef er
see med
Ġair craft
Ġz inc
Ġacc use
Ġfree zing
Ġmus ter
Ġdear ly
Ġref uses
Ġcal cium
Ġdev ote
Ġdem ons
em er
Ġsqu ares
Ġdiv ing
Ġlar gest
Ġtas ted
Ġje alous
Ġfa una
Ġbal anced
Ġbas il
Ġcow ard
Ġble ach
Ġdin ners
Ġtom atoes
Ġdisc ard
Ġmusic ians
Ġsum mon
Ġworks hop
Ġsin ister
Ġsucc inct
Ġbox es
Ġlives tock
Ġur ban
Ġdim ension
Ġsil very
pers on
Ġinf o
Ġcent re
Ġsuit able
Ġpath s
Ġemploy ment
Ġtor to
Ġmum my
Ġstor age
Ġsport ing
Ġproduc es
Ġpill ow
Ġcult ural
Ġdwell s
Ġgrin ned
Ġrat tle
Ġsuc ceeds
Ġpack ing
Ġchap ter
Ġmaid ens
rie ve
Ġmud dy
Ġscar ce
Ġpup py
Ġpoison ed
fr ank
Ġau k
Ġvar ied
sure ly
Ġamaz on
Ġsuck er
Ġperform ing
Ġreview s
Ġinvest ments
Ġtact ic
Ġdash ing
Ġpear ls
Ġlog ical
ophob ias
Ġmart y
Ġopt im
Ġhi king
Ġnic he
Ġgam bling
Ġsli ps
Ġadmir ation
Ġgym n
Ġbotan ist
Ġflav our
Ġfert il
Ġdepl ore
Ġveget able
Ġkitten s
Ġlibr ary
Ġwalt z
Ġlaunch ed
Ġfranc is
Ġexec ution
sad ly
Ġrecomm end
Ġemper or
Ġinher it
Ġvamp ire
Ġportra it
Ġstyl ish
Ġclums y
Ġoutrage ous
Ġenorm ous
Ġshod dy
Ġathlet ic
Ġadren al
Ġprocli vity
Ġprogn osis
Ġfash ions
Ġbese ech
Ġsatur day
b ind
b ugs
c ab
c ine
c ool
d et
d ise
d irty
f il
f les
f lo
g otta
h om
l ose
m ont
m ist
n ys
p ark
p rop
s os
s me
s ug
s uff
t i
t an
t uce
u ten
w o
w orn
x ual
in os
Ġs ash
Ġs aints
te p
Ġc ort
Ġc uddle
Ġc zech
Ġw end
Ġb b
Ġb rom
Ġthe rap
Ġm akin
Ġm ichael
Ġh ump
Ġh ailed
Ġi e
Ġf es
Ġf oots
Ġf lights
Ġt ween
Ġd ic
Ġd ich
Ġd ale
at ile
an im
Ġp am
Ġp ung
ing er
Ġl ined
Ġg ert
ic ations
ve led
al is
al ism
it i
it as
ri ly
Ġst ings
Ġst air
Ġon ions
am ine
Ġwh iff
Ġre el
Ġre tr
Ġr ut
Ġr ants
ch rom
im ag
Ġde ple
Ġch ock
if ting
Ġo ils
Ġk ay
Ġhis s
pe ak
rom an
Ġno isy
ol ish
st ate
Ġpl oy
Ġsp awn
Ġbl at
Ġbl ab
for mer
Ġv ase
one ys
are l
Ġtr ot
ig raph
Ġsu ite
Ġsu cked
Ġcon ch
our se
ach y
Ġcom a
Ġqu ir
Ġqu its
Ġqu otes
Ġco con
Ġcr otch
Ġy ards
Ġshe ath
Ġup tight
Ġab ility
Ġbr ows
Ġbr ats
Ġad o
be come
Ġen gr
Ġen vy
Ġpro ven
Ġgre eting
Ġpr inted
Ġgu ine
Ġgu ff
Ġpo ise
au ts
Ġhad es
cl ed
me al
no tes
Ġpe asant
Ġsl ed
bl ings
Ġke l
ors es
Ġbre eds
Ġfr action
Ġcar ving
Ġper m
Ġsw ill
Ġsw ind
Ġsw agger
ten ance
Ġback ing
Ġfo c
od ing
Ġres olve
Ġbri ghten
oc ation
Ġbet ting
Ġsn ar
Ġsn ails
Ġdec ry
Ġdec rees
co ver
Ġevery things
Ġdef ault
Ġact ivity
Ġcra fts
Ġbed ding
Ġrun ner
Ġacc us
Ġsch ol
Ġcol ored
Ġcol onel
Ġer ud
pr ay
pr ise
Ġbur gers
Ġlad ys
Ġadv antage
Ġhor ror
Ġsupp ress
Ġmen u
Ġsing ers
fl ower
lip se
Ġmom my
Ġcount ries
Ġfat ty
Ġchild hood
oph y
Ġhit ler
Ġchr ys
Ġtrans gress
Ġcy to
tern ation
Ġfore bears
Ġclean er
Ġmed ium
Ġent re
Ġspeak ers
Ġthri ves
Ġleg end
Ġreg ime
Ġlab els
Ġlearn s
Ġchurch es
Ġign ite
Ġbuild ers
Ġach ing
Ġsuff ering
Ġconv iction
Ġder ived
Ġcorn ers
Ġgro ans
Ġexam ined
Ġamb ass
Ġrot ation
pre h
Ġsnow s
Ġfig ured
Ġweek end
Ġalas ka
Ġcent ury
Ġelse where
Ġtechn ology
Ġbath room
Ġpurs uing
Ġloc ale
Ġbes et
Ġkick ing
Ġrob ust
outs ide
Ġstat istics
Ġclown s
Ġseas ons
Ġaccount ing
Ġau x
ogen ous
Ġtun nel
Ġdre ary
Ġlit ter
char les
Ġfee ble
Ġinvest ors
Ġpoo h
Ġapt ly
Ġvent ure
Ġoper ation
Ġfi end
Ġfi ber
Ġjim my
Ġsymbol s
Ġgrain s
Ġbin ary
Ġinfer red
Ġswee theart
Ġdrip ping
elect ric
Ġscient ist
Ġanch ors
sup er
Ġdecor um
Ġjun ior
Ġchim ney
incl ude
Ġgour d
Ġstitch es
Ġbehavi ors
quick ly
Ġdispar age
employ ed
Ġdoe uv
Ġplumb ing
Ġsmar ter
Ġequip ment
Ġhym n
Ġconfir ms
Ġcroc od
Ġinfect ions
Ġprinc ipal
Ġbicy cle
brit ish
Ġinfin ite
Ġpud ding
Ġstur dy
Ġmete or
Ġtou pee
Ġethere al
zab eth
b ite
c ot
c et
c ult
c amp
c ott
f ied
f rench
f oll
f itting
g or
h ail
i ology
l ink
m aker
n u
n els
o ed
p us
r ub
s ans
t as
t ys
t age
t ailed
v ies
in ction
Ġs ally
Ġs ane
Ġb ender
Ġm ite
Ġm aw
Ġm af
Ġm eds
Ġm oles
Ġm akers
Ġh ints
Ġh ilar
Ġf ul
Ġf ath
Ġf ug
Ġt rom
Ġd ac
Ġd uch
Ġd off
Ġd uel
Ġd azed
or ia
is an
Ġp ly
Ġp int
Ġp icks
Ġp iles
Ġl ull
Ġg ird
ad as
Ġst ung
ir led
am ese
Ġwh ys
Ġr ails
ch lor
Ġj oseph
ver ts
ro lling
Ġch an
Ġan us
Ġan oint
Ġo ys
se cond
Ġas under
Ġse ams
ers on
um per
we e
Ġcan y
Ġcan ada
st ands
Ġpl atter
Ġat tent
Ġat tended
ab el
for ty
Ġv end
Ġv oy
Ġv io
ast roph
so le
Ġtr ough
ant ine
Ġfl ustered
ie re
Ġgr uff
Ġco vet
ag les
Ġal chem
Ġbr ist
Ġad ores
Ġbut ler
ost ic
Ġen ters
Ġun ra
Ġun bear
Ġap ace
Ġro ds
igh e
Ġgu ides
Ġmo ths
Ġche ery
no ld
Ġwell s
Ġag g
Ġag enda
Ġem bell
iss ions
bl own
Ġgl itch
Ġgl ued
Ġpre ference
Ġper p
Ġper th
Ġper mission
Ġif s
urn al
Ġres olved
Ġple ases
Ġple ading
man n
man nered
ats on
Ġcomp ly
Ġover due
Ġsur vey
Ġsn ort
Ġsn uff
Ġter minal
Ġca ress
Ġbad ger
Ġcomm a
Ġcra ze
Ġstar red
Ġlim ited
Ġcons cious
Ġsweet ie
Ġchar coal
cre ation
Ġexp ans
Ġdist raction
Ġnor ms
ric ted
Ġlad der
Ġround s
Ġve h
Ġver tical
Ġind o
Ġsqu id
Ġsle eves
Ġsho res
Ġbra kes
Ġtop ped
Ġcell o
Ġlot ion
Ġstra te
Ġcry pto
Ġfac ial
Ġfac ility
Ġfour teen
Ġform ing
Ġstand ards
Ġspr uce
Ġbill ions
oph ile
Ġadm in
call s
Ġwond ered
Ġlive ly
Ġcow boys
Ġhur led
Ġthri ft
Ġlaugh ing
Ġmor ose
Ġrock y
Ġbox ing
Ġstick ing
Ġtruth s
att an
Ġdread ful
ograph ers
Ġblock ing
Ġval u
Ġcrack er
Ġkno ts
Ġmilk y
Ġpig ment
Ġsym ph
Ġflu ids
Ġpeace ful
Ġdom estic
Ġcock tail
Ġwre t
Ġtit les
Ġtor ment
Ġprev ails
Ġbon net
Ġmatch ed
Ġax is
Ġuns ur
Ġbes ides
Ġdece ive
Ġnet work
Ġsam ples
Ġproduc ing
Ġcrap py
Ġdull er
Ġbrief ly
Ġnat ives
Ġdrain s
Ġstat ue
Ġjud ged
osp heres
Ġconstr ucted
Ġaer ial
ha ired
Ġinstr uction
Ġmac beth
Ġrab bits
uv ian
Ġdrown ing
Ġearn est
Ġcontr ary
Ġsusp icious
Ġdiscuss ed
Ġdiscuss ion
Ġpsych ology
Ġassist ant
Ġshri ll
Ġscot ch
Ġdub ious
Ġsyn thetic
Ġemer ged
Ġwis er
Ġvow els
Ġbru ise
Ġthread s
Ġglo ves
Ġconduct or
Ġwand ered
Ġcondem ned
Ġtang led
fell ow
catch ing
Ġpersu asion
Ġard or
Ġsimpl istic
Ġwrink led
Ġeigh th
Ġacet yl
Ġeup hor
Ġexplos ive
lad en
Ġbing o
Ġeaster n
Ġchees es
Ġlic ense
Ġresto red
plan ned
Ġancest ors
Ġacce pted
Ġsust ain
alex ander
Ġfulf ill
Ġforb idden
Ġmoll us
Ġbegg ar
Ġbikin i
Ġvul gar
Ġpharm ac
Ġenth used
Ġmund ane
Ġdisci pl
Ġcolog ne
b ub
b arr
b rid
c ars
c asting
d ot
h aw
h anging
j or
l asting
m ation
n ames
p ower
s il
s outh
t oss
u an
u ence
y an
Ġ ump
Ġc ack
Ġc ower
Ġb if
Ġb owed
Ġm d
Ġm ong
Ġm uc
Ġm ums
Ġh icks
Ġf ists
Ġt ilt
Ġd ood
Ġd ane
Ġd yes
Ġd ilem
or ation
or gan
is ons
Ġp us
en ces
Ġl ava
Ġg utter
Ġg lib
Ġn ome
Ġn ate
Ġn av
le m
ic ul
ic ates
al ds
ac ade
it us
Ġe we
Ġbe ad
os ters
Ġst amp
Ġst umble
id uous
Ġhe x
Ġhe irs
am an
am us
Ġre ass
ch urch
all s
Ġfor bid
Ġj og
to be
ro gen
Ġch ass
Ġch ile
Ġch ort
Ġch imp
Ġcan ary
Ġno bel
ol ent
st al
st arts
ul k
Ġso cc
Ġso aked
Ġthis tle
Ġsp ed
Ġv ie
op od
ant ial
ig an
ig ate
ig ence
ig ma
Ġte les
Ġfl ushed
el ine
Ġqu ant
Ġqu ail
Ġqu ery
Ġgr amps
Ġco ot
Ġco des
ick y
Ġout dated
Ġy on
Ġy all
Ġad rift
be an
be ats
ip ation
Ġam ate
Ġap oc
Ġap ril
Ġri pped
Ġri dge
Ġpr ude
Ġcall ous
Ġro be
aw ful
igh tened
Ġtw ain
Ġmo cked
cl oud
Ġsl ouch
Ġcle ft
Ġcle avage
Ġcar te
Ġdes ires
Ġback ground
Ġste aks
Ġres ign
Ġcre ations
Ġbar o
Ġbar rels
Ġmar ge
Ġmar red
Ġmar ital
Ġcou l
Ġcomp osed
Ġcur m
Ġcur ses
Ġover weight
Ġsur ly
Ġpain fully
will iam
Ġpart icle
Ġdec reed
Ġca ter
ary n
Ġapp arel
Ġconf idence
Ġcra zed
Ġred s
Ġair y
Ġlim ricks
Ġcons cience
Ġexp enses
Ġhot ter
Ġless ons
Ġgra ves
Ġve y
Ġver min
Ġind ia
Ġind ex
Ġind ians
Ġdam es
Ġclass y
Ġhor de
zz led
Ġbra gged
Ġdiv a
cle ver
Ġsub mission
Ġbuy ers
Ġmon str
Ġclo ak
tem pered
Ġmet rical
Ġearth ly
Ġje ez
Ġmad am
Ġdream ing
Ġtrans mit
Ġever green
Ġdie ts
Ġbas k
Ġfore head
Ġdoc ument
Ġdire ctors
Ġdin osaur
Ġpos ed
Ġterm ites
Ġcast les
Ġprom otion
Ġdisc ord
Ġmer c
Ġmer it
Ġfarm ing
Ġopen ing
Ġrev olution
Ġsus pected
Ġsand y
Ġens l
Ġens ue
Ġdet ract
rel ated
Ġprop osed
put ting
Ġinf ant
Ġcharm er
Ġsuccess ful
Ġscre ens
Ġposs ession
Ġhall ow
Ġpun s
Ġsen ator
Ġconne cted
wood s
uri a
Ġmot if
Ġec lipse
Ġcher ish
Ġthanks giving
Ġbul ge
Ġhost ility
Ġdisgr aced
Ġappl ication
Ġsmo kes
Ġaccount ant
Ġuncle ar
aur us
Ġcompe lling
wr itten
Ġanno ying
Ġsusp ension
Ġsusp icion
Ġcryst alline
Ġmir rors
da ily
dri ve
Ġing red
Ġpier re
Ġske let
Ġut most
Ġgran ite
Ġcontro ls
tow ards
Ġcliff s
Ġbish ops
blood ed
Ġpuzz led
Ġenemy s
Ġfurn iture
Ġrig id
Ġmanage ment
Ġcompass ion
Ġvirt ue
Ġexha usted
Ġcontri ved
drink ing
Ġbrid ges
Ġexhib it
Ġinteres ts
Ġpim ple
Ġcompreh end
Ġced ar
gold en
Ġtrump et
Ġarthr itis
Ġglut ton
Ġprud ent
Ġrecogn ition
Ġentire ly
circ um
Ġslipper y
Ġcep hal
Ġmoz art
oub tedly
b ond
b aked
c oc
e ase
f unction
g ues
g ently
h r
h ire
i ors
i oc
j acks
l ain
m ag
m atch
p ath
p aper
r at
r ose
r ace
t os
u als
v ir
v ate
v ah
w w
x ie
y x
Ġ oops
th ick
re prod
Ġc est
Ġw atson
Ġb ist
Ġb akers
Ġm ous
Ġi q
Ġi cy
Ġt ai
Ġt angle
Ġd ian
es c
an ous
as ions
Ġl ug
Ġl aps
Ġl ining
Ġl ilies
Ġl ofty
us cious
al one
al ist
and ers
ac cept
Ġe els
Ġst acks
Ġst oned
id ian
Ġhe brew
Ġwh ims
Ġre vered
Ġr it
oo ch
Ġsh ag
Ġsh attered
un ked
ur ally
to re
Ġch i
Ġch ast
Ġo ption
se ction
Ġas ton
Ġk ilt
Ġse ab
Ġse lected
Ġne ater
rom es
Ġcan ce
Ġcan cers
Ġpl ung
ul ant
Ġso ot
ap y
Ġher ds
Ġher ring
Ġdo ze
Ġsp aghetti
Ġbl aze
Ġv on
Ġcl ash
ant ip
ig er
Ġsu ited
Ġfl akes
Ġbo a
el se
Ġqu irk
Ġex ists
Ġex ternal
Ġgr aces
ud a
Ġy am
Ġy ak
Ġar ach
ag us
Ġour selves
Ġal arms
fe re
Ġad ults
Ġad verb
ip t
ip ed
Ġun ited
Ġun iform
Ġap ric
Ġap oll
Ġpr inter
Ġsm ear
Ġsm ashing
de al
sh arp
Ġnow adays
ms on
act ing
cl ing
Ġpe w
Ġsl ot
Ġsl ate
Ġsl ices
Ġdown ward
Ġthr all
ool s
Ġdes ist
Ġaw l
Ġfri dge
Ġend ured
Ġmust nt
int on
gg les
oc hem
Ġcou ples
iz er
iz ations
Ġbet a
Ġbro c
Ġsn atch
Ġge or
br os
Ġrep et
Ġcont rite
gr am
gr ows
tes que
Ġapp reci
see k
Ġconf ound
Ġimp lied
Ġred uction
Ġz en
Ġrun ny
Ġcons pir
lo id
Ġcol t
Ġball oons
app in
Ġant iqu
Ġflow ering
Ġgra pple
Ġpur ge
Ġgrow l
con str
Ġed itors
Ġpoor ly
Ġfin ance
Ġstra p
Ġmin ers
ex c
Ġeye br
Ġbat tered
po ken
Ġprof use
Ġrel ent
Ġearth qu
gu arante
Ġsign ature
Ġfa ze
Ġyell ing
Ġadm on
Ġhar ass
Ġmad ness
Ġstrong ly
Ġmess ed
Ġden ote
Ġda is
Ġbas es
Ġef fe
yl van
Ġhur ric
Ġsol utions
Ġdig its
Ġfil ter
des ert
Ġrul er
Ġrul ing
Ġpu ke
Ġcomplain ts
Ġbuild er
Ġeng ender
Ġbag gage
pro ved
Ġcatch es
Ġsick ly
Ġsucc ulent
Ġdish on
Ġshall ow
Ġbor rowed
Ġgas p
ony ms
Ġattack ing
ann el
ann ies
Ġcas ket
Ġspeed y
Ġopp ose
Ġsens ible
Ġconst itution
Ġju ices
Ġenjoy ment
Ġast rol
Ġinter pre
Ġimm ature
Ġbod ily
Ġtail or
kin ned
Ġfut ile
Ġmem orys
Ġstro kes
Ġfort unes
Ġtit anic
Ġcree ping
Ġvol unte
Ġuns ure
Ġfrown ed
hy dro
Ġcad aver
Ġcontin ues
Ġvan ish
Ġbul bs
Ġpack age
Ġdum ps
Ġru ins
Ġcarry ing
Ġcart ilage
Ġalarm ing
Ġdete cted
Ġped al
abs or
sl ow
Ġdre gs
Ġgirlf riends
Ġlisten ing
Ġpoo ch
Ġgentle man
Ġsi oux
Ġfav ored
Ġprotect ing
Ġgown s
vol ent
Ġtwe et
Ġtes s
Ġopt ions
Ġoffic ers
Ġcit rus
Ġengine er
gain st
Ġinfer ior
Ġpul p
Ġcha otic
Ġabstr use
Ġbaw l
Ġfoss ils
Ġecon omy
Ġbarb arian
Ġtan ned
Ġclar ity
Ġastound ing
Ġadj our
Ġwid ow
Ġmuse um
Ġfib ers
Ġdur ation
Ġinj ured
Ġalle ge
Ġaus tere
hab it
Ġconven ient
Ġtuck ed
Ġextens ive
decl ared
Ġmicros cop
Ġestabl ished
Ġexplo it
Ġenli ghten
Ġquer ied
child ren
Ġcitiz ens
Ġnewsp aper
Ġtib et
Ġdisarr ay
Ġenz ymes
Ġlincol n
Ġoint ment
Ġcaut ious
accord ing
Ġshamp oo
Ġvod ka
Ġtran qu
Ġmaf ia
b ank
b bles
c ow
c ake
c und
c urs
d al
e arn
i rie
k ings
l at
l ocks
l eng
m i
m ale
m ilk
r ising
s ound
s cr
t ouch
w re
w ort
w hel
th ird
Ġa while
Ġa verse
in vol
Ġs ams
Ġs aul
te le
Ġth und
Ġb is
Ġb ending
Ġm ould
Ġm ick
Ġf um
Ġf used
Ġf angs
Ġt am
Ġt icks
Ġd ally
Ġd uff
Ġd avy
Ġp ens
Ġp uck
Ġp ater
en ters
Ġl an
Ġl osers
Ġn our
Ġn ub
Ġn aps
le xic
Ġin tens
it ical
it led
Ġe po
ad en
ad os
ad ors
Ġbe ech
he mer
Ġst unk
Ġst ares
Ġst ages
am ation
Ġis les
ly mp
ter ous
Ġsh atter
ce le
Ġde x
Ġde le
ur g
Ġj os
ro ot
ro id
Ġch aff
Ġan ci
Ġo ct
Ġo lymp
se ye
Ġas per
Ġk ite
Ġk idding
Ġne ct
li ze
ct ing
ol ine
Ġall ay
Ġall oy
ab led
Ġdo th
Ġsp ry
Ġsp ends
Ġsp icy
Ġbl az
Ġim bib
for ced
Ġfe ck
Ġfe ign
Ġfe ces
Ġv ult
Ġv atic
Ġle aks
Ġle mons
op t
op at
op per
Ġcl av
Ġcl air
Ġcl usters
Ġtr ading
ist ine
Ġfl ore
Ġfl oss
Ġcom ics
Ġqu o
Ġgr udge
Ġcr um
Ġy onder
Ġar res
Ġsc owl
Ġal ge
Ġab r
Ġab ras
Ġdis close
Ġad ap
Ġad vert
be ck
ip ate
Ġun true
Ġun common
Ġri te
Ġpr ank
Ġwhen ce
Ġro oster
Ġbu rial
sh ire
sh outing
Ġtw ill
Ġtw ould
Ġac comp
Ġhas ten
Ġmo ons
me at
Ġche vy
ang ar
Ġag on
Ġsl ay
Ġneed y
Ġsk is
Ġday dream
Ġgl aze
Ġgl imp
Ġgl itter
ves ted
Ġper verse
Ġper force
Ġsw orn
Ġaw aken
Ġstr ands
arm a
Ġste llar
Ġmar ched
Ġid iot
Ġfirst rate
Ġcomp unction
Ġover s
Ġbig gest
do or
bo ld
Ġrep airs
Ġpart ys
Ġdec isions
Ġdi arr
Ġdef iance
Ġlast ing
Ġsup ers
Ġdou bles
get ic
Ġcho oses
Ġpar li
Ġtra pe
Ġer ase
umb ers
Ġmus cular
Ġfear ing
Ġant it
Ġfell ed
ater al
Ġgra vy
Ġbur g
Ġlad en
Ġver d
Ġdev ices
Ġind uce
Ġhor iz
zz ard
Ġsle w
Ġsal ty
Ġtur f
Ġtur tle
Ġstre wn
Ġstra it
Ġsub d
Ġdel hi
Ġbat ting
po ints
Ġext ol
Ġrel ative
Ġfool ed
why d
Ġdecl ar
Ġdecl ined
Ġban ner
Ġban quet
Ġcolle ctor
Ġma thematic
Ġfam ilies
add s
most ly
Ġden otes
Ġda ze
Ġpen cil
Ġbow ers
Ġbas in
Ġpol itic
Ġpick y
Ġpray ing
Ġhop in
Ġhalf way
Ġworth while
Ġang st
Ġrhy th
Ġcro on
Ġra ises
Ġdeb on
car tes
Ġshr unk
Ġfix ing
Ġmal icious
teri al
Ġfer ment
Ġrain ing
Ġger mans
Ġship ped
Ġur gent
Ġfur y
Ġkid ney
Ġhy po
Ġhide ous
pre fer
Ġcu z
Ġport ion
Ġens ued
Ġtrick ed
Ġprop ri
Ġaud it
Ġcos met
Ġunderst ands
Ġouts t
Ġsurv iv
Ġsurv ives
Ġpor cel
Ġesc aped
Ġstress es
Ġrepe ats
cont rol
por ted
Ġtum ors
Ġincre asing
Ġincre asingly
Ġwhis k
Ġpi geons
Ġtar gets
pass ing
nor th
Ġstink ing
Ġacqu aint
Ġbehav ed
Ġhun ters
Ġsed uce
Ġscar f
Ġflee ce
ste p
Ġaqu atic
Ġcub ic
Ġbind ing
Ġpa ired
Ġsink ing
Ġsusp ended
Ġswitch ed
vet te
bur g
Ġchip per
Ġing est
rich ard
Ġattend ing
john ny
Ġoffic ial
Ġgig antic
Ġcoo per
Ġgam ble
Ġinfer nal
Ġcran ial
Ġtyp ically
Ġprogr ams
Ġaustral ian
Ġneur otic
dec ided
Ġnum bered
Ġzeal and
Ġprescri bed
Ġfurn ace
Ġmons ters
Ġassum ing
Ġoccasion al
Ġdimin ish
Ġtort ure
Ġsher iff
belie ve
Ġcrank y
Ġfract ure
Ġcosm os
loc al
Ġchau cer
Ġprick ly
Ġarchite cts
christ mas
flow ers
Ġvig or
Ġresto re
Ġoc to
Ġconten ts
Ġire land
Ġproced ure
Ġrepeated ly
Ġcerebr al
Ġshepher d
Ġgul p
auth or
Ġresour ces
Ġfatig ue
fif teen
Ġstrang ers
Ġborde aux
Ġbrav ado
Ġbened ict
Ġlect ures
Ġperpet ual
Ġcathed ral
Ġalumin um
Ġsopr ano
Ġunsur passed
Ġglimp se
c am
c ass
c ure
c ents
c ision
d ads
e ys
f amous
i bles
j ane
j ames
l en
l ins
m ong
m ichael
n in
n on
n ish
o ir
p ure
p oss
p aying
r ans
s ar
s ang
s erves
t ied
u z
u fact
w right
in ian
in ty
Ġs ut
Ġs ands
Ġc d
Ġc ys
Ġc ider
Ġw aving
Ġb akes
Ġthe ore
on ous
Ġm un
Ġm ace
Ġh ives
Ġh ugs
Ġi p
Ġi vy
Ġf ax
Ġf awn
Ġf oster
Ġt ides
Ġd j
Ġd s
Ġd os
Ġd ual
es cent
at tr
is ive
an no
Ġp on
Ġp ion
Ġp ars
Ġp udd
Ġp sal
en ger
ar ius
Ġl ud
Ġl enses
Ġg ait
Ġn ed
Ġn ab
Ġn ailed
Ġn aming
Ġn ifty
Ġn ymph
le gs
ic o
ic ting
us er
gh e
Ġe u
Ġe ins
Ġe lope
Ġbe que
ri g
ri um
Ġst ank
Ġst ump
Ġhe in
Ġhe ctor
am id
Ġre in
Ġre new
Ġr ape
ro y
Ġch it
Ġch ad
Ġch amb
Ġan es
Ġo be
Ġo clock
il ian
il oqu
Ġk idd
ill ion
ill ery
Ġou ch
um bered
Ġnot ions
ough s
ain ty
Ġno v
ol ving
Ġpl under
ul ates
Ġsp ore
Ġsp arks
Ġsp ikes
Ġbl as
for ward
Ġv and
op sy
ast ron
Ġcl ut
Ġcl unk
est rian
Ġtr s
ant gard
ig inal
ist a
Ġfl ir
Ġfl ake
Ġfl ung
Ġbo os
Ġcom fy
Ġqu ot
Ġqu ib
Ġex or
ud dy
Ġcr ot
Ġcr me
Ġout put
Ġar bore
pl astic
Ġsc ents
Ġsc attered
be c
Ġbut tocks
Ġun re
Ġun wind
Ġam our
Ġri fle
ort ions
me m
Ġpe ren
Ġjo ckey
Ġsl ing
Ġsl ower
bl o
Ġke ith
Ġday light
Ġfr amed
Ġfr iction
Ġcle arer
Ġthem es
Ġcar ve
Ġaw ash
od yn
ord es
Ġhead ache
Ġple asing
Ġbri be
Ġph all
Ġbar g
Ġbar tend
Ġmar keting
iz ing
ush ing
uff s
Ġcur s
well ing
com ple
com preh
Ġsn ip
Ġge eks
Ġund o
Ġund oubtedly
Ġass ass
Ġrep lies
Ġrep resent
Ġcont ag
Ġdec ks
Ġhel en
Ġdef y
Ġcomm ence
Ġlet tuce
Ġcare ers
Ġsup per
Ġtri vial
Ġimp oss
Ġlim rick
Ġz ig
Ġz ool
Ġbed e
Ġappe ll
Ġdra gging
Ġcons iders
Ġcons ternation
lo ads
az i
Ġtra vels
Ġchar ter
Ġball istic
Ġmiss ile
Ġbur ger
Ġver te
con ce
Ġgri me
Ġgri eve
Ġel bows
Ġsle igh
Ġsal ts
Ġvo ted
Ġinv aded
Ġstuff ing
Ġret ort
Ġret ribution
Ġabs cess
Ġpres ented
Ġce ases
Ġpers ist
Ġpers pective
Ġwish ing
Ġyes ter
Ġje ff
Ġchild s
Ġma ze
Ġmess y
Ġden ial
Ġcool ing
Ġpen n
Ġfel icity
Ġent reat
Ġhur ting
Ġsol ar
ma jor
Ġpat rol
Ġdisp utes
claim s
Ġprom inent
Ġpet ty
Ġgal ax
Ġmist ress
Ġtom ato
Ġequ ator
Ġmer ge
Ġsin ner
Ġarch ae
Ġdeli very
Ġstrange ly
Ġbank rupt
uel ess
Ġterri er
Ġopp osed
Ġhy d
Ġsne ered
Ġfresh ly
Ġpan ache
Ġfro nd
Ġcommon place
Ġbold ly
round ed
Ġsav age
Ġaud io
Ġimm une
Ġsym met
Ġrub ble
Ġrub bed
Ġyellow ish
Ġpor ter
Ġtor ch
Ġprev ious
Ġmention ed
Ġdiss olved
Ġapart ment
Ġloc als
Ġx ray
Ġbomb ard
Ġrob in
Ġrob ot
Ġtar ry
Ġmood s
Ġvac u
Ġauth ent
Ġinst ant
Ġinfl ation
Ġcav ort
col or
Ġconsum ers
Ġpassion ate
Ġmut ual
Ġflee ing
Ġmort al
Ġremark ably
Ġsore ly
Ġfrequ ent
ival ent
far ious
Ġsuck ing
Ġchemical s
Ġscratch ing
Ġflaw less
Ġfung al
rod ite
Ġspark ling
Ġchuck le
Ġmoder nday
Ġjell o
Ġcollect ive
Ġath lete
ophob ic
lif ting
Ġresem bled
Ġcuis ines
Ġstomach s
Ġcommun ist
Ġcustom er
Ġdisgu ised
Ġachieve ment
Ġmil it
Ġfores ee
Ġcens ure
Ġsar c
elect ron
Ġmyst ique
Ġesche wed
Ġpluck ed
Ġdetect ive
Ġspect acular
Ġante lope
Ġhaw ks
Ġdipl om
Ġtrave led
Ġeli x
Ġarrange ment
Ġadop t
Ġarab ian
Ġfors ooth
Ġzip per
Ġcompet itive
Ġjewel ry
Ġski ing
Ġcalcul us
sor ry
Ġfrag ile
Ġket tle
ij ing
Ġfuzz y
Ġcommer cial
Ġbov ine
Ġhydro gen
Ġmosquit oes
californ ia
Ġfount ain
Ġpuss y
Ġentw ined
Ġimmers ion
Ġbaz aar
Ġplas tered
Ġfloo red
Ġfris ky
Ġcres cent
Ġmead ow
Ġoutdo ors
Ġscour ge
Ġupst airs
Ġbagp ipes
Ġphen omen
Ġquart z
Ġsmid gen
Ġdast ardly
Ġlique ur
Ġextre mes
Ġacknow ledge
Ġtorto ise
Ġhallow een
Ġnect ar
Ġporcel ain
Ġbeque ath
b iting
c and
c ort
c ution
d ust
d ick
d ash
d ancing
e ye
h air
h ang
i be
m il
m ens
n ia
o oned
p i
r ug
s ou
s oft
t ax
u ations
v ish
w an
w aters
Ġa but
in f
in als
Ġs ated
Ġw ry
Ġb ise
Ġb ower
Ġthe ra
Ġm ul
Ġm ason
Ġh ive
Ġf ont
Ġf aw
Ġf ins
Ġf ift
Ġf ades
Ġt ac
Ġt ink
Ġt ues
er ys
ll i
or ically
Ġp ag
ing es
Ġg os
Ġg aw
Ġg aps
Ġn ash
le af
Ġand y
Ġand or
al f
ac ial
ot to
ut able
Ġst ove
Ġst aged
Ġwh acked
Ġmy r
ch ir
ch oc
ch ris
Ġsh udder
un s
un aware
Ġfor age
ur able
res cence
Ġch ester
Ġo ats
Ġo live
il ant
Ġk ong
ill in
Ġne farious
pe ls
li th
li qu
we et
Ġcan ny
ol ation
ol ics
Ġpl ough
ab dom
Ġdo lly
Ġfe ud
Ġv oting
op ath
Ġtr ance
Ġtr action
Ġsu ed
Ġfl ags
Ġfl aming
Ġfl aunt
Ġbo ll
Ġqu ix
Ġex ams
Ġgr unt
Ġco ch
Ġco ined
Ġcr amps
Ġcr inge
Ġup s
Ġup ward
Ġar ctic
ag og
ace a
Ġsc en
Ġsc oo
av id
Ġal ack
Ġab ortion
Ġlo d
Ġlo on
Ġbr ach
Ġen rich
Ġun cles
Ġun aware
Ġsm other
de e
sh ut
Ġtw irl
Ġac oustic
Ġmo at
Ġpe g
Ġpe aches
Ġag gra
Ġsl ant
Ġsl ash
oss al
Ġke el
Ġbre ws
Ġcle ared
Ġper ks
Ġper iod
Ġsw ap
Ġsw oop
ub bed
Ġlif ts
Ġstr um
Ġstr ayed
Ġaf fects
Ġbar rier
Ġmar row
ls on
Ġcomp ensation
Ġcur d
Ġsn ig
Ġass essed
ict or
Ġrep ay
Ġsup ple
Ġtri fle
Ġtri bute
Ġfar ts
Ġair port
Ġz its
Ġappe ase
Ġcor ros
Ġlight ing
Ġcap ric
Ġer os
Ġer up
Ġmiss iles
arn ish
dd le
pr act
Ġcut ter
Ġnor we
Ġrec ipe
Ġbur row
gl ad
con c
Ġed en
Ġsqu all
Ġsad istic
Ġhor rid
che l
Ġbab oon
Ġcell ul
Ġcold er
Ġpres erve
Ġmin imal
fl at
lip ped
Ġpers istent
Ġspr outs
Ġsign ificant
Ġcomple ted
Ġev o
Ġje er
Ġadm its
Ġhar ang
Ġmad ly
add led
Ġking dom
Ġcy cles
Ġcy lind
Ġpol ished
Ġpol icy
keep ers
Ġsol es
ilt on
Ġdig s
Ġdig ress
Ġpot ion
Ġshr ine
Ġmer chant
Ġber ate
Ġmal ays
Ġprov iding
wel come
Ġshock ing
Ġamb ul
Ġsens ations
Ġbum ble
Ġbum ped
Ġprop osal
Ġinf ested
acious ly
Ġdar ned
Ġcamp us
Ġfut ility
ops is
Ġenc ir
Ġcock ney
Ġwre cks
Ġgle am
mar ried
Ġtwenty four
Ġmaj est
Ġbark ing
Ġsplit ting
di agn
Ġhun ts
rie ved
ox y
Ġleaf y
Ġconsum er
ament al
Ġcompe lled
Ġtim ing
Ġcontr ad
Ġdre ck
Ġdre amed
Ġbacks ide
need ed
Ġflood s
Ġspark le
Ġtrop ics
nes ia
Ġburst ing
Ġfi br
Ġhorri bly
Ġpolit ics
Ġchris to
Ġjac ques
Ġnic kel
grand pa
Ġtack le
Ġcens or
Ġpy ram
Ġted dy
Ġviol in
Ġanal og
Ġpolite ly
Ġmyth ical
Ġbatt al
Ġdefend ant
Ġaber rant
Ġfurn ish
Ġsof a
Ġgener ation
Ġinstruct or
Ġhaw ai
Ġank les
Ġsquir ms
field s
Ġeli zabeth
Ġwrink les
Ġparas ites
Ġtig ers
Ġintell igent
osa urs
Ġchau ffe
wal ks
Ġnix ed
Ġflex ible
Ġtransl ation
cook ed
Ġrefle x
Ġaccompl ish
Ġaccompl ished
Ġcert ified
bish op
Ġga ily
Ġtodd ler
Ġaccr ue
Ġador ned
Ġbrig ade
Ġindust rial
Ġchromos ome
cuss ion
Ġtox ins
Ġappoint ment
Ġcalend ar
Ġlaund ry
Ġoli ver
Ġdolph in
Ġchub by
Ġchur l
Ġmanh attan
Ġpean ut
Ġbure au
Ġvide o
Ġyol k
Ġlous y
culi ar
Ġafflic ted
Ġumbre lla
Ġlibid o
Ġcocon ut
Ġengr ossed
Ġfoc used
Ġsocc er
Ġbaro que
Ġdebon air
a unch
b il
b ang
c ind
e yes
f arm
j esus
m ac
m ary
m oms
n ings
p ap
r ane
t u
t z
t ive
u ters
v ention
x ious
Ġa ired
Ġa hem
in x
in ine
in ence
Ġs ill
ou fl
Ġw ager
Ġb athe
on to
Ġm ink
Ġm ites
Ġm ien
Ġm ounted
Ġh ann
Ġh ordes
Ġf als
Ġf ickle
Ġt aint
er os
er ting
Ġd end
Ġd ank
Ġd ues
Ġd ainty
an other
Ġp ix
Ġp ats
Ġp ique
Ġp uls
Ġp oodle
ing ent
ar ctic
as eless
Ġl ows
Ġl atch
Ġn ests
Ġto re
om er
om ancy
le on
Ġand s
al ysis
Ġe ty
Ġe erie
Ġbe loved
ot um
Ġwi red
Ġwi desp
Ġst ap
id i
Ġhe ave
ir a
Ġon ion
ch t
ch in
ch ool
im et
Ġwe athers
Ġsh oo
un ci
Ġit aly
ur ge
Ġj en
Ġj umping
Ġj olt
ro bert
Ġch ate
Ġch ond
Ġan na
ust ic
ill us
qu ar
Ġne er
Ġne ars
ge l
pe c
Ġli th
Ġno ose
st rate
st arted
Ġall ot
Ġsp ade
Ġsp aw
Ġsp iny
Ġsp iel
Ġsp uds
Ġbl uster
Ġfe athered
Ġfe cund
Ġv ouch
Ġle thal
op ped
Ġtr in
ig ious
Ġcon ned
Ġcon fection
Ġgo in
Ġfl am
ie ur
el ong
Ġqu ips
Ġex isted
Ġco g
Ġco h
Ġcr ane
Ġal ms
Ġal oud
Ġab bre
Ġab bey
Ġad oles
ne um
Ġen ch
Ġen force
Ġen raged
Ġam oe
Ġpr ism
de arest
Ġtw ists
Ġac commod
Ġche ater
no graph
ble w
Ġnew born
Ġpe tes
Ġsl opes
Ġdown town
Ġho ax
by a
Ġke vin
Ġill ust
Ġsk ate
Ġspe l
Ġspe w
Ġfr itz
Ġfr uition
Ġpre jud
Ġcar ne
Ġcar rier
ug u
Ġsw ag
Ġsw ung
Ġsw erve
Ġins ert
Ġstr icken
ful s
Ġend owed
Ġwa ff
Ġaf ore
there fore
Ġbri dle
Ġbri ghter
Ġtre ason
Ġhigh ness
Ġbet rayed
Ġhand ed
ale t
ert ime
Ġwr ists
Ġbro th
Ġsn ide
Ġcont ained
Ġfun k
Ġdid d
Ġnight ie
Ġca jun
Ġdri vel
Ġcour tes
Ġimp aired
ah a
Ġstar vation
Ġdra pe
lo aded
oy d
Ġexp ired
Ġant lers
Ġfell as
pr on
pr one
Ġcat fish
Ġve gas
con tent
Ġgri ev
Ġel ated
Ġsqu irt
ene y
Ġclass mates
che e
Ġbab ble
Ġwed ge
Ġwed ded
Ġlot tery
uct ions
Ġsun light
tend s
Ġfac et
Ġce il
Ġclaim ing
tem ber
Ġdel ph
Ġeye balls
Ġdoubt ful
Ġban ish
Ġbus ter
Ġma e
Ġlow est
Ġspl its
Ġsea weed
Ġtal ented
Ġdisp ens
Ġfil ed
Ġfil thy
Ġarm our
sp end
Ġang led
Ġcomplain ing
Ġwait ress
car ry
Ġmer its
Ġconv ent
Ġgro tesque
Ġcab inet
Ġla ud
ograph s
ograph ical
Ġsurpr ises
Ġbum per
Ġcu be
Ġens n
Ġmix ing
Ġarri val
Ġdet roit
Ġthre aten
Ġappro ved
Ġinter ven
Ġtouch ing
Ġmorn ings
Ġmas cul
Ġimm oral
Ġdang ers
Ġflu x
Ġmel ting
Ġconce ive
Ġconce aling
Ġcree py
Ġbon us
Ġbon nie
Ġax es
Ġseven th
Ġquar ters
Ġbes mir
Ġham mered
Ġconne ctions
Ġgle an
Ġincl udes
Ġdemand ed
Ġvers atile
mans hip
Ġsuggest ions
Ġblo ated
Ġbroad cast
Ġdrain ing
Ġstat ues
Ġacqu is
Ġserv ant
Ġhuman ity
Ġconve yed
Ġinfl ate
Ġchoc ol
Ġmut ation
Ġcli que
fr uit
Ġvar iety
Ġcraw led
Ġstrip per
Ġrab bi
ogen esis
hib ition
Ġdiff er
Ġhero ic
know s
Ġcig ars
Ġscratch ed
Ġorgan ic
Ġpsych otic
Ġpep pers
Ġsole ly
Ġtact ics
draw n
ok ay
urb an
Ġspirit ual
Ġdepart ment
grand ma
agon al
Ġflour ish
Ġitch y
equ al
Ġorch id
Ġmush room
Ġcha os
Ġglo be
Ġeff l
Ġboil er
mark ed
Ġfeat ured
Ġpour ing
Ġcontain er
Ġaccess ory
Ġeld ers
Ġatl as
yell ed
Ġdeft ly
Ġcarn ival
Ġdistinct ly
Ġcler ks
Ġpic nic
Ġlur ks
Ġende av
Ġenv iron
Ġtrave ling
Ġsquir rel
clim bing
Ġwrink le
Ġparas ite
Ġrelation ship
Ġarab ic
Ġtut or
Ġminus cule
Ġformer ly
abe tes
Ġvictor ian
Ġlibr arian
Ġwo ven
osaur us
Ġglam orous
Ġcau cas
Ġkent ucky
Ġphysic ists
Ġstrugg ling
Ġhorm one
Ġauss ies
Ġintest ine
Ġintest inal
Ġshir ley
Ġsoo thing
Ġpall id
Ġgull ible
Ġapparent ly
Ġmicros cope
Ġsto ic
Ġorn ate
regard ing
Ġlin en
Ġatm osphere
Ġbacteri al
Ġmim ic
Ġexe cutive
Ġlandsc ape
Ġglob al
Ġbarbe cue
Ġvel vet
ect ual
Ġavail able
Ġcess ation
Ġpis tol
Ġbem used
Ġsiz es
Ġtheat re
thod ox
Ġlef to
Ġnove mber
Ġembell ish
Ġindo ors
Ġvalu able
Ġanci ents
antgard e
b ic
b our
b ah
b ags
c is
d um
d ens
d ark
d ia
e es
e ly
e ast
f ry
g um
h oles
h undred
j ac
k i
k as
k illing
l ab
n est
o en
p oke
p ier
r als
w art
w rapped
Ġ ost
Ġa ka
Ġa version
in tell
in formation
Ġs ic
Ġs inks
te es
te ls
te lling
Ġth orns
re le
re aching
Ġb als
Ġb ison
Ġm au
Ġm ime
Ġm ugs
Ġh ut
Ġh ams
Ġh ousing
Ġi amb
Ġf ag
Ġf aking
Ġf urious
Ġt ant
Ġt aun
Ġt resses
er man
Ġd au
Ġd wind
Ġd apper
or um
or dered
an at
Ġp ent
Ġp awn
Ġp umps
en joy
ing les
Ġg ape
Ġn ess
Ġn udge
Ġn osh
Ġn agging
Ġto ken
om ys
ic ated
Ġin jection
Ġin complete
ve ll
ac ce
ac anth
it an
it als
Ġbe arer
Ġbe ijing
he art
ut o
ri ad
ke e
Ġst oo
Ġhe aps
ir ling
Ġre no
Ġre ek
Ġre na
Ġr ally
Ġr anc
Ġr aving
Ġr ags
all ys
Ġsh aw
ur re
Ġj on
Ġj ars
Ġj ub
to ps
ro de
ra rely
Ġas th
Ġas pers
Ġse wing
ill as
qu oth
ge y
we red
st re
Ġso ph
Ġso aring
Ġdo cks
Ġsp a
Ġsp or
Ġsp as
Ġv a
Ġv ass
op athy
Ġcl eric
Ġcl utter
Ġcl aud
est r
est ro
est abl
ant as
Ġsu ave
Ġcon cess
Ġte as
Ġwill s
Ġsome bodys
Ġfl im
Ġfl ound
Ġbo asts
Ġcom et
Ġqu ay
Ġqu ip
Ġex tended
Ġgr ants
Ġby pass
Ġcr umble
Ġout ta
Ġsc oring
Ġal ps
Ġab usive
Ġdis arming
Ġbr y
Ġad verse
Ġen velop
Ġpro be
Ġpro ceeds
Ġsm e
Ġsm oo
de ter
de mon
sh ore
sh are
Ġgu id
Ġgu ided
Ġpo x
Ġman gled
Ġac ar
act in
ort al
me ts
og ists
Ġpe ters
Ġpe culiar
Ġsl id
pt uous
Ġho of
Ġem ails
bl ast
bl eness
Ġsk itt
Ġbre wed
Ġcar ouse
Ġdes erved
Ġthere by
Ġsw arm
ten ing
ord in
Ġste ers
Ġste ering
Ġres pl
Ġres igned
Ġres pects
Ġcre te
Ġcre ative
Ġbar ry
Ġmar g
oc he
oc ate
Ġid ol
Ġcomp osition
Ġcur v
ence phal
bo ts
ange red
Ġhard y
br and
Ġpart icles
co at
Ġdri ps
Ġatt racted
Ġconf er
Ġconf ed
Ġconf ine
ym met
Ġboth ers
Ġcor tex
Ġtra itor
Ġball ad
Ġkne ll
Ġown s
Ġcoll ide
Ġref ute
Ġkind ness
pr ints
Ġdist racted
Ġpay ments
unch ing
Ġbur geon
Ġind is
Ġsqu ab
zz ie
Ġsho vel
tr ust
Ġsal ads
Ġvo iced
Ġbra id
che cked
Ġwar ri
Ġdad a
Ġes k
Ġes prit
Ġes oter
Ġfact ion
Ġret ain
Ġabs cond
Ġshort ly
Ġbeh aves
tem por
Ġson ny
po ll
Ġbel ts
Ġbelie ver
Ġcross es
mo ved
Ġje ers
Ġground ed
Ġbus hes
add ers
Ġtrans cend
Ġcy nic
Ġbas soon
Ġsec ured
Ġmis lead
Ġcow ardly
Ġdry ing
Ġvis its
Ġbeat les
Ġdin ers
Ġlab elled
jo es
ific ations
Ġexpl ored
Ġexpl oring
amb a
Ġben j
Ġdeb ated
amm ation
Ġach rom
Ġtom es
Ġdisc ount
Ġsin ned
Ġsin ful
Ġwarm ed
Ġmal aise
Ġsuff ers
Ġgas ped
Ġder iv
oles ter
Ġprote ins
Ġgro cer
Ġhon our
Ġcup board
Ġcard iac
Ġslip ping
Ġir k
Ġdar ts
Ġcos mic
yn ine
comp ass
Ġenc ou
Ġvol umes
Ġgall e
Ġquar ry
Ġloc ations
Ġhav oc
Ġsupport ing
appe ars
Ġhun ter
Ġstrain ed
Ġflash es
Ġdip ping
Ġsed uced
Ġembr aced
Ġconsum ption
Ġfet tle
Ġinstr uments
itz er
Ġrout ines
Ġvar ies
ste ve
Ġpron ouncing
Ġalb um
Ġaqu iver
Ġcub an
Ġyouth ful
Ġleng thy
Ġbored om
cos m
ili ary
Ġprofess ors
Ġbou quets
Ġauthor ity
Ġfold ed
Ġpound ing
Ġjer ry
Ġdefin ite
Ġstun ts
Ġom inous
Ġmedic inal
Ġreck less
Ġmax imum
Ġsevere ly
iment ary
Ġtwist ing
Ġskull s
Ġdirect ly
Ġmagn et
Ġkitch ens
Ġfir s
Ġinvent ions
Ġhood s
Ġcarp enter
Ġbarb ie
Ġchow der
Ġnin et
Ġoo h
Ġscots man
Ġradio active
Ġsweep ing
underst and
Ġnurs ing
Ġcoy ote
Ġadject ives
Ġfanc iful
Ġdesc ends
Ġbisc uits
Ġthw arted
Ġwithdraw n
Ġphysic ians
Ġcush ion
Ġstrugg led
Ġvap or
Ġbip olar
Ġacce ler
Ġaspir in
Ġeconom ys
Ġcrus ade
Ġnib ble
zzzzzzzz zzzzzzzz
Ġappet ites
Ġdistur bing
Ġentw ine
kno ck
Ġiv ory
Ġproced ures
Ġdoct rine
Ġspar row
Ġsul ph
Ġcamer as
fur ther
Ġnost rils
Ġblasp he
Ġangu ish
Ġschn ook
Ġdiph ther
Ġairpl ane
Ġelo qu
Ġdisqu iet
Ġpung ent
imag ine
Ġschol ars
Ġfath om
aryn x
Ġtrape ze
Ġchamb ers
choc olate
Ġwidesp read
b ent
c ivil
d ock
f acing
f allen
h id
h unting
i ast
i ree
i ards
j er
l ace
m ish
m ount
p ink
p ity
p ict
p ubl
r ude
r ating
s ac
s ort
s itting
s afe
s ighed
v ag
w er
w arm
w ax
w ield
y les
Ġ ome
Ġa like
Ġc in
Ġc out
Ġc air
Ġc ures
Ġw ane
Ġw ailed
Ġw agon
Ġw icker
Ġb ant
Ġb off
Ġthe ology
on i
Ġm ant
Ġm ined
Ġm esh
Ġm itt
Ġh ap
Ġh atter
Ġh oop
Ġf is
Ġf ave
Ġt i
Ġt aut
Ġt ights
Ġt apped
Ġd our
Ġd int
Ġd uly
at is
at ross
ed y
ed ed
is tered
is ible
is ingly
an ity
Ġp ads
Ġp ike
Ġp ounce
ar ity
ar che
Ġl oops
Ġg ib
Ġg ator
Ġg ifted
Ġn os
Ġn anny
om bs
ic iency
us a
gh dad
Ġand es
it o
Ġe agles
ad illo
Ġbe gr
Ġbe eth
ut ive
ri ans
ke mpt
os opher
Ġst utter
Ġst umbled
Ġst aunch
Ġhe ft
ir o
am ist
Ġre ind
Ġre wards
Ġre liance
Ġr oss
Ġr ural
Ġr alph
Ġmy riad
Ġsh aved
Ġde ms
Ġde cept
Ġfor um
Ġj umps
Ġch and
Ġch ink
Ġch imes
Ġch ums
Ġch ancy
Ġch abl
Ġan ec
Ġan onymous
if ers
Ġo at
Ġo bo
il er
il ate
Ġk ore
Ġk ab
Ġk ud
Ġk angar
Ġse ctions
Ġou i
Ġnot ch
Ġno ises
st uck
Ġpl a
Ġpl ac
ul ty
Ġso res
Ġso called
Ġat one
ab ase
Ġdo p
Ġsp i
Ġsp her
Ġwor ries
Ġbl ob
Ġbl adders
Ġv int
Ġv ines
Ġle ery
Ġle apt
Ġcl atter
ant im
ig en
Ġcon text
Ġcon sole
Ġwill yn
Ġfl out
Ġfl age
Ġfl ats
Ġfl icks
Ġbo ar
ie ce
Ġqu aff
Ġex pelled
Ġgr as
Ġgr umpy
Ġco ve
Ġco als
Ġby te
Ġcr ue
pl ug
pl ants
Ġsc ur
Ġsc ab
Ġal mighty
Ġab ated
Ġab bot
Ġab normal
Ġdis arm
Ġdis em
Ġdis sed
Ġdis crete
Ġbr itches
Ġad ip
Ġad equ
Ġen lar
Ġen shr
Ġun ve
Ġam ends
Ġap ron
Ġri m
Ġri der
Ġgre asy
Ġpr un
Ġpr ance
Ġro e
Ġro asted
Ġpo inting
Ġman if
Ġac re
Ġac ry
Ġmo res
Ġmo pe
Ġmo lly
cl o
Ġche v
Ġche ering
ath an
Ġold en
Ġnew ton
Ġpe eled
Ġdr ones
Ġjo ins
Ġsl ander
Ġsl urred
Ġho e
Ġho ver
Ġho arse
ph ones
Ġke g
Ġcle ars
Ġcar ib
ire r
Ġins ure
orn ing
Ġste rile
int rod
Ġres erve
Ġple aded
Ġplay ful
Ġph leg
Ġph osph
Ġbar row
Ġmar ines
anc ys
Ġhigh land
Ġkn ave
Ġkn ickers
Ġear lier
Ġsur r
Ġass u
Ġrep orter
Ġdi aper
co li
Ġca red
Ġatt racts
Ġcomm od
Ġser ial
Ġser pent
Ġapp ra
Ġany ones
Ġfar ce
Ġred dish
Ġz omb
Ġappe aring
Ġacc ents
Ġpar ks
Ġpar ish
Ġpar allel
fore ign
Ġkne el
app ro
Ġsou ff
Ġfish in
Ġdep ressing
Ġless en
Ġref using
Ġstri ving
Ġrec y
Ġrec order
uss ian
Ġgra vel
Ġnear ing
tent ious
ric ian
gl as
Ġve al
Ġcal or
Ġcal ab
Ġcal ories
Ġdev ised
Ġview ing
Ġel ves
Ġel usive
Ġsad d
Ġsle uth
Ġsle aze
tr u
Ġbra zen
Ġcri mson
Ġeven ings
Ġreal istic
Ġinv ading
Ġinv asion
Ġinv olve
go ts
tead y
Ġstra its
cri be
Ġmin i
Ġmin imum
Ġgen u
Ġbeh oo
ex cess
Ġob jection
Ġwom ens
po ly
Ġcop ies
head ing
Ġadm ission
Ġexc ursion
Ġcolle ctions
add ed
Ġtrans ition
Ġaff inity
Ġden ies
Ġden ying
Ġda res
dis agree
Ġwatch es
Ġfel on
Ġmeet ings
Ġent ails
Ġpat ri
Ġpat ron
Ġsmell ing
Ġfil ing
Ġplant ing
ific ial
Ġlear nt
Ġpop es
sp ent
Ġbrown ish
Ġbli zzard
Ġdeb au
Ġmor se
Ġmor ale
Ġmer chants
Ġfrench man
Ġshop per
Ġconv ict
Ġrev ol
Ġpra irie
Ġdon or
att ack
Ġfer vent
Ġrain y
Ġrain ed
gen us
Ġship ping
Ġbree zes
Ġval ent
Ġreve rend
Ġpress ures
Ġpan el
ration al
Ġens ures
Ġthick er
Ġprop ortion
set ting
Ġir rit
Ġappro ve
Ġadmit ted
Ġflu ke
Ġmel on
Ġled ge
Ġdu h
Ġdu blin
Ġgar age
Ġpubl ished
met al
Ġchest nut
Ġscrew ing
Ġcam oufl
Ġenc ourage
Ġfal con
Ġacid ic
Ġba ile
Ġrepe l
hold ers
Ġdan iel
Ġpost p
Ġvict ory
Ġgarden er
Ġmum ble
Ġconne cts
Ġpill ows
Ġpred iction
Ġmaj estic
Ġbang s
Ġash en
Ġvan ished
Ġbroad way
Ġgh osts
Ġlass ie
Ġinfl ated
Ġmaid s
Ġcru x
Ġsed uction
Ġess ent
Ġswall ows
Ġalb atross
wr ought
Ġcub es
uv a
Ġdete ction
abs olute
ugg ling
Ġmiddle aged
Ġcough ing
Ġbacks t
Ġpool s
Ġpap a
Ġteen y
Ġteen agers
Ġgn u
Ġcave man
Ġstret ching
Ġfav ors
Ġchic ago
Ġanap ests
Ġspecial ized
Ġfant asy
Ġrod ents
Ġbless ings
Ġslim y
Ġtwe ak
Ġflor ida
Ġdisg usted
Ġcele brate
Ġweigh ed
iac s
Ġrid iculous
Ġoffic ially
Ġsenten ced
Ġsenten ces
Ġclip per
Ġclip ped
Ġtack y
Ġsurm ised
Ġintern al
Ġviol ence
Ġmyst ical
Ġweep ing
Ġneur osis
Ġlock er
oman ia
Ġorch ids
Ġbaw dy
Ġeth nic
Ġconvers ion
Ġastound ed
Ġadmir al
dog s
Ġsno oty
Ġspect rum
Ġsurf ing
Ġadvent ures
Ġemph atically
obs essed
Ġnurs es
Ġnurs ery
Ġcosm etic
Ġblu ish
Ġrib bon
Ġcarto ons
Ġcannib als
Ġmexic o
Ġfid get
wal king
Ġstal ks
Ġdrac ula
Ġcruc ial
Ġslam mer
Ġcen ters
Ġchees y
Ġimper ial
Ġsuccumb ed
Ġclog ged
Ġrefle cts
thet ics
thet ically
Ġjan et
Ġdal mat
ij u
Ġhyp oc
Ġsneez ing
Ġlis tened
Ġtract or
Ġantib iotic
Ġconten ted
Ġcoco a
Ġorchest ra
Ġdistingu ish
shoot ing
Ġconson ant
Ġgrav itys
Ġremem bered
Ġcrustace an
Ġimpe cc
Ġbever age
Ġneut ral
Ġvor acious
Ġcollaps ed
Ġgrands on
Ġintri gu
Ġvenom ous
Ġyanke e
Ġvom it
Ġreluct ant
Ġtren ch
Ġrigh teous
Ġgymn ast
Ġguine a
Ġunbear able
Ġdilem ma
Ġamate ur
Ġalge bra
Ġsubd ued
Ġbarg ains
Ġvacu um
Ġelix ir
rane an
Ġety m
Ġchabl is
Ġwillyn illy
a very
b is
c ree
c ian
d augh
f ra
f ans
g ow
h un
h idden
i pl
i ated
k h
m and
m ill
m um
m ast
n ay
n id
n ity
p ainted
s its
s ue
s ne
s ends
s ending
t able
u let
v ie
w rap
w anna
y pe
in st
Ġs ate
Ġs own
Ġs vel
Ġs yl
Ġs ipping
Ġc ia
Ġc ues
Ġc add
Ġc ds
Ġc udd
Ġw art
Ġw aved
Ġb ade
Ġb ared
Ġb ounced
on k
Ġm ack
Ġm ated
Ġm used
Ġm itten
Ġh ast
Ġh ark
Ġh amb
Ġh osts
Ġi ons
Ġf ain
Ġf ading
Ġf ission
Ġt aw
Ġd red
Ġd ong
Ġd ives
Ġd udes
at l
an se
an ap
Ġp om
Ġp ont
as ian
as ured
Ġl oft
Ġg ust
Ġg ulf
Ġg awk
Ġg azed
Ġg oner
Ġn ull
Ġn aut
Ġn ancy
Ġn abbed
Ġto te
ic ians
ic idal
us ively
al i
ac a
Ġe au
Ġe ph
the e
the ast
he at
he im
he aring
ot tle
ri o
ri bute
Ġwi ggle
Ġst ow
Ġst ations
Ġst abbed
id ation
id ious
Ġhe li
am o
am er
am orph
Ġwh ining
Ġre jects
Ġr asp
Ġr anger
ch ie
ch icken
oo ey
ly sis
Ġwe ld
Ġsh one
Ġj ava
ver ted
res ist
Ġch ug
Ġan arch
Ġan aph
Ġk iw
Ġse als
Ġse ated
ill ation
Ġne pal
ge ois
pe lling
um ines
Ġli vin
we igh
ol as
ol ph
st orm
st ret
Ġso ared
Ġso ggy
Ġher bal
Ġsp ont
Ġsp art
Ġim bi
Ġv ene
Ġv aul
Ġle ch
Ġle aps
ard y
Ġcl ings
Ġcl uck
est one
Ġsu ing
Ġcon qu
Ġcon ject
Ġgo on
Ġfl ab
Ġfl og
Ġfl int
Ġfl inch
Ġbo asted
Ġex al
Ġco er
Ġco ven
Ġco cc
Ġco zy
Ġco inc
Ġcr ay
Ġout r
Ġy ah
Ġup right
Ġar bit
Ġar son
ag en
pl anted
Ġsc outs
Ġal um
Ġal bert
Ġab ounds
ep ic
Ġbr as
Ġbr aces
Ġad roit
here nt
Ġen closed
Ġen nu
Ġun g
Ġun aw
Ġun just
Ġun rest
Ġun expected
Ġun kempt
Ġro ach
Ġro ger
sh er
sh akes
Ġtw ot
Ġtw il
cl ick
cl usion
og s
og amy
Ġpe ars
Ġag ony
Ġem eral
iss ance
bl ess
bl oom
ph r
Ġgl en
Ġcle m
Ġpre tense
Ġway ne
ire ct
Ġper ched
Ġsw at
Ġsw ed
Ġsw ayed
Ġsw apped
ub a
Ġfri g
ber ts
Ġfo iled
Ġste in
Ġres pected
Ġbri an
Ġtre ach
Ġcre pt
Ġbar ren
Ġbar bed
Ġbet ro
Ġcomp liance
Ġcur vy
Ġover night
Ġsur ge
ather ine
Ġpain ts
Ġass ent
Ġrep orters
Ġcont ribution
Ġdec ent
Ġdec imal
Ġfun ky
Ġca h
Ġapp rent
Ġapp liance
Ġconf ide
Ġtri ll
Ġtri angle
Ġgir affe
Ġcra ter
Ġcra ves
je an
vers ed
Ġpri mit
Ġred und
olog ic
Ġcho king
Ġcons ort
Ġcons istent
Ġpar ted
Ġtra ged
Ġtra ils
Ġcap ri
let ting
ner y
aught y
Ġdist r
Ġflow ery
Ġlad die
Ġve ts
Ġve loc
Ġdev ise
Ġind ict
Ġgri lled
Ġsqu ashed
Ġsad der
tr uly
Ġbi bles
ger man
Ġdeep er
Ġsing les
Ġinv olves
Ġav antgarde
ob ama
Ġob str
Ġboo zer
Ġmet re
Ġson net
Ġbat on
po pe
Ġprof s
Ġprof ane
Ġwrong ly
Ġrel atives
off ers
Ġcond oms
Ġfa ade
oph one
Ġhar row
Ġban ter
Ġban ished
Ġyet i
cy ber
Ġchr ome
Ġcolle cts
Ġtreat ments
Ġaff ir
Ġbas ics
dis in
Ġfore cast
ye ight
yl um
Ġmed al
Ġpos ted
Ġleg ion
Ġteach es
Ġsleep y
Ġshot gun
Ġpot ter
Ġsince rely
Ġshell fish
ae an
Ġrul ers
Ġshed ding
Ġpet al
Ġbli gh
Ġdeb ating
Ġdisc ourse
Ġequ ations
Ġmer maid
Ġsin ners
Ġpoint less
Ġdeli ber
Ġwild ly
Ġder by
Ġfer ry
Ġsell er
Ġclim bs
Ġspeed ing
Ġris king
Ġkey board
Ġval ve
Ġsent ry
Ġcard board
Ġcirc ums
Ġast ro
Ġdanc es
iet n
Ġtax i
Ġhat red
Ġsuit or
Ġconc ord
Ġmel ts
Ġbott oms
Ġcred its
Ġexpress ions
Ġcam ps
Ġcock y
Ġpin ned
Ġconcer ts
Ġpun ishment
Ġself ish
Ġax i
Ġdan ish
Ġdan ny
Ġrad iant
Ġdiss ension
Ġloc us
Ġincl uded
Ġbomb ay
Ġconcl uded
Ġtext book
Ġstor ys
hy d
Ġrob ber
Ġmot ions
Ġmot ives
Ġpill ar
par ts
Ġbang ing
Ġvac ations
Ġcult ured
Ġbark ed
Ġvan illa
Ġimpro ving
Ġfed eral
Ġcher ries
appe ar
Ġconve ys
tens ion
Ġphil osopher
ox in
Ġtu x
Ġbrew ing
Ġresist ant
Ġrou tes
Ġdebt or
Ġstir ring
Ġrab ble
uv ial
Ġaccept ing
acc ount
acc ident
Ġapproach es
Ġlisten ers
Ġgn aw
Ġinvest ment
Ġpsych iat
Ġjes ter
Ġjer ky
Ġlean ing
Ġmedic ines
cross ed
Ġpunch ed
Ġmaint ains
Ġshrink ing
Ġwoo ed
Ġwoo ing
Ġbron x
iac al
lear ning
Ġmart in
Ġut tered
Ġblink ing
cur rent
Ġgig gle
Ġtin iest
lock ed
Ġbom bed
Ġpy re
Ġted ious
Ġhonest ly
Ġjar gon
Ġbudd hist
Ġscient ific
Ġwound ed
Ġlap top
Ġsac red
Ġlump y
Ġos car
Ġprescri ption
Ġinn ards
Ġcomfort able
Ġmillion aire
Ġgather ing
Ġscant y
Ġoo ze
Ġcorpor ation
Ġfiction al
Ġwebs ters
Ġmechan ical
Ġdaw ns
Ġdict ator
Ġbrim ming
Ġexpand ing
bus iness
Ġadop ted
Ġgraph ic
Ġluc y
Ġfors aken
Ġbef uddled
Ġflatter y
pres ent
beh av
Ġawa iting
Ġinqu ire
Ġchann els
Ġdesc ended
Ġglam our
Ġlemon ade
christ ian
Ġcurren ts
Ġconj ug
ige rent
Ġmonarch s
Ġacade mic
Ġviv id
Ġrestaur ants
cen tered
pur ple
Ġunh appy
Ġestabl ish
Ġbrun ette
Ġemper ors
Ġprovo ked
Ġkl utz
Ġgob bled
agu er
Ġappet ite
Ġobsess ive
Ġembry o
Ġchromos omes
Ġaj ar
Ġmatt ress
Ġdistur bed
Ġastron aut
Ġjacks on
Ġcapit als
Ġchurn ing
Ġcarri on
Ġdepra ved
Ġmembr ane
Ġhys ter
Ġcuck oo
Ġpomp ous
themat ical
Ġsep tember
Ġcet ace
Ġanagr am
Ġnephe ws
Ġmane u
Ġaar on
defin itions
bene ath
Ġrook ie
Ġplag ued
Ġargu ed
Ġhust le
Ġleech es
Ġtrum pets
Ġtransp arent
Ġingen ious
egg s
Ġdir ge
Ġatro cious
Ġrebu ke
Ġentre pre
foll ow
Ġhilar ious
Ġcurm udgeon
Ġvatic an
Ġoutst anding
Ġeins tein
Ġperen nial
Ġthera py
Ġtues day
ugu ese
Ġgalle ons
Ġreind eer
Ġsurr ounds
Ġgenu ine
Ġunaw ares
Ġprimit ive
b ane
b ills
b urs
c ou
c red
c ia
f un
f und
g os
g ens
g osh
g iant
i ks
k new
l ou
l ps
l oss
l ower
l aced
m are
o lite
p ound
p ping
p acked
p orts
r uly
r uled
s que
s aint
s kin
v ic
v ine
w ig
x us
z ip
Ġ ure
nd a
te au
te rer
Ġth ine
re ast
Ġc ud
Ġc itys
Ġw akes
Ġw ince
Ġw ails
Ġw ailing
Ġb ests
on ts
on ant
Ġm itz
Ġm oneys
Ġh ic
Ġh ath
Ġh umb
Ġh ai
Ġi ke
Ġf u
Ġf au
Ġf iss
Ġf ester
Ġt ipped
Ġt ighten
Ġd agger
es cence
at ri
at ient
ll er
or as
ed ucation
is al
an i
an aly
Ġp av
Ġp addle
en ne
ar ial
Ġl ager
Ġg on
Ġg imme
Ġto iled
Ġin habit
al ia
ac ys
it ars
the arted
he w
Ġwi m
Ġst u
Ġst rol
Ġst agger
Ġhe inous
Ġre form
Ġr us
Ġr app
ch ain
all op
all ows
Ġsh ill
Ġde re
Ġfor go
Ġj ed
Ġj osh
Ġch ute
Ġch ests
Ġo vere
Ġas pect
Ġas cent
Ġk os
Ġk ale
Ġk az
Ġhis sed
Ġou nce
Ġne ll
Ġne ts
um er
ess ions
Ġli ghten
that ll
Ġno bles
ol in
ol ed
Ġor al
Ġor ph
st on
st ro
Ġpl aid
Ġpl unge
ul um
ul ative
ab y
ab er
ap oc
Ġher r
Ġsp h
Ġsp ook
Ġsp ared
Ġim ages
Ġv p
Ġv ogue
Ġcl amp
Ġcl ump
Ġcl ams
Ġcl ueless
Ġcon es
Ġcon tention
ous ness
Ġgo ver
ist as
Ġfl ocks
Ġfl agr
Ġbo res
el ph
Ġgr amp
Ġco ating
Ġout comes
Ġar re
Ġar isto
Ġsc ans
ass y
Ġal p
Ġab omin
Ġbr ooks
ne ck
be ating
though ts
Ġen amel
Ġpro verb
Ġun m
Ġun if
Ġun wise
Ġun ease
Ġri bb
Ġsm acked
de velop
Ġbu gle
Ġman or
Ġmo ot
me re
ang o
og ens
Ġpe cs
Ġdr oss
Ġsl ugs
pt ive
Ġke ats
Ġsk ed
Ġthr ash
per t
Ġfr anks
Ġpre tt
Ġcant on
Ġdes erving
Ġthink er
Ġper use
your s
Ġend lessly
uck le
arm ents
ank erous
Ġlong ed
Ġlong est
Ġste re
Ġaf gh
Ġres in
Ġres ts
Ġres ound
Ġres isted
Ġph d
Ġph on
man ned
Ġbar my
Ġbar ium
some what
Ġmar ble
ush i
where ver
Ġcomp osing
Ġcomp eting
Ġover t
bo ats
Ġbro ach
Ġhell uva
Ġsn aps
Ġhard en
Ġund ers
Ġcont racts
Ġter min
rop ic
co de
Ġca ul
Ġca vern
gr ance
Ġatt itudes
Ġtri pe
Ġany where
Ġstar ving
light ly
Ġair line
Ġlim s
Ġrun ners
Ġcor respond
Ġblack and
Ġcol ossal
Ġhome less
Ġcap ped
Ġchar red
thr ac
Ġheart beat
Ġbird watch
Ġart icle
Ġdist aste
Ġdist ortion
Ġset ter
Ġstri ves
Ġgra ft
ric ate
ric ult
Ġve g
Ġve gan
Ġdev ious
Ġdev oid
Ġdem ur
Ġdem ocracy
ci ble
ci als
em ic
Ġed uc
Ġten ts
Ġdiv iding
Ġdiv inity
Ġwar fare
Ġstate ly
Ġret re
Ġrest ing
Ġrest ricted
Ġmin isters
Ġdark er
Ġfour s
Ġboo ed
Ġdel ta
po le
Ġext o
Ġfool ing
Ġbeaut ies
Ġev ade
Ġhar po
Ġwhe ed
call ing
Ġmad der
Ġexc used
Ġchr ists
Ġma ize
Ġdream t
Ġbal tim
Ġdraw l
hel ping
Ġroom mate
Ġpick led
Ġvis ited
Ġdire cted
Ġdin osaurs
Ġhop ping
Ġlab s
Ġlab our
sp in
Ġbell ows
Ġchurch ill
Ġben gal
Ġbuild s
Ġtom my
Ġdisplay ing
key ed
pro vo
Ġarch er
Ġarch bishop
Ġfix ation
Ġbox ers
Ġdesign ing
hell o
Ġdon ation
Ġbreath ed
Ġbreath taking
Ġfer ocious
Ġgro pe
Ġur ges
Ġlay ing
mas ters
ana is
Ġfront ier
Ġthick en
Ġresp ons
Ġarri ving
Ġdest iny
Ġdest ination
Ġir is
Ġir rational
Ġsav vy
Ġsque als
Ġep ip
bre asted
Ġrub bish
Ġbob by
Ġscrew y
Ġsurv iving
comp ound
Ġpor ridge
Ġcock tails
Ġspring time
arian ism
Ġpurs uits
Ġsen ior
cont rolled
Ġcloud y
Ġgarden ing
Ġgarden ers
Ġmeth inks
Ġunf it
Ġdece ived
Ġtum ble
Ġtum bled
Ġtext books
Ġdeter min
hy me
Ġcad dy
Ġquit ter
Ġrece iving
Ġvers us
Ġest r
Ġstink y
Ġpoet rys
Ġconve x
Ġgovern or
Ġconstr ue
ox ide
Ġsed ate
Ġven ice
Ġguard ing
Ġpublic ity
iter ate
Ġthro ats
ret urn
Ġbene fits
Ġmort gage
Ġox en
ear ned
Ġtim id
itt ance
Ġfright ful
Ġnon chal
Ġiss ued
Ġped d
Ġcontr ition
Ġcontr arian
Ġdre ar
Ġenter tain
char ged
Ġsusp ense
Ġcod ger
Ġfears ome
Ġrecord ed
Ġcath olics
Ġmajor ity
Ġment ally
Ġshun ned
Ġvent ing
tol ogist
Ġpit iful
Ġrip ple
Ġcrust y
Ġsyn c
Ġbuzz ing
Ġcollect ing
Ġdrum mer
Ġcraft y
Ġrefer ring
Ġcurrent ly
Ġnur t
Ġwitch es
Ġcrook ed
count ing
law ful
wind s
Ġpier ce
lear ned
Ġcheek y
Ġbog us
Ġmagn etic
Ġskip per
rep resent
Ġly rics
Ġstall s
Ġmunch ing
best os
dam ned
Ġbeard ed
mix ing
Ġregard ed
Ġenh anced
Ġcompan ies
Ġbaw led
Ġchagr ined
Ġtrail er
Ġbatt led
blood y
Ġreplace ment
pull ed
Ġeg os
Ġgroo ves
Ġsurf aces
Ġcler ical
Ġbraw n
Ġmurder ous
Ġplum age
Ġdimin utive
Ġbos om
Ġenv ision
Ġcircum st
Ġwitness ed
Ġfert ility
Ġsimpl icity
Ġaddition al
ingu ish
Ġremind s
hen ry
Ġrelation ships
ril ity
Ġpump kin
Ġlam bs
Ġsculpt ure
eight y
Ġassem bly
Ġcompet ition
Ġbew ild
Ġperce ived
Ġbess ie
Ġnie ces
prov ides
Ġcuss ed
Ġabys s
Ġabys mal
Ġsoo the
Ġsequ ence
Ġhaz ard
Ġlick ing
Ġaccr ued
Ġrecr u
yield ing
Ġdecre ase
Ġabund ant
cour t
Ġmiser able
Ġimmers ed
Ġplas ma
Ġcorrupt ion
Ġcus to
Ġconson ants
otrop ic
Ġcyn ical
Ġcla ude
Ġrhet orical
Ġempt ied
Ġcaval ry
Ġdign ified
Ġparad ise
Ġkidn apped
Ġdw ight
Ġdix ie
Ġbak ery
Ġreli able
Ġintertw ined
Ġoptim istic
Ġvio let
Ġunra vel
Ġapric ot
Ġhurric ane
Ġdiarr hea
Ġarbore al
Ġsarc astic
Ġharang ue
Ġbattal ions
Ġmascul ine
Ġasth ma
Ġsvel te
Ġhamb ur
Ġennu i
Ġemeral d
Ġveloc ity
a vers
b omb
c ub
c ils
c ued
c asts
e h
e rer
g t
h ur
i ary
j udge
k illed
l an
l ist
m ail
n ose
p se
p red
p able
p urs
r ank
r uff
r ists
r ison
t te
t one
t asty
t reat
u li
v re
v ote
w ashed
x x
y g
z ation
Ġ ug
Ġ udder
th ood
Ġa eg
Ġa vert
in ations
Ġs able
Ġs ilt
ou che
of them
Ġc is
Ġc oss
Ġw icket
Ġb ids
Ġb idding
on ically
on omy
Ġm ich
Ġm uddle
Ġm abel
Ġh acked
Ġh aunt
Ġh azy
Ġh aute
Ġi on
end ered
xt rous
Ġd ashed
es pecially
at ar
at able
or ate
or able
is k
Ġp avement
Ġp neum
en h
ing o
ar o
ar ri
ar ous
ar ist
as se
as sem
Ġl aced
Ġl asts
Ġl amps
Ġl uminous
Ġg it
Ġg ol
Ġg able
Ġg rop
Ġg aff
Ġg inger
Ġn im
Ġn ast
Ġn ooks
Ġto ck
Ġto ms
ic its
ic ose
ic ial
Ġin ject
Ġin hal
Ġin vested
al id
and o
and ra
and est
ac as
ac ro
ay a
ay e
it ud
it ics
Ġe ug
Ġe tern
ad vent
Ġbe lize
he alth
ut ations
Ġwi mp
Ġhe aled
am mon
Ġwh oo
Ġwh ips
Ġre be
Ġre bell
Ġr as
Ġr af
Ġr aging
ch am
et o
et ta
im er
Ġsh amed
Ġsh aving
Ġsh aky
Ġsh ifted
un ion
Ġde ign
Ġde jected
Ġde leg
Ġj al
res her
ro le
Ġch il
Ġch ame
Ġch olester
ra x
Ġo aks
Ġas par
il ted
Ġk ar
Ġk im
Ġk irk
Ġk vet
Ġse ized
ill ary
Ġne ther
pe ace
li ant
we alth
Ġcan ines
Ġor b
Ġor bit
st ood
st ress
st age
Ġpl ush
Ġpl acing
ul ars
Ġso ars
ab bit
Ġdo te
Ġsp ong
Ġsp ills
Ġsp ouses
Ġbl air
Ġbl ended
Ġbl imp
Ġfe ats
Ġle v
Ġle es
ard i
so cial
Ġcl are
Ġcl oy
est ation
Ġtr ashed
Ġtr acts
Ġtr inity
ant id
ant ib
ig ration
Ġsu z
Ġsu icide
Ġcon co
Ġcon gen
Ġfl es
Ġfl unk
Ġbo gs
Ġbo ister
Ġus ers
Ġqu id
Ġex ert
Ġex cre
Ġex pel
Ġgr it
Ġgr itty
Ġcr anks
Ġy oke
Ġar oused
ace ae
Ġsc y
Ġal f
fe aring
fe els
Ġlo athe
ep endent
Ġbr ay
Ġbr ands
Ġbr ushed
be lls
Ġen ra
Ġun well
Ġun ending
Ġri nd
Ġcall er
Ġro ost
de light
sh aring
sh ape
sh ield
Ġgu itars
Ġpo ised
Ġpo inty
Ġtw itter
Ġac claimed
ort ment
au g
Ġche l
Ġche ats
no isse
og lyph
ise lle
Ġpe ll
Ġjo kin
Ġsl ough
Ġsl apped
Ġem pir
bl ame
ph ot
Ġday time
Ġfr ayed
Ġfr anais
Ġgl int
Ġcle ave
Ġdes erts
Ġper n
Ġper v
Ġper cussion
ell a
ten ce
Ġins istence
Ġlif elong
Ġswe lls
Ġfri vol
Ġend angered
Ġste als
Ġaf oot
Ġres ted
Ġhigh lands
ines is
Ġcomp rom
Ġcomp ares
uff les
do ctors
com a
com mit
Ġhell ish
will ing
Ġsn appy
Ġge ology
Ġund ress
Ġrep rod
Ġcont racted
Ġdec ides
Ġdec iding
ren ts
Ġtell er
Ġnight mare
Ġhel m
Ġcomm otion
Ġser mons
aim ed
Ġpass enger
Ġcra z
Ġcra ps
Ġfar away
Ġimp ure
Ġimp ulse
Ġair borne
Ġwords mith
ym oon
Ġappe aled
Ġdra ught
Ġcons ulted
Ġacc ust
Ġacc um
Ġhome work
Ġtra uma
Ġsweet ness
Ġcap ers
Ġer ic
Ġer oded
der m
der mat
Ġheart less
Ġref resh
Ġart icles
Ġart illery
Ġdist ribution
Ġsim mer
old er
Ġgra ze
Ġbur ly
ric ular
Ġcat ap
Ġve ctors
Ġver ge
Ġver mouth
Ġgri e
Ġeyes ight
Ġsqu aw
Ġclass ified
Ġsle azy
tr uth
Ġsal v
Ġvo il
Ġdiv ul
Ġcri p
Ġfin ch
Ġlar va
che f
che w
Ġwar rant
Ġes tee
Ġdeep six
iff y
Ġinv aders
tw ice
Ġstra ighten
Ġsub mer
ron ted
Ġsun set
Ġhum our
Ġpres t
Ġmin ts
ob ias
Ġfly er
Ġfly nn
Ġeye ing
Ġext raction
Ġspr ink
Ġwish in
Ġgreen ish
Ġbelie vers
mo th
mo king
cr uc
Ġev olve
oph obe
Ġwind y
Ġty r
Ġban jo
arch ae
Ġmad ame
Ġma estro
Ġeas ier
Ġfam ine
Ġdream y
Ġtrans c
Ġtrans mission
Ġlow ly
Ġda unt
Ġda unting
Ġpen nies
dis p
Ġmis chief
Ġcow l
mon y
Ġsol ids
Ġdisp ense
Ġdisp atched
Ġpot ions
Ġpot ty
Ġlab ors
Ġpop py
Ġgree ted
claim ing
Ġprom ises
Ġbrown s
amm ers
Ġmist ook
Ġsy nt
Ġeng aging
Ġcatch er
Ġpal in
Ġber m
Ġdesign ers
Ġdesp ond
Ġrev ive
Ġpra gue
Ġtend ing
Ġmass age
Ġband it
Ġsa un
Ġcost ly
Ġrain bow
Ġhon ors
Ġcab oose
gen er
ann ie
Ġcas ks
Ġcas ino
ograph ys
Ġur ged
Ġocc asions
Ġsent iment
Ġemb al
Ġport rayed
Ġport uguese
Ġfra grance
Ġfan ny
Ġfro ck
Ġju li
Ġju icy
Ġtong uet
Ġbold er
Ġir ons
Ġcolor less
Ġlangu ages
Ġboard ing
Ġep it
Ġep hemer
Ġaud ible
Ġpark ed
Ġcharm ed
dr unk
Ġdro ple
Ġsuccess ion
Ġflu ores
Ġu gh
Ġgar nered
rup ted
rup ting
Ġconce it
Ġconce ited
bit ter
Ġgall op
Ġgall ons
Ġhist oric
Ġx rays
Ġconcl usions
Ġbuck ing
Ġbun nies
Ġwhis kers
Ġachie ves
Ġgain st
pir ation
Ġgh ana
Ġcher ished
Ġchop ping
Ġspan iel
Ġrelie ved
Ġhost ile
Ġafric as
Ġsweat y
Ġnine teen
Ġstrain ing
cho osing
Ġint rod
Ġcav iar
Ġembr aces
Ġmut ton
Ġheed ed
Ġbee h
Ġbene fit
Ġeur os
Ġuncle an
Ġspir al
Ġalb ania
Ġbloom ing
Ġtun nels
Ġaware ness
abs ent
ugg led
spe aking
spe cial
Ġvill a
Ġyor ks
Ġdestro ying
Ġdiscuss ing
Ġorgan ization
Ġcommit ment
Ġinvest or
Ġfav our
Ġfold s
Ġsilk y
Ġdefin itions
aunt ie
Ġsteep le
Ġcrop per
Ġcontract ion
Ġbout ique
bur gh
Ġpub s
Ġchallen ging
Ġmax im
Ġtemper atures
uzz le
Ġaz te
Ġimag ined
Ġsymbol ic
jun ct
Ġsly ly
Ġobt ained
Ġboom er
Ġunc ool
Ġdepart ure
Ġwink ed
dad dy
fix ed
Ġgoo gle
Ġstall ion
Ġsar ah
Ġcontro lling
Ġtoss ing
Ġow ls
Ġabhor rent
Ġjam med
Ġprogress ive
Ġneur ons
Ġprevent ing
Ġlap se
Ġabdom en
Ġsac rif
Ġere cted
Ġwarn ings
pull ing
Ġasc ending
Ġasc etic
Ġmoan ed
Ġward robe
Ġinn ate
Ġaller gy
Ġpregn ancy
Ġcarn ivorous
Ġegypt ians
Ġtang o
Ġhosp itals
Ġcac oph
Ġdat abase
sk ip
Ġpersu ade
Ġsumm ertime
Ġdimin ished
Ġsew er
Ġsweep s
Ġvegg ie
Ġsher ry
Ġscrub bed
Ġtrem ble
oty pe
Ġflirt atious
Ġgrind ing
Ġfanc ies
Ġexplos ion
enc ys
Ġassem bled
Ġcelebr ity
burn ing
rif ied
Ġdesc ending
Ġruth less
Ġconver ted
Ġnit rogen
spread ing
Ġpant ies
Ġsequ el
Ġretire ment
Ġbim bo
Ġta vern
Ġmol asses
hu ge
Ġrepubl ic
Ġanem ia
Ġattor neys
Ġconfir med
Ġastronom ers
Ġmosquit o
Ġgrat itude
Ġlandsc apes
Ġdarwin ian
Ġlard er
Ġnud ist
Ġtele phone
Ġscree ch
hung ry
Ġsubt ract
Ġfisher man
Ġinhib it
Ġinspir ation
Ġmaim ed
Ġlexic on
Ġexem pl
Ġnucle us
Ġcontem pl
Ġyog a
Ġdepra vity
sum mer
Ġwrest ling
Ġembarrass ing
Ġanten nae
dire ct
fal se
Ġfay e
Ġdia lect
Ġrehears ed
sol id
Ġarsen ic
Ġther m
Ġsug ary
Ġconjun ction
Ġbould er
Ġinit ial
Ġstif le
Ġconsequ ence
Ġstamped e
Ġphe asant
Ġchis el
Ġabac us
breath ing
Ġcrimin als
Ġoccup ation
Ġdrench ed
Ġfoli age
Ġknuck les
Ġdynam ite
orr hea
Ġquir ky
Ġduch ess
Ġexpans ion
Ġwret ched
Ġdetract ors
Ġapoll o
Ġovers ized
Ġparli ament
comple x
Ġnorwe gian
Ġambul ance
Ġchocol ates
Ġrena issance
Ġrespl endent
Ġsouff l
Ġcamoufl age
Ġrapp ort
a ires
b bed
b ucks
b anks
c um
d ings
d actyl
d ental
d avid
f re
f ri
f ter
f ires
h its
k o
k an
l augh
l osing
m age
n aked
n ik
o ce
p ants
p aint
p aste
r ach
r ams
s illy
t all
t ings
t led
t would
v ard
w ave
w rit
Ġ ott
th a
th ou
Ġa uri
in ner
Ġs es
Ġs ot
Ġs ous
Ġs ages
te aching
Ġth rom
Ġc ay
Ġc il
Ġc ach
Ġc ind
Ġw y
Ġw at
Ġw ot
Ġw ade
Ġw owed
Ġw ann
Ġw urst
Ġb p
Ġb au
Ġb ashed
Ġb ouncing
Ġb ighe
Ġm ashed
Ġm uddled
Ġm ikes
Ġh ier
Ġh aughty
end ous
Ġf usion
Ġt b
Ġt amed
Ġt ah
Ġt iff
Ġt ours
Ġt aunt
er us
Ġd v
Ġd ans
Ġd illy
Ġd ucts
Ġd acty
at ry
at io
at iveness
ll en
Ġp ry
Ġp anda
ar as
ar gent
Ġl on
Ġl ye
Ġl asted
Ġl asc
Ġl uke
Ġl uscious
Ġg ong
Ġn i
Ġn an
Ġn am
Ġn atch
Ġn atter
ic ative
ic eless
ic rous
Ġin quis
Ġin laws
and ered
ac up
Ġe er
Ġe ther
the ly
the tical
ad j
ad ay
ad am
Ġbe friend
Ġbe acon
he red
ri als
ri ever
Ġwi ped
os in
os ted
Ġst ashed
Ġst umped
id ate
Ġwh ate
Ġre e
Ġre de
Ġre acted
Ġr aves
Ġr inse
Ġis lam
ch y
ch ic
Ġwe aken
Ġsh tick
Ġsh abby
Ġsh ifting
ce lls
Ġde ars
Ġde grad
Ġfor te
Ġj ess
to le
to id
ro pe
Ġch l
Ġch ed
Ġch om
Ġch amps
Ġan o
if i
if ully
Ġo ars
se ct
se cret
Ġk ra
Ġne cr
pe ck
Ġli g
Ġli bert
we ek
Ġnot orious
Ġcan a
st an
ul in
Ġso aking
Ġso cket
ak a
ab ra
ab etic
Ġsp ind
Ġsp urious
Ġbl ather
Ġbl ends
Ġbl asted
Ġfe asts
Ġv ino
Ġle on
Ġle ver
op tery
ast ly
Ġcl aus
Ġcl andest
Ġtr aced
Ġtr aded
Ġtr unks
ant ics
Ġte ap
Ġte aring
Ġte asing
ist r
ach able
Ġqu in
Ġqu oted
Ġex ple
Ġgr ins
Ġco z
Ġco le
Ġco il
Ġco ated
Ġcr ick
Ġar ouse
Ġar throp
Ġsc iss
av in
av ent
ass ic
Ġab et
Ġdis he
Ġdis ks
Ġdis ag
Ġdis ple
Ġdis inte
Ġlo os
Ġlo am
Ġlo ch
Ġlo oms
Ġlo dge
ne e
ne ous
be es
be gan
Ġun to
Ġri tes
Ġpr une
Ġpr istine
Ġcall igraph
de en
iv id
iv able
Ġtoo ts
Ġbu gger
sh ake
Ġman us
Ġman agers
Ġtw iddle
Ġac rid
Ġac erb
Ġmo bs
cl er
me lling
me rely
no res
no things
Ġdr unks
ps ich
Ġdown st
Ġdown right
ens ively
ph y
Ġsk ates
Ġspe ck
per m
Ġgl ade
Ġgl uc
Ġcant ankerous
Ġcar ter
Ġcar pets
Ġcar cin
ian a
Ġdes cartes
Ġthink in
Ġthere in
ell es
Ġins pected
Ġins ulted
Ġlif ting
Ġstr ung
Ġfri ar
Ġfri lls
uck ed
les que
ank ind
ign ant
Ġbri bes
Ġcre t
Ġbar bs
oc co
Ġhigh s
Ġkn itting
Ġear liest
Ġcur ds
Ġcur sing
Ġbig ot
well s
bo bs
Ġbro ads
Ġsn ub
Ġsn icker
Ġge ometry
br as
Ġass ail
Ġdec ayed
Ġdec iduous
Ġter med
Ġdi vert
Ġdi abetes
Ġca the
Ġbad ge
Ġdef ensive
gr oup
Ġfine ly
Ġapp ar
lf are
Ġtry in
Ġcour ting
Ġtri g
Ġcra vings
ah u
Ġz ap
Ġdra pes
lo v
Ġblack berry
Ġpar alysis
Ġcol a
Ġtra ps
Ġcap acity
Ġcap rice
Ġer ased
Ġer upt
Ġchar ism
Ġball ot
Ġmus lim
Ġexp ands
Ġart work
Ġart iculate
Ġsim on
Ġsim ps
Ġstri ped
Ġve ctor
Ġdem onic
con vers
Ġlaw ns
Ġed die
Ġhor rors
zz y
Ġland lord
Ġbra gg
Ġbra gging
Ġtop ics
str uck
Ġlar ges
che cks
vel ops
Ġtur ds
Ġrh ino
Ġele g
Ġsub due
ron ts
Ġmin nie
Ġhouse hold
Ġhal o
Ġpast y
Ġext racted
Ġcop ious
Ġschool ing
gu ards
Ġev ils
Ġhar ness
Ġty ph
Ġty rant
Ġban al
Ġgold fish
Ġtrans formed
Ġfit ter
Ġcool er
Ġdraw ings
Ġflat tened
min ute
Ġbow ler
Ġbas ically
Ġmis be
Ġmis heard
Ġcoun tenance
Ġpick les
Ġcow or
Ġdry er
Ġble u
Ġpos it
Ġsmell ed
Ġdisp ose
Ġspot ty
Ġdeal ers
Ġali ens
Ġcand or
Ġcand ies
Ġdeb ates
Ġach illes
Ġner o
Ġmor sel
ton ed
ton ight
Ġwarm er
Ġsix th
Ġber g
Ġdesp icable
hell e
Ġder ide
Ġder ided
att ached
Ġbreath less
down s
Ġfer r
Ġscr oo
Ġperson ality
arr anged
Ġforce ful
Ġclim ber
Ġlie uten
Ġris ks
Ġsor ted
Ġavoid ed
Ġcomb ines
Ġsecond hand
Ġdim witted
Ġpress ing
Ġpan ned
Ġweight y
bod ied
Ġast ounds
Ġhat chet
Ġsav ior
Ġjoy ful
Ġinter red
Ġpure ly
Ġcream y
Ġaud i
Ġpark ing
Ġcent uries
Ġsuit ably
Ġforget ting
Ġplate au
Ġmel ted
Ġu ter
Ġgar b
Ġemploy er
Ġcam ping
Ġpor ch
Ġfort ress
Ġesc apes
Ġnut ty
Ġba ghdad
Ġconcer ning
Ġpun cture
Ġfab rics
bi ological
Ġchair man
Ġdan es
cont ro
Ġcover t
Ġhist orys
Ġlunch es
Ġhip pie
Ġgle ams
mar ine
Ġbuck le
bal t
Ġsau cy
Ġmot ors
Ġpred icts
Ġmur m
Ġsuggest ing
Ġash ore
Ġblo at
Ġgrin ning
Ġnat urally
Ġvan qu
Ġvan ity
cop y
Ġphot ographer
Ġserv ices
Ġpros aic
di pl
Ġint imate
def ined
Ġtick ing
Ġscar let
kind ly
Ġbrass iere
Ġeur o
Ġeur opes
ste aling
bro ad
Ġtim bers
wr ong
Ġbol ts
Ġbitch in
Ġcoast al
Ġdot ty
Ġmir acle
Ġstreng then
Ġblond es
Ġpil gri
Ġextra vag
Ġshun s
Ġdys lexic
Ġsi blings
Ġapply ing
dri ving
Ġwra ps
Ġom en
Ġmedic ation
cross ing
Ġaug ment
bri dge
Ġclam or
wind ed
Ġpier ced
Ġruss ians
Ġbast ards
Ġut ility
bac teri
Ġbunch es
Ġdies el
Ġbaw d
Ġeurope an
Ġrug ged
Ġjun ction
Ġprescri ptions
Ġmock ing
pri vate
Ġsurround ing
Ġcler gy
ere lla
Ġgener ate
Ġoo zing
Ġextend s
Ġcorp us
Ġcharacter istic
Ġstam mer
Ġfract ions
stuff ed
Ġsimpl er
Ġtroubles ome
Ġhitch ed
Ġpert ains
sing le
Ġles ions
Ġinspect or
Ġinspect ing
Ġlingu istic
Ġcram ped
Ġapost roph
bott om
Ġpatch es
Ġassign ment
Ġsod ium
Ġfest ive
Ġanaly tic
Ġsund ays
Ġunw anted
Ġbapt ism
Ġreco il
Ġpim ples
Ġblacks mith
Ġbic eps
Ġrecl ine
Ġrecr uit
Ġgel atin
Ġinher ited
Ġastronom er
cour se
Ġembry os
Ġportra its
Ġhos tess
Ġwil t
Ġcaus ation
conne cted
sch ool
Ġagn ostic
wri ters
Ġdazz ling
Ġorchest ras
Ġshepher ds
Ġscraw l
Ġscraw led
Ġgad gets
Ġtox in
Ġathen s
Ġwhist les
Ġconcent ration
Ġvolcan o
Ġamphib ian
Ġresour ce
thand ed
Ġobli que
Ġwheez ing
Ġfren etic
Ġhone ymoon
Ġeyel ids
jim my
Ġnephe w
Ġsug ars
Ġinve ctive
Ġturk ish
Ġautom obile
Ġacron ym
Ġambig uous
Ġpatent ly
Ġtuss le
Ġextr aneous
Ġincess antly
Ġopport unity
Ġmish ap
Ġprat tle
Ġtrav ails
Ġerud ite
Ġtrom bone
Ġoys ters
Ġcany on
Ġensl aved
Ġbroc coli
Ġeyebr ows
Ġearthqu ake
Ġinterpre t
leng th
Ġpion eer
Ġlud icrous
Ġmalays ia
Ġcourtes y
Ġflim sy
Ġguid ance
Ġskitt ish
Ġconfed erate
Ġbenj amin
wield ing
Ġcrue lly
Ġadequ ate
Ġimbi be
Ġtwil ight
Ġdistr ict
Ġstrol in
Ġbaltim ore
ofthem ill
Ġestee med
Ġwann abe
a ed
b ust
b able
b ored
b acked
c ash
c ured
c kered
d os
d ip
d ull
d oms
e ff
e con
f us
f ool
f ills
f ier
g ressed
g ically
g ingly
g room
h at
h ound
h arm
h aul
k ick
l on
m b
m un
m its
m ath
m int
m ax
n asty
o il
p u
p ace
p ian
r ades
r ules
s ister
s leep
s tock
s erving
t v
t ur
t ough
t ong
t ale
t oms
t ta
t rap
t otal
v ins
w oo
w ond
w aves
y ep
Ġ ub
th irst
th rew
Ġa ig
Ġs ord
te ins
Ġth ail
Ġth unk
re no
of the
Ġc ag
Ġb ally
Ġb ors
Ġb uss
Ġb anged
Ġthe s
on ial
Ġm ow
Ġm ne
Ġm iam
Ġh ater
Ġh asty
Ġf j
Ġf ined
Ġt ighter
at as
at um
at ured
or iginal
an ium
Ġp s
Ġp ines
Ġp ints
Ġp oul
en o
en ot
en ced
ar in
Ġl ute
Ġl icks
Ġl icked
Ġg op
Ġg ash
Ġg ian
Ġg iz
Ġg unk
Ġg imm
Ġg arments
om on
le p
le cts
ic kety
Ġin ward
al ou
al oo
al umin
and ering
ac cess
it one
it osis
Ġe e
Ġe cl
Ġe cle
Ġe bb
Ġbe ets
Ġbe ret
ot ically
ot roph
ke en
Ġwi thered
os ites
Ġhe ating
ir y
Ġre ars
Ġre lies
Ġre born
Ġre bound
Ġre acts
Ġre runs
Ġr ugs
Ġmy opic
Ġis l
ch ip
im ation
im edes
Ġwe aver
Ġsh illing
Ġsh immer
Ġde ment
Ġde od
Ġde lete
Ġfor ge
ur us
ur ist
ur bed
Ġme in
Ġj ive
Ġj ama
Ġj enny
to on
ro lls
ro dis
Ġch af
Ġch ary
Ġch ants
Ġch ords
Ġch omp
Ġan or
Ġan ac
Ġan ise
Ġan thrac
if iable
se ed
se cutive
Ġas soci
Ġas bestos
Ġk ook
Ġk ansas
qu at
Ġne arer
ge al
pe te
um atic
rom agn
li v
Ġli v
Ġare na
Ġcan can
Ġcan cel
Ġno b
st ir
Ġpl aint
Ġso x
Ġso bri
Ġat w
ab i
ab as
Ġsp er
Ġsp ons
Ġsp arse
Ġbl asting
Ġbl isters
for ds
Ġfe y
Ġv im
Ġv ib
Ġv ietn
Ġle m
Ġle uke
op port
ast rophe
so ver
Ġcl ang
Ġcl inch
ig ator
ig mat
Ġcon ical
Ġcon joined
Ġgo y
Ġgo gh
ame ter
Ġfl ops
Ġbo hem
Ġbo thered
ind e
ind ul
ind uced
Ġqu ilt
Ġgr uel
Ġco ag
Ġby ron
Ġcr one
Ġcr ickets
Ġshe ar
Ġup he
Ġar oun
Ġar nold
ag inous
Ġsc ut
Ġal ve
Ġab c
Ġab j
Ġab bott
Ġab norm
Ġab olish
Ġdis ney
Ġdis rupt
Ġdis belie
Ġdis comfort
Ġlo x
Ġlo ll
Ġbr um
Ġbr unch
Ġad hes
ne g
be ef
be hold
Ġen cl
Ġen able
Ġpro ps
Ġpro pel
Ġun gl
Ġun lawful
Ġam er
Ġam ps
Ġam uck
Ġam ok
Ġgre g
Ġgre n
Ġpr anks
de fe
Ġman ly
Ġtw ine
Ġtw ig
ide xtrous
Ġmo e
then ic
me ll
Ġold est
Ġag og
Ġag gl
Ġag itation
Ġag greg
Ġsl it
Ġsl um
Ġsl acks
ph ys
Ġsk ipped
Ġfr an
Ġpre vents
Ġpre tentious
like ly
Ġcar ts
Ġcar cass
not ic
ug ging
Ġper ception
Ġsw ank
Ġsw irl
ten ts
ty pes
Ġswe ars
Ġfri lly
Ġend ow
Ġend ings
Ġend ear
Ġlong s
Ġlong winded
od ont
Ġhead y
Ġplay wright
Ġtre pid
Ġcre ams
man ufact
Ġbar re
Ġbar ks
Ġmar ian
oc ado
anc a
Ġhand led
Ġid i
Ġid yll
Ġcomp uls
com plain
Ġsn acking
ated ly
Ġye w
br ance
Ġass umes
Ġrep ro
Ġrep roach
Ġcont usion
Ġfun nel
Ġdi apers
ition ed
Ġnight time
co ated
Ġca ustic
Ġdri lls
gr ounds
Ġatt ained
Ġcomm ute
Ġcomm itting
itch ing
Ġcra ved
Ġimp ass
Ġimp unity
Ġimp atient
Ġgod awful
Ġz ed
Ġbed time
Ġrun ofthemill
Ġdra ke
Ġadd er
Ġcor oner
Ġer y
Ġchar ging
Ġchar lat
Ġmiss ions
cre ated
Ġant ist
Ġdep ress
pr ice
pr ince
pr iced
Ġrec ession
Ġpay check
old s
Ġbur dens
Ġcat aly
Ġve ter
Ġcal vin
Ġdem ol
Ġdem urred
Ġgri ps
Ġunder sea
Ġview point
em br
em pty
Ġdam sel
Ġstud s
Ġsal on
Ġbi er
Ġbi kes
Ġbi opsy
Ġlar ks
Ġsupp orted
Ġdeep fried
gre y
Ġinv ites
Ġinv isible
Ġele v
Ġret riever
Ġgrand fathers
ef ully
Ġhum orous
Ġpres um
Ġmin ing
Ġmin ions
Ġshort age
Ġshort lived
tend ing
fl ung
ob ics
Ġob lig
Ġob jected
Ġce aseless
Ġboo z
Ġboo by
Ġpers pire
Ġdel ve
Ġform ula
Ġfre aking
Ġcop pers
Ġbill ing
gu ided
Ġbright ness
cr ust
Ġje ep
Ġside walk
Ġseem ing
Ġbook ed
cy st
Ġma uled
Ġbal der
Ġfit ness
Ġflat ten
Ġbas kets
Ġmis constr
Ġyear ly
Ġmed iter
Ġsol vent
Ġvis ual
omet ric
Ġdisp osition
Ġfil th
Ġarm adillo
Ġexpl oding
Ġsat in
Ġwal ter
Ġang ling
ae a
Ġben ny
Ġbli ghted
Ġdeb ased
Ġbag gy
Ġshr inks
pro per
Ġtrou pe
Ġpal ind
Ġdeli vers
Ġwild e
Ġtruth ful
Ġconv icted
Ġrev ise
Ġdon cha
Ġscr otum
Ġhon ored
Ġsus pects
wel t
Ġattack ers
Ġsand als
Ġcas ts
Ġdread ed
Ġur gin
Ġbree ch
Ġhy gi
Ġdim ple
Ġdim ensions
Ġamb itions
Ġsens ed
Ġmark ing
Ġcard inals
Ġens ues
Ġfan atical
Ġfro th
Ġju lie
put ation
Ġsav ory
Ġjoy ce
Ġinter view
Ġinc ense
Ġboard er
Ġmat rix
Ġvi able
Ġvi king
Ġvi rility
Ġdang le
Ġcamp fire
Ġconc ave
Ġexper iment
Ġdent ists
Ġmel ody
Ġdu et
Ġdu bya
Ġgar ment
ooth ed
Ġexpress ing
Ġconce ived
Ġdefe ats
Ġspell ings
Ġprev ention
Ġpin ched
Ġskill ful
Ġrepe ating
Ġrad iation
Ġcover ing
Ġuns ung
Ġdiss olve
Ġhist or
Ġloc ate
Ġbrand new
Ġincl ine
ixt y
Ġsau ces
Ġpill age
Ġpred ator
Ġtar ts
Ġrece ives
Ġmood y
Ġmur ky
Ġachie ving
Ġimpro per
Ġstat istic
Ġinst antly
Ġcher ub
rit us
Ġdrag ons
Ġstrain s
Ġphil ology
ension al
Ġtour n
Ġflash ing
Ġreport ing
Ġint ricate
Ġaer odyn
Ġcru ising
Ġinte gr
Ġven ge
Ġven ue
Ġthank ful
Ġchief s
Ġrecall s
Ġbust ing
Ġfet ching
Ġfond er
Ġru be
Ġseas ide
kind a
Ġau ld
Ġstrip ping
Ġcub s
Ġsmooth ly
Ġrelax ed
Ġbottom less
comm un
ugg est
Ġsuck ers
Ġchill ing
Ġfem me
Ġrespond s
Ġteen ager
inch ief
Ġgentle men
asc ular
Ġgang s
Ġdys pe
Ġdys function
Ġsensation al
Ġsi amese
Ġdivor ced
Ġevent ually
joh ns
Ġmoder ate
Ġener gys
Ġsyn onym
Ġom n
Ġdevelop ing
Ġcorrect ly
fall ing
check ing
vol ution
vent ing
Ġet ched
Ġmart ini
Ġpond s
Ġace phal
Ġbump y
Ġnic er
Ġhack er
Ġly ric
Ġcens us
Ġconcept ual
Ġmob ile
Ġabhor red
Ġmap le
Ġbeck on
Ġpossess ions
Ġimprove ment
Ġpretend ing
Ġsplend or
Ġprin ters
Ġprin ting
Ġprin ci
Ġprin ces
Ġsli ver
Ġscra ps
Ġscra ping
Ġshor ten
Ġnap ole
Ġpuzz les
dist ance
Ġpac ket
Ġadmir ing
Ġhoo ves
Ġsno b
Ġrust y
Ġmarsh al
Ġliz ards
Ġflop py
Ġgener als
Ġgrad uate
Ġcolon ial
Ġtrave lled
Ġaffl uent
clim at
Ġpredict ions
drop ped
Ġdiscreet ly
Ġliber ty
Ġplat form
Ġbris tol
Ġvirt ues
Ġproclaim s
Ġaccident al
mus ic
Ġfid o
Ġfid el
Ġbrow se
Ġdab ble
sequ ent
Ġdomin ion
Ġmultip ly
Ġdesperate ly
Ġcau ld
ophag ous
Ġcrud dy
few er
Ġstead fast
Ġstrugg les
Ġreco ver
clean ing
Ġfrag ility
Ġextens ion
Ġvillain ous
Ġsust ained
Ġcarb ons
Ġslur p
Ġjohns on
Ġail ment
Ġfasc ination
Ġador able
yield s
Ġprovo kes
Ġphilosoph y
Ġinform al
bib li
wri ter
Ġdazz le
omorph ic
Ġscor ned
bare ly
Ġnave l
Ġappreh ension
pow ered
Ġexem pt
pic uous
Ġcrustace ans
Ġhys teria
Ġadvis or
Ġhick ory
Ġig neous
Ġblasp hem
Ġdisapp oint
Ġcaval ier
Ġprophe ts
Ġaven ue
Ġlaure l
Ġunner ved
Ġlib ation
achie ver
Ġyel p
Ġyel ps
Ġbrac ket
mid st
Ġbage l
Ġpengu ins
Ġseaf ood
Ġbrus sels
Ġbram bles
Ġdesir ous
sug ar
Ġambass ador
Ġdoeuv res
Ġgird le
Ġvoy age
Ġchort le
Ġingred ients
Ġrit ual
Ġcance lled
ylvan ia
cele br
Ġfeck less
Ġvult ure
Ġabras ive
Ġverd ict
Ġmathematic ian
Ġrhyth ms
Ġcosmet ics
Ġbartend er
Ġfrond s
Ġfift ies
Ġscen ery
Ġcellul ose
Ġchristo pher
Ġchauffe ur
Ġost rich
establ ishment
Ġesk imo
Ġcout ure
Ġbegr udge
Ġphleg m
Ġdalmat ian
iju ana
Ġspont aneous
Ġentrepre neur
Ġbests ell
Ġproverb ial
Ġribb ons
Ġboister ous
Ġpern icious
Ġaccust omed
Ġsynt ax
Ġthrom b
Ġclandest ine
Ġlarges se
b oo
b un
b ard
b ull
b amb
c art
d it
d ney
d ressing
e igh
f an
f ert
f ores
f oli
g ings
h ild
h urt
h avent
i ard
i bo
i ations
i ams
j ah
l ah
m ot
m ins
m arch
m ike
n atures
o cl
p age
p od
r and
r hyme
s u
s ail
s ailing
t ar
t ot
t ub
u gh
u ette
v ant
v oy
v ils
v iet
w en
w om
w et
w ins
z el
Ġa ort
Ġa ub
Ġa vers
Ġa aa
in cre
in test
Ġs urn
Ġs ushi
Ġth ither
re pe
re use
Ġc ain
Ġc itation
Ġw ren
Ġw avy
Ġb j
Ġb op
Ġb act
Ġb ord
Ġb ism
Ġb osh
on et
Ġm ills
Ġm ott
Ġm owing
Ġm amas
Ġh oops
Ġi ced
Ġi gu
end less
Ġf os
Ġf ife
Ġt us
Ġt res
Ġt aps
Ġt rophy
Ġd unk
Ġd irk
at ist
ll is
ll um
is a
is l
is ance
an ac
Ġp ard
Ġp ug
Ġp uddle
Ġp umping
en as
en thr
en na
en tee
en za
ing ue
ar th
ar thr
ar ney
as per
as king
Ġl ash
Ġl ures
Ġl oun
Ġl az
you s
Ġg ou
Ġg arr
Ġn ou
Ġn appy
Ġn oodle
Ġto ile
om ist
ic er
ic ol
ic ant
ic ip
us c
Ġin cent
ve get
Ġand ro
Ġand ers
al ian
ac qu
ac commod
it arian
Ġe ased
the astern
ad oles
Ġbe get
he ck
ot as
ot ine
ot ive
ut y
os able
Ġhe e
Ġwh ined
Ġre fe
Ġre eds
Ġre cept
Ġre igned
Ġre aper
Ġr owing
Ġr itz
Ġr oused
ch n
ch en
ch ance
et al
im en
im ps
all ic
all owed
ter ate
ter ys
Ġwe as
Ġwe aving
Ġwe lfare
Ġsh ifty
un ivers
Ġde ity
Ġde gr
Ġde cked
Ġde uce
Ġde acon
Ġfor g
ur ine
ur ation
Ġme ow
Ġj us
Ġj ost
to e
ro ads
Ġch aw
Ġch iff
Ġch unks
Ġch eney
Ġwith stand
Ġwith drew
ra ging
if ix
ent a
ent om
ent ry
but ter
Ġo e
Ġo ily
il ts
il ess
il ib
il ities
Ġk ap
Ġk inky
ate e
ess ive
li o
li nder
Ġli able
Ġno nd
Ġno ct
Ġno thin
Ġno ggin
Ġor ient
Ġor bits
Ġor deal
up le
Ġall uring
Ġpl ums
Ġso ils
Ġso viet
ap en
ap ar
Ġsp ans
Ġsp heres
Ġsp ilt
Ġsp urs
Ġsp ades
Ġsp urred
Ġbl und
ine e
op ian
op oly
Ġcl ack
Ġcl ans
Ġcl imes
Ġcl umps
are rs
ig uous
Ġsu es
Ġcon ference
Ġcon noisse
ous al
aid s
Ġgo bble
Ġgo thic
Ġfl unked
Ġus a
Ġus er
Ġqu ipped
Ġgr ating
Ġgr aced
Ġco erc
Ġby r
Ġby z
Ġcr iss
Ġcr onies
Ġout ward
Ġy ay
Ġup side
Ġar che
Ġar rog
pl ish
pl itting
Ġsc ow
ink ing
av ored
Ġal tru
Ġab ject
Ġab uses
Ġab reast
Ġdis av
Ġdis like
fe atures
fe athered
Ġlo ading
Ġad el
ne ll
be lly
Ġen act
Ġen rolled
ip ede
Ġun sh
Ġun ions
Ġun certain
Ġun told
Ġun covered
Ġun employed
Ġun ruly
Ġam mo
Ġap er
Ġap athy
Ġri led
Ġgre cian
Ġsm ir
Ġro ckets
aw a
Ġbu ggy
Ġbu ckets
Ġgu v
Ġgu ise
Ġmore over
Ġpo of
Ġtw igs
Ġac orn
Ġac umen
Ġmo h
cl ub
Ġche et
Ġche que
no pe
no ble
Ġword ing
Ġpe eling
Ġpe bbles
Ġdr ows
Ġdr udge
Ġjo ve
Ġag in
Ġag ar
Ġag round
Ġag ency
Ġsl av
Ġsl urs
Ġsl oven
Ġho bo
Ġoff ended
und y
Ġmay o
Ġmay onna
ph obia
Ġthr ottle
Ġspe ars
Ġfr uity
Ġgl ower
Ġgl azed
Ġpre ached
Ġgood will
ment ary
Ġper cept
Ġper ky
Ġper fected
Ġlif eless
rain s
Ġend urance
Ġwa iters
Ġfo d
od er
ord on
Ġste amed
Ġste ward
Ġres ume
Ġres erved
Ġbri o
Ġbri ghtest
Ġcre mation
Ġbar y
Ġbar ter
Ġbar ney
Ġbar bers
Ġmar ching
Ġplan ks
Ġbet w
Ġbet ters
ins pired
Ġhand c
ale m
Ġcomp end
Ġcomp ost
Ġcomp ress
Ġcomp onents
Ġcomp uting
af raid
Ġlove making
Ġcur ric
Ġsur feit
Ġbro ch
com ed
Ġsn are
Ġsn atched
Ġge off
Ġass et
Ġshow y
Ġrep ast
Ġpart ly
Ġpart ially
Ġdec ipher
Ġyoung est
Ġdi ary
Ġdi agr
ren ic
Ġhel pless
Ġca j
Ġdef ending
Ġcome ly
gr anny
Ġcomm ode
Ġser f
see ks
Ġcra bby
Ġcra fted
je ez
Ġred uces
Ġstar ing
Ġrem iss
Ġz it
Ġz any
Ġdra ped
Ġcons ign
Ġcons tell
Ġbeg onia
atter y
Ġop aque
ax is
Ġpar ach
Ġhome made
Ġtra ff
Ġer mine
Ġkne eling
app ers
app reh
Ġsou ps
Ġfear less
cre ating
Ġdear ie
Ġexp osing
Ġexp anse
Ġant ics
Ġart is
Ġart if
Ġnor way
Ġbur r
Ġfood stuff
gl er
Ġve il
Ġgri zz
Ġgri pped
Ġel k
Ġel m
Ġel im
em ing
Ġed ition
Ġsad ie
Ġclass ed
tr ack
Ġsal ve
Ġland l
Ġfin ances
Ġsupp orts
Ġbab el
Ġtur ks
Ġret rieve
Ġabs ol
Ġwri ght
Ġwed nes
Ġlot to
Ġstra uss
cri es
cri bed
Ġsub sequent
ef fect
Ġhum id
Ġbeh est
fl u
ob ac
Ġpast ure
Ġboo hoo
Ġeye ball
Ġfre aks
Ġspr int
mo ves
Ġev olution
Ġfa irer
Ġhapp iness
Ġchr isten
Ġcolle en
Ġcolle ague
should nt
got ten
Ġtreat y
Ġtreat ise
Ġmess ages
Ġsit ter
Ġwood land
Ġbas so
Ġque bec
Ġmis placed
Ġyear ned
yl and
Ġent ra
cent ral
Ġvis age
rent ial
Ġobs er
Ġobs erv
Ġpos ter
Ġpos terior
Ġteach ings
Ġhop ped
Ġbud ding
sp are
sp oke
Ġbell igerent
Ġang i
Ġang us
Ġang rily
Ġign ition
Ġbrown ed
Ġgal a
Ġcro at
Ġcro cus
amm ad
Ġmate rials
Ġengl ands
car a
car ries
Ġmor occo
pro ves
Ġarch es
Ġtough er
Ġbirth days
ator ial
Ġprov ider
Ġbank ers
Ġpra ising
Ġband w
omb re
Ġbare foot
Ġann ie
Ġperson a
Ġcab les
arr ows
ann as
Ġshock er
Ġprice y
Ġhy brid
Ġbound ary
Ġbot ch
try ing
Ġtall er
Ġran cher
Ġsil ic
Ġconst it
Ġtrick le
Ġju ven
Ġinc or
Ġpark er
Ġharm ful
Ġharm ony
Ġimm ortal
Ġbutter flies
Ġbod ice
Ġpract ically
Ġcheer fully
Ġprep ar
Ġconc urred
Ġsigh ing
Ġmach o
Ġprec ocious
Ġmel ons
Ġtv s
Ġdu kes
Ġgar gant
Ġjudge ment
Ġeffect ively
Ġemploy ing
Ġcounter feit
Ġmill er
Ġneck lace
Ġesc aping
Ġfrank ens
Ġdefe cts
Ġchildren s
Ġrum ble
Ġalong side
Ġpun ish
Ġgall on
Ġrough ly
Ġrude ly
Ġdiss im
Ġhist ri
Ġquar tet
ino is
Ġbes otted
whe el
Ġpitch es
Ġnet tles
Ġtext s
Ġrece iver
Ġec ology
Ġcontin uous
Ġcult iv
Ġest ates
Ġprocess es
Ġacqu ies
Ġgh oul
Ġphot ons
Ġvir gins
Ġinfl uence
Ġaer os
Ġseed y
Ġconsider ing
Ġpup ils
Ġpsy cho
Ġbrew er
Ġcalm ly
Ġess ay
Ġtooth less
Ġphelps es
Ġrou lette
imp ressed
Ġmic row
Ġmic key
Ġcrash ing
Ġcraw ling
win ter
Ġtim ber
Ġlou ie
itt les
Ġgrab bing
Ġalb umin
Ġalb umen
Ġaqu arium
Ġanno ys
Ġbloom ers
Ġbrave ly
Ġleng ths
Ġtun a
Ġped antic
Ġvill ains
Ġenter t
Ġperform ers
Ġbrush ing
Ġstom p
Ġsecret ly
Ġrecord ing
Ġpap al
Ġgentle mans
Ġaddress ing
Ġvent ured
Ġgrip ping
Ġom ission
Ġheavy weight
Ġtrad itions
Ġhappen ing
Ġwis cons
Ġaug er
Ġaz ure
Ġet iqu
Ġken ned
Ġtear ful
Ġgross ly
Ġbarn acles
Ġrap id
Ġfunction al
ribut ions
Ġflavor ful
Ġquiet ly
Ġrid ges
oli an
Ġdess erts
Ġpond ered
Ġfever ish
Ġcris py
Ġrelig ions
Ġcloth ed
Ġmall s
Ġgam bler
Ġbom ber
Ġlun cheon
don alds
Ġcer amics
Ġbrill iance
mind s
Ġanapest ic
Ġsli ghtest
ien ced
Ġfeather y
Ġleaders hip
Ġpac if
Ġrail way
Ġprescri be
Ġeg ad
Ġchir p
yell ing
Ġintr ud
Ġintr usion
Ġstub ble
Ġaller gies
Ġcarn iv
Ġthorough bred
Ġmarsh m
Ġtypes et
prod uced
incl udes
Ġalcoh olic
Ġcac a
Ġridd led
Ġangl er
Ġangl ican
Ġsew age
Ġwitness es
Ġsocial ist
Ġsquir rels
Ġpizz azz
Ġmechan ics
Ġdemon str
Ġdemon strate
Ġesp ied
Ġentr anced
Ġfract ured
Ġcorps es
Ġlat rine
ref ined
Ġclos est
Ġengage ment
Ġinj ury
Ġaus ten
Ġmour ning
Ġcul prit
Ġadjust ing
Ġvirt ual
Ġvex ation
lot te
pick ing
Ġbef uddle
Ġfanc ied
Ġsculpt or
Ġsculpt ures
Ġcompet itors
Ġorig in
Ġsynd romes
Ġshred ded
Ġafl utter
Ġfossil ized
Ġhank er
Ġros y
Ġaward ed
Ġblush ing
Ġcogn os
Ġprem ature
Ġphysic ist
Ġstead ily
Ġfest ival
Ġaph ids
prov ide
Ġlumber jack
Ġcompreh ension
Ġstrand ed
Ġot to
Ġsneez es
Ġenchant ing
din ner
Ġbour bon
Ġbour geois
Ġbov ines
Ġdefect ive
Ġoc top
Ġara bs
Ġrepubl ican
Ġdecre ased
alg ia
Ġeffic acious
Ġabund ance
Ġappend ix
Ġphilosoph ers
Ġgor illa
Ġchol er
Ġexh ort
conne ct
Ġscram ble
Ġscram bled
kno cked
Ġscal p
Ġprinc ip
Ġident ical
Ġmuff et
Ġliter al
Ġsie ve
Ġouter most
psy ch
Ġactiv ist
Ġcine ma
Ġaster oid
Ġcors et
Ġbye bye
Ġshrie ks
Ġabrupt ly
Ġig nores
Ġvag inal
Ġnarc iss
Ġpist ons
Ġhamm ock
Ġunl ucky
fro zen
engine ers
suc cess
Ġsult an
prep ared
Ġincess ant
Ġspraw l
Ġpengu in
Ġbemo an
Ġbutch ers
Ġscarce ly
Ġtherap ist
Ġblat ant
Ġsnar led
Ġful filled
Ġbrist les
Ġveh icle
Ġmuc us
Ġchass is
Ġtai wan
Ġplung ed
Ġtranqu il
Ġpropri ety
Ġhein ie
blo oms
Ġcontag ious
Ġimposs ible
Ġverte bra
liqu id
Ġeros ion
Ġpyram id
Ġbesmir ch
Ġcaucas ian
Ġlefto ver
acce ler
Ġflound er
Ġmarg aret
Ġcurv aceous
Ġbothers ome
Ġburgeon ing
Ġwarri or
publ ic
Ġkangar oo
Ġspher ical
igen ous
Ġbaile y
absolute ly
Ġmitten s
Ġnaut ical
Ġkiw i
Ġlech erous
shakes pe
Ġtreach erous
Ġkos her
Ġunif orms
Ġblackand white
Ġhambur ger
Ġteap ot
Ġthail and
Ġmne mon
Ġmiam i
Ġgian ts
Ġmediter ranean
b end
b bled
b oston
c ath
c ats
c ute
c mon
c raw
c ups
d ance
d ons
e an
e gy
e ffic
f as
f ut
f am
f ought
f ired
f illing
g ly
g ars
g ments
h all
h ate
h ook
h ops
i antly
i oux
l u
l ant
l uc
l aying
m ort
n ar
n ate
o ise
p end
p its
p are
p ool
p ents
p ush
p ah
p icked
p raise
r u
r ings
r ush
s i
s an
s our
s ally
s und
s ym
s aving
s ixty
t our
t ish
t ics
v ance
w ine
w olf
x om
z an
z ie
z ero
th or
th ar
th est
th cent
Ġa to
Ġa ha
Ġa uber
in us
te ct
Ġth aw
Ġth resh
re in
re moving
Ġc rom
Ġc em
Ġc atherine
Ġw es
Ġw an
Ġw uz
Ġb am
on ium
on line
on ius
Ġm ia
Ġm idd
Ġm ounts
Ġm uh
Ġh art
Ġh ows
Ġh amp
Ġh ilt
Ġh ulk
end ence
Ġf ume
Ġf ender
Ġt ay
Ġt ainted
Ġd d
Ġd oss
Ġd imes
Ġd aint
Ġd ither
Ġd uds
at om
at to
or ce
or rh
is or
Ġp ong
Ġp iv
Ġp ence
Ġp ics
en tele
ar f
ar g
ar ly
ar thy
ar thur
as ks
as so
as gow
Ġl ashes
Ġl arynx
Ġg az
Ġg aul
Ġg izz
Ġn oo
le ans
ic ipal
ic illin
Ġin com
Ġin con
Ġin put
Ġin jected
it ations
Ġe ul
Ġe ard
ad i
Ġbe el
Ġbe lf
Ġbe ige
ri tes
ri des
ri dden
ke te
ld sp
os yn
Ġst akes
Ġst alled
id ge
id ery
id ium
Ġhe aped
Ġhe mp
ir v
am n
am ins
am oe
ion e
Ġr ah
Ġr aced
Ġr azz
Ġr agged
wh is
ch and
ch ol
ch ond
ch asing
et r
im a
Ġsh ifts
Ġfor gets
Ġfor bear
ur gical
Ġj ut
to ed
to os
Ġch es
Ġch ained
Ġch ipped
Ġch anced
Ġch asm
Ġch utz
Ġan on
Ġan ted
Ġan them
ra ble
Ġo af
se at
il as
Ġwas p
Ġse th
Ġne in
Ġne arest
pe re
pe ter
ers by
um bo
we bs
Ġcan v
Ġno brain
ol o
Ġor leans
st aying
Ġall ev
Ġpl od
Ġso iled
ak i
ab and
Ġher m
Ġher on
Ġdo lls
Ġdo gged
Ġsp ank
Ġsp ock
Ġsp utter
Ġbl ames
Ġbl ender
Ġbl urb
for th
for give
Ġfe te
Ġv ind
Ġv arnish
ight ly
Ġle ek
op ol
ard o
Ġcl icks
Ġcl asp
Ġtr ow
Ġtr un
Ġcon gest
ous and
now s
Ġfl ue
Ġfl ail
Ġfl aps
Ġbo asting
Ġbo zo
ie ls
Ġcom for
Ġcom rades
Ġqu aking
Ġqu izz
Ġgr ac
Ġgr ams
Ġco ed
ud ent
ud ged
Ġy ep
Ġshe ik
Ġshe ila
Ġar is
Ġar ct
Ġar ty
ag os
ag ogical
pl er
Ġal s
Ġal es
Ġal ger
Ġab ed
Ġab ra
ys ts
ys tem
Ġdis jo
Ġdis hear
Ġdis placed
Ġdis charge
Ġdis perse
fe eding
Ġlo co
Ġlo osed
ep is
Ġad ver
ne th
be g
Ġpro pell
Ġwho res
Ġun ab
Ġun willing
Ġam e
Ġam nesia
Ġap o
Ġri ders
Ġgre ased
Ġpr owl
Ġro bes
Ġro osters
iv ious
Ġbu c
Ġbu col
Ġgu ill
Ġpo ds
Ġpo ached
Ġman hood
Ġtw of
Ġac ed
Ġac rost
Ġmo g
Ġmo nd
Ġmo xie
Ġche aps
no xious
Ġpe es
Ġag ile
Ġsl ows
Ġsl udge
Ġsl icing
Ġho yle
Ġho cus
oss essed
Ġem ily
Ġem ission
Ġneed less
ens is
bl ank
bl owing
ph or
Ġsk it
Ġsk ips
Ġthr ush
Ġspe wed
Ġfr at
Ġgl immer
Ġgl asgow
Ġcle aver
Ġcant alou
Ġdes pots
Ġper forms
Ġsw ipe
Ġsw irls
Ġsw irled
Ġfind ings
Ġins ides
Ġswe aring
Ġstr ata
rain ing
Ġright wing
Ġhow d
ber y
Ġlong ago
Ġhead aches
Ġres ulting
ign on
Ġcre ak
Ġnever more
Ġmar ys
Ġmar ia
Ġmar quis
oc c
oc al
Ġhigh ways
ial ity
Ġhand ic
Ġhere by
uff y
Ġsur rend
uc c
Ġbro ck
Ġge ologists
Ġye a
br uce
Ġund ies
Ġshow ered
Ġcont acts
Ġpart ial
Ġdi oc
Ġdi agonal
can ny
Ġdef ra
Ġdef lect
Ġdef enses
gr ace
Ġcomm as
Ġcomm une
Ġconf lic
Ġtri via
Ġfar ted
Ġdou g
Ġdou bly
Ġstar ry
Ġread ings
Ġread ily
Ġlim es
has ia
Ġdra gs
Ġdra fts
lo in
lo om
Ġcor ks
Ġcor nered
Ġcol oured
Ġcap ac
med iate
Ġer red
Ġfree zer
umb ing
Ġsou ven
Ġmiss es
Ġmiss us
thr owing
arn ation
cre w
Ġhot tie
Ġbird ie
pr int
pr oud
Ġdist ort
Ġnor se
Ġhair do
Ġrec ite
unch ed
uss y
Ġgra il
Ġbur lesque
Ġcat ar
ues ome
Ġdev on
Ġdem ented
con cent
Ġind irect
Ġunder wear
Ġel icit
Ġsqu ared
Ġblood thirst
tr ou
Ġsal ami
Ġdiv ides
Ġfin ale
Ġsupp orters
Ġes ther
ced es
Ġmen acing
cle opat
Ġfact ions
Ġinv o
Ġabs c
Ġwed dings
Ġstra pped
Ġhum ane
Ġhum ility
Ġflo ated
Ġav ar
Ġav al
Ġav id
ob solete
ex am
Ġfly ers
Ġce o
Ġpers ians
Ġpers istence
Ġmet tle
Ġson inlaw
Ġbat ty
Ġform at
po x
po ison
Ġext inction
Ġprof essed
Ġwall op
Ġfail ures
Ġcond om
Ġcond one
Ġfair ness
Ġfa iries
Ġfa ulty
Ġchild ish
ract ions
Ġty ke
Ġwhe e
Ġma res
Ġeas es
Ġeas ing
Ġtrans formation
Ġbal i
Ġbal con
Ġfit z
Ġbas que
Ġmis leading
Ġmis chie
Ġmed als
Ġcoun tered
Ġent om
Ġent itled
Ġcir rh
mon ial
cent ric
Ġpat rick
Ġobs erves
Ġobs erving
Ġble at
Ġthri ved
Ġleg ions
Ġleg ends
Ġhop per
Ġheav ily
Ġdisp ut
Ġchance ll
Ġkill ers
des igned
Ġbud we
Ġmag gie
sp ace
sp ending
Ġbell owed
Ġang ular
urs ed
Ġfill er
Ġdisc ol
Ġeng enders
Ġmer ingue
Ġsin us
bu zz
Ġtem ples
Ġaut omatic
Ġrev oir
Ġshar ply
Ġcorn et
Ġdon na
att ice
down ing
Ġband age
Ġbull f
Ġring o
Ġcost umes
Ġdescri ptions
ca es
Ġfoot wear
Ġmeat y
Ġann ette
Ġmeaning less
Ġnone theless
Ġneighb oring
Ġblind ness
Ġhu h
Ġcu ri
Ġcard i
Ġcard io
Ġsil ently
Ġcirc uits
Ġcirc ulation
Ġshape ly
Ġens uring
Ġthick ly
Ġdet ailed
Ġdet ached
rel ation
rel ax
Ġprop ag
Ġprop ortions
Ġast aire
Ġast ride
Ġbrit ains
Ġbrit ann
Ġinter fere
Ġinc ur
Ġinc ite
Ġinc ident
Ġbuff er
mit ting
Ġimm un
Ġbutter y
Ġcheer lead
dr inks
Ġsuit ors
iling ual
Ġprep oster
bre aks
Ġdent ures
Ġemploy ees
cons idered
Ġenc umber
Ġenc roach
Ġtor rid
Ġgent ry
Ġbon k
Ġba a
Ġfab les
Ġbub bling
Ġuns peak
Ġflight y
Ġdiss u
mar sh
Ġpitch ed
Ġtext ing
Ġtext ure
ixt ures
wood en
Ġstor my
Ġtrack ing
Ġmaster ful
Ġquestion ed
Ġtwenty one
Ġplot ting
Ġcontin ents
Ġcontin ental
Ġvers a
Ġprocess ing
Ġrat ings
Ġchew y
Ġimpro v
Ġdrain age
Ġspan ned
Ġphot ography
Ġserv ants
Ġbul gar
Ġchat ting
Ġconstr ued
Ġsmo kers
Ġbent ley
Ġprize winning
Ġsed uctive
Ġtick led
Ġconsum ing
Ġfond ness
Ġpup il
Ġresist ing
Ġaccount ants
ret te
Ġbene volent
imp ort
Ġmic helle
Ġshut tle
Ġvar iation
Ġcompe l
itt ies
Ġcredit ors
ogen y
uv re
Ġpa j
ugg age
Ġcough ed
Ġtro d
char lie
Ġholl ered
Ġbeau ts
Ġerr ant
Ġcann ab
Ġdiscuss ions
Ġsecret ions
Ġflood ed
Ġdistress ing
Ġdun es
Ġreview ed
Ġscri be
Ġoper as
Ġfold ing
Ġterror ists
Ġtrad ers
bur st
Ġtwe e
Ġtwe ed
Ġflor ist
bab e
Ġlip stick
Ġske pt
Ġske ptic
jun ction
Ġhi j
Ġjac kets
Ġbru ises
Ġfir ing
Ġod ors
Ġod ious
Ġchrom atic
oster one
grand mas
dro ve
Ġly rical
Ġexplore r
Ġcoo lly
Ġswee ten
Ġfart ing
Ġprogr amming
Ġow es
Ġsaf ari
elect ro
Ġpuff ed
Ġlew is
Ġpretend s
cry stal
Ġmole cular
Ġpriv ates
Ġsty x
Ġabstr action
Ġecon omic
Ġmyth ology
Ġcongress ional
Ġbarb ary
sup p
Ġscan ned
Ġsniff ed
Ġaber deen
Ġforest all
fic ial
Ġquarter back
Ġintr ude
Ġcolour ful
Ġabsor ption
Ġsof as
Ġmuse ums
Ġhind i
Ġhind u
Ġdipl omat
Ġsap ph
Ġminor ity
Ġdaw ning
Ġtrem bled
Ġapl enty
Ġard ent
Ġdict ates
Ġsett lers
drop ping
bus y
Ġaus p
Ġveget ables
Ġadjust able
Ġdrool ing
har ry
Ġarom atic
gri nd
Ġassem ble
Ġchlor ine
Ġcontend s
Ġdomin ant
Ġconver ge
Ġmeas uring
Ġdispar ate
ophag us
Ġalleg iance
sto le
Ġconj ure
doc s
Ġclog s
Ġrefle cted
Ġfrag ments
Ġket ch
Ġhaz el
Ġratt les
star red
abor ate
Ġalkal ine
Ġatm ospheres
Ġeffic ient
Ġabund antly
Ġappend age
none theless
Ġfas ten
icion ado
californ ias
Ġmont ana
Ġexe cut
Ġdispers ed
Ġcate ch
Ġnas al
Ġqual ms
Ġdefl ated
Ġalmond s
Ġblot to
Ġdistingu ished
Ġsulf ur
Ġpli able
Ġplank ton
eeee eeee
Ġbaff led
Ġshrie ked
Ġnewsp apers
Ġdaff y
Ġperse vere
Ġdolph ins
fig ure
reg ular
Ġacrob at
Ġpublish er
Ġburs ts
cit rant
Ġdogg ie
Ġenl isted
tech n
Ġnause ous
Ġyanke es
descri bes
Ġrept ile
Ġinscri ption
Ġlor ry
Ġammon ia
Ġwack y
Ġbage ls
Ġdors al
Ġraven ous
Ġbern ard
Ġick y
Ġrearr ange
Ġcasc ade
Ġcombust ion
Ġsurve yed
Ġdevote e
Ġtransgress ion
Ġcrocod ile
tas tes
Ġattent ive
Ġagg rieved
Ġconscious ness
Ġthrift y
Ġmollus ks
Ġteles cope
Ġmerc ury
Ġadjour n
Ġpsal m
Ġauthent ic
Ġphenomen al
abdom inal
Ġaggra vation
Ġbureau cr
Ġchate au
vell ous
Ġvass al
Ġgrocer y
Ġdiphther ia
Ġkud os
Ġvint age
daugh ter
Ġfrig id
Ġdeliber ate
Ġpsychiat rist
behav ior
Ġrebell ion
Ġcomprom ise
Ġdrople ts
Ġdegrad ation
Ġnecr osis
Ġdownst airs
Ġgluc ose
Ġscroo ge
Ġsord id
Ġbors cht
Ġisl amic
Ġtrepid ation
Ġhygi ene
Ġcauld ron
Ġthromb osis
Ġloun ge
Ġincent ive
Ġbetw ixt
Ġgargant uan
thcent ury
Ġchutz pah
Ġnobrain er
Ġmischie vous
b ast
b ry
b ian
b io
b ending
b utes
c ad
c id
c ies
c od
c ated
c ape
c uri
d are
d umb
d ata
d warf
e up
f end
f el
g ather
h us
h og
h ounds
h orses
i atic
i ker
k end
k inesis
l ass
l ims
m ult
m aint
m ama
n os
n osis
o ic
o vers
o bed
o thy
p ate
p ig
p ins
p acks
p ipe
r ats
r ina
r ises
s tead
s ilk
s car
s lightly
s uggest
t ales
t aste
w is
z t
th o
th irteen
Ġa wh
Ġa ure
in ctions
Ġs s
Ġs ig
Ġs als
Ġth ames
Ġth irt
Ġth icket
re v
re ce
re fle
ou ette
of fered
Ġc f
Ġc es
Ġc im
Ġc mon
Ġc ords
Ġc offe
Ġc inder
Ġw ad
Ġw are
Ġw att
Ġb t
Ġb ays
Ġb ards
Ġb idd
Ġthe red
on is
Ġm p
Ġm ire
Ġm ids
Ġm ired
Ġm asts
Ġm ingle
Ġh an
Ġh ale
Ġh ares
Ġh ait
Ġf op
Ġf ars
Ġf urs
Ġt ir
Ġt ile
Ġt asting
Ġt apes
Ġt akin
Ġt agged
ofte nt
Ġd as
Ġd us
Ġd ach
Ġd ons
Ġd une
Ġd osh
Ġd ipped
Ġd itz
Ġd oodle
Ġd welt
at rix
ll as
or ize
ed ward
is cus
an ist
an ian
an za
Ġp ours
Ġp iper
Ġp ittance
ar ab
Ġl s
Ġl act
Ġl aser
Ġl uggage
you t
Ġg ays
Ġg ps
Ġg oop
Ġg ushed
Ġg athers
Ġn uff
Ġn once
Ġn apping
Ġn aval
om al
ic ist
us al
Ġin ver
Ġin ks
gh tens
ve lled
Ġand ean
al om
al ess
and em
it ory
Ġe k
Ġe ls
Ġe aves
Ġe ater
Ġe ject
Ġe got
ad ic
Ġbe cket
Ġbe quest
he x
he ls
he ating
he aven
he eled
ut ian
ri m
Ġwi ly
Ġst oop
Ġst igma
Ġhe ightened
ir rit
Ġon us
am az
am ount
ion ic
Ġwh acks
Ġwh izz
Ġre eks
Ġr ating
ch s
ch at
ch as
ch us
ch ose
all ey
ter min
Ġwe en
Ġwe aves
ce ase
un king
un ited
un cular
un cture
Ġde we
Ġde ans
Ġde form
Ġde uter
Ġfor ks
ur f
Ġme mo
Ġj ugs
Ġj ingle
res cent
ro ps
Ġwith er
Ġan to
ra re
Ġo g
Ġo ar
Ġo va
se vere
Ġas pired
Ġas thm
Ġk its
Ġk ah
Ġk arl
Ġk arma
ill ions
qu in
qu ote
ge an
Ġli bel
we ather
Ġnot ing
Ġcan ard
Ġcan opy
Ġcan adas
when ce
Ġno dd
Ġor thodox
st ates
st aff
Ġpl ume
Ġpl uto
Ġso aps
ab ad
ab str
ab olic
ap or
Ġdo in
Ġdo zed
Ġsp ire
Ġsp asm
Ġbl est
Ġv iz
Ġle op
Ġle ase
Ġle aking
Ġle eds
Ġle vy
ast ical
Ġcl ime
Ġcl inton
est ible
Ġtr u
ant if
ig ree
ig matic
ig estion
Ġte amm
Ġfl ings
Ġfl irty
Ġfl urry
Ġfl annel
Ġbo ils
Ġbo gey
ach ron
Ġcom me
Ġqu ark
Ġqu ench
Ġex s
Ġex alt
Ġco here
ud i
ud ging
Ġcr ouch
Ġcr ummy
Ġout done
Ġout fits
Ġy od
Ġlike wise
art ic
ag g
ag ons
pl aces
pl ussed
Ġsc ound
Ġsc int
Ġsc ads
ink ed
Ġal pine
Ġab uzz
Ġab user
Ġdis in
Ġdis place
Ġlo be
Ġlo ony
Ġlo bes
Ġlo osen
Ġlo gger
Ġad i
ne ighb
be er
Ġen chants
Ġun easy
Ġam n
Ġam orph
Ġap othe
Ġri o
sh op
sh ock
Ġpo ked
Ġman ger
Ġget tin
Ġac cl
act ly
Ġche ckered
no ons
ble m
ang l
ang ry
ime y
ime ter
Ġjo cks
Ġsl ush
Ġsl osh
Ġho ist
Ġho tels
Ġem bed
Ġoff ering
iss y
ens itive
ical s
Ġke lly
ors ed
Ġsk ys
Ġsk ids
Ġfr inge
Ġpre aching
Ġgood looking
Ġcar nal
Ġcar amel
Ġdes per
Ġgreat grand
Ġshould a
ug o
Ġsw amps
Ġback up
Ġback bone
Ġswe ating
Ġswe aters
Ġhow ard
Ġhow led
arm aged
Ġlong distance
Ġste ven
Ġste ws
Ġres orts
Ġres ulted
there by
Ġcre ase
Ġbar f
Ġbar ack
Ġbar ons
some where
Ġwork place
Ġmar vellous
Ġfound er
Ġkn elt
iz en
where in
Ġhand ful
Ġhand ling
Ġear ls
Ġid iotic
Ġcur ving
Ġover the
Ġover rated
Ġover wrought
Ġsur plus
Ġsur passed
Ġpain ed
uc ent
uc opia
Ġbro kend
Ġhard working
Ġge ography
br al
br ation
Ġass erted
Ġrep ar
Ġdec o
Ġdec ap
Ġdec ade
Ġdec rep
ren ces
Ġclear ance
co ats
Ġdri es
Ġdri lled
Ġdri bble
Ġdri fted
Ġdri fting
Ġdef ender
Ġdef iant
Ġdef late
Ġatt rition
Ġapp raised
Ġapp ointed
how ever
Ġsup erst
Ġtri o
Ġtri ke
Ġtri angular
Ġgir ly
je eling
Ġdead beat
Ġstar ved
Ġhear th
Ġhear ings
Ġz s
Ġbed ded
Ġbed rooms
Ġdra fted
Ġbeg one
Ġadd ict
Ġcor ned
Ġcor inth
Ġblack ened
Ġblack jack
Ġacc ost
Ġacc ret
Ġpar ole
Ġpar cel
Ġpar rots
Ġcap uch
Ġbit ters
Ġturn er
thr ows
cre en
Ġant in
Ġant iques
Ġant arctic
Ġheart felt
Ġdep ict
Ġdep icted
Ġart ich
Ġrec ur
Ġrec ital
Ġgra ff
Ġgra bs
Ġgra tes
Ġbur rit
Ġcat ac
Ġlad ders
Ġve er
Ġcal y
Ġcal ib
Ġcal iforn
Ġpur red
Ġver n
Ġdev ast
Ġdev oured
Ġgrow led
Ġdem i
con ve
con vin
Ġunder go
Ġdrink er
Ġel ong
Ġsqu ig
Ġsqu int
Ġdam as
Ġsho ved
tr ading
Ġtop ping
Ġten nes
fect ions
Ġdiv id
Ġcri teria
Ġsupp oses
che wing
Ġwar p
Ġes py
Ġwin ks
Ġwin ners
Ġdeep est
Ġfact ual
gre t
Ġquick en
go ers
Ġgrand pas
Ġlot ions
Ġhum ps
Ġpres erves
Ġgen te
Ġbeh aving
Ġbeh alf
Ġhal itosis
Ġav oids
Ġfac ile
ex claimed
Ġob struct
Ġce li
tem per
Ġpers ists
Ġdel ux
Ġdel uded
Ġext rac
Ġext inguish
Ġbel ch
Ġmom ma
Ġfre ck
Ġrel ic
Ġrel inqu
through out
Ġspr at
Ġskin ner
Ġearth y
gu y
off er
Ġcross section
mo iselle
Ġje ered
Ġfa it
Ġoh io
Ġbreak f
Ġseem ingly
Ġhar ried
Ġdecl aring
Ġban ners
arch imedes
Ġmad onna
cy an
Ġma is
Ġdog ma
Ġtrans late
Ġaff able
Ġaff ront
Ġden ise
Ġden ounce
Ġcy linder
Ġagree ing
Ġagree able
Ġbow lers
Ġspl ashed
Ġsec ular
Ġmis de
Ġfore tell
Ġfore bod
ye yed
yl ic
Ġmed d
Ġdoc uments
Ġhur l
Ġhur rah
Ġcook ery
Ġvis ible
Ġpat ty
Ġble eds
Ġthri ving
Ġslow ing
Ġreg ards
Ġboss y
Ġarm ored
Ġarm strong
Ġlab ored
jo le
jo ining
sp ot
Ġsat ir
Ġbell ies
Ġchurch s
Ġrom p
Ġign ited
Ġprom oting
over whel
Ġgal es
Ġali bi
Ġcro quet
Ġben ighted
amm able
Ġtom bs
Ġeng endered
car b
car ried
Ġmor onic
Ġshr ugs
pro ve
ton y
Ġsum mit
Ġsum ptuous
Ġtem pers
Ġrequ ests
Ġdeli rious
Ġshop pers
Ġdesp ised
Ġgas ket
cal am
Ġder ive
Ġsir s
Ġcorn y
Ġcorn ish
oles ome
Ġfer oc
Ġfer ret
Ġgro in
top ic
under neath
Ġdread ing
Ġcup id
Ġopp osites
Ġhy dr
Ġbound er
Ġsmart y
Ġbot ox
Ġblind ed
Ġbac chan
Ġpan acea
right ly
Ġrot ting
Ġrot ating
pre cious
Ġport al
Ġport able
Ġport rays
Ġtalk in
Ġconst ipation
Ġfan atics
Ġdet ritus
Ġelect ions
Ġast ra
Ġinf raction
Ġinf amous
Ġinc urred
Ġep onymous
Ġmas ks
Ġmouth ful
Ġexper ienced
Ġsym p
aph rodite
Ġpair ing
Ġrub es
Ġstro lls
Ġu tens
Ġcrowd ed
Ġbusiness es
Ġpubl ishing
Ġcheap ly
Ġtechn ician
comp an
Ġdefe rence
Ġprev ailed
Ġanim ation
Ġrum ours
Ġax le
Ġsen ility
hold er
Ġpost ure
Ġtrust y
Ġtrust worthy
cont rad
Ġwet ter
Ġcover age
Ġuns ightly
Ġhom er
Ġloc ated
whe red
Ġthird s
Ġbrand ed
Ġseat tle
Ġsuper fl
Ġbomb astic
Ġdeter gent
agn abbit
hy per
enter tain
Ġproduc er
Ġsau ced
Ġtwenty two
Ġpred icted
Ġrece ipt
Ġcontin ent
Ġze bra
Ġvers ed
aly pt
Ġgain ing
Ġacqu it
cop es
Ġchop per
Ġbul ging
Ġbush y
Ġfred s
Ġvisit ors
oll ar
Ġflash y
Ġsmo kin
def ining
Ġhill ary
Ġtick er
Ġtick ed
bol ic
Ġtu lips
Ġobject ions
Ġfond ue
Ġpsy che
gree k
Ġtub a
imp aired
Ġcommand ed
Ġox ford
Ġfrust rated
Ġcart on
Ġlink ing
Ġinse ctic
Ġfrequ ency
tempt ing
Ġpa uses
spe ed
Ġbitch ing
war ned
pa ired
bell um
Ġerr one
Ġsubst itute
Ġdot ted
Ġdevil ish
Ġwel coming
Ġaust in
Ġbelong ed
Ġscratch es
Ġbatter ys
Ġment ality
Ġdun no
Ġgn ome
Ġshore line
Ġproof s
Ġinvest ing
Ġshy ness
Ġswitch ing
Ġjour neys
Ġtravel ers
Ġcave at
Ġgang sters
Ġsi ber
Ġsi bling
great great
Ġjer ome
dri ven
Ġdub ai
Ġstorm ing
Ġpaul s
Ġreact or
Ġtrad er
Ġaug ur
Ġmarry ing
Ġhorri fic
Ġaz erb
Ġrac ist
Ġrac ial
Ġrac co
Ġmc donalds
Ġattend ant
Ġweigh s
Ġresem bling
Ġsteam y
Ġcommun ion
hop ing
Ġblink ed
rep air
Ġmil ks
Ġmil king
Ġchart reuse
Ġcivil ized
Ġram ble
Ġconcept ion
onom ic
Ġcran berry
Ġpy th
name ly
ov a
Ġbeck y
Ġpuff y
cry pto
Ġdepend able
Ġnick named
dem ain
Ġsty led
Ġsli ther
Ġgroan ed
Ġmountain ous
Ġcaps ule
Ġape x
Ġasc ension
mouth ed
Ġward en
Ġsno res
Ġnin th
Ġmarsh a
incl ined
incl uding
part y
Ġimpl ored
Ġgem stone
Ġcaes ars
Ġprim ord
Ġreflect ions
Ġshakespe ares
Ġhind er
Ġdat as
Ġdat um
sur pr
Ġextend ing
Ġgrad ually
Ġende aring
Ġsumm ation
Ġexceed ing
Ġcharacter istics
Ġdipl oma
Ġgy psy
Ġtrem endous
Ġbunk er
Ġlat itude
Ġexcept ion
Ġrode o
Ġaffect ing
Ġaffect ions
Ġexpand ed
Ġpredict able
Ġrolls roy
Ġsympt om
Ġemp ow
rad iation
Ġblu er
Ġvall eys
Ġloath ing
Ġarom as
bas ic
Ġark ansas
Ġyearn s
Ġapplaud ed
Ġbef itting
Ġintell igence
Ġsepar ation
Ġcourage ous
Ġelectric ity
bot omy
Ġcontri ve
Ġirish man
Ġapost le
Ġapost les
Ġshakespeare an
Ġconnect ing
Ġdyn amic
Ġbew itched
Ġdrac onian
Ġdispar ity
Ġshant y
Ġnix on
Ġcrush ing
Ġamuse ment
Ġignor ance
Ġcogn ition
Ġassert ion
americ as
stud ents
Ġsqueez ing
Ġbapt ized
Ġintest ines
Ġexhib its
employ ment
dar ling
ophil ia
Ġgull et
Ġsneez ed
Ġcommer ce
Ġcommer cials
Ġdand el
Ġdisse ction
Ġnib bling
Ġrecr uits
Ġcigaret tes
Ġnu kes
Ġprovo king
Ġhym ns
Ġjournal ist
Ġastron omy
Ġastron auts
fing ered
Ġnas a
Ġdistract ions
Ġvibr ation
bys ide
Ġgest ure
concer ned
fa ith
Ġactiv ities
Ġcuc umber
Ġtat toos
Ġlyn n
Ġgad get
Ġmead ows
Ġoverse xed
Ġappreh ensive
Ġfisher men
Ġvolcan ic
Ġrect angular
Ġgarn er
Ġdeploy ed
Ġcontem plate
Ġcorne ll
Ġdepri ved
Ġcitiz en
Ġcla uses
Ġglac ial
Ġanten na
Ġdemocr at
Ġdemocr ats
Ġferv ently
fet ch
Ġrehears al
Ġaffix ed
themat ics
Ġabe ced
Ġwob ble
Ġwob bly
Ġbould ers
Ġairpl anes
Ġinh ale
Ġrestr iction
poc us
Ġsos o
Ġcompar ison
Ġster oids
Ġtrav ail
Ġargent ine
Ġtoler ate
Ġisra el
sug ges
anim ous
Ġdeple ted
acade mic
Ġquant um
cloud s
Ġbist ro
ipt ions
Ġrepet itive
guarante ed
Ġdais ies
Ġdishon est
slow ly
Ġimbib ing
Ġclair voy
Ġflore nce
Ġhoriz on
Ġpolitic ian
Ġacquaint ance
Ġnov ice
Ġvand al
Ġquib ble
Ġzool ogy
sou thern
Ġbise xual
Ġtink er
Ġmyr tle
Ġquix otic
conc ert
quar ter
nograph y
Ġwaff le
Ġceil ings
Ġacquis ition
Ġendeav our
Ġspas ms
Ġesoter ic
Ġencou raged
Ġcarib bean
Ġpostp one
Ġessent ially
Ġimpecc able
Ġbetro thed
Ġmaneu ver
Ġovere x
Ġarre ars
Ġwheed le
Ġcusto d
Ġpneum onia
health y
Ġaspar agus
Ġberm uda
Ġboomer ang
Ġwhate vers
Ġsciss ors
Ġferr ari
Ġvanqu ish
Ġapostroph es
Ġthes aurus
Ġgimm ick
Ġuphe aval
Ġungl ued
Ġidyll ic
intest inal
Ġtoile ts
Ġconnoisse ur
Ġdisav ow
Ġmayonna ise
Ġfod der
Ġwednes day
Ġentra ils
Ġjuven ile
Ġetiqu ette
Ġkenned y
irv ana
Ġcheaps kate
Ġhocus pocus
concent ration
Ġpreposter ous
oftent imes
convin ced
Ġdelux e
Ġazerb ai
Ġrollsroy ce
a uss
b ess
b ands
c oo
c ter
c ust
c ill
c ans
c ise
c rop
c osis
d ried
d ump
d iff
d welling
e ats
e astern
f u
f usion
f uzz
g all
g ias
h our
h ub
h oe
h ols
i ose
i our
i had
j ou
j on
k u
k ies
l ap
l ash
m all
m ics
m iddle
n ation
n ces
o i
p am
p aw
p unch
p ooh
r ines
s ings
t ap
u ble
u ates
v ill
v ations
v ari
w ick
w ashing
z illa
Ġ oftentimes
th orn
th ole
Ġa ided
Ġa ural
Ġa rid
in ters
in ness
in ary
Ġs ipped
Ġth a
re as
of ace
Ġc c
Ġc iting
Ġw res
Ġw ick
Ġw aking
Ġw ove
Ġb m
Ġb ough
Ġb illed
Ġb icker
Ġthe sp
on al
Ġm ing
Ġm ince
Ġm ounds
Ġm ules
Ġm oust
Ġh ans
Ġh acks
Ġh acking
Ġi ii
end o
Ġf and
Ġf ard
Ġf lips
Ġt of
Ġt its
Ġt sh
Ġt ars
Ġt off
Ġt iles
Ġt izzy
Ġt andem
er g
xt ap
es te
at onic
ll ite
or th
or ant
or ange
or ah
ed ge
an us
an to
an tes
an cho
Ġp end
Ġp ash
Ġp inks
Ġp orts
Ġp ending
Ġp ester
Ġp adding
Ġp tole
en est
as im
Ġl ang
Ġl ank
Ġl ah
Ġl aces
Ġl anes
Ġg ill
Ġg ase
Ġg ild
Ġg amb
Ġg aud
Ġn y
Ġn oodles
Ġn iger
Ġn irvana
Ġto wels
le vel
le ague
us tery
us iveness
Ġand rew
al ty
al tern
al gic
ac er
Ġe bon
Ġe aters
ad ians
Ġbe ings
he ated
ut ters
Ġwi ping
Ġwi der
ld t
Ġst d
Ġst owed
Ġst ature
Ġst ony
id dy
Ġhe ath
Ġhe ats
am ines
Ġr au
Ġr ages
Ġmy ste
wh ack
ch illing
oo ping
im ing
im bo
ter red
Ġsh ucks
ce ment
un uch
Ġde tention
Ġfor ged
Ġfor feit
Ġme ld
Ġme ander
Ġj ord
Ġj ude
Ġj aunt
Ġj enn
Ġj itters
Ġj ihad
res e
ro ger
ro yal
ro intestinal
Ġch anc
Ġch app
Ġch ante
Ġan s
Ġan ast
Ġan cho
ent iful
Ġo le
Ġo asis
Ġas w
il ic
il ize
Ġk y
Ġk al
Ġk ip
Ġse er
Ġse ren
Ġse wed
ill ip
Ġne on
Ġne cess
Ġne lson
pe i
pe oples
um ing
um mer
um bles
ess ing
li ers
ain ly
Ġcan ter
Ġor d
Ġor acle
st ur
st ars
up er
up per
Ġall n
Ġpl ast
ul sed
ab bing
own ess
Ġher man
Ġdo h
Ġdo ves
Ġdo do
Ġsp ud
Ġsp inal
Ġsp illing
Ġbl asts
Ġbl anks
Ġbl arney
Ġbl imey
Ġim bu
Ġfe z
Ġfe ist
Ġfe asting
Ġfe ldsp
Ġv am
Ġv lad
Ġv iper
Ġle er
Ġle ger
op er
op ract
Ġcl oses
Ġcl apping
Ġcl ustered
Ġtr uce
Ġtr ades
ant on
ant ig
Ġwill y
Ġwill in
aid e
Ġfl ub
Ġfl ank
Ġfl anks
Ġfl acc
ach rom
el o
el astic
Ġus s
Ġqu en
Ġex crete
Ġgr ange
Ġgr uesome
Ġco if
Ġco ordinate
Ġcr in
Ġcr ic
Ġcr ink
Ġcr ony
Ġcr utch
Ġcr oup
Ġy ess
Ġy ang
Ġy uck
Ġy vette
Ġar ra
ag ic
ag ra
pl ane
pl acing
Ġsee thing
Ġal co
Ġal oe
Ġal fred
Ġab i
Ġab el
Ġab ashed
Ġab orted
Ġdis use
Ġdis orders
Ġlo omed
ep ing
ep endence
Ġsay ings
Ġbr ack
Ġbr unt
Ġbr ooch
ure tic
be am
Ġbut ters
Ġen am
Ġen large
Ġpro ving
Ġpro gen
Ġpro tested
Ġwho osh
Ġun le
Ġun bound
Ġun heard
Ġun holy
Ġun planned
Ġun welcome
Ġun checked
Ġam ar
Ġam alg
Ġam bros
Ġri fles
Ġsm elt
Ġcall ow
Ġro ars
sh un
sh apen
Ġgu inness
Ġman na
Ġman gle
Ġtw inkle
Ġget up
Ġac er
Ġac orns
Ġmo cks
Ġmo tel
what cha
cl ude
cl assed
me ter
me asure
me mber
Ġche mo
Ġold time
ise ment
Ġpe ac
Ġpe gs
Ġag l
Ġag ron
Ġsl iding
Ġsl ugg
Ġsl avery
ze e
Ġho ts
Ġem ma
Ġem etic
Ġoff ends
she et
by es
ens er
bl ance
Ġill inois
Ġbre vity
Ġfr ugal
Ġgl or
Ġhes ter
Ġdes ic
Ġthink ers
Ġsw ive
Ġsw ig
Ġsw ede
Ġaw ards
Ġins uff
Ġins istent
your self
Ġend uring
Ġend orses
Ġmust y
od o
od ic
od ies
Ġhead lines
Ġste ered
bs p
Ġres ists
Ġres olute
Ġph illy
Ġph oned
Ġph oen
Ġcre pe
Ġcre tin
Ġmar ri
Ġmar bles
Ġmar gin
Ġhigh tech
Ġkn itted
Ġcomp liant
af fection
af ford
Ġover re
Ġover blown
bo a
bo ot
bo iled
Ġbro kers
Ġsn oop
Ġsn ickers
Ġhard est
br ow
br ut
Ġund ert
Ġund uly
Ġass urance
Ġrep rise
Ġcont rab
ition al
rop od
Ġhel met
Ġclear cut
Ġkeep er
co y
Ġca ver
Ġca ud
Ġca jole
Ġplace ment
Ġdef iciency
gr ou
Ġcomm ences
Ġapp al
Ġapp ended
lf th
Ġcare t
Ġcra tes
Ġstar fish
Ġlim a
Ġz oos
olog ies
Ġbed side
Ġbed lam
Ġbed bugs
Ġcho osy
Ġcons picuous
Ġface ts
oun ces
lo ading
were nt
Ġadd led
Ġcor oll
Ġacc ol
Ġacc ede
Ġacc ursed
Ġsch mo
Ġsch lock
Ġpar ity
Ġpar ched
Ġpar ades
Ġcol ic
Ġcol omb
Ġcap o
Ġcap acious
umb ent
Ġball park
unk y
app lied
Ġsou ther
cc a
Ġcoll ie
Ġexp end
Ġexp os
Ġant ir
Ġstop per
Ġtow ed
Ġfall acious
Ġdep iction
Ġkind le
Ġdist ill
Ġdist illed
Ġdist orted
Ġdist rust
Ġdist inctions
Ġhair cut
Ġrec on
aut om
tent ive
Ġbur gh
gl ut
Ġcat n
Ġround ly
Ġround about
Ġcal ves
Ġpur plish
con struct
Ġgri ts
Ġel vis
Ġed em
Ġed iting
Ġsqu ire
Ġclass ics
Ġclass mate
Ġclass ify
Ġsle et
Ġsal ary
Ġsal acious
Ġsal oon
Ġbi ker
Ġbra gs
Ġtop ple
str ange
Ġten ant
Ġdiv in
Ġcri m
Ġfin n
che ese
Ġwar ms
Ġes cal
ger ys
Ġrh in
Ġele ctor
Ġquick ness
Ġwri thing
Ġwri gg
Ġrest rained
tw ist
cri bing
cri ption
Ġsub marine
Ġgen ie
Ġgen eric
fl owing
Ġmon ument
Ġfac ade
ex ec
Ġdark en
Ġob st
Ġfour letter
Ġbat ters
Ġbat teries
Ġform ally
Ġbel gian
Ġwrong s
Ġfre aked
Ġcop ped
Ġdoubt less
Ġbill ow
Ġgreen ery
Ġcond o
Ġcomple ment
cr usted
cr itics
Ġev oke
Ġbreak down
oph ore
oph yll
Ġhar ms
Ġhar assed
Ġgave l
Ġty ped
Ġty ping
arch y
Ġexc ise
cy to
rest rial
Ġbal ancing
Ġcy rus
Ġpol o
Ġmis laid
Ġfore man
Ġfore gone
Ġclean se
sw im
Ġcoun se
other apy
Ġdin o
Ġpos th
Ġpos es
Ġleg ally
Ġdisp ro
Ġreg ain
Ġplant ation
Ġarm chair
Ġpot ted
Ġpot tery
Ġcast or
sp ark
Ġsat urn
land ish
Ġbell es
Ġwal nut
Ġfill y
Ġra isin
Ġcrit ically
Ġmist y
Ġsy cam
Ġsy dney
Ġbag uette
car ved
Ġmor gue
Ġmor bid
Ġmer cedes
Ġmother inlaw
Ġsin ning
Ġfix in
Ġbox ed
Ġsuff ices
Ġdesp ot
Ġbor on
Ġaut od
cal m
Ġconv icts
Ġder anged
Ġrev olt
Ġtrain er
Ġdon ate
Ġdon ations
Ġdon ald
att a
Ġcourt room
Ġband y
Ġbull dog
Ġfer al
uel a
Ġhon cho
Ġsell ers
Ġbread th
gen ic
Ġcheck out
Ġcas pian
Ġclim ax
Ġger many
Ġship ment
ograph ically
ades h
Ġopp ressive
Ġsor rows
Ġneat ness
Ġavoid ance
Ġcomb ination
Ġsne aky
Ġfresh man
Ġbot ched
Ġsecond rate
Ġreve rent
Ġamb ush
Ġbac illus
Ġrot und
Ġcu ter
Ġens ured
Ġthick ens
Ġprop itious
Ġinf ants
Ġsouth west
Ġsort a
Ġir ks
Ġdar jeeling
Ġbrit ons
Ġphys ically
Ġboard ed
Ġep ithe
Ġcent uri
Ġcent ipede
Ġpract icing
dr ugs
Ġvi be
Ġdut iful
watch ed
udd ers
aph az
Ġrub s
Ġstro lling
Ġstro lled
Ġlist ing
met aph
cons erv
Ġmeasure ment
comp et
Ġfort night
Ġenc ased
Ġcock at
found ed
Ġbon a
mat ode
Ġba ited
Ġvol t
Ġvol tage
Ġgall s
Ġgall ery
Ġdan te
Ġrad i
Ġmid air
Ġduck y
inc inn
Ġapart ments
Ġhav en
Ġhav ana
Ġsheep s
Ġfrown s
Ġsuper man
Ġconne ctic
Ġnumb ing
Ġnet tle
Ġnet works
Ġhook ers
Ġstor k
Ġpee ved
Ġbun gee
Ġrob ins
Ġrob bing
Ġrob otic
Ġrhym ed
Ġtwenty five
Ġsche ming
Ġbrief s
Ġvers ions
Ġremain ing
Ġroll ers
Ġfollow ers
cop per
good bye
Ġinst inct
Ġchop sticks
rit ical
appe ared
roph obic
di vers
Ġpoet ical
Ġvir g
Ġconve ying
Ġhun ted
Ġtour ing
Ġthank ed
Ġpup pies
Ġpush y
Ġcli ps
Ġru by
Ġthro b
Ġclock wise
Ġcraw ls
Ġfright fully
Ġnon plussed
Ġstrip pers
Ġalb ino
uv ium
Ġbind s
Ġdete ctor
Ġped estrian
Ġlust y
Ġlust ful
cor respond
Ġenter prise
Ġfem ur
Ġsubst ances
Ġhero in
Ġdestro ys
Ġcel tic
Ġpoll uted
Ġrecord ings
Ġgrave ly
Ġfuss ed
Ġorgan ized
Ġgn at
Ġgn ats
Ġfreed oms
Ġrele ases
Ġpoo ped
Ġprob ation
Ġpsych ic
Ġpsych ologist
Ġpit ts
Ġroof s
Ġsilk en
Ġjer sey
Ġrush ing
Ġener getic
Ġseason ed
Ġvine gars
Ġom itted
Ġcancer ous
Ġbass et
Ġexact ing
Ġpole mic
Ġinsist ing
Ġmc g
Ġlog ics
aun ting
Ġweigh ted
oli th
Ġske wed
Ġmart inis
friend ly
high er
Ġghost ly
Ġded ication
Ġmold y
Ġcran ium
Ġbom bing
Ġpy r
Ġregard ing
Ġregard less
Ġmyst ics
Ġweep s
cry ing
tom orrow
Ġpriv acy
Ġdepend ent
mod ed
Ġcha fe
Ġprison ers
Ġmaintain ing
Ġsac s
Ġoedilf s
sup port
Ġtan ning
Ġdecor ate
Ġinno vation
Ġnum er
Ġeth ics
Ġclar inet
Ġwarn s
Ġzeal ous
Ġjelly fish
Ġmug ger
Ġmug ged
Ġmoan ing
Ġawe igh
Ġeg ghe
Ġwaist line
Ġhoo ch
Ġintr usive
Ġchim neys
Ġguarante es
Ġsno ot
Ġditch es
Ġabsor bed
Ġcompl iment
Ġcompl acent
Ġprot ons
obs erve
Ġpersu aded
Ġfog gy
Ġtort ured
Ġexceed ed
Ġbos oms
Ġanat omical
Ġtrave lling
Ġding hy
Ġdepl orable
Ġesp ouse
Ġstain ing
clim b
Ġtrem bling
greg ation
Ġard our
Ġard uous
Ġak imbo
Ġvital ity
Ġexcept ional
Ġproc essed
Ġinj ure
Ġpoly g
Ġfierce ly
Ġbil ge
Ġloath some
Ġadop ting
Ġadop tion
Ġmembers hip
start ing
Ġhog s
Ġdorm ant
Ġdorm ouse
Ġfemin ist
Ġslaugh tered
Ġlingu ist
Ġintell ectual
Ġeup hon
requ ires
Ġselect ions
Ġcram med
Ġvictor ias
bott omed
Ġmars up
Ġcorre cted
Ġsorrow ful
view ed
oscop es
Ġperce ives
Ġsixt ies
Ġtips y
Ġstal king
Ġrud dy
Ġrud eness
dig ging
Ġathe ists
Ġsket ched
sex ual
Ġleisure ly
Ġfen ces
Ġbrid al
sto pped
Ġhare m
coll ar
Ġharvest ing
Ġcush ions
Ġreb els
Ġbund les
Ġbapt ist
Ġgag gle
Ġvap our
Ġconn iptions
rem ain
Ġgast rointestinal
Ġintend s
ophil ic
Ġts un
Ġancest or
Ġech oes
Ġthreate ning
Ġendorse ment
yearold s
Ġail ments
yp anky
Ġsmar test
Ġdiction ary
engl ands
Ġcontempt ible
Ġrepubl icans
infl ammation
Ġlac onic
Ġenli ghtened
Ġbegg ars
Ġrang ers
Ġsandwich es
Ġthorn y
Ġquer ies
Ġident ity
Ġvel ve
concer ning
Ġsie ge
Ġbount iful
Ġsob bed
Ġfloo zy
Ġroy als
Ġbikin is
Ġramp ant
Ġmorph ine
Ġgloss y
Ġmembr anes
Ġbronch i
Ġyaw ning
Ġglac iers
Ġwheez es
tal king
Ġcafe teria
Ġferv or
Ġdru thers
Ġpunct uation
Ġcartoon ist
ozo ic
Ġtwent ies
const itution
Ġprophe tic
scre en
Ġanagr ams
Ġblanc he
Ġboor ish
Ġminer als
Ġnarc otic
Ġcerv ix
Ġunner ving
Ġsched ules
Ġbrah ms
Ġharb our
Ġintri gue
Ġtattoo ed
Ġbh ut
Ġlux ury
Ġnause am
Ġtransfer red
aust ral
Ġpanc ake
Ġenqu ired
mass ive
Ġsard ines
Ġpith y
Ġew es
Ġopport une
Ġintertw ine
Ġdism ant
explain ed
Ġligh thouse
Ġcongreg ants
Ġassaul ted
bind ing
Ġdoeuv re
Ġdac ry
Ġeuphor ia
Ġdiscipl ine
sil ver
Ġmonstr ous
Ġwhims ical
Ġseab ird
Ġappreci ate
Ġvolunte er
Ġmicroscop ic
Ġbis que
Ġdex ter
Ġarres ting
Ġadap ted
Ġdaydream s
Ġburg undy
Ġsurviv or
Ġcys to
Ġtheore m
Ġmun icipal
anno y
iloqu y
Ġflir ting
Ġzig z
Ġappell ation
Ġentreat ies
Ġmilit ary
Ġdiplom acy
Ġcapric ious
Ġmajest y
Ġspaw ned
Ġabbre v
Ġench anted
Ġconvent ions
Ġsme ared
Ġcarouse l
Ġconfer red
Ġninet ynine
Ġeloqu ent
pict ure
Ġkore a
Ġenshr ined
Ġassu age
Ġappra isal
Ġmini ature
Ġcudd ly
Ġpont iff
Ġconject ure
Ġapprent ice
Ġcetace an
burs ts
Ġkaz oo
Ġaristo cr
Ġgol fer
Ġwhoo pee
Ġjal opy
Ġenra pt
Ġdivul ge
Ġsacrif ice
Ġott oman
Ġlasc ivious
Ġched dar
Ġcret aceous
Ġdisbelie f
Ġbalder dash
Ġnapole on
Ġforg iveness
Ġoe uvre
Ġincor rect
Ġwiscons in
Ġmarshm allow
Ġoctop us
Ġgizz ard
Ġcantalou pe
Ġbloodthirst y
Ġasthm atic
Ġbrokend own
Ġazerbai jan
Ġwres tle
Ġthesp ian
Ġmyste ries
Ġimbu ed
Ġflacc id
a am
a em
b c
b ation
b oss
b ats
b uds
c ough
c akes
c ale
c oph
c enter
d c
d or
d ave
d ans
d ong
d ah
d ler
e u
e aster
f light
f avor
g ro
g ust
g ians
g matic
g imme
g dal
h ade
h ired
h oney
h mm
i bleness
j ay
k ills
l ore
l ance
l atin
m ite
m ical
m ock
m used
m ium
m ites
m orning
n ah
o ide
o bt
o tent
p m
p p
p is
p up
p ressed
p ires
p unct
r ough
r otic
s un
s now
s ues
s po
s igned
s alt
t ut
t ooth
u be
u teness
u jah
v on
v ar
v ens
v ision
w igs
x ia
y ards
z ap
z heim
th as
th ousand
Ġa ther
in ic
in no
Ġs art
Ġs ah
Ġs ib
Ġs acks
Ġs ips
Ġs aff
re ated
ou ter
of us
Ġc ale
Ġc ib
Ġc une
Ġw ok
Ġw olves
Ġb w
Ġthe orys
on the
on ite
Ġm arm
Ġm urd
Ġm ended
Ġh ong
Ġh ating
Ġh off
Ġh illy
Ġh oots
Ġh aphaz
Ġi ow
Ġi li
end icular
Ġf end
Ġf ide
Ġf akes
Ġf ian
Ġf ainted
Ġf ighters
Ġt ors
Ġt ums
Ġt aper
Ġt ags
er om
er ina
Ġd n
Ġd ap
Ġd ink
Ġd urn
Ġd ene
Ġd yl
Ġd izz
es cap
at y
ll es
ll ab
ed ged
ed die
is ly
an is
Ġp m
Ġp t
Ġp ing
Ġp ave
Ġp ree
Ġp ane
Ġp uce
Ġp imp
Ġp elt
Ġp amph
Ġp ugn
ar b
ar ach
ar go
ar azz
Ġl ich
Ġl int
Ġl anc
Ġl ids
Ġl ama
Ġl ops
Ġl uster
Ġl otta
Ġl attice
Ġg i
Ġg ing
Ġg and
Ġg ail
Ġg ai
Ġn ig
Ġn ich
Ġn ah
Ġn yet
Ġn icked
Ġn azi
Ġto ke
om ph
om ics
om inate
le gal
ic in
Ġin between
ve au
al an
al ter
al citrant
and ed
ac ia
it ant
it ives
Ġe ider
the aded
ad les
ad min
Ġbe amed
Ġbe eline
ot o
ot rans
ri ka
ke ls
ke rel
os te
os itions
Ġst ad
Ġst up
Ġst int
Ġst agn
Ġst inging
Ġst ilet
id ic
Ġhe p
Ġhe ist
Ġhe ater
ir ting
Ġwh al
Ġwh ir
Ġwh am
Ġwh iter
Ġwh ipping
Ġwh opping
Ġwh opper
Ġre ag
Ġre ins
Ġre hear
Ġre dem
Ġre named
Ġre ception
Ġr uck
Ġr ations
Ġr aved
et ical
Ġsh uff
Ġsh uffle
Ġde uts
Ġde formed
Ġde ux
ur in
ur ists
Ġme ager
Ġj ol
Ġj ason
Ġj ams
Ġj aded
Ġj umper
res ult
to b
to date
Ġch en
Ġch urned
Ġch umps
ra ps
if es
if ically
but t
Ġo des
Ġo gled
se eds
se par
se ldom
Ġas ym
Ġas inine
Ġas ylum
il uvian
Ġk le
Ġk oh
Ġk ern
Ġk ais
Ġse ating
Ġse uss
Ġse vered
Ġse mit
qu el
Ġne v
Ġne uter
ge or
ge yed
pe as
li x
Ġli ars
Ġli vers
Ġli zzie
Ġnot ation
Ġno des
st ated
st orms
Ġall en
Ġpl op
Ġpl entiful
Ġso ire
ab re
ab ul
ap art
Ġdo yle
Ġdo pes
Ġsp its
Ġsp ake
Ġsp ats
Ġsp ittle
Ġsp iced
Ġbl enny
Ġv s
Ġv as
Ġv alet
Ġle o
Ġle aked
op ods
ard ed
ast rous
Ġcl ung
Ġcl inging
Ġtr ish
ant ically
ig m
Ġsu dan
Ġsu llen
Ġcon und
Ġcon tests
Ġcon secutive
Ġte at
Ġte ases
Ġgo il
Ġfl it
Ġfl ax
Ġfl aky
Ġbo de
Ġbo ating
Ġbo oms
ie res
ish oo
Ġqu ota
Ġex its
Ġgr ays
Ġgr ump
Ġco balt
Ġcr ises
Ġcr annies
Ġout a
Ġout back
Ġout line
Ġout law
Ġout moded
Ġy ale
Ġy idd
Ġup gr
Ġar teri
ag ration
ag ricult
ace ut
pl at
pl asia
Ġsc all
Ġsc ler
Ġsc ares
Ġal m
Ġal to
Ġal ab
Ġal zheim
Ġab ly
Ġdis com
Ġdis regard
fe m
fe atured
Ġlo ins
Ġlo aves
Ġlo botomy
Ġbr aced
Ġbr iny
Ġad vers
ne yed
be ach
be ans
be ian
be arer
Ġen abled
Ġen compass
Ġpro gressed
ip us
ip tion
ip arous
Ġun ity
Ġun gain
Ġun manned
Ġam i
Ġam ore
Ġam ort
Ġam ino
Ġri gging
Ġri gue
Ġpr ays
Ġpr unes
Ġpr iceless
Ġro asting
Ġro aches
Ġro bots
sh out
sh ares
Ġgu iding
Ġpo li
Ġpo ach
Ġpo kes
Ġpo inter
Ġpo isons
Ġtw ink
Ġtw inge
Ġtw addle
Ġac l
Ġac ri
Ġac me
Ġac rop
Ġmo i
Ġmo ver
Ġmo hel
me th
Ġche ques
no ck
Ġword y
ble t
Ġpe ed
Ġpe ered
ime ters
Ġdr ay
Ġdr ub
Ġag ri
Ġsl ots
ze bub
Ġdown y
Ġdown cast
Ġdown fall
Ġho c
Ġho bb
Ġem u
Ġem its
Ġem inent
Ġem issions
Ġoff hand
Ġmay hem
ens ity
Ġsk id
Ġsk int
Ġthr ice
Ġbre am
Ġbre ached
Ġgl aring
Ġgl ares
Ġgl itz
Ġgl enn
Ġgl imps
Ġcle vel
Ġpre l
Ġcant or
Ġcar bs
Ġcar away
Ġdes e
Ġdes po
ment ioned
Ġper for
ell e
Ġsw ans
Ġsw ooned
urn ing
Ġswe ats
Ġstr uts
ful filled
Ġfri ll
Ġhow ls
ber rys
les ome
Ġfo yer
od en
ord ained
Ġhead line
int z
Ġres cued
Ġple ads
Ġple beian
Ġph ooey
Ġph erom
Ġtre ble
Ġcre m
gg ie
oc ene
oc ative
Ġfound ations
iz oph
Ġey ep
Ġhere in
Ġcomp ression
Ġcomp rise
Ġcur sor
Ġover whel
Ġover achiever
Ġsur gerys
bo il
uc le
Ġbro gue
com s
Ġsn ook
Ġhard ened
Ġhard hearted
br ick
Ġund en
Ġass ailed
Ġstill ness
Ġrep orted
Ġrep ulsive
Ġcont ing
Ġpart icip
Ġdec ad
Ġyoung sters
Ġdid dle
Ġdid actic
ren owned
que e
co ast
Ġca resses
Ġbad m
Ġdef ame
Ġdef ile
Ġdef ies
Ġdef unct
Ġcome back
Ġcare lessly
Ġsmall ish
Ġtri bal
Ġcra ters
Ġfar flung
Ġdead line
Ġpri mate
Ġpri zes
Ġred ress
Ġred ucing
Ġdou bl
Ġdou glas
Ġstar ve
Ġstar ters
Ġlim bo
Ġrem inis
Ġz er
ib us
ib al
Ġbed azz
ym or
Ġcho le
Ġface book
lo yal
Ġadd itive
Ġadd ictive
Ġcor ral
Ġblack ness
Ġsch no
Ġsch oon
Ġtra iling
Ġsweet ies
Ġcap n
Ġcap p
Ġcap able
Ġball ads
Ġball ots
Ġball room
Ġmus es
Ġfish y
cre ate
Ġant il
pr in
Ġcut tle
Ġhair dress
Ġrec ipes
Ġrec alcitrant
Ġgra zing
Ġput z
ric ts
Ġcal mer
Ġver a
Ġver t
Ġadv oc
Ġdem olish
Ġlaw rence
Ġind ies
Ġind icate
Ġind olent
Ġgri eves
Ġdrink ers
Ġel an
Ġel aborate
Ġed dy
Ġed gy
Ġdam mit
Ġclass room
tr ad
tr ade
Ġsal iva
Ġbi om
str ing
str ung
Ġten acious
Ġcri mp
Ġfin ite
ott i
che red
che ek
che wed
Ġbab a
Ġbab bling
Ġes cut
Ġline ar
Ġbrain y
Ġtur b
Ġtur keys
Ġrh ine
Ġele vation
Ġret ail
Ġabs inthe
tw isted
cri min
Ġsub vers
Ġhum ding
gn et
Ġgen ital
Ġgen etics
Ġflo e
Ġshort cut
Ġhal ves
Ġhold er
Ġdark ening
Ġpast ime
Ġce lib
Ġclo ts
Ġclo ve
Ġdel usions
Ġdel inqu
Ġext ant
Ġext rem
Ġprof usion
Ġcop ied
Ġfool ishly
Ġspr ang
Ġspr inkle
Ġskin ned
Ġwall ow
Ġbill iards
Ġbelie ving
mo aned
Ġcomple tion
Ġside ways
Ġside walks
oph iles
Ġyell ows
Ġwind shield
Ġhar ves
Ġhar lot
Ġhar vard
Ġwhe y
Ġhapp ier
Ġmad off
cy t
Ġbus es
Ġstrong est
Ġma ud
Ġma thematical
Ġdoor way
Ġwond rous
add ys
Ġmess es
Ġsit tin
Ġsit uations
Ġtrans form
Ġtrans action
Ġtrans pired
Ġwood work
Ġwood lands
Ġden im
Ġden mark
Ġlow ered
Ġcy bers
Ġspl inter
Ġbas al
dis app
Ġmis guided
Ġfel ons
Ġfel ines
Ġfel onious
sw ift
Ġdoc ile
Ġent icing
Ġent angled
Ġhur ried
Ġsol ving
Ġvis a
ma res
Ġobs ervation
Ġwonder fully
ided own
Ġdire cts
Ġble mish
Ġreg ale
Ġboss s
Ġmag nets
Ġmag gots
sp orting
Ġexpl icit
amb idextrous
Ġbell icose
Ġrom es
Ġrom ancing
Ġang ie
Ġbrown ing
Ġpet role
Ġfill e
Ġfill et
Ġpu ree
Ġtest ament
Ġcro chet
Ġdisc ou
Ġbag ging
car p
Ġmor ass
eth iop
Ġdress er
Ġequ ine
Ġequ iv
Ġtrou blin
Ġmer rier
Ġpal at
Ġdrug g
Ġspo kes
Ġrock er
Ġtem po
Ġarch ers
Ġarch ie
Ġburn er
Ġmal aria
Ġshop ped
aff y
Ġprov ince
Ġprov isions
Ġconv ictions
Ġder ri
Ġrev iled
Ġrev ived
Ġrev ulsion
Ġcorn ucopia
Ġdon ned
Ġdon keys
Ġmass ed
Ġbull ies
Ġprote ctor
Ġann ul
Ġann ivers
Ġsus an
Ġcab b
Ġcab al
Ġcab aret
arr ing
ann ys
Ġforce ps
Ġcas ing
Ġlie ge
Ġice berg
Ġspeed ily
Ġwalk er
Ġur bane
Ġfur row
Ġblock age
Ġopp ressed
Ġbree z
Ġbree ches
tell o
Ġval ves
Ġblind ly
Ġamb ivalent
bes ides
Ġpan els
Ġsil icate
Ġshame less
pers and
Ġtong s
Ġdest in
Ġtax ing
Ġtax ation
Ġinf irm
Ġsouth western
set tle
Ġconfess ing
Ġcolor blind
Ġsque aks
Ġinter ference
Ġweek ly
Ġharm onious
Ġide ally
Ġbutter cup
Ġpract ise
dr ug
Ġcos y
Ġvi kings
Ġnames ake
bre athe
Ġstock ings
fort une
Ġdent ure
Ġscre ed
miss ed
Ġmem orial
Ġadmit ting
Ġpath way
Ġflu or
Ġposs um
Ġstro ve
Ġstro de
Ġexpect ation
Ġexpect ations
Ġbob bed
Ġdough nuts
Ġemploy ers
Ġmill enn
Ġdivine ly
Ġcred o
Ġexpress es
Ġexpress ive
Ġfrank ie
Ġcrown s
Ġwre ak
Ġtit led
Ġtor rent
Ġtor rents
Ġbath s
Ġbon n
Ġstress ful
Ġswim mer
Ġmatch ing
bit t
bi ochem
Ġtable au
Ġbub bly
Ġrad ar
cont ains
Ġduck ing
Ġmeth ane
Ġinde cent
Ġbes ted
Ġbes ie
cul ate
Ġmum bled
Ġx s
por al
Ġgle efully
mar ket
Ġpitch ers
Ġsam uel
Ġdeter red
Ġdeter rent
Ġarg on
Ġpee ve
bal ance
Ġmaster piece
Ġwhis pers
Ġrob bers
Ġcad ence
Ġweather man
hor iz
par as
Ġmaj ors
Ġbang or
Ġec cles
Ġvac cine
Ġimpro ves
Ġgh astly
Ġfed ora
Ġchop py
Ġchop pers
abl anca
Ġthrill er
Ġloves ick
Ġinfl u
Ġchat ters
Ġsmo thered
iqu itous
Ġaer opl
Ġcav ed
Ġcru ised
Ġunderstand ing
col m
col oured
Ġsed an
Ġiron y
Ġtick les
Ġguard ed
Ġpublic ly
Ġheed less
Ġess ays
fr ame
Ġmort ician
Ġproper ties
sc ale
Ġpron oun
Ġsales men
Ġalb ums
Ġaqu ed
Ġcub a
iri ted
Ġped ant
Ġamaz ingly
Ġtro ts
Ġholl ers
sm ooth
need ing
Ġsubst antial
Ġdiff use
acc um
four teen
Ġforth with
Ġforth coming
Ġstom ped
Ġfalse ly
bel t
bel ow
Ġfuss y
Ġdun n
Ġgn us
Ġreview ing
Ġvain ly
Ġbou le
Ġscri pts
Ġscri bble
Ġciv ility
Ġswitch es
Ġdys ph
Ġcurt ail
Ġdefin itive
Ġworm wood
draw ing
Ġcoach ing
Ġcontract ions
Ġspecial ist
Ġfant as
Ġalph ab
Ġproceed ing
Ġfi ance
Ġoed ipus
Ġflag ging
Ġdrum ming
Ġflor id
bri ll
bab ys
Ġet ch
Ġrash es
aun ted
Ġwoo lly
lif ts
Ġeager ly
Ġske w
tin ent
Ġrent al
Ġboom ers
Ġut opia
hop per
Ġded uced
Ġskip ping
Ġlocal ity
Ġfinish ing
Ġbowl ful
Ġgoo ey
Ġmall et
Ġhub bys
Ġdor k
Ġore gon
Ġpossess es
Ġpuff s
Ġdigest ive
Ġorch ard
Ġmole cule
Ġpriv ile
Ġprison er
Ġhug ging
Ġsting y
vis it
Ġspite ful
Ġabl ution
Ġscra ped
Ġscra pes
Ġdiagn ose
Ġdiagn osed
Ġoedilf ers
sup ply
Ġsniff ing
Ġshor tened
Ġgramm atical
Ġpuzz ling
Ġthirty two
Ġasc ends
Ġhaul ing
hard y
Ġfurn ished
Ġaes the
Ġaes op
Ġmons ieur
Ġthirst y
Ġadj acent
Ġtang les
Ġwid get
Ġcompl iments
Ġbrood ing
Ġsurround ings
Ġimpl ant
Ġadvent urous
ocr atic
Ġstraw berry
Ġgener ates
Ġbotan ists
rh ymes
Ġprot r
Ġpersu asive
Ġwebs ter
Ġsew n
Ġtorn ado
Ġcob bler
Ġcob blers
Ġdiscer ned
Ġgy ps
Ġgau ze
Ġgau che
Ġpled ged
Ġgeek y
Ġupper class
Ġsatisf ied
Ġfry ing
Ġding dong
Ġdaw ned
Ġnurs ed
Ġstam ens
Ġyach ts
Ġlat ters
Ġdict ate
Ġcoy ly
Ġproc ure
Ġsett ings
Ġalle ys
Ġalle ged
Ġtrim med
Ġemp ress
Ġemp ath
Ġveget ation
Ġveget arian
Ġliber ation
Ġblu ep
Ġblur t
Ġblur ted
Ġblur ry
Ġparas itic
Ġsham an
Ġvic inity
Ġvex atious
Ġdial ysis
mons ieur
tri m
Ġeup h
Ġexplos ives
requ ently
enc ies
enc oun
Ġselect ing
sequ ential
stri ke
Ġsubs ide
bott oms
dra ws
nine teen
Ġshred s
Ġabst inence
Ġwo ken
resp ons
Ġcruc ifix
sto ps
Ġnip per
Ġvig il
Ġcogn itive
Ġpeep ing
Ġannoy ance
Ġscript ures
Ġhatch es
Ġhatch ing
Ġconven e
Ġconven ience
Ġmig uel
Ġmig raine
amph ib
Ġreb irth
Ġreb uffed
Ġanaly ze
Ġanaly tical
Ġaph rodite
prov iding
Ġvap ors
Ġacade mia
Ġspecific ity
adv ice
adv antage
eur ope
Ġot ter
Ġthreate ns
Ġlance lot
Ġratt ling
Ġscold ing
grow th
Ġtwitch ing
Ġdepos its
hh hh
Ġail ur
Ġintention al
Ġforb ids
Ġlex us
Ġbalk an
Ġnutrition al
Ġnu ance
Ġnu isance
Ġmoll usk
Ġrecogn ize
Ġburgl ars
Ġeffic iency
Ġren ted
Ġren ounce
Ġanem ones
Ġhunk y
ben z
Ġsab bath
Ġcate g
fo il
Ġcros st
phil osoph
ocy te
Ġcapit ol
Ġstubborn ly
dream s
Ġoutdo or
Ġannounce ment
Ġembro idery
Ġdens ity
Ġpli ers
Ġvin yl
Ġinspir ing
Ġlav ish
iche ver
Ġdext rous
Ġalex ander
Ġshrie king
Ġpermit ted
Ġfreud ian
Ġborde llo
Ġrapt ure
Ġjab ber
abol ition
Ġdaff od
wit ness
Ġreef s
Ġrhet oric
Ġconsol ation
Ġcatal og
fig ured
Ġpadd ed
nat ured
Ġtid y
Ġbrides maid
Ġbloods ucking
Ġlas so
Ġsched ule
defin ition
Ġellip tic
Ġboun cer
Ġhaun ts
Ġhaun ted
Ġhaun ting
Ġlag oon
Ġamid st
Ġacron y
Ġseiz ures
Ġambig uity
Ġdak ota
Ġrene wed
Ġampl itude
Ġrearr anged
Ġmelod ies
Ġphilip pine
sus p
Ġul cers
Ġcamb ridge
Ġrepl acing
Ġisra eli
Ġinsight ful
Ġassaul ts
Ġdefer red
Ġsash ay
Ġblab ber
Ġquir ks
Ġkel p
Ġerud ition
Ġaux iliary
Ġalchem ists
Ġperp endicular
Ġstrate gy
Ġeuphor ic
Ġmonstr osity
Ġingred ient
Ġskelet al
reprod uction
Ġmous se
Ġchi hu
fere rs
Ġconfound ed
Ġconspir acy
earn s
Ġglitter ing
Ġhoriz ons
Ġocto ber
Ġocto gen
sar ah
Ġpudd ings
Ġpudd les
Ġeu cl
Ġflir ted
Ġphall us
Ġyester day
Ġyester days
cort ic
Ġsnig ger
Ġcorros ion
Ġcylind rical
Ġbumble bee
Ġencir cle
cind erella
Ġflam boy
Ġspel t
Ġdwind le
Ġconcess ion
Ġindis creet
Ġderiv ative
Ġmant le
Ġhap less
Ġbeeth oven
Ġoat meal
Ġobo e
Ġacry lic
Ġintrigu ed
Ġsate llite
Ġrasp berry
Ġvene er
Ġexal ted
sher lock
phr ase
Ġswed ish
cred it
Ġmitz vah
Ġrus sell
Ġorph an
Ġabomin able
Ġsked addle
Ġbirdwatch ers
Ġexto lled
spin ning
Ġrespons es
Ġepip hy
Ġchame leon
Ġfles hy
Ġcrip pled
Ġsubmer ged
Ġtransc ends
Ġephemer al
Ġhier oglyph
Ġcana an
Ġbragg art
fier ce
Ġgiz mo
Ġatw itter
Ġleuke mia
Ġcharlat an
Ġvenge ance
Ġprinci ples
mins ter
wom ens
Ġweas el
Ġfoodstuff s
fut ure
Ġauber g
Ġmuh ammad
Ġches ape
Ġbucol ic
cleopat ra
Ġcirrh osis
Ġchancell or
Ġbudwe iser
Ġunspeak able
Ġcannab is
Ġawh irl
refle cts
Ġscint illa
Ġrepar tee
Ġartich oke
Ġcaliforn ia
Ġforebod ing
Ġsuperfl uous
Ġprimord ial
Ġgase ous
Ġvam oose
Ġleger demain
exec ution
Ġsaff ron
Ġdyl an
Ġrehear se
Ġalzheim ers
Ġrigue ur
a ure
a then
a els
b ree
b ip
b og
b als
b itten
b bling
c li
c ory
c arn
c ues
c ards
d as
d ent
d il
d od
d ied
d ened
e rest
f i
f ond
f isted
f rag
g au
g rained
h iding
h allow
h urry
i ad
i amb
i ologists
j i
j s
j as
j am
j une
k is
k id
k ens
k ull
l oo
l ud
l od
m uck
m ills
m agn
m obile
n als
n osed
o a
o rest
o cephal
p ter
p ill
p read
p ina
p acking
r ange
r ative
r ism
r osis
r oots
r ament
s and
s id
s ick
s uck
s udd
s aved
s ucking
s lipped
s allys
t will
t aught
t ipped
u ghts
v at
v ice
w its
w icked
w urst
x is
z ooks
Ġ urch
th re
th ly
Ġa ve
Ġa ute
Ġa ird
Ġa ene
in tern
in ette
in formed
Ġs akes
Ġs iri
Ġs antas
te eth
Ġth urs
Ġth ai
re rs
re lig
re move
re volution
ou te
ou ls
Ġc ade
Ġc umin
Ġc rested
Ġb n
Ġb z
Ġb ate
Ġb ight
Ġb ans
Ġb av
Ġb ival
Ġb ailing
Ġb ilingual
on ance
Ġm t
Ġm age
Ġm az
Ġm ache
Ġm uzzle
Ġh s
Ġh il
Ġh osed
Ġh anged
Ġh ucks
Ġh inted
end um
Ġf on
Ġf om
Ġf umble
Ġf uddy
Ġt apping
Ġt ingle
Ġt ardy
er p
er ies
Ġd l
Ġd rom
Ġd uc
Ġd ott
Ġd oses
Ġd agnabbit
es an
at ur
at ivity
ll ey
or an
or us
or aph
ed er
ed uc
an os
an ish
an them
Ġp ang
Ġp und
Ġp amp
Ġp lied
Ġp aces
Ġp umped
Ġp iety
Ġp oodles
Ġp ushes
Ġp achy
en te
en li
en ia
ar ious
ar led
Ġl t
Ġl umb
Ġl iner
Ġg ored
Ġg ators
Ġg ibr
Ġg wen
Ġn ous
Ġn air
Ġn ines
Ġn ipped
Ġn umbs
Ġto ads
Ġto pless
Ġyou s
om n
om ers
om ial
om ically
om ination
le mon
ic ists
ow ling
us alem
Ġin tents
ve rest
al p
al bert
and ro
and escent
[...]
