{"<|endoftext|>":0,"<AA0>":1,"<AA1>":2,"<AA2>":3,"<AE>":4,"<AE0>":5,"<AE1>":6,"<AE2>":7,"<AH>":8,"<AH0>":9,"<AH1>":10,"<AH2>":11,"<AO>":12,"<AO0>":13,"<AO1>":14,"<AO2>":15,"<AW>":16,"<AW0>":17,"<AW1>":18,"<AW2>":19,"<AY>":20,"<AY0>":21,"<AY1>":22,"<AY2>":23,"<B>":24,"<CH>":25,"<D>":26,"<DH>":27,"<EH>":28,"<EH0>":29,"<EH1>":30,"<EH2>":31,"<ER>":32,"<ER0>":33,"<ER1>":34,"<ER2>":35,"<EY>":36,"<EY0>":37,"<EY1>":38,"<EY2>":39,"<F>":40,"<G>":41,"<HH>":42,"<IH>":43,"<IH0>":44,"<IH1>":45,"<IH2>":46,"<IY>":47,"<IY0>":48,"<IY1>":49,"<IY2>":50,"<JH>":51,"<K>":52,"<L>":53,"<M>":54,"<N>":55,"<NG>":56,"<OW>":57,"<OW0>":58,"<OW1>":59,"<OW2>":60,"<OY>":61,"<OY0>":62,"<OY1>":63,"<OY2>":64,"<P>":65,"<R>":66,"<S>":67,"<SH>":68,"<T>":69,"<TH>":70,"<UH>":71,"<UH0>":72,"<UH1>":73,"<UH2>":74,"<UW>":75,"<UW0>":76,"<UW1>":77,"<UW2>":78,"<V>":79,"<W>":80,"<Y>":81,"<Z>":82,"<ZH>":83,"<>":84,"!":85,"\"":86,"#":87,"$":88,"%":89,"&":90,"'":91,"(":92,")":93,"*":94,"+":95,",":96,"-":97,".":98,"/":99,"0":100,"1":101,"2":102,"3":103,"4":104,"5":105,"6":106,"7":107,"8":108,"9":109,":":110,";":111,"<":112,"=":113,">":114,"?":115,"@":116,"A":117,"B":118,"C":119,"D":120,"E":121,"F":122,"G":123,"H":124,"I":125,"J":126,"K":127,"L":128,"M":129,"N":130,"O":131,"P":132,"Q":133,"R":134,"S":135,"T":136,"U":137,"V":138,"W":139,"X":140,"Y":141,"Z":142,"[":143,"\\":144,"]":145,"^":146,"_":147,"`":148,"a":149,"b":150,"c":151,"d":152,"e":153,"f":154,"g":155,"h":156,"i":157,"j":158,"k":159,"l":160,"m":161,"n":162,"o":163,"p":164,"q":165,"r":166,"s":167,"t":168,"u":169,"v":170,"w":171,"x":172,"y":173,"z":174,"{":175,"|":176,"}":177,"~":178,"¡":179,"¢":180,"£":181,"¤":182,"¥":183,"¦":184,"§":185,"¨":186,"©":187,"ª":188,"«":189,"¬":190,"®":191,"¯":192,"°":193,"±":194,"²":195,"³":196,"´":197,"µ":198,"¶":199,"·":200,"¸":201,"¹":202,"º":203,"»":204,"¼":205,"½":206,"¾":207,"¿":208,"À":209,"Á":210,"Â":211,"Ã":212,"Ä":213,"Å":214,"Æ":215,"Ç":216,"È":217,"É":218,"Ê":219,"Ë":220,"Ì":221,"Í":222,"Î":223,"Ï":224,"Ð":225,"Ñ":226,"Ò":227,"Ó":228,"Ô":229,"Õ":230,"Ö":231,"×":232,"Ø":233,"Ù":234,"Ú":235,"Û":236,"Ü":237,"Ý":238,"Þ":239,"ß":240,"à":241,"á":242,"â":243,"ã":244,"ä":245,"å":246,"æ":247,"ç":248,"è":249,"é":250,"ê":251,"ë":252,"ì":253,"í":254,"î":255,"ï":256,"ð":257,"ñ":258,"ò":259,"ó":260,"ô":261,"õ":262,"ö":263,"÷":264,"ø":265,"ù":266,"ú":267,"û":268,"ü":269,"ý":270,"þ":271,"ÿ":272,"Ā":273,"ā":274,"Ă":275,"ă":276,"Ą":277,"ą":278,"Ć":279,"ć":280,"Ĉ":281,"ĉ":282,"Ċ":283,"ċ":284,"Č":285,"č":286,"Ď":287,"ď":288,"Đ":289,"đ":290,"Ē":291,"ē":292,"Ĕ":293,"ĕ":294,"Ė":295,"ė":296,"Ę":297,"ę":298,"Ě":299,"ě":300,"Ĝ":301,"ĝ":302,"Ğ":303,"ğ":304,"Ġ":305,"ġ":306,"Ģ":307,"ģ":308,"Ĥ":309,"ĥ":310,"Ħ":311,"ħ":312,"Ĩ":313,"ĩ":314,"Ī":315,"ī":316,"Ĭ":317,"ĭ":318,"Į":319,"į":320,"İ":321,"ı":322,"Ĳ":323,"ĳ":324,"Ĵ":325,"ĵ":326,"Ķ":327,"ķ":328,"ĸ":329,"Ĺ":330,"ĺ":331,"Ļ":332,"ļ":333,"Ľ":334,"ľ":335,"Ŀ":336,"ŀ":337,"Ł":338,"ł":339,"Ń":340,"Ġ<":341,"AH":342,"IH":343,"th":344,"IY":345,"Ġa":346,"EH":347,"DH":348,"AE":349,"AY":350,"nd":351,"in":352,"Ġs":353,"ER":354,"Ġ<>":355,"te":356,"Ġth":357,"UW":358,"AA":359,"re":360,"EY":361,"AO":362,"ou":363,"of":364,"OW":365,"Ġc":366,"Ġw":367,"HH":368,"Ġb":369,"Ġthe":370,"on":371,"Ġm":372,"Ġh":373,"Ġi":374,"end":375,"Ġf":376,"Ġt":377,"er":378,"xt":379,"ofte":380,"<|":381,"|>":382,"endofte":383,"endoftext":384,"Ġd":385,"es":386,"NG":387,"at":388,"ll":389,"or":390,"ed":391,"is":392,"an":393,"Ġp":394,"en":395,"ing":396,"ar":397,"as":398,"SH":399,"Ġl":400,"you":401,"AW":402,"Ġg":403,"Ġn":404,"Ġto":405,"ts":406,"Ġyou":407,"CH":408,"om":409,"JH":410,"le":411,"ic":412,"ow":413,"us":414,"Ġin":415,"gh":416,"ve":417,"Ġand":418,"TH":419,"al":420,"and":421,"ac":422,"UH":423,"Ġof":424,"ay":425,"it":426,"Ġe":427,"the":428,"ad":429,"Ġbe":430,"he":431,"ot":432,"ut":433,"ri":434,"ke":435,"Ġwi":436,"ld":437,"os":438,"Ġst":439,"id":440,"Ġhe":441,"ir":442,"Ġon":443,"am":444,"Ġthat":445,"ion":446,"Ġwh":447,"Ġre":448,"Ġr":449,"Ġmy":450,"Ġis":451,"wh":452,"ch":453,"oo":454,"et":455,"im":456,"ly":457,"all":458,"ter":459,"ght":460,"Ġwe":461,"Ġsh":462,"ce":463,"un":464,"Ġde":465,"Ġit":466,"Ġfor":467,"ur":468,"Ġme":469,"Ġj":470,"ver":471,"res":472,"to":473,"ro":474,"Ġch":475,"Ġwith":476,"Ġan":477,"Ġyour":478,"ra":479,"if":480,"ent":481,"but":482,"Ġo":483,"se":484,"ust":485,"Ġas":486,"il":487,"ome":488,"Ġk":489,"Ġwas":490,"Ġhis":491,"Ġse":492,"Ġits":493,"ill":494,"qu":495,"ate":496,"Ġou":497,"Ġne":498,"ould":499,"its":500,"ge":501,"pe":502,"ers":503,"um":504,"ess":505,"rom":506,"li":507,"Ġli":508,"ct":509,"we":510,"Ġnot":511,"ough":512,"ks":513,"that":514,"ain":515,"ore":516,"Ġare":517,"Ġcan":518,"ont":519,"when":520,"Ġno":521,"ol":522,"Ġthey":523,"Ġor":524,"st":525,"up":526,"Ġall":527,"Ġpl":528,"ith":529,"ul":530,"red":531,"ave":532,"Ġso":533,"Ġthis":534,"ak":535,"OY":536,"Ġat":537,"ab":538,"own":539,"ap":540,"Ġher":541,"Ġdo":542,"Ġsp":543,"Ġwor":544,"Ġbl":545,"Ġim":546,"for":547,"ine":548,"ack":549,"Ġfe":550,"ck":551,"Ġv":552,"with":553,"ound":554,"ight":555,"Ġle":556,"nt":557,"ake":558,"one":559,"op":560,"ard":561,"ast":562,"so":563,"ose":564,"Ġcl":565,"are":566,"ive":567,"est":568,"Ġtr":569,"ant":570,"ation":571,"ted":572,"ig":573,"Ġsu":574,"Ġcon":575,"ous":576,"Ġte":577,"Ġwill":578,"aid":579,"Ġgo":580,"my":581,"now":582,"ame":583,"ood":584,"Ġfrom":585,"Ġsome":586,"ist":587,"our":588,"Ġfl":589,"Ġbo":590,"ie":591,"Ġone":592,"ach":593,"Ġjust":594,"ite":595,"el":596,"ish":597,"Ġus":598,"ind":599,"Ġcom":600,"Ġqu":601,"Ġex":602,"Ġgr":603,"Ġco":604,"Ġby":605,"ick":606,"ud":607,"Ġcr":608,"Ġout":609,"Ġy":610,"ans":611,"Ġshe":612,"Ġup":613,"ong":614,"Ġar":615,"ree":616,"Ġlike":617,"art":618,"ag":619,"ace":620,"pl":621,"Ġsc":622,"ink":623,"av":624,"Ġwhat":625,"Ġhave":626,"ass":627,"Ġour":628,"Ġsee":629,"Ġal":630,"Ġab":631,"ys":632,"Ġdis":633,"fe":634,"Ġtheir":635,"Ġlo":636,"ep":637,"they":638,"Ġsay":639,"ther":640,"ue":641,"ook":642,"out":643,"Ġbr":644,"Ġad":645,"ings":646,"ice":647,"ase":648,"ne":649,"ure":650,"be":651,"Ġbut":652,"ile":653,"Ġwere":654,"ost":655,"here":656,"though":657,"Ġen":658,"Ġpro":659,"use":660,"ip":661,"Ġwho":662,"ry":663,"Ġun":664,"Ġam":665,"ade":666,"Ġap":667,"Ġri":668,"Ġthats":669,"Ġgre":670,"ress":671,"Ġpr":672,"Ġwould":673,"Ġwhen":674,"Ġsaid":675,"Ġsm":676,"Ġcall":677,"Ġyoure":678,"Ġro":679,"ich":680,"aw":681,"de":682,"Ġdont":683,"iv":684,"ies":685,"Ġtoo":686,"Ġbu":687,"ff":688,"this":689,"igh":690,"sh":691,"Ġgu":692,"Ġmore":693,"Ġpo":694,"Ġman":695,"Ġtw":696,"Ġnow":697,"ms":698,"ide":699,"very":700,"ail":701,"ance":702,"ned":703,"ally":704,"Ġget":705,"ays":706,"air":707,"Ġac":708,"Ġhas":709,"ars":710,"Ġmo":711,"ZH":712,"act":713,"ort":714,"Ġknow":715,"what":716,"au":717,"Ġhad":718,"age":719,"cl":720,"then":721,"me":722,"ity":723,"Ġthen":724,"Ġche":725,"no":726,"Ġword":727,"ath":728,"ble":729,"Ġold":730,"ang":731,"og":732,"Ġnew":733,"ise":734,"Ġpe":735,"from":736,"ime":737,"Ġwell":738,"Ġdr":739,"Ġjo":740,"Ġag":741,"Ġsl":742,"ps":743,"ze":744,"Ġhim":745,"Ġdown":746,"pt":747,"Ġho":748,"uch":749,"ash":750,"ause":751,"ions":752,"ought":753,"oss":754,"Ġem":755,"Ġoff":756,"Ġmake":757,"Ġneed":758,"she":759,"und":760,"iss":761,"Ġmay":762,"by":763,"ens":764,"bl":765,"ple":766,"ical":767,"Ġbeen":768,"ph":769,"Ġke":770,"Ġcould":771,"Ġgot":772,"ors":773,"Ġill":774,"akes":775,"ters":776,"able":777,"Ġsk":778,"Ġthr":779,"Ġday":780,"ince":781,"ool":782,"Ġspe":783,"ting":784,"ull":785,"per":786,"Ġbre":787,"Ġfr":788,"Ġgl":789,"Ġcle":790,"Ġpre":791,"ark":792,"ped":793,"Ġhes":794,"like":795,"Ġthem":796,"Ġgood":797,"ons":798,"Ġcant":799,"Ġcar":800,"ian":801,"Ġdes":802,"Ġthink":803,"his":804,"theres":805,"Ġgreat":806,"ves":807,"Ġquite":808,"ment":809,"Ġway":810,"Ġshould":811,"ire":812,"Ġthere":813,"not":814,"ug":815,"was":816,"ows":817,"Ġper":818,"ell":819,"Ġsw":820,"ft":821,"ub":822,"Ġif":823,"ond":824,"ven":825,"Ġaw":826,"Ġfind":827,"ten":828,"Ġins":829,"Ġback":830,"Ġmight":831,"Ġeach":832,"ty":833,"your":834,"atch":835,"Ġlif":836,"urn":837,"ia":838,"Ġswe":839,"orn":840,"Ġstr":841,"irst":842,"ious":843,"ved":844,"ful":845,"rain":846,"Ġtwo":847,"Ġright":848,"Ġfri":849,"thing":850,"Ġend":851,"uck":852,"ction":853,"Ġhow":854,"Ġwhere":855,"ber":856,"Ġlook":857,"Ġmade":858,"tle":859,"arm":860,"les":861,"Ġmust":862,"hes":863,"ank":864,"thats":865,"Ġtheyre":866,"Ġwont":867,"Ġlong":868,"Ġtime":869,"Ġwa":870,"Ġfo":871,"just":872,"od":873,"ord":874,"Ġmuch":875,"Ġcalled":876,"amed":877,"Ġhead":878,"Ġste":879,"int":880,"Ġive":881,"Ġfeel":882,"ents":883,"less":884,"aking":885,"bs":886,"Ġaf":887,"Ġres":888,"ign":889,"als":890,"there":891,"Ġple":892,"while":893,"Ġthrough":894,"Ġplay":895,"ness":896,"Ġbri":897,"Ġph":898,"Ġtre":899,"since":900,"Ġthose":901,"Ġcre":902,"man":903,"ix":904,"Ġthan":905,"led":906,"said":907,"Ġbar":908,"some":909,"who":910,"Ġwork":911,"Ġnever":912,"ng":913,"Ġname":914,"Ġmar":915,"Ġsure":916,"gg":917,"Ġbest":918,"ried":919,"oc":920,"Ġplan":921,"Ġyoull":922,"anc":923,"Ġhigh":924,"Ġfound":925,"Ġtake":926,"Ġkn":927,"Ġcou":928,"iz":929,"Ġuse":930,"ush":931,"ock":932,"where":933,"Ġbet":934,"ial":935,"Ġey":936,"ins":937,"ats":938,"ls":939,"Ġhand":940,"Ġhere":941,"Ġear":942,"Ġid":943,"ale":944,"Ġlife":945,"ines":946,"Ġonce":947,"Ġfirst":948,"Ġcomp":949,"af":950,"cause":951,"Ġlove":952,"uff":953,"Ġcur":954,"Ġover":955,"Ġsur":956,"Ġtheres":957,"ather":958,"Ġbig":959,"ute":960,"ert":961,"ence":962,"Ġpain":963,"well":964,"ird":965,"Ġwhich":966,"do":967,"bo":968,"uc":969,"Ġwr":970,"Ġbro":971,"ked":972,"ange":973,"com":974,"her":975,"Ġthese":976,"Ġmean":977,"Ġhell":978,"will":979,"Ġsn":980,"Ġhard":981,"ates":982,"ouse":983,"Ġge":984,"which":985,"ated":986,"Ġye":987,"br":988,"Ġund":989,"Ġass":990,"Ġshow":991,"Ġstill":992,"ese":993,"ict":994,"Ġrep":995,"Ġcont":996,"Ġfriend":997,"Ġpart":998,"Ġdec":999,"Ġfun":1000,"Ġter":1001,"Ġyoung":1002,"Ġdi":1003,"ition":1004,"Ġmeans":1005,"Ġdid":1006,"ren":1007,"ild":1008,"que":1009,"youre":1010,"Ġtell":1011,"Ġmost":1012,"Ġnight":1013,"rop":1014,"Ġhel":1015,"Ġclear":1016,"Ġkeep":1017,"ics":1018,"co":1019,"day":1020,"Ġevery":1021,"can":1022,"Ġca":1023,"Ġplace":1024,"ning":1025,"Ġdri":1026,"ving":1027,"Ġbad":1028,"Ġdef":1029,"ures":1030,"Ġcome":1031,"ooks":1032,"gr":1033,"Ġnamed":1034,"tes":1035,"ult":1036,"Ġatt":1037,"Ġfine":1038,"read":1039,"Ġcomm":1040,"ary":1041,"Ġser":1042,"Ġlet":1043,"Ġapp":1044,"lf":1045,"Ġlast":1046,"Ġcare":1047,"king":1048,"ists":1049,"Ġgive":1050,"how":1051,"Ġsmall":1052,"Ġtry":1053,"Ġact":1054,"Ġcour":1055,"itch":1056,"see":1057,"aim":1058,"Ġsup":1059,"Ġconf":1060,"Ġtri":1061,"Ġpass":1062,"Ġgir":1063,"Ġany":1064,"theyre":1065,"used":1066,"ared":1067,"Ġcra":1068,"je":1069,"ory":1070,"Ġthought":1071,"vers":1072,"Ġfar":1073,"Ġdead":1074,"Ġimp":1075,"Ġpri":1076,"ah":1077,"Ġred":1078,"Ġdou":1079,"Ġstar":1080,"ude":1081,"Ġthough":1082,"ined":1083,"get":1084,"Ġaway":1085,"ily":1086,"ands":1087,"Ġread":1088,"light":1089,"Ġair":1090,"Ġplease":1091,"Ġhear":1092,"Ġgod":1093,"Ġlim":1094,"Ġrem":1095,"Ġz":1096,"olog":1097,"ping":1098,"Ġwords":1099,"ib":1100,"Ġeat":1101,"has":1102,"Ġsound":1103,"Ġsuch":1104,"Ġshes":1105,"Ġbed":1106,"Ġrun":1107,"ym":1108,"Ġwhy":1109,"oud":1110,"Ġappe":1111,"Ġcho":1112,"Ġdra":1113,"Ġcons":1114,"Ġleft":1115,"Ġmakes":1116,"Ġface":1117,"Ġtrue":1118,"Ġboth":1119,"Ġyouve":1120,"Ġbeg":1121,"ream":1122,"ones":1123,"icks":1124,"atter":1125,"imes":1126,"ids":1127,"Ġreally":1128,"lie":1129,"oun":1130,"lo":1131,"were":1132,"ways":1133,"Ġdoes":1134,"az":1135,"Ġwant":1136,"ations":1137,"Ġadd":1138,"Ġcor":1139,"Ġinto":1140,"ittle":1141,"Ġblack":1142,"Ġthings":1143,"iew":1144,"Ġop":1145,"Ġacc":1146,"Ġsch":1147,"ax":1148,"amp":1149,"Ġpar":1150,"Ġcol":1151,"ants":1152,"Ġlight":1153,"Ġused":1154,"dy":1155,"Ġhome":1156,"Ġfol":1157,"bt":1158,"Ġabout":1159,"Ġtra":1160,"Ġsweet":1161,"fore":1162,"ied":1163,"Ġcap":1164,"med":1165,"Ġer":1166,"Ġvery":1167,"ling":1168,"Ġonly":1169,"der":1170,"Ġchar":1171,"let":1172,"Ġfree":1173,"Ġbit":1174,"ket":1175,"Ġthree":1176,"umb":1177,"ople":1178,"Ġmind":1179,"Ġball":1180,"Ġsoon":1181,"Ġkne":1182,"unk":1183,"app":1184,"Ġsou":1185,"Ġown":1186,"ane":1187,"Ġmus":1188,"Ġfear":1189,"Ġmiss":1190,"cc":1191,"Ġturn":1192,"gs":1193,"plain":1194,"Ġknown":1195,"thr":1196,"arn":1197,"Ġfish":1198,"ressed":1199,"Ġguy":1200,"dont":1201,"Ġwife":1202,"cks":1203,"ny":1204,"ired":1205,"Ġcause":1206,"often":1207,"cre":1208,"Ġcoll":1209,"alk":1210,"oy":1211,"ump":1212,"dd":1213,"oh":1214,"Ġdear":1215,"Ġexp":1216,"Ġhot":1217,"ner":1218,"shes":1219,"Ġant":1220,"Ġstop":1221,"ills":1222,"their":1223,"Ġtow":1224,"Ġfell":1225,"Ġthing":1226,"Ġcame":1227,"ically":1228,"Ġheard":1229,"Ġheart":1230,"Ġfall":1231,"Ġdep":1232,"augh":1233,"Ġbird":1234,"Ġless":1235,"aught":1236,"aves":1237,"Ġref":1238,"Ġart":1239,"Ġkind":1240,"Ġblue":1241,"pr":1242,"Ġdist":1243,"ives":1244,"Ġsim":1245,"ense":1246,"Ġcut":1247,"Ġstart":1248,"Ġset":1249,"acks":1250,"Ġstri":1251,"Ġhed":1252,"ating":1253,"Ġnor":1254,"Ġhair":1255,"Ġrec":1256,"Ġwhite":1257,"Ġflow":1258,"ater":1259,"Ġtoday":1260,"Ġpay":1261,"aut":1262,"unch":1263,"old":1264,"uss":1265,"Ġgra":1266,"every":1267,"Ġput":1268,"Ġnear":1269,"tent":1270,"ung":1271,"come":1272,"Ġbur":1273,"Ġsays":1274,"Ġfood":1275,"aps":1276,"ric":1277,"gl":1278,"Ġcat":1279,"Ġlad":1280,"Ġround":1281,"aving":1282,"Ġve":1283,"Ġcal":1284,"Ġpur":1285,"ues":1286,"Ġver":1287,"Ġdev":1288,"Ġadv":1289,"Ġgrow":1290,"ount":1291,"Ġdem":1292,"con":1293,"Ġlaw":1294,"Ġwent":1295,"Ġind":1296,"Ġagain":1297,"Ġgri":1298,"Ġworld":1299,"Ġpeople":1300,"Ġunder":1301,"Ġeyes":1302,"Ġview":1303,"Ġdrink":1304,"aring":1305,"Ġmany":1306,"kes":1307,"unt":1308,"Ġwithout":1309,"Ġel":1310,"Ġhelp":1311,"ci":1312,"em":1313,"Ġoften":1314,"Ġalways":1315,"Ġed":1316,"Ġsqu":1317,"ene":1318,"youll":1319,"Ġblood":1320,"Ġsad":1321,"Ġdam":1322,"Ġclass":1323,"Ġstud":1324,"Ġhor":1325,"Ġpoor":1326,"zz":1327,"Ġtold":1328,"Ġsle":1329,"Ġsho":1330,"illed":1331,"pect":1332,"have":1333,"tr":1334,"Ġfolks":1335,"oms":1336,"thers":1337,"Ġfull":1338,"ape":1339,"Ġwater":1340,"Ġsal":1341,"Ġvo":1342,"ek":1343,"Ġwhats":1344,"Ġbi":1345,"Ġland":1346,"Ġbra":1347,"Ġtop":1348,"Ġlittle":1349,"heres":1350,"str":1351,"Ġten":1352,"may":1353,"oney":1354,"whats":1355,"ored":1356,"Ġwhile":1357,"fect":1358,"Ġdiv":1359,"Ġsomething":1360,"Ġcri":1361,"Ġfin":1362,"Ġlar":1363,"ott":1364,"Ġsupp":1365,"che":1366,"Ġeven":1367,"Ġwar":1368,"Ġbab":1369,"cts":1370,"ards":1371,"iting":1372,"would":1373,"Ġdad":1374,"oke":1375,"Ġes":1376,"mer":1377,"Ġline":1378,"Ġwin":1379,"Ġdone":1380,"ced":1381,"ger":1382,"ier":1383,"Ġtas":1384,"these":1385,"Ġmen":1386,"Ġdeep":1387,"Ġreal":1388,"cle":1389,"yes":1390,"Ġbrain":1391,"iff":1392,"Ġwhole":1393,"Ġfact":1394,"vel":1395,"Ġstay":1396,"gre":1397,"ize":1398,"uth":1399,"Ġsing":1400,"Ġtur":1401,"Ġstate":1402,"cted":1403,"Ġinv":1404,"Ġrh":1405,"Ġele":1406,"ield":1407,"Ġquick":1408,"Ġstuff":1409,"Ġstre":1410,"Ġsame":1411,"go":1412,"Ġret":1413,"Ġabs":1414,"eds":1415,"tead":1416,"Ġones":1417,"Ġguess":1418,"ged":1419,"Ġwri":1420,"Ġgone":1421,"aster":1422,"Ġcell":1423,"Ġnice":1424,"Ġseems":1425,"once":1426,"Ġwed":1427,"ased":1428,"Ġcold":1429,"Ġhope":1430,"Ġrest":1431,"Ġgrand":1432,"Ġbetter":1433,"Ġlot":1434,"tw":1435,"Ġstra":1436,"play":1437,"ains":1438,"cri":1439,"Ġsub":1440,"ron":1441,"ised":1442,"bed":1443,"ef":1444,"Ġseen":1445,"uct":1446,"Ġsun":1447,"lly":1448,"Ġafter":1449,"Ġhum":1450,"Ġpres":1451,"Ġtree":1452,"gn":1453,"made":1454,"Ġmin":1455,"Ġgen":1456,"Ġflo":1457,"ual":1458,"any":1459,"Ġshort":1460,"had":1461,"Ġhouse":1462,"tend":1463,"Ġbeh":1464,"Ġcry":1465,"Ġhal":1466,"Ġbuy":1467,"tered":1468,"atic":1469,"ular":1470,"fl":1471,"Ġmon":1472,"Ġav":1473,"Ġhold":1474,"ob":1475,"Ġfac":1476,"ex":1477,"Ġdark":1478,"Ġfly":1479,"Ġpast":1480,"Ġisnt":1481,"Ġob":1482,"Ġce":1483,"Ġclaim":1484,"Ġfour":1485,"those":1486,"Ġlead":1487,"ject":1488,"Ġclo":1489,"Ġwom":1490,"self":1491,"Ġboo":1492,"owed":1493,"ames":1494,"lip":1495,"tem":1496,"Ġpers":1497,"lls":1498,"cer":1499,"uit":1500,"Ġmet":1501,"Ġdel":1502,"Ġaround":1503,"Ġeye":1504,"Ġson":1505,"Ġbat":1506,"Ġform":1507,"po":1508,"Ġext":1509,"Ġbel":1510,"Ġprof":1511,"Ġwrong":1512,"Ġstand":1513,"Ġmom":1514,"Ġfre":1515,"ative":1516,"Ġrel":1517,"wor":1518,"Ġcop":1519,"Ġfeet":1520,"Ġcount":1521,"through":1522,"ower":1523,"Ġcourse":1524,"Ġfool":1525,"Ġtook":1526,"Ġtown":1527,"ides":1528,"Ġbefore":1529,"Ġspr":1530,"Ġwish":1531,"Ġwhos":1532,"Ġskin":1533,"Ġfight":1534,"Ġearth":1535,"Ġdoubt":1536,"Ġwall":1537,"Ġschool":1538,"Ġbill":1539,"why":1540,"Ġgoes":1541,"Ġgreen":1542,"Ġother":1543,"Ġfat":1544,"Ġfail":1545,"take":1546,"Ġbelie":1547,"Ġlimer":1548,"Ġlate":1549,"gu":1550,"off":1551,"Ġnothing":1552,"Ġsign":1553,"lets":1554,"rew":1555,"ips":1556,"using":1557,"Ġsex":1558,"Ġcond":1559,"Ġcross":1560,"Ġasked":1561,"such":1562,"ertain":1563,"mo":1564,"Ġlost":1565,"Ġbeaut":1566,"Ġfair":1567,"Ġcomple":1568,"Ġbright":1569,"cr":1570,"head":1571,"Ġyes":1572,"na":1573,"Ġev":1574,"Ġje":1575,"ured":1576,"Ġfew":1577,"Ġinstead":1578,"inks":1579,"ature":1580,"Ġfa":1581,"Ġchild":1582,"Ġoh":1583,"Ġbreak":1584,"Ġside":1585,"Ġdays":1586,"Ġnext":1587,"idd":1588,"aint":1589,"ract":1590,"Ġlooks":1591,"after":1592,"Ġgame":1593,"Ġseem":1594,"ments":1595,"oph":1596,"Ġyell":1597,"Ġadm":1598,"ctor":1599,"Ġgirl":1600,"Ġwind":1601,"iness":1602,"Ġhar":1603,"Ġhit":1604,"Ġgets":1605,"Ġgave":1606,"ians":1607,"Ġbook":1608,"Ġty":1609,"Ġdecl":1610,"Ġground":1611,"Ġban":1612,"Ġyet":1613,"oid":1614,"Ġwhe":1615,"Ġhapp":1616,"ism":1617,"arch":1618,"lling":1619,"call":1620,"Ġfle":1621,"Ġask":1622,"Ġmad":1623,"Ġexc":1624,"els":1625,"cy":1626,"Ġbus":1627,"Ġchr":1628,"ply":1629,"cept":1630,"Ġyears":1631,"Ġcolle":1632,"fer":1633,"Ġstrong":1634,"acked":1635,"Ġboy":1636,"should":1637,"Ġma":1638,"Ġdoor":1639,"Ġalso":1640,"Ġeas":1641,"till":1642,"Ġlarge":1643,"Ġfam":1644,"uts":1645,"Ġcomes":1646,"ule":1647,"Ġcase":1648,"Ġfast":1649,"Ġwond":1650,"Ġdream":1651,"Ġlets":1652,"add":1653,"rest":1654,"Ġjob":1655,"got":1656,"Ġdog":1657,"Ġgold":1658,"most":1659,"Ġking":1660,"Ġtreat":1661,"each":1662,"Ġmess":1663,"Ġsit":1664,"Ġodd":1665,"Ġtimes":1666,"Ġtrans":1667,"Ġaff":1668,"Ġwood":1669,"ums":1670,"Ġbal":1671,"Ġden":1672,"Ġfit":1673,"Ġever":1674,"Ġrather":1675,"ces":1676,"Ġaint":1677,"Ġcool":1678,"ason":1679,"Ġlow":1680,"Ġdraw":1681,"Ġda":1682,"asure":1683,"Ġflat":1684,"min":1685,"row":1686,"Ġcy":1687,"Ġagree":1688,"yle":1689,"Ġguys":1690,"ible":1691,"irt":1692,"tern":1693,"Ġdie":1694,"Ġpen":1695,"Ġbow":1696,"Ġspl":1697,"Ġbring":1698,"Ġbas":1699,"Ġsec":1700,"lied":1701,"Ġpol":1702,"Ġlive":1703,"urch":1704,"Ġdeath":1705,"dis":1706,"Ġwatch":1707,"avor":1708,"Ġque":1709,"Ġmis":1710,"Ġfore":1711,"ye":1712,"Ġfel":1713,"hel":1714,"Ġyoud":1715,"Ġsea":1716,"Ġyear":1717,"Ġef":1718,"Ġclean":1719,"yl":1720,"Ġmed":1721,"Ġmeet":1722,"Ġfriends":1723,"sw":1724,"Ġmeant":1725,"Ġknew":1726,"ient":1727,"Ġdoc":1728,"Ġcoun":1729,"Ġroom":1730,"youve":1731,"keep":1732,"Ġent":1733,"alth":1734,"Ġcir":1735,"Ġpick":1736,"udge":1737,"Ġcow":1738,"form":1739,"mon":1740,"Ġhur":1741,"Ġdry":1742,"Ġleave":1743,"aced":1744,"ails":1745,"Ġsol":1746,"Ġcook":1747,"cent":1748,"ilt":1749,"rench":1750,"ove":1751,"Ġvis":1752,"ns":1753,"rent":1754,"ams":1755,"ique":1756,"Ġmoney":1757,"lled":1758,"ma":1759,"Ġpat":1760,"Ġsaw":1761,"Ġpray":1762,"Ġdrop":1763,"Ġdate":1764,"full":1765,"ither":1766,"Ġdig":1767,"Ġobs":1768,"Ġpie":1769,"lies":1770,"Ġbeat":1771,"omet":1772,"cked":1773,"Ġspeak":1774,"Ġwonder":1775,"irth":1776,"Ġprod":1777,"could":1778,"Ġmaking":1779,"Ġtal":1780,"ered":1781,"other":1782,"Ġkids":1783,"ided":1784,"Ġdire":1785,"Ġble":1786,"did":1787,"ution":1788,"make":1789,"Ġthri":1790,"Ġdin":1791,"orm":1792,"ouch":1793,"Ġmine":1794,"ends":1795,"Ġpos":1796,"Ġsight":1797,"Ġleg":1798,"ology":1799,"Ġslow":1800,"Ġteach":1801,"Ġsmell":1802,"outh":1803,"Ġhop":1804,"umber":1805,"Ġsleep":1806,"ward":1807,"Ġheav":1808,"Ġdisp":1809,"Ġshot":1810,"Ġhalf":1811,"Ġlack":1812,"Ġreg":1813,"Ġboss":1814,"Ġfil":1815,"ween":1816,"ges":1817,"Ġcaught":1818,"Ġchance":1819,"Ġkill":1820,"Ġplant":1821,"Ġclose":1822,"Ġcertain":1823,"Ġdoesnt":1824,"ery":1825,"ift":1826,"ries":1827,"des":1828,"Ġarm":1829,"Ġpot":1830,"Ġlab":1831,"rol":1832,"Ġenough":1833,"Ġterm":1834,"une":1835,"jo":1836,"Ġbud":1837,"ingly":1838,"ific":1839,"Ġexplain":1840,"Ġspot":1841,"Ġsong":1842,"Ġtried":1843,"irm":1844,"uly":1845,"Ġnose":1846,"Ġegg":1847,"Ġlearn":1848,"than":1849,"Ġtill":1850,"Ġdeal":1851,"Ġlear":1852,"Ġcast":1853,"Ġworth":1854,"ilk":1855,"Ġmag":1856,"yet":1857,"bles":1858,"thes":1859,"atures":1860,"Ġpop":1861,"vered":1862,"enty":1863,"Ġfeeling":1864,"Ġhorse":1865,"sp":1866,"Ġsince":1867,"ads":1868,"rote":1869,"Ġexpl":1870,"oop":1871,"Ġknows":1872,"uce":1873,"Ġsat":1874,"many":1875,"land":1876,"raph":1877,"orts":1878,"Ġshows":1879,"ium":1880,"Ġcash":1881,"ghts":1882,"ility":1883,"ished":1884,"amb":1885,"ights":1886,"astic":1887,"igned":1888,"ging":1889,"ider":1890,"Ġwhose":1891,"Ġgree":1892,"Ġchange":1893,"Ġsimply":1894,"pped":1895,"Ġbell":1896,"Ġchurch":1897,"Ġstraight":1898,"Ġbeer":1899,"Ġshell":1900,"haps":1901,"Ġleaves":1902,"Ġothers":1903,"ours":1904,"Ġlaugh":1905,"ized":1906,"osis":1907,"Ġwal":1908,"Ġrom":1909,"ote":1910,"Ġdance":1911,"Ġang":1912,"claim":1913,"ae":1914,"ints":1915,"Ġign":1916,"Ġprom":1917,"Ġbrown":1918,"two":1919,"Ġrare":1920,"Ġspec":1921,"ister":1922,"Ġwrite":1923,"owing":1924,"Ġrul":1925,"urs":1926,"both":1927,"gy":1928,"ices":1929,"Ġshed":1930,"Ġneeds":1931,"Ġturned":1932,"Ġpet":1933,"aces":1934,"iled":1935,"Ġrhy":1936,"Ġreach":1937,"ention":1938,"over":1939,"Ġfill":1940,"Ġpu":1941,"iven":1942,"test":1943,"Ġloud":1944,"Ġgal":1945,"osed":1946,"Ġcomplain":1947,"Ġcried":1948,"Ġtest":1949,"Ġali":1950,"oft":1951,"Ġcro":1952,"Ġben":1953,"Ġfire":1954,"Ġra":1955,"istic":1956,"Ġcand":1957,"ume":1958,"first":1959,"look":1960,"Ġbli":1961,"ital":1962,"Ġdeb":1963,"Ġcrit":1964,"Ġbuild":1965,"amm":1966,"ying":1967,"Ġspace":1968,"Ġinside":1969,"Ġmist":1970,"ias":1971,"Ġach":1972,"eric":1973,"Ġner":1974,"lect":1975,"Ġgun":1976,"does":1977,"Ġtom":1978,"Ġdisc":1979,"Ġdisplay":1980,"ds":1981,"makes":1982,"Ġmate":1983,"Ġengl":1984,"please":1985,"Ġwait":1986,"Ġsy":1987,"Ġbeing":1988,"Ġeng":1989,"ball":1990,"Ġbag":1991,"Ġnote":1992,"Ġworse":1993,"Ġsky":1994,"car":1995,"Ġmor":1996,"eth":1997,"Ġwine":1998,"essed":1999,"Ġdress":2000,"Ġequ":2001,"Ġweve":2002,"Ġtrees":2003,"Ġmusic":2004,"Ġtakes":2005,"key":2006,"Ġshr":2007,"nown":2008,"pro":2009,"til":2010,"Ġcatch":2011,"ison":2012,"Ġtrou":2013,"aul":2014,"Ġsick":2015,"Ġmer":2016,"Ġpal":2017,"seems":2018,"ton":2019,"Ġkiss":2020,"Ġbody":2021,"Ġdrug":2022,"Ġtaste":2023,"came":2024,"resh":2025,"Ġmother":2026,"aks":2027,"ding":2028,"Ġsum":2029,"Ġbase":2030,"Ġspo":2031,"Ġspread":2032,"Ġworks":2033,"ites":2034,"Ġcrow":2035,"Ġsin":2036,"ounds":2037,"Ġsucc":2038,"bing":2039,"Ġleast":2040,"ets":2041,"Ġwarm":2042,"Ġplain":2043,"Ġrock":2044,"Ġmove":2045,"Ġlord":2046,"Ġwear":2047,"bu":2048,"men":2049,"ife":2050,"Ġtem":2051,"Ġya":2052,"tty":2053,"Ġfame":2054,"Ġluck":2055,"Ġcannot":2056,"Ġarch":2057,"Ġfoll":2058,"Ġsix":2059,"cess":2060,"ken":2061,"Ġdish":2062,"Ġfruit":2063,"Ġburn":2064,"hed":2065,"Ġaim":2066,"Ġber":2067,"Ġrequ":2068,"ceed":2069,"fully":2070,"Ġfix":2071,"Ġok":2072,"Ġpoint":2073,"Ġfelt":2074,"Ġmal":2075,"io":2076,"ler":2077,"Ġtough":2078,"erst":2079,"Ġbox":2080,"Ġfrench":2081,"Ġdeli":2082,"Ġdesign":2083,"Ġdidnt":2084,"Ġwild":2085,"Ġchoose":2086,"ometimes":2087,"Ġbirth":2088,"Ġshop":2089,"Ġeasy":2090,"aken":2091,"Ġgrou":2092,"Ġfarm":2093,"otic":2094,"Ġlives":2095,"thus":2096,"Ġshall":2097,"Ġsuff":2098,"Ġchrist":2099,"ited":2100,"ience":2101,"Ġrich":2102,"Ġfloor":2103,"ator":2104,"ision":2105,"Ġstyle":2106,"Ġdesp":2107,"Ġopen":2108,"aff":2109,"hell":2110,"Ġstick":2111,"Ġdamn":2112,"Ġbor":2113,"Ġgas":2114,"Ġtruth":2115,"Ġprov":2116,"Ġappear":2117,"Ġaut":2118,"Ġsour":2119,"Ġsense":2120,"teri":2121,"Ġbought":2122,"usion":2123,"Ġstrange":2124,"Ġcomplete":2125,"Ġsold":2126,"Ġbank":2127,"ils":2128,"cal":2129,"ky":2130,"without":2131,"Ġconv":2132,"Ġstreet":2133,"athe":2134,"Ġder":2135,"Ġrev":2136,"Ġshar":2137,"Ġsir":2138,"Ġfive":2139,"Ġquest":2140,"Ġcorn":2141,"ony":2142,"Ġtrain":2143,"Ġpra":2144,"ably":2145,"Ġdon":2146,"att":2147,"Ġpull":2148,"Ġwasnt":2149,"Ġtend":2150,"Ġbrought":2151,"Ġnews":2152,"iny":2153,"aper":2154,"Ġgoing":2155,"oom":2156,"Ġmass":2157,"ending":2158,"Ġbreath":2159,"Ġcourt":2160,"down":2161,"ech":2162,"say":2163,"Ġsail":2164,"Ġband":2165,"Ġbull":2166,"Ġlonger":2167,"tic":2168,"Ġsa":2169,"omb":2170,"uses":2171,"oles":2172,"Ġring":2173,"Ġglass":2174,"way":2175,"Ġcost":2176,"Ġfer":2177,"Ġtight":2178,"erous":2179,"Ġnation":2180,"Ġrule":2181,"Ġdescri":2182,"uel":2183,"wed":2184,"zy":2185,"ently":2186,"Ġprote":2187,"whose":2188,"means":2189,"Ġcouldnt":2190,"Ġdrive":2191,"Ġgirls":2192,"Ġgro":2193,"Ġansw":2194,"ca":2195,"iction":2196,"Ġterri":2197,"Ġrain":2198,"aped":2199,"Ġscr":2200,"Ġlooked":2201,"Ġfoot":2202,"Ġbelieve":2203,"Ġbare":2204,"Ġhon":2205,"Ġbear":2206,"Ġbecome":2207,"Ġmeat":2208,"Ġann":2209,"Ġchem":2210,"bled":2211,"Ġperson":2212,"Ġsus":2213,"Ġgives":2214,"top":2215,"Ġalone":2216,"Ġproble":2217,"even":2218,"Ġcab":2219,"anted":2220,"ued":2221,"utter":2222,"Ġsell":2223,"aked":2224,"wel":2225,"Ġboat":2226,"Ġattack":2227,"py":2228,"arr":2229,"itten":2230,"iful":2231,"Ġdoctor":2232,"ploy":2233,"iving":2234,"Ġheres":2235,"ighb":2236,"Ġbread":2237,"Ġsounds":2238,"gen":2239,"Ġsand":2240,"Ġmatter":2241,"ann":2242,"Ġforce":2243,"Ġdise":2244,"airs":2245,"Ġcheck":2246,"ocks":2247,"Ġhands":2248,"Ġla":2249,"Ġcas":2250,"Ġdaugh":2251,"Ġmeaning":2252,"Ġshock":2253,"under":2254,"Ġpower":2255,"Ġways":2256,"Ġdread":2257,"Ġnone":2258,"ched":2259,"Ġclim":2260,"because":2261,"yed":2262,"Ġage":2263,"Ġlie":2264,"Ġlikely":2265,"Ġpretty":2266,"Ġlady":2267,"Ġice":2268,"Ġfate":2269,"Ġprice":2270,"Ġspeed":2271,"Ġlimerick":2272,"Ġger":2273,"osing":2274,"gress":2275,"Ġthin":2276,"ker":2277,"Ġwalk":2278,"Ġlines":2279,"Ġease":2280,"Ġris":2281,"Ġship":2282,"ograph":2283,"ades":2284,"Ġrhyme":2285,"Ġur":2286,"teen":2287,"Ġlay":2288,"Ġreason":2289,"Ġexam":2290,"Ġkey":2291,"inal":2292,"Ġfur":2293,"more":2294,"ina":2295,"aled":2296,"Ġocc":2297,"Ġblock":2298,"ths":2299,"Ġcup":2300,"erk":2301,"otion":2302,"Ġkid":2303,"Ġneighb":2304,"ained":2305,"Ġgetting":2306,"Ġopp":2307,"mas":2308,"ana":2309,"Ġtheyll":2310,"Ġverse":2311,"Ġsor":2312,"Ġshare":2313,"Ġchick":2314,"Ġneat":2315,"ief":2316,"Ġsurpr":2317,"ares":2318,"joy":2319,"asts":2320,"Ġwide":2321,"still":2322,"Ġtruly":2323,"aws":2324,"Ġbree":2325,"Ġsmile":2326,"ancy":2327,"Ġstarted":2328,"Ġbegin":2329,"Ġbooks":2330,"Ġhy":2331,"Ġsurely":2332,"Ġbehind":2333,"ests":2334,"raid":2335,"Ġplants":2336,"Ġavoid":2337,"Ġbound":2338,"Ġbroke":2339,"back":2340,"ever":2341,"Ġvoice":2342,"bet":2343,"Ġheat":2344,"Ġcomb":2345,"Ġsmart":2346,"Ġfront":2347,"Ġbaby":2348,"tell":2349,"Ġval":2350,"Ġjoh":2351,"Ġsne":2352,"Ġfresh":2353,"ral":2354,"says":2355,"Ġcity":2356,"Ġbot":2357,"Ġhide":2358,"Ġfield":2359,"Ġsomeone":2360,"Ġsecond":2361,"Ġblind":2362,"try":2363,"Ġsize":2364,"Ġdim":2365,"iced":2366,"Ġeight":2367,"Ġreve":2368,"iles":2369,"Ġblow":2370,"Ġclearly":2371,"cut":2372,"Ġfing":2373,"Ġtall":2374,"ural":2375,"Ġamb":2376,"Ġcheese":2377,"angu":2378,"Ġhu":2379,"aze":2380,"Ġpress":2381,"Ġstone":2382,"Ġran":2383,"bes":2384,"Ġsent":2385,"Ġbac":2386,"Ġpan":2387,"right":2388,"might":2389,"Ġsens":2390,"Ġbum":2391,"Ġrot":2392,"Ġmark":2393,"ages":2394,"Ġplayed":2395,"pre":2396,"Ġcu":2397,"Ġcard":2398,"ering":2399,"Ġhole":2400,"Ġemb":2401,"Ġdouble":2402,"Ġfamily":2403,"ror":2404,"Ġsil":2405,"Ġshame":2406,"Ġcrack":2407,"Ġport":2408,"Ġcapt":2409,"Ġfellow":2410,"Ġlearned":2411,"Ġtaking":2412,"Ġtot":2413,"asty":2414,"Ġcirc":2415,"ration":2416,"Ġsnow":2417,"Ġslip":2418,"Ġshape":2419,"Ġperhaps":2420,"pers":2421,"Ġtalk":2422,"Ġwrote":2423,"iffe":2424,"Ġblame":2425,"Ġarr":2426,"Ġfra":2427,"illy":2428,"Ġens":2429,"Ġbirds":2430,"Ġclothes":2431,"Ġthick":2432,"Ġmix":2433,"Ġconst":2434,"Ġbone":2435,"Ġlose":2436,"Ġweight":2437,"Ġresp":2438,"uction":2439,"oned":2440,"Ġhate":2441,"Ġarri":2442,"pes":2443,"Ġfan":2444,"eng":2445,"urd":2446,"ope":2447,"Ġsoft":2448,"aling":2449,"Ġkno":2450,"undred":2451,"Ġcrime":2452,"bod":2453,"mber":2454,"Ġfro":2455,"Ġarent":2456,"aged":2457,"Ġafraid":2458,"Ġdet":2459,"icious":2460,"Ġflowers":2461,"rel":2462,"dge":2463,"Ġborn":2464,"Ġstore":2465,"Ġtrick":2466,"Ġprop":2467,"Ġcaused":2468,"Ġcommon":2469,"Ġfavor":2470,"Ġju":2471,"weve":2472,"Ġteeth":2473,"put":2474,"Ġtong":2475,"Ġbold":2476,"Ġenjoy":2477,"Ġprefer":2478,"Ġelect":2479,"Ġsometimes":2480,"Ġast":2481,"anged":2482,"ires":2483,"Ġhus":2484,"Ġdest":2485,"Ġtool":2486,"ashed":2487,"Ġdied":2488,"oes":2489,"ware":2490,"Ġdanc":2491,"Ġstuck":2492,"ama":2493,"Ġtech":2494,"iet":2495,"round":2496,"Ġtax":2497,"Ġhat":2498,"Ġinf":2499,"gether":2500,"Ġsouth":2501,"set":2502,"Ġsort":2503,"Ġwit":2504,"acious":2505,"etic":2506,"sy":2507,"Ġcute":2508,"isten":2509,"Ġdelight":2510,"Ġabove":2511,"Ġproud":2512,"awn":2513,"cles":2514,"Ġconfess":2515,"called":2516,"ining":2517,"Ġir":2518,"Ġdar":2519,"Ġanother":2520,"ashion":2521,"Ġreplied":2522,"sed":2523,"Ġthre":2524,"Ġwee":2525,"rate":2526,"Ġbrit":2527,"Ġbrother":2528,"Ġcolor":2529,"ez":2530,"oe":2531,"Ġmain":2532,"Ġfig":2533,"Ġappro":2534,"Ġdisease":2535,"Ġsav":2536,"Ġsque":2537,"ayed":2538,"sel":2539,"Ġameric":2540,"Ġjoy":2541,"Ġsharp":2542,"Ġbite":2543,"Ġlangu":2544,"Ġinter":2545,"ney":2546,"Ġlooking":2547,"Ġphys":2548,"Ġpure":2549,"Ġweek":2550,"Ġstudy":2551,"Ġenglish":2552,"gar":2553,"making":2554,"things":2555,"aded":2556,"about":2557,"ples":2558,"fection":2559,"Ġtouch":2560,"Ġpink":2561,"action":2562,"Ġcream":2563,"Ġmorn":2564,"Ġgard":2565,"Ġinc":2566,"Ġshout":2567,"Ġclub":2568,"Ġseek":2569,"Ġalas":2570,"tention":2571,"oon":2572,"Ġhundred":2573,"oses":2574,"Ġtea":2575,"Ġboard":2576,"Ġlots":2577,"Ġdrunk":2578,"Ġrules":2579,"although":2580,"Ġep":2581,"mal":2582,"Ġaud":2583,"Ġwest":2584,"Ġseemed":2585,"Ġwriting":2586,"Ġqueen":2587,"Ġpark":2588,"ident":2589,"Ġlimericks":2590,"Ġgroup":2591,"Ġthus":2592,"Ġcent":2593,"Ġmas":2594,"Ġmouth":2595,"Ġharm":2596,"Ġdumb":2597,"Ġrose":2598,"ches":2599,"Ġcharm":2600,"Ġbuff":2601,"Ġmaybe":2602,"mit":2603,"Ġide":2604,"Ġimm":2605,"Ġbutter":2606,"Ġwoman":2607,"Ġmat":2608,"Ġnumber":2609,"Ġlies":2610,"Ġbod":2611,"Ġpract":2612,"Ġcheer":2613,"dr":2614,"Ġtail":2615,"ively":2616,"Ġhusb":2617,"ole":2618,"Ġdro":2619,"Ġsuit":2620,"Ġmount":2621,"omy":2622,"Ġbetween":2623,"comes":2624,"Ġchoice":2625,"Ġcos":2626,"onic":2627,"kets":2628,"Ġvi":2629,"Ġparts":2630,"Ġnames":2631,"iling":2632,"Ġkept":2633,"Ġprep":2634,"Ġsuccess":2635,"Ġbay":2636,"Ġmilk":2637,"Ġhelps":2638,"ners":2639,"Ġdang":2640,"Ġsugg":2641,"Ġcamp":2642,"ened":2643,"Ġconc":2644,"Ġexper":2645,"Ġgrace":2646,"bre":2647,"cant":2648,"kin":2649,"ots":2650,"into":2651,"Ġsigh":2652,"Ġfilled":2653,"Ġstock":2654,"fort":2655,"Ġgoal":2656,"Ġtrip":2657,"ws":2658,"Ġhang":2659,"Ġfut":2660,"Ġdent":2661,"Ġpaid":2662,"irty":2663,"Ġrace":2664,"verse":2665,"Ġscre":2666,"ship":2667,"Ġwomen":2668,"Ġanswer":2669,"oots":2670,"yn":2671,"Ġunderst":2672,"Ġquickly":2673,"Ġdaughter":2674,"Ġdut":2675,"ases":2676,"Ġbeach":2677,"Ġgrass":2678,"Ġjohn":2679,"whos":2680,"Ġforget":2681,"Ġbeautiful":2682,"give":2683,"time":2684,"watch":2685,"Ġaunt":2686,"Ġlater":2687,"itys":2688,"Ġbecause":2689,"Ġsoul":2690,"val":2691,"Ġmere":2692,"Ġjoke":2693,"Ġglad":2694,"line":2695,"mes":2696,"Ġmach":2697,"ata":2698,"Ġpig":2699,"Ġgrows":2700,"udd":2701,"eze":2702,"miss":2703,"Ġmem":2704,"Ġprec":2705,"Ġphr":2706,"Ġadmit":2707,"Ġgreek":2708,"ike":2709,"ta":2710,"Ġsym":2711,"Ġpath":2712,"theyll":2713,"Ġelse":2714,"ior":2715,"Ġhealth":2716,"Ġplate":2717,"aph":2718,"Ġflu":2719,"Ġgrown":2720,"being":2721,"bling":2722,"Ġcells":2723,"fish":2724,"Ġposs":2725,"Ġbore":2726,"Ġdue":2727,"Ġpair":2728,"Ġmel":2729,"Ġouts":2730,"Ġtheyd":2731,"Ġswell":2732,"Ġbeauty":2733,"Ġhall":2734,"Ġtv":2735,"Ġled":2736,"Ġrub":2737,"uring":2738,"Ġtheyve":2739,"apt":2740,"Ġadvice":2741,"Ġabsurd":2742,"Ġhuge":2743,"find":2744,"Ġfirm":2745,"erve":2746,"Ġstro":2747,"Ġexpect":2748,"Ġcontrol":2749,"Ġheaven":2750,"Ġu":2751,"reme":2752,"Ġdu":2753,"ley":2754,"ading":2755,"iddle":2756,"Ġbott":2757,"ising":2758,"Ġlist":2759,"Ġgar":2760,"Ġjudge":2761,"Ġbob":2762,"Ġcrowd":2763,"Ġdough":2764,"Ġtogether":2765,"raw":2766,"Ġtype":2767,"Ġtrouble":2768,"Ġsearch":2769,"Ġperfect":2770,"Ġyellow":2771,"Ġbusiness":2772,"Ġeffect":2773,"Ġpubl":2774,"only":2775,"Ġbrings":2776,"ords":2777,"Ġsource":2778,"Ġate":2779,"Ġdiffe":2780,"Ġoil":2781,"met":2782,"uous":2783,"Ġpants":2784,"Ġorder":2785,"Ġcheap":2786,"Ġpeace":2787,"Ġemploy":2788,"Ġcounter":2789,"Ġtechn":2790,"ai":2791,"cons":2792,"Ġmill":2793,"itions":2794,"Ġmeasure":2795,"Ġchest":2796,"Ġscrew":2797,"Ġspeech":2798,"Ġsurv":2799,"Ġdivine":2800,"rac":2801,"Ġcred":2802,"ooth":2803,"Ġride":2804,"Ġserve":2805,"Ġgods":2806,"ores":2807,"yond":2808,"think":2809,"Ġought":2810,"Ġbutt":2811,"comp":2812,"Ġexpress":2813,"ring":2814,"Ġcam":2815,"Ġears":2816,"riend":2817,"Ġheld":2818,"ops":2819,"Ġsafe":2820,"Ġpor":2821,"Ġfort":2822,"Ġneck":2823,"Ġappears":2824,"Ġesc":2825,"Ġhappy":2826,"Ġstory":2827,"Ġenc":2828,"Ġfrank":2829,"ances":2830,"rs":2831,"rup":2832,"Ġdom":2833,"Ġconce":2834,"ailed":2835,"Ġplanned":2836,"Ġcharge":2837,"Ġfal":2838,"Ġloss":2839,"Ġcrown":2840,"Ġlifes":2841,"Ġcurse":2842,"Ġlanguage":2843,"hey":2844,"Ġcock":2845,"oul":2846,"Ġwre":2847,"Ġwise":2848,"Ġfather":2849,"Ġnut":2850,"Ġdefe":2851,"Ġusing":2852,"Ġready":2853,"Ġknees":2854,"Ġbelow":2855,"dom":2856,"gan":2857,"ming":2858,"Ġtit":2859,"Ġliqu":2860,"ager":2861,"Ġscore":2862,"Ġspell":2863,"Ġtor":2864,"Ġweak":2865,"quite":2866,"Ġprev":2867,"Ġchildren":2868,"found":2869,"gle":2870,"Ġcree":2871,"Ġgent":2872,"ctors":2873,"Ġsave":2874,"Ġbath":2875,"ises":2876,"Ġpin":2877,"Ġlegs":2878,"Ġboys":2879,"Ġdisco":2880,"cket":2881,"Ġbon":2882,"Ġgiven":2883,"Ġstress":2884,"Ġanim":2885,"Ġroad":2886,"Ġacid":2887,"Ġswim":2888,"Ġmans":2889,"Ġskill":2890,"Ġplane":2891,"Ġspring":2892,"Ġhurt":2893,"Ġbreeze":2894,"mat":2895,"twas":2896,"Ġba":2897,"arian":2898,"Ġrepe":2899,"Ġrum":2900,"oops":2901,"vern":2902,"Ġconcer":2903,"fered":2904,"before":2905,"Ġpurs":2906,"Ġmatch":2907,"Ġscene":2908,"Ġalong":2909,"helps":2910,"ey":2911,"Ġmention":2912,"Ġpun":2913,"Ġself":2914,"Ġvol":2915,"Ġeggs":2916,"bit":2917,"having":2918,"Ġax":2919,"Ġaction":2920,"Ġfab":2921,"Ġton":2922,"Ġfeed":2923,"ee":2924,"Ġsen":2925,"Ġhung":2926,"ander":2927,"Ġwouldnt":2928,"Ġdecided":2929,"bi":2930,"hold":2931,"Ġtable":2932,"eral":2933,"Ġgall":2934,"Ġchair":2935,"ults":2936,"Ġworst":2937,"Ġbub":2938,"ushed":2939,"Ġdust":2940,"isted":2941,"ctions":2942,"Ġneeded":2943,"rence":2944,"bon":2945,"vy":2946,"Ġdan":2947,"Ġpost":2948,"Ġrad":2949,"Ġvict":2950,"Ġtrust":2951,"Ġokay":2952,"cont":2953,"Ġthinks":2954,"Ġwet":2955,"ender":2956,"Ġrough":2957,"too":2958,"antly":2959,"ived":2960,"Ġpaint":2961,"Ġpride":2962,"Ġwon":2963,"Ġmid":2964,"itive":2965,"Ġrude":2966,"urned":2967,"Ġjack":2968,"Ġcloud":2969,"ached":2970,"Ġcover":2971,"Ġuns":2972,"Ġkeeps":2973,"cret":2974,"xic":2975,"Ġseven":2976,"Ġmod":2977,"Ġgarden":2978,"Ġwanted":2979,"Ġflight":2980,"Ġtaken":2981,"Ġduck":2982,"orous":2983,"Ġshoot":2984,"inc":2985,"Ġmeth":2986,"Ġdiss":2987,"Ġapart":2988,"ounce":2989,"Ġnorth":2990,"Ġbones":2991,"Ġhom":2992,"osh":2993,"tery":2994,"sem":2995,"Ġhist":2996,"Ġquar":2997,"Ġloc":2998,"Ġunf":2999,"Ġparty":3000,"Ġinde":3001,"ino":3002,"Ġbes":3003,"Ġham":3004,"Ġhav":3005,"Ġlunch":3006,"Ġtoes":3007,"Ġbecame":3008,"Ġdece":3009,"Ġturns":3010,"oot":3011,"whe":3012,"Ġthird":3013,"oring":3014,"Ġstars":3015,"Ġteam":3016,"Ġsheep":3017,"Ġbrand":3018,"Ġfrown":3019,"Ġimpress":3020,"cul":3021,"Ġmum":3022,"Ġrate":3023,"Ġseat":3024,"Ġliving":3025,"Ġx":3026,"eness":3027,"Ġkick":3028,"Ġable":3029,"ption":3030,"Ġsuper":3031,"work":3032,"Ġconne":3033,"place":3034,"por":3035,"Ġbiz":3036,"Ġhip":3037,"Ġtum":3038,"Ġgle":3039,"Ġnumb":3040,"Ġincl":3041,"ities":3042,"Ġwithin":3043,"Ġboot":3044,"Ġphrase":3045,"mar":3046,"Ġpitch":3047,"Ġnet":3048,"Ġincre":3049,"Ġthinking":3050,"Ġplaying":3051,"Ġpiece":3052,"ode":3053,"vation":3054,"Ġhorn":3055,"Ġdare":3056,"Ġpow":3057,"Ġmoon":3058,"gged":3059,"Ġdreams":3060,"ually":3061,"Ġbomb":3062,"Ġfif":3063,"antic":3064,"Ġconcl":3065,"Ġtext":3066,"Ġtrying":3067,"Ġeating":3068,"Ġtongue":3069,"Ġsam":3070,"rap":3071,"Ġbuck":3072,"Ġdemand":3073,"Ġhook":3074,"orge":3075,"Ġupon":3076,"ixt":3077,"wood":3078,"Ġbeyond":3079,"Ġstor":3080,"iding":3081,"Ġdeter":3082,"Ġtrack":3083,"Ġbond":3084,"Ġcoming":3085,"Ġarg":3086,"agn":3087,"Ġscream":3088,"Ġbuilt":3089,"Ġpee":3090,"izz":3091,"bal":3092,"hy":3093,"tened":3094,"Ġbun":3095,"Ġhors":3096,"Ġrenown":3097,"Ġsport":3098,"Ġserved":3099,"Ġdinner":3100,"uri":3101,"Ġsend":3102,"enter":3103,"room":3104,"aker":3105,"ugs":3106,"Ġattract":3107,"Ġproduc":3108,"Ġsurprise":3109,"iant":3110,"Ġwings":3111,"Ġmaster":3112,"Ġwhis":3113,"Ġmeal":3114,"Ġastr":3115,"Ġrob":3116,"Ġshoes":3117,"Ġcondition":3118,"Ġhusband":3119,"bly":3120,"Ġsau":3121,"Ġcad":3122,"Ġbeast":3123,"geon":3124,"ipped":3125,"Ġletter":3126,"Ġrhym":3127,"Ġreturn":3128,"bar":3129,"Ġpaper":3130,"Ġstage":3131,"ledge":3132,"Ġquestion":3133,"Ġmot":3134,"atin":3135,"Ġpare":3136,"Ġweather":3137,"Ġtwenty":3138,"Ġcrap":3139,"gic":3140,"hor":3141,"iest":3142,"onna":3143,"Ġhaving":3144,"Ġpi":3145,"Ġpill":3146,"Ġpred":3147,"Ġrise":3148,"Ġquit":3149,"Ġsche":3150,"Ġsys":3151,"Ġtar":3152,"Ġeast":3153,"Ġdogs":3154,"Ġsorry":3155,"par":3156,"Ġdull":3157,"Ġrece":3158,"ession":3159,"Ġarms":3160,"mean":3161,"Ġcompu":3162,"ucks":3163,"Ġfunny":3164,"Ġmaj":3165,"inct":3166,"Ġbang":3167,"Ġmood":3168,"Ġec":3169,"olate":3170,"Ġplot":3171,"Ġvac":3172,"new":3173,"near":3174,"Ġclever":3175,"Ġbrief":3176,"ization":3177,"Ġcontin":3178,"Ġbattle":3179,"Ġmistake":3180,"Ġze":3181,"Ġvers":3182,"Ġmur":3183,"Ġdoing":3184,"athers":3185,"Ġfacts":3186,"mans":3187,"pass":3188,"Ġauth":3189,"outs":3190,"Ġcult":3191,"Ġange":3192,"ified":3193,"Ġloose":3194,"Ġcrew":3195,"Ġpraise":3196,"Ġest":3197,"rect":3198,"Ġhours":3199,"Ġtaught":3200,"Ġtos":3201,"Ġends":3202,"Ġheads":3203,"Ġcountry":3204,"Ġachie":3205,"Ġsuggest":3206,"offe":3207,"aly":3208,"Ġmyself":3209,"urred":3210,"Ġash":3211,"Ġblo":3212,"agr":3213,"Ġletters":3214,"Ġpassed":3215,"Ġfolk":3216,"Ġsimple":3217,"Ġlacking":3218,"nor":3219,"Ġcake":3220,"Ġbark":3221,"Ġdwell":3222,"anks":3223,"Ġgain":3224,"vere":3225,"rab":3226,"Ġgrin":3227,"plus":3228,"never":3229,"Ġprocess":3230,"Ġremain":3231,"Ġsupport":3232,"wont":3233,"Ġcure":3234,"Ġnat":3235,"Ġrat":3236,"Ġvan":3237,"soon":3238,"Ġroll":3239,"Ġchew":3240,"Ġbroad":3241,"Ġimpro":3242,"Ġsplit":3243,"Ġahead":3244,"Ġfashion":3245,"Ġdrain":3246,"Ġstat":3247,"Ġstink":3248,"Ġregre":3249,"Ġjud":3250,"Ġsuc":3251,"Ġgrew":3252,"Ġviews":3253,"Ġfollow":3254,"Ġacqu":3255,"Ġthrow":3256,"Ġphone":3257,"bers":3258,"pir":3259,"rys":3260,"cus":3261,"cop":3262,"good":3263,"lic":3264,"ante":3265,"arted":3266,"Ġgh":3267,"ality":3268,"Ġspent":3269,"Ġriver":3270,"Ġbrains":3271,"Ġproblem":3272,"Ġfavorite":3273,"ev":3274,"Ġfed":3275,"Ġinst":3276,"Ġhey":3277,"Ġshown":3278,"Ġcher":3279,"Ġchop":3280,"Ġplans":3281,"Ġspan":3282,"Ġsmoke":3283,"Ġrole":3284,"Ġkeen":3285,"Ġphot":3286,"Ġthanks":3287,"Ġserv":3288,"Ġhuman":3289,"Ġfingers":3290,"Ġindeed":3291,"Ġbul":3292,"Ġdressed":3293,"Ġpack":3294,"Ġling":3295,"Ġlovely":3296,"Ġdriving":3297,"Ġbooze":3298,"welve":3299,"body":3300,"iers":3301,"rit":3302,"Ġbush":3303,"Ġtale":3304,"Ġbeware":3305,"Ġrelie":3306,"ety":3307,"olf":3308,"abl":3309,"appe":3310,"Ġtwice":3311,"Ġstarts":3312,"Ġbegan":3313,"Ġfred":3314,"Ġlass":3315,"roph":3316,"Ġterrible":3317,"gin":3318,"mic":3319,"Ġhost":3320,"Ġreme":3321,"ching":3322,"lite":3323,"Ġpros":3324,"Ġafric":3325,"Ġbehav":3326,"Ġthrill":3327,"di":3328,"ended":3329,"Ġfans":3330,"esh":3331,"ache":3332,"Ġbeef":3333,"Ġforgot":3334,"Ġdisgr":3335,"Ġpoet":3336,"Ġsweat":3337,"Ġpriest":3338,"Ġvisit":3339,"oll":3340,"Ġwaste":3341,"Ġvir":3342,"Ġconve":3343,"Ġloves":3344,"Ġdrag":3345,"cient":3346,"Ġthous":3347,"reed":3348,"Ġhun":3349,"Ġnine":3350,"Ġinfl":3351,"Ġstrain":3352,"Ġchap":3353,"Ġwash":3354,"Ġlikes":3355,"Ġswear":3356,"Ġknife":3357,"known":3358,"cho":3359,"alled":3360,"Ġtrade":3361,"eling":3362,"Ġcalls":3363,"Ġfrance":3364,"tens":3365,"Ġresult":3366,"Ġphil":3367,"Ġmorning":3368,"face":3369,"Ġale":3370,"Ġmaid":3371,"osp":3372,"Ġwhom":3373,"ury":3374,"atever":3375,"pected":3376,"Ġclue":3377,"ension":3378,"Ġlaws":3379,"swe":3380,"Ġtour":3381,"rite":3382,"apped":3383,"Ġgovern":3384,"Ġdiet":3385,"Ġsuppose":3386,"Ġdeclared":3387,"offee":3388,"riage":3389,"Ġchat":3390,"aten":3391,"Ġconstr":3392,"Ġflash":3393,"Ġmarried":3394,"Ġalive":3395,"Ġdrugs":3396,"uits":3397,"rie":3398,"Ġtears":3399,"Ġappl":3400,"Ġsmo":3401,"utes":3402,"Ġreport":3403,"Ġamerican":3404,"hand":3405,"ox":3406,"Ġsought":3407,"Ġdum":3408,"Ġdip":3409,"Ġint":3410,"def":3411,"Ġcertainly":3412,"aud":3413,"iqu":3414,"Ġaer":3415,"Ġcav":3416,"Ġseed":3417,"Ġplays":3418,"Ġleaf":3419,"Ġcru":3420,"Ġshowed":3421,"Ġdefine":3422,"Ġunderstand":3423,"col":3424,"ius":3425,"little":3426,"Ġwants":3427,"Ġbent":3428,"Ġhoney":3429,"Ġgut":3430,"Ġgift":3431,"Ġinte":3432,"theyve":3433,"Ġrocks":3434,"Ġprize":3435,"Ġfaith":3436,"Ġchicken":3437,"wise":3438,"Ġsed":3439,"Ġcust":3440,"Ġcars":3441,"Ġmud":3442,"asing":3443,"ales":3444,"Ġchoc":3445,"uls":3446,"Ġven":3447,"shed":3448,"Ġappeal":3449,"Ġstrife":3450,"ha":3451,"Ġcott":3452,"rage":3453,"lig":3454,"Ġspin":3455,"Ġknowledge":3456,"jects":3457,"Ġhill":3458,"Ġiron":3459,"Ġtick":3460,"youd":3461,"Ġwearing":3462,"Ġguard":3463,"Ġembr":3464,"Ġcreatures":3465,"Ġthoughts":3466,"Ġlawy":3467,"bol":3468,"Ġthank":3469,"Ġtu":3470,"irk":3471,"Ġchief":3472,"Ġwritten":3473,"coming":3474,"Ġconsum":3475,"Ġrecall":3476,"Ġsquare":3477,"Ġobject":3478,"Ġpublic":3479,"ros":3480,"three":3481,"Ġslight":3482,"Ġstates":3483,"Ġscar":3484,"Ġpassion":3485,"Ġhearts":3486,"Ġconsider":3487,"azz":3488,"Ġcollege":3489,"ec":3490,"Ġbust":3491,"Ġmut":3492,"Ġhue":3493,"Ġfet":3494,"Ġfond":3495,"Ġpup":3496,"Ġpush":3497,"Ġstood":3498,"Ġuntil":3499,"Ġapple":3500,"Ġbride":3501,"Ġworked":3502,"Ġmissed":3503,"bor":3504,"free":3505,"iter":3506,"Ġcli":3507,"Ġhour":3508,"Ġpsy":3509,"acing":3510,"them":3511,"Ġheed":3512,"Ġru":3513,"Ġwealth":3514,"Ġjerk":3515,"Ġchose":3516,"Ġblues":3517,"Ġcoat":3518,"Ġbrew":3519,"Ġresist":3520,"board":3521,"Ġcalm":3522,"Ġignore":3523,"gree":3524,"Ġess":3525,"omed":3526,"Ġchin":3527,"olved":3528,"Ġclown":3529,"Ġpoison":3530,"Ġcarry":3531,"Ġflies":3532,"Ġinstr":3533,"Ġbee":3534,"Ġseas":3535,"Ġsubl":3536,"Ġtooth":3537,"Ġswall":3538,"dden":3539,"Ġposition":3540,"Ġteacher":3541,"Ġfuture":3542,"kind":3543,"Ġthro":3544,"Ġmale":3545,"Ġtip":3546,"Ġtub":3547,"Ġphelps":3548,"itis":3549,"Ġrou":3550,"ette":3551,"Ġbrass":3552,"Ġbucks":3553,"order":3554,"Ġterms":3555,"Ġaccount":3556,"Ġsoup":3557,"Ġedge":3558,"Ġgenus":3559,"Ġdifferent":3560,"gers":3561,"ka":3562,"Ġsister":3563,"ret":3564,"Ġbene":3565,"itz":3566,"itic":3567,"gets":3568,"Ġattention":3569,"Ġspoke":3570,"Ġflee":3571,"Ġscreen":3572,"Ġmethod":3573,"fr":3574,"Ġau":3575,"nder":3576,"erv":3577,"Ġnuts":3578,"imp":3579,"Ġdebt":3580,"Ġmic":3581,"Ġmort":3582,"Ġeur":3583,"rid":3584,"eless":3585,"Ġcode":3586,"Ġuncle":3587,"Ġbug":3588,"Ġwonderful":3589,"Ġmath":3590,"asy":3591,"Ġoce":3592,"Ġago":3593,"maybe":3594,"velop":3595,"claimed":3596,"Ġhavent":3597,"Ġsucceed":3598,"Ġcoffee":3599,"Ġrout":3600,"Ġshut":3601,"Ġlips":3602,"Ġvar":3603,"Ġjoe":3604,"Ġstep":3605,"Ġcommand":3606,"Ġobsc":3607,"Ġregret":3608,"iver":3609,"Ġmac":3610,"Ġrear":3611,"Ġjail":3612,"Ġox":3613,"Ġdoll":3614,"Ġclock":3615,"Ġcrash":3616,"Ġlover":3617,"Ġloved":3618,"Ġfrust":3619,"ear":3620,"must":3621,"nts":3622,"ste":3623,"Ġlands":3624,"left":3625,"Ġjump":3626,"ulous":3627,"Ġacts":3628,"something":3629,"lots":3630,"aur":3631,"fol":3632,"pet":3633,"xed":3634,"thy":3635,"Ġcous":3636,"Ġcart":3637,"Ġlink":3638,"Ġbeans":3639,"Ġstands":3640,"ament":3641,"Ġyours":3642,"Ġcompe":3643,"Ġyield":3644,"Ġbugs":3645,"Ġinsane":3646,"Ġcraw":3647,"Ġgrowing":3648,"Ġvote":3649,"Ġtask":3650,"Ġwalls":3651,"bro":3652,"win":3653,"Ġaid":3654,"Ġbend":3655,"Ġfoul":3656,"Ġtim":3657,"Ġlou":3658,"Ġinse":3659,"itt":3660,"asting":3661,"Ġscience":3662,"Ġremark":3663,"Ġoutside":3664,"eg":3665,"Ġcats":3666,"Ġtwelve":3667,"orse":3668,"Ġcovered":3669,"Ġproper":3670,"Ġrunning":3671,"Ġflower":3672,"Ġgrab":3673,"idden":3674,"Ġlabel":3675,"Ġgalore":3676,"sure":3677,"Ġsore":3678,"Ġspend":3679,"Ġgray":3680,"Ġpoints":3681,"Ġfright":3682,"Ġballs":3683,"Ġadvance":3684,"Ġsadly":3685,"Ġfrequ":3686,"Ġsummer":3687,"hal":3688,"lands":3689,"sc":3690,"arre":3691,"Ġnon":3692,"itting":3693,"Ġplaces":3694,"Ġspir":3695,"Ġalarm":3696,"Ġpron":3697,"anging":3698,"Ġworking":3699,"Ġstrip":3700,"Ġsales":3701,"Ġfault":3702,"Ġcredit":3703,"asures":3704,"Ġgay":3705,"oser":3706,"Ġstir":3707,"Ġrab":3708,"Ġsees":3709,"Ġalb":3710,"Ġskills":3711,"Ġhorses":3712,"vin":3713,"wr":3714,"Ġaqu":3715,"ination":3716,"Ġpict":3717,"Ġyourself":3718,"Ġdismay":3719,"Ġhimself":3720,"Ġpleasure":3721,"anced":3722,"Ġbroken":3723,"ounced":3724,"Ġdrinking":3725,"long":3726,"Ġcub":3727,"Ġfancy":3728,"inging":3729,"Ġlaid":3730,"Ġstream":3731,"Ġanno":3732,"Ġlived":3733,"Ġbloom":3734,"Ġsmooth":3735,"ogen":3736,"bye":3737,"tempt":3738,"Ġrelax":3739,"Ġproblems":3740,"Ġbottom":3741,"whether":3742,"born":3743,"Ġbol":3744,"asion":3745,"asant":3746,"Ġyouth":3747,"Ġrome":3748,"Ġrange":3749,"Ġiss":3750,"cher":3751,"dered":3752,"Ġfeels":3753,"comm":3754,"Ġhardly":3755,"Ġbegun":3756,"Ġbrave":3757,"Ġcomplex":3758,"Ġyelled":3759,"Ġfilm":3760,"Ġrisk":3761,"filled":3762,"hood":3763,"uv":3764,"inted":3765,"Ġbits":3766,"Ġbind":3767,"erved":3768,"aste":3769,"Ġleng":3770,"icate":3771,"Ġdete":3772,"ague":3773,"Ġadore":3774,"Ġchef":3775,"Ġbreed":3776,"Ġstew":3777,"Ġruns":3778,"Ġladies":3779,"Ġgrief":3780,"Ġsublime":3781,"ross":3782,"zed":3783,"Ġsite":3784,"Ġtun":3785,"Ġlake":3786,"Ġstare":3787,"allen":3788,"Ġaccept":3789,"Ġconfused":3790,"Ġchristmas":3791,"Ġdawn":3792,"anch":3793,"Ġpa":3794,"Ġsue":3795,"Ġdrown":3796,"Ġaware":3797,"Ġcareer":3798,"Ġescape":3799,"Ġsystem":3800,"iri":3801,"Ġtil":3802,"Ġped":3803,"Ġlust":3804,"Ġchain":3805,"abs":3806,"ival":3807,"Ġearn":3808,"Ġpresent":3809,"Ġfailed":3810,"Ġbizarre":3811,"sl":3812,"Ġbills":3813,"Ġbored":3814,"asp":3815,"Ġnature":3816,"ldom":3817,"Ġancient":3818,"umin":3819,"olute":3820,"ags":3821,"Ġamaz":3822,"ffic":3823,"Ġmov":3824,"Ġshouldnt":3825,"ugg":3826,"Ġcontr":3827,"Ġmetal":3828,"cos":3829,"fly":3830,"zen":3831,"Ġmiddle":3832,"Ġpage":3833,"andy":3834,"ili":3835,"Ġkilled":3836,"Ġspouse":3837,"formed":3838,"Ġdesigned":3839,"Ġcreation":3840,"Ġdevice":3841,"Ġspecies":3842,"far":3843,"ray":3844,"spe":3845,"turn":3846,"want":3847,"ician":3848,"itor":3849,"Ġrank":3850,"Ġchamp":3851,"Ġkin":3852,"Ġspare":3853,"Ġvill":3854,"Ġspeaking":3855,"Ġtonight":3856,"cor":3857,"pted":3858,"pire":3859,"Ġsink":3860,"Ġwore":3861,"Ġbitch":3862,"erves":3863,"Ġdre":3864,"Ġpale":3865,"Ġlit":3866,"Ġnude":3867,"Ġdoctors":3868,"Ġsuck":3869,"Ġcoal":3870,"Ġenter":3871,"Ġperform":3872,"Ġprime":3873,"den":3874,"war":3875,"Ġcough":3876,"Ġbacks":3877,"Ġtro":3878,"ady":3879,"amps":3880,"char":3881,"Ġchill":3882,"Ġcoast":3883,"Ġholl":3884,"ologists":3885,"Ġexcess":3886,"Ġfamous":3887,"Ġremember":3888,"aver":3889,"pa":3890,"sm":3891,"onse":3892,"Ġbeau":3893,"Ġkings":3894,"Ġnotes":3895,"need":3896,"bell":3897,"Ġoffer":3898,"Ġsalt":3899,"Ġextreme":3900,"lete":3901,"Ġblessed":3902,"Ġfee":3903,"Ġfem":3904,"Ġcrude":3905,"Ġgirlf":3906,"Ġerr":3907,"Ġsubst":3908,"Ġsusp":3909,"hib":3910,"lin":3911,"Ġdiff":3912,"Ġpool":3913,"ency":3914,"Ġbelly":3915,"Ġhero":3916,"Ġcalling":3917,"Ġjoin":3918,"Ġmission":3919,"Ġnorm":3920,"Ġagainst":3921,"Ġwinter":3922,"tended":3923,"Ġdropped":3924,"Ġromance":3925,"Ġsuffer":3926,"Ġdespair":3927,"ait":3928,"cing":3929,"certain":3930,"ially":3931,"real":3932,"Ġdot":3933,"acc":3934,"ille":3935,"Ġcann":3936,"Ġrespect":3937,"Ġcattle":3938,"guess":3939,"four":3940,"ero":3941,"icket":3942,"owl":3943,"Ġshaped":3944,"Ġalthough":3945,"boy":3946,"Ġremo":3947,"ibly":3948,"Ġdevil":3949,"Ġdeclare":3950,"Ġapproach":3951,"Ġmachine":3952,"Ġdisgrace":3953,"mr":3954,"pts":3955,"Ġtiss":3956,"Ġintent":3957,"irl":3958,"Ġrage":3959,"Ġforth":3960,"Ġlights":3961,"acking":3962,"Ġyor":3963,"Ġbrush":3964,"Ġworlds":3965,"Ġsubject":3966,"Ġwheel":3967,"Ġchemical":3968,"Ġexample":3969,"Ġdestro":3970,"Ġchocolate":3971,"know":3972,"Ġgiving":3973,"Ġstaff":3974,"ables":3975,"Ġsugar":3976,"Ġhigher":3977,"Ġreply":3978,"Ġeveryone":3979,"Ġdiscuss":3980,"cial":3981,"fast":3982,"throp":3983,"Ġcel":3984,"atory":3985,"Ġnaught":3986,"itude":3987,"Ġstom":3988,"Ġplaced":3989,"Ġcod":3990,"Ġabound":3991,"Ġpoll":3992,"bert":3993,"pie":3994,"reat":3995,"Ġbid":3996,"Ġflip":3997,"Ġrow":3998,"Ġwel":3999,"Ġdegree":4000,"Ġsecret":4001,"Ġworn":4002,"Ġfears":4003,"Ġflood":4004,"Ġsaying":4005,"tense":4006,"Ġmarriage":4007,"inese":4008,"ounts":4009,"Ġrecord":4010,"Ġgrave":4011,"Ġpurch":4012,"Ġtales":4013,"Ġrespond":4014,"Ġfalse":4015,"Ġrhymes":4016,"bel":4017,"hip":4018,"Ġah":4019,"Ġaust":4020,"Ġsides":4021,"Ġcig":4022,"Ġcath":4023,"also":4024,"vert":4025,"Ġseldom":4026,"ulate":4027,"Ġmoved":4028,"Ġjokes":4029,"Ġdistress":4030,"Ġcryst":4031,"Ġbelong":4032,"Ġscratch":4033,"ris":4034,"took":4035,"Ġfuss":4036,"Ġpap":4037,"Ġpiss":4038,"ented":4039,"Ġtoast":4040,"Ġorgan":4041,"akers":4042,"Ġteen":4043,"aved":4044,"Ġsnake":4045,"Ġmajor":4046,"run":4047,"yal":4048,"oured":4049,"Ġbatter":4050,"Ġment":4051,"Ġtiny":4052,"Ġdun":4053,"Ġlisten":4054,"Ġgn":4055,"Ġnoun":4056,"Ġstation":4057,"Ġshore":4058,"Ġclay":4059,"Ġflaw":4060,"Ġproof":4061,"Ġbreast":4062,"Ġfinds":4063,"Ġstopped":4064,"Ġstudents":4065,"Ġprofess":4066,"Ġfreed":4067,"Ġreview":4068,"Ġnumbers":4069,"port":4070,"Ġmir":4071,"Ġmouse":4072,"Ġhits":4073,"Ġdirt":4074,"Ġbees":4075,"Ġrele":4076,"veral":4077,"umps":4078,"ford":4079,"Ġvain":4080,"lessly":4081,"Ġcommit":4082,"Ġreading":4083,"Ġinvest":4084,"Ġstreng":4085,"Ġbou":4086,"Ġmail":4087,"Ġpoo":4088,"Ġgames":4089,"rial":4090,"Ġshy":4091,"ulation":4092,"Ġblond":4093,"Ġscri":4094,"Ġprob":4095,"ensive":4096,"Ġfung":4097,"Ġbuilding":4098,"caused":4099,"Ġauthor":4100,"Ġpsych":4101,"cend":4102,"lers":4103,"inch":4104,"Ġsits":4105,"Ġciv":4106,"Ġtune":4107,"Ġpil":4108,"asted":4109,"Ġwhatever":4110,"rod":4111,"Ġflair":4112,"Ġexce":4113,"udes":4114,"Ġswift":4115,"Ġassist":4116,"Ġwedding":4117,"Ġextra":4118,"Ġfools":4119,"Ġcaptain":4120,"Ġgentle":4121,"days":4122,"rons":4123,"isnt":4124,"aming":4125,"Ġnoise":4126,"Ġamong":4127,"Ġapt":4128,"Ġswitch":4129,"Ġdefined":4130,"Ġaddress":4131,"Ġfloat":4132,"Ġbottle":4133,"god":4134,"mine":4135,"Ġwake":4136,"Ġhab":4137,"ims":4138,"Ġshun":4139,"Ġjour":4140,"Ġvent":4141,"Ġsomewhat":4142,"Ġseeking":4143,"pty":4144,"Ġtravel":4145,"Ġmoment":4146,"Ġbarely":4147,"Ġtotally":4148,"rupt":4149,"Ġparents":4150,"sim":4151,"Ġcave":4152,"asc":4153,"Ġgang":4154,"Ġweird":4155,"Ġseeds":4156,"ological":4157,"Ġstarting":4158,"Ġdamned":4159,"Ġaffair":4160,"Ġdefeat":4161,"cast":4162,"thought":4163,"Ġdys":4164,"Ġbeet":4165,"Ġshri":4166,"tol":4167,"ilar":4168,"Ġplus":4169,"ulf":4170,"Ġspark":4171,"Ġblast":4172,"icked":4173,"avy":4174,"assed":4175,"Ġguide":4176,"Ġagreed":4177,"Ġcreature":4178,"ologist":4179,"Ġfalls":4180,"Ġgrip":4181,"Ġhopes":4182,"Ġneighbor":4183,"Ġsensation":4184,"Ġthreat":4185,"Ġexpert":4186,"Ġmerely":4187,"Ġsi":4188,"Ġhay":4189,"Ġfaster":4190,"Ġtone":4191,"Ġpit":4192,"Ġpep":4193,"Ġplight":4194,"young":4195,"Ġchuck":4196,"Ġrip":4197,"Ġroof":4198,"ugly":4199,"Ġfoe":4200,"Ġcurt":4201,"Ġtells":4202,"Ġdivor":4203,"great":4204,"Ġstret":4205,"Ġfaces":4206,"Ġevent":4207,"Ġexcuse":4208,"Ġknock":4209,"Ġsauce":4210,"da":4211,"ders":4212,"joh":4213,"life":4214,"Ġfav":4215,"Ġnar":4216,"usted":4217,"Ġsticks":4218,"Ġrings":4219,"Ġforms":4220,"Ġjes":4221,"Ġoper":4222,"people":4223,"pects":4224,"Ġsole":4225,"apes":4226,"Ġsudden":4227,"fects":4228,"thern":4229,"Ġmoder":4230,"Ġfold":4231,"Ġsuspect":4232,"ault":4233,"bra":4234,"much":4235,"ses":4236,"inter":4237,"Ġsilk":4238,"Ġhen":4239,"Ġfake":4240,"Ġpound":4241,"Ġgonna":4242,"icy":4243,"uster":4244,"Ġbean":4245,"Ġjer":4246,"Ġchic":4247,"Ġbloke":4248,"Ġtricks":4249,"Ġcrust":4250,"Ġcruel":4251,"Ġyard":4252,"Ġscot":4253,"Ġalmost":4254,"Ġroot":4255,"Ġapply":4256,"Ġfinal":4257,"Ġholds":4258,"Ġproduce":4259,"Ġdebate":4260,"aa":4261,"dou":4262,"mate":4263,"oth":4264,"rical":4265,"Ġutter":4266,"Ġtrop":4267,"anes":4268,"Ġpest":4269,"ask":4270,"Ġnights":4271,"Ġnasty":4272,"Ġrush":4273,"change":4274,"Ġjell":4275,"Ġtruck":4276,"Ġener":4277,"anger":4278,"Ġfox":4279,"uced":4280,"Ġdefin":4281,"Ġknee":4282,"Ġsingle":4283,"Ġclaims":4284,"Ġcops":4285,"ification":4286,"Ġafrican":4287,"Ġthroat":4288,"dri":4289,"rot":4290,"nday":4291,"Ġwra":4292,"Ġholes":4293,"Ġfits":4294,"Ġtact":4295,"Ġdub":4296,"ato":4297,"ify":4298,"umn":4299,"ument":4300,"Ġgoods":4301,"Ġmeanings":4302,"Ġterror":4303,"Ġverb":4304,"Ġgrim":4305,"Ġshoe":4306,"Ġsupply":4307,"Ġprayer":4308,"Ġbuddy":4309,"Ġsyn":4310,"Ġarrived":4311,"Ġservice":4312,"aunt":4313,"bage":4314,"zing":4315,"Ġdash":4316,"Ġstun":4317,"Ġstorm":4318,"iform":4319,"Ġseason":4320,"Ġworm":4321,"Ġfeast":4322,"Ġfeatures":4323,"Ġvine":4324,"Ġpear":4325,"Ġoffice":4326,"type":4327,"Ġsteep":4328,"Ġdecide":4329,"Ġacting":4330,"Ġguessed":4331,"Ġbelief":4332,"Ġdescribe":4333,"Ġprotect":4334,"Ġresponse":4335,"Ġglee":4336,"Ġfrustration":4337,"nes":4338,"Ġom":4339,"Ġcore":4340,"Ġcrop":4341,"Ġdata":4342,"vet":4343,"Ġweed":4344,"Ġdeer":4345,"Ġdevelop":4346,"Ġanap":4347,"Ġlean":4348,"awk":4349,"Ġswing":4350,"Ġuseful":4351,"Ġcorrect":4352,"Ġmuscles":4353,"Ġmedic":4354,"Ġheavy":4355,"Ġraise":4356,"Ġocean":4357,"draw":4358,"ho":4359,"house":4360,"wards":4361,"Ġfills":4362,"Ġpaul":4363,"acy":4364,"hem":4365,"Ġreck":4366,"Ġves":4367,"Ġcoach":4368,"Ġunique":4369,"Ġemer":4370,"Ġstruck":4371,"Ġmarket":4372,"Ġcontract":4373,"ground":4374,"Ġmissing":4375,"Ġstrike":4376,"cross":4377,"Ġspecial":4378,"iveness":4379,"Ġthousand":4380,"fall":4381,"Ġbout":4382,"Ġfant":4383,"Ġfamed":4384,"Ġdol":4385,"lla":4386,"Ġpunch":4387,"ara":4388,"itation":4389,"Ġreact":4390,"umped":4391,"Ġplenty":4392,"Ġtrad":4393,"Ġflesh":4394,"Ġalph":4395,"neath":4396,"Ġproceed":4397,"Ġrod":4398,"Ġrope":4399,"Ġfoes":4400,"Ġearly":4401,"Ġhearing":4402,"Ġburst":4403,"Ġhappen":4404,"Ġreached":4405,"Ġcompletely":4406,"Ġpractice":4407,"bur":4408,"bird":4409,"giving":4410,"Ġsilly":4411,"Ġfi":4412,"ators":4413,"Ġgown":4414,"Ġchanged":4415,"Ġcancer":4416,"Ġvast":4417,"arent":4418,"Ġbuzz":4419,"Ġsurgeon":4420,"jection":4421,"Ġmusical":4422,"check":4423,"Ġcollect":4424,"Ġmessage":4425,"Ġmeeting":4426,"Ġcritics":4427,"Ġclimb":4428,"due":4429,"either":4430,"lest":4431,"vol":4432,"tel":4433,"Ġcows":4434,"Ġwis":4435,"Ġbake":4436,"Ġbass":4437,"Ġpub":4438,"Ġlosing":4439,"chant":4440,"Ġchip":4441,"Ġchallen":4442,"Ġoed":4443,"Ġneg":4444,"Ġsoil":4445,"Ġbliss":4446,"Ġflag":4447,"Ġdrum":4448,"Ġdesire":4449,"Ġdelicious":4450,"between":4451,"Ġtechnique":4452,"Ġgirlfriend":4453,"lor":4454,"vent":4455,"Ġaug":4456,"inate":4457,"reh":4458,"Ġmax":4459,"Ġmaint":4460,"Ġroots":4461,"Ġdegre":4462,"quet":4463,"umes":4464,"Ġbless":4465,"Ġgoat":4466,"Ġarmy":4467,"away":4468,"dear":4469,"Ġslim":4470,"shell":4471,"Ġmarry":4472,"Ġcursed":4473,"Ġcauses":4474,"Ġcharac":4475,"minal":4476,"Ġraised":4477,"Ġtemper":4478,"Ġrelief":4479,"water":4480,"Ġath":4481,"Ġsang":4482,"Ġsale":4483,"Ġtwe":4484,"Ġlatin":4485,"lection":4486,"vels":4487,"Ġsevere":4488,"olic":4489,"Ġherb":4490,"Ġsports":4491,"Ġflor":4492,"Ġexact":4493,"perhaps":4494,"Ġaccord":4495,"Ġhorri":4496,"Ġdrawn":4497,"Ġmixed":4498,"Ġjuice":4499,"Ġfrequently":4500,"uzz":4501,"Ġaz":4502,"tee":4503,"lle":4504,"imate":4505,"Ġshirt":4506,"Ġol":4507,"Ġworry":4508,"Ġtrash":4509,"Ġflows":4510,"Ġwerent":4511,"Ġpole":4512,"aux":4513,"Ġcraft":4514,"Ġbitter":4515,"Ġturning":4516,"Ġrefer":4517,"Ġnearly":4518,"Ġfigure":4519,"Ġhistory":4520,"Ġcomputer":4521,"folks":4522,"bri":4523,"bab":4524,"gave":4525,"Ġing":4526,"Ġfund":4527,"orted":4528,"ari":4529,"Ġgin":4530,"Ġet":4531,"amond":4532,"Ġrac":4533,"Ġinsist":4534,"Ġresults":4535,"Ġkeeping":4536,"Ġanti":4537,"until":4538,"Ġstudent":4539,"poor":4540,"Ġroutine":4541,"nie":4542,"ok":4543,"ras":4544,"Ġmc":4545,"Ġhol":4546,"Ġdine":4547,"ories":4548,"Ġpir":4549,"Ġpace":4550,"Ġpills":4551,"Ġeve":4552,"Ġrash":4553,"Ġsets":4554,"Ġallow":4555,"apan":4556,"Ġtes":4557,"Ġdisg":4558,"Ġmanner":4559,"ission":4560,"Ġgloom":4561,"Ġgoodbye":4562,"rained":4563,"Ġpains":4564,"Ġfinally":4565,"Ġflying":4566,"Ġmedical":4567,"Ġcandid":4568,"rich":4569,"went":4570,"Ġgals":4571,"icle":4572,"Ġoft":4573,"iment":4574,"Ġforced":4575,"urb":4576,"Ġjim":4577,"ential":4578,"Ġattend":4579,"Ġlog":4580,"Ġamph":4581,"Ġtwist":4582,"Ġjoint":4583,"Ġended":4584,"Ġcurrent":4585,"Ġsinging":4586,"Ġcele":4587,"Ġeasily":4588,"Ġshrink":4589,"Ġchemist":4590,"Ġdanger":4591,"aun":4592,"cs":4593,"cious":4594,"cried":4595,"nal":4596,"Ġwoo":4597,"Ġwave":4598,"asked":4599,"Ġnur":4600,"icular":4601,"ado":4602,"osite":4603,"Ġheight":4604,"Ġweap":4605,"Ġweigh":4606,"Ġdope":4607,"Ġvow":4608,"opes":4609,"Ġbron":4610,"Ġprince":4611,"Ġcouple":4612,"love":4613,"playing":4614,"Ġevil":4615,"Ġprovide":4616,"Ġangel":4617,"Ġembrace":4618,"dle":4619,"ik":4620,"iac":4621,"ram":4622,"Ġsons":4623,"Ġwitch":4624,"Ġwaves":4625,"ghten":4626,"hear":4627,"Ġlip":4628,"Ġleaving":4629,"Ġclam":4630,"Ġfled":4631,"Ġpope":4632,"Ġapplied":4633,"Ġbald":4634,"Ġpolit":4635,"Ġsongs":4636,"Ġscheme":4637,"hum":4638,"last":4639,"mp":4640,"Ġwing":4641,"Ġtheory":4642,"Ġmamm":4643,"Ġdick":4644,"isy":4645,"Ġpity":4646,"leep":4647,"Ġbears":4648,"Ġken":4649,"Ġspy":4650,"Ġtear":4651,"Ġgross":4652,"Ġcrook":4653,"Ġyer":4654,"Ġscary":4655,"Ġrights":4656,"Ġsteel":4657,"Ġbarn":4658,"Ġcausing":4659,"getting":4660,"ophob":4661,"Ġpolice":4662,"Ġfixed":4663,"Ġsurvive":4664,"Ġvacation":4665,"Ġstrength":4666,"Ġdegrees":4667,"count":4668,"eks":4669,"lif":4670,"Ġthigh":4671,"Ġms":4672,"Ġfare":4673,"Ġfier":4674,"Ġlame":4675,"Ġoffered":4676,"itter":4677,"Ġrap":4678,"ctic":4679,"ouses":4680,"idered":4681,"Ġskull":4682,"Ġprey":4683,"Ġwax":4684,"Ġknight":4685,"Ġfunction":4686,"Ġserves":4687,"Ġclaimed":4688,"Ġdirect":4689,"desp":4690,"Ġnerves":4691,"Ġensure":4692,"Ġspirit":4693,"Ġlength":4694,"law":4695,"isms":4696,"Ġpatter":4697,"Ġnest":4698,"usive":4699,"Ġresem":4700,"Ġshakes":4701,"Ġdeck":4702,"Ġspain":4703,"Ġhasnt":4704,"Ġlift":4705,"Ġsteam":4706,"Ġbridge":4707,"Ġtreasure":4708,"Ġgrowth":4709,"mother":4710,"Ġflew":4711,"Ġdaily":4712,"Ġbleed":4713,"Ġboring":4714,"Ġneighbors":4715,"Ġcuis":4716,"Ġcotton":4717,"ients":4718,"wind":4719,"Ġaver":4720,"Ġtank":4721,"Ġtied":4722,"Ġdude":4723,"Ġpier":4724,"lear":4725,"Ġeager":4726,"ribut":4727,"Ġwif":4728,"Ġisland":4729,"Ġdoom":4730,"Ġimag":4731,"Ġflavor":4732,"Ġquiet":4733,"Ġrid":4734,"Ġcheek":4735,"Ġtrend":4736,"Ġplanning":4737,"Ġgeorge":4738,"Ġexplained":4739,"Ġblooms":4740,"oli":4741,"rous":4742,"sis":4743,"Ġske":4744,"Ġmart":4745,"Ġruss":4746,"Ġopt":4747,"sets":4748,"ula":4749,"Ġbog":4750,"Ġload":4751,"Ġmoves":4752,"Ġslick":4753,"affe":4754,"Ġmostly":4755,"zzzz":4756,"Ġbasket":4757,"Ġtalking":4758,"Ġmagn":4759,"looking":4760,"Ġsymbol":4761,"Ġpowers":4762,"Ġgovernment":4763,"Ġstomach":4764,"john":4765,"aire":4766,"jun":4767,"mom":4768,"tin":4769,"Ġbast":4770,"Ġdame":4771,"Ġstiff":4772,"Ġrent":4773,"illa":4774,"apping":4775,"Ġtroops":4776,"agle":4777,"angle":4778,"Ġoffic":4779,"black":4780,"phal":4781,"gging":4782,"Ġcommun":4783,"azy":4784,"Ġindian":4785,"Ġmonths":4786,"Ġchris":4787,"Ġrarely":4788,"Ġdisplayed":4789,"ography":4790,"Ġnatural":4791,"night":4792,"wing":4793,"Ġsly":4794,"Ġcenter":4795,"Ġhi":4796,"Ġdess":4797,"enes":4798,"Ġships":4799,"Ġjac":4800,"Ġjunk":4801,"Ġchina":4802,"Ġobt":4803,"Ġkitch":4804,"pel":4805,"olar":4806,"Ġboom":4807,"Ġalt":4808,"Ġbru":4809,"Ġunc":4810,"Ġgrey":4811,"Ġpond":4812,"Ġglow":4813,"Ġdesert":4814,"Ġdiamond":4815,"Ġdepart":4816,"Ġburned":4817,"Ġsolution":4818,"Ġshrub":4819,"better":4820,"Ġdiscovered":4821,"Ġconvey":4822,"Ġcustom":4823,"big":4824,"bby":4825,"friend":4826,"high":4827,"Ġut":4828,"Ġace":4829,"inn":4830,"Ġsis":4831,"Ġcit":4832,"Ġbump":4833,"Ġfir":4834,"arante":4835,"Ġnic":4836,"Ġnons":4837,"Ġeats":4838,"eting":4839,"Ġshade":4840,"Ġchor":4841,"iferous":4842,"Ġfever":4843,"Ġdisgu":4844,"theyd":4845,"neys":4846,"Ġprove":4847,"ression":4848,"Ġglance":4849,"Ġcreate":4850,"Ġimpressed":4851,"Ġremains":4852,"Ġcapital":4853,"Ġrefuse":4854,"Ġgenes":4855,"Ġboots":4856,"Ġstanding":4857,"Ġbanned":4858,"Ġwalking":4859,"Ġpreferred":4860,"Ġdutch":4861,"Ġsenten":4862,"Ġyork":4863,"ba":4864,"iate":4865,"pired":4866,"taking":4867,"vous":4868,"Ġcord":4869,"Ġgrain":4870,"Ġintense":4871,"Ġmys":4872,"Ġjapan":4873,"Ġod":4874,"ilf":4875,"olution":4876,"Ġsocks":4877,"ability":4878,"Ġcris":4879,"Ġsword":4880,"Ġhandy":4881,"Ġsnack":4882,"Ġcolors":4883,"Ġabsolute":4884,"Ġengland":4885,"Ġfinger":4886,"Ġghost":4887,"hop":4888,"vity":4889,"Ġsings":4890,"rer":4891,"Ġbin":4892,"Ġded":4893,"ested":4894,"Ġpause":4895,"inge":4896,"Ġrelig":4897,"Ġchrom":4898,"Ġsoci":4899,"Ġblink":4900,"Ġtrace":4901,"Ġgran":4902,"Ġdrinks":4903,"Ġskip":4904,"Ġhandle":4905,"appy":4906,"Ġartist":4907,"Ġpicked":4908,"Ġhoping":4909,"Ġtotal":4910,"aters":4911,"bound":4912,"cra":4913,"five":4914,"gue":4915,"nic":4916,"Ġthor":4917,"rep":4918,"rees":4919,"Ġclip":4920,"Ġhack":4921,"Ġfought":4922,"isc":4923,"Ġgate":4924,"itty":4925,"idence":4926,"Ġreign":4927,"chan":4928,"Ġshine":4929,"umbs":4930,"Ġblank":4931,"Ġlocal":4932,"Ġstrict":4933,"Ġbrothers":4934,"Ġstops":4935,"Ġinvent":4936,"Ġcopper":4937,"Ġschools":4938,"Ġwatching":4939,"Ġpressure":4940,"Ġbritish":4941,"Ġprecise":4942,"Ġliquid":4943,"Ġwifes":4944,"cur":4945,"gant":4946,"ux":4947,"Ġugly":4948,"thm":4949,"Ġwink":4950,"Ġhood":4951,"Ġgig":4952,"oster":4953,"atest":4954,"pered":4955,"upid":4956,"aret":4957,"Ġflame":4958,"Ġabuse":4959,"Ġprone":4960,"Ġmold":4961,"atched":4962,"grand":4963,"Ġtries":4964,"Ġcrazy":4965,"Ġzoo":4966,"Ġfinish":4967,"Ġbowl":4968,"Ġforever":4969,"Ġdirection":4970,"Ġcandy":4971,"Ġengine":4972,"Ġgerman":4973,"Ġhomes":4974,"Ġachieve":4975,"bac":4976,"cil":4977,"dad":4978,"dro":4979,"fix":4980,"gain":4981,"otes":4982,"tems":4983,"Ġmil":4984,"Ġly":4985,"Ġlying":4986,"Ġgoo":4987,"ghter":4988,"acts":4989,"osition":4990,"Ġshake":4991,"Ġchart":4992,"search":4993,"Ġplastic":4994,"Ġwhod":4995,"Ġwaters":4996,"Ġfores":4997,"crete":4998,"Ġfully":4999,"Ġcloth":5000,"Ġexplore":5001,"Ġmountains":5002,"Ġroute":5003,"Ġcivil":5004,"cat":5005,"Ġcoo":5006,"Ġtack":5007,"Ġloo":5008,"Ġeither":5009,"Ġstall":5010,"irts":5011,"amin":5012,"Ġspine":5013,"Ġleather":5014,"Ġupset":5015,"Ġscale":5016,"Ġdisappe":5017,"Ġlovers":5018,"Ġactions":5019,"Ġmonth":5020,"Ġtools":5021,"Ġfifty":5022,"Ġfemale":5023,"Ġdivorce":5024,"Ġcens":5025,"Ġmall":5026,"arts":5027,"Ġgam":5028,"oma":5029,"ication":5030,"ghted":5031,"rier":5032,"Ġram":5033,"Ġmeter":5034,"Ġchinese":5035,"Ġants":5036,"wear":5037,"aine":5038,"Ġconcept":5039,"Ġwilling":5040,"Ġanything":5041,"jected":5042,"Ġbelt":5043,"Ġrequest":5044,"Ġsilver":5045,"Ġlawyer":5046,"Ġprobably":5047,"cond":5048,"gard":5049,"Ġsar":5050,"Ġthread":5051,"onom":5052,"Ġmult":5053,"Ġmunch":5054,"Ġfence":5055,"Ġtin":5056,"Ġinfer":5057,"always":5058,"osen":5059,"umble":5060,"Ġvile":5061,"solete":5062,"Ġclick":5063,"Ġcontent":5064,"Ġtex":5065,"Ġcope":5066,"Ġcran":5067,"Ġunlike":5068,"Ġguts":5069,"ailing":5070,"Ġmob":5071,"ortion":5072,"anges":5073,"Ġjobs":5074,"Ġsurm":5075,"Ġshowing":5076,"Ġcontro":5077,"Ġhelped":5078,"Ġcares":5079,"Ġappeared":5080,"Ġcries":5081,"Ġeleph":5082,"Ġsigns":5083,"Ġtyp":5084,"Ġwoods":5085,"Ġbalance":5086,"Ġlaughed":5087,"Ġsoldiers":5088,"Ġbeginning":5089,"selves":5090,"Ġideal":5091,"Ġmatters":5092,"Ġcousin":5093,"Ġtissue":5094,"best":5095,"dam":5096,"lock":5097,"tow":5098,"inous":5099,"inity":5100,"Ġsaint":5101,"Ġbom":5102,"Ġhub":5103,"orph":5104,"Ġpy":5105,"Ġlun":5106,"Ġbeard":5107,"sels":5108,"Ġclerk":5109,"Ġsuf":5110,"Ġgrant":5111,"uded":5112,"agon":5113,"Ġdisaster":5114,"Ġloan":5115,"Ġproject":5116,"Ġacross":5117,"Ġskies":5118,"Ġframe":5119,"Ġsway":5120,"Ġswee":5121,"Ġstruct":5122,"Ġearned":5123,"ready":5124,"Ġzero":5125,"Ġbabe":5126,"Ġholding":5127,"Ġfaced":5128,"Ġpieces":5129,"teria":5130,"Ġconvention":5131,"Ġconstantly":5132,"Ġtitle":5133,"Ġanimal":5134,"Ġtoss":5135,"Ġbeneath":5136,"cu":5137,"lar":5138,"Ġted":5139,"Ġfart":5140,"era":5141,"Ġpine":5142,"Ġtoe":5143,"icted":5144,"Ġintern":5145,"Ġbecomes":5146,"Ġstones":5147,"Ġrice":5148,"unless":5149,"Ġjaw":5150,"told":5151,"Ġchron":5152,"stand":5153,"Ġworms":5154,"Ġbloss":5155,"ational":5156,"Ġflour":5157,"aches":5158,"Ġscared":5159,"Ġprogr":5160,"Ġguest":5161,"berry":5162,"bring":5163,"Ġdrip":5164,"Ġdrill":5165,"Ġactor":5166,"azed":5167,"Ġcease":5168,"keeps":5169,"Ġblew":5170,"Ġhonest":5171,"Ġdancing":5172,"Ġaustral":5173,"bb":5174,"don":5175,"name":5176,"ov":5177,"Ġow":5178,"Ġfired":5179,"Ġtired":5180,"Ġtasty":5181,"Ġdor":5182,"Ġlacks":5183,"Ġstressed":5184,"Ġitch":5185,"Ġjar":5186,"Ġchips":5187,"Ġore":5188,"illing":5189,"Ġnotion":5190,"Ġboast":5191,"Ġabhor":5192,"ogy":5193,"Ġpete":5194,"Ġjoined":5195,"Ġmary":5196,"Ġwrit":5197,"Ġtelling":5198,"coh":5199,"Ġimport":5200,"Ġzone":5201,"Ġopin":5202,"Ġbike":5203,"Ġbreakfast":5204,"Ġtreatment":5205,"Ġvision":5206,"Ġdarling":5207,"Ġviol":5208,"Ġduty":5209,"foot":5210,"mix":5211,"wheres":5212,"zo":5213,"Ġsaf":5214,"Ġmap":5215,"Ġhidden":5216,"anna":5217,"Ġbeck":5218,"het":5219,"Ġheck":5220,"Ġrejo":5221,"Ġchore":5222,"Ġselling":5223,"Ġneath":5224,"Ġblows":5225,"ference":5226,"bered":5227,"Ġgreater":5228,"Ġwaiting":5229,"Ġcurve":5230,"Ġremove":5231,"Ġfret":5232,"Ġwheels":5233,"help":5234,"Ġregard":5235,"Ġbudd":5236,"Ġcritic":5237,"Ġrequired":5238,"Ġpulled":5239,"Ġdrops":5240,"Ġpossess":5241,"ded":5242,"dain":5243,"elect":5244,"fit":5245,"iance":5246,"rus":5247,"Ġsack":5248,"Ġcer":5249,"Ġcards":5250,"Ġpul":5251,"Ġpuff":5252,"Ġbere":5253,"Ġbeats":5254,"rious":5255,"Ġstays":5256,"Ġmyst":5257,"Ġweep":5258,"Ġjam":5259,"Ġchicks":5260,"Ġneither":5261,"elt":5262,"Ġarts":5263,"placed":5264,"fected":5265,"Ġprogress":5266,"Ġgreatest":5267,"Ġbreaks":5268,"Ġcarp":5269,"Ġsteal":5270,"Ġgear":5271,"Ġtrait":5272,"Ġevening":5273,"Ġdeny":5274,"Ġlearning":5275,"Ġwalked":5276,"Ġguns":5277,"Ġhonor":5278,"Ġfurther":5279,"Ġperfectly":5280,"Ġimprove":5281,"Ġsubstance":5282,"Ġblonde":5283,"Ġnurse":5284,"cence":5285,"equ":5286,"gent":5287,"Ġbunch":5288,"Ġdrew":5289,"arse":5290,"Ġlamb":5291,"Ġgum":5292,"Ġnuc":5293,"ada":5294,"Ġformed":5295,"rob":5296,"Ġanal":5297,"Ġneur":5298,"upon":5299,"Ġlew":5300,"aching":5301,"Ġuses":5302,"aging":5303,"Ġlock":5304,"Ġbrick":5305,"Ġcheat":5306,"Ġdram":5307,"Ġbreaking":5308,"Ġpretend":5309,"Ġmighty":5310,"Ġfried":5311,"Ġbrill":5312,"ancing":5313,"Ġassume":5314,"Ġdecay":5315,"Ġbegu":5316,"Ġcopy":5317,"Ġcycl":5318,"Ġsplend":5319,"Ġsecure":5320,"Ġdigest":5321,"buy":5322,"Ġopposite":5323,"Ġidea":5324,"Ġbehavior":5325,"bow":5326,"cry":5327,"iam":5328,"kers":5329,"mind":5330,"pose":5331,"tom":5332,"ught":5333,"Ġsigned":5334,"Ġpose":5335,"Ġpacked":5336,"oman":5337,"leaving":5338,"Ġorch":5339,"Ġcliff":5340,"Ġshel":5341,"plays":5342,"Ġaltern":5343,"Ġprin":5344,"Ġmole":5345,"Ġglory":5346,"Ġsurface":5347,"Ġpriv":5348,"Ġadded":5349,"Ġdepend":5350,"Ġesche":5351,"Ġleads":5352,"Ġfighting":5353,"Ġfarmer":5354,"Ġrevealed":5355,"Ġsqueeze":5356,"aign":5357,"based":5358,"mod":5359,"ini":5360,"Ġmush":5361,"erc":5362,"Ġnick":5363,"Ġwhale":5364,"Ġdeed":5365,"Ġcha":5366,"arer":5367,"Ġgoose":5368,"elf":5369,"Ġscient":5370,"Ġbrook":5371,"Ġprison":5372,"dec":5373,"dem":5374,"Ġchecked":5375,"Ġdrank":5376,"Ġthrown":5377,"Ġglo":5378,"vented":5379,"Ġsnap":5380,"Ġserious":5381,"Ġconduct":5382,"Ġnerve":5383,"Ġarrive":5384,"Ġprevent":5385,"Ġswallow":5386,"Ġinsects":5387,"Ġpissed":5388,"Ġanapest":5389,"fle":5390,"nel":5391,"och":5392,"rome":5393,"Ġwound":5394,"Ġbish":5395,"Ġmr":5396,"Ġmotion":5397,"Ġhug":5398,"Ġhills":5399,"Ġdies":5400,"Ġdirty":5401,"ench":5402,"Ġlap":5403,"Ġeff":5404,"Ġsty":5405,"Ġsting":5406,"Ġwears":5407,"Ġanch":5408,"Ġasleep":5409,"quis":5410,"Ġnotice":5411,"olve":5412,"stone":5413,"Ġdoors":5414,"Ġflock":5415,"Ġcomic":5416,"Ġgrade":5417,"Ġabstr":5418,"Ġenh":5419,"Ġprose":5420,"show":5421,"shows":5422,"Ġpolite":5423,"Ġcompan":5424,"Ġdecision":5425,"Ġdepressed":5426,"Ġpurple":5427,"Ġtastes":5428,"Ġdenied":5429,"Ġmaintain":5430,"father":5431,"gives":5432,"oint":5433,"rant":5434,"vis":5435,"iner":5436,"Ġsli":5437,"Ġbaw":5438,"Ġfoss":5439,"Ġgaze":5440,"ald":5441,"Ġecon":5442,"Ġegy":5443,"Ġbehave":5444,"rian":5445,"Ġstupid":5446,"Ġraw":5447,"Ġmyth":5448,"Ġdeaf":5449,"Ġchagr":5450,"Ġspite":5451,"Ġspiri":5452,"Ġlee":5453,"Ġcongress":5454,"Ġsheet":5455,"Ġabl":5456,"Ġabdom":5457,"neither":5458,"ipes":5459,"Ġgreed":5460,"Ġgreens":5461,"Ġaggress":5462,"Ġstring":5463,"Ġbarb":5464,"someone":5465,"Ġtrail":5466,"Ġminds":5467,"Ġbible":5468,"Ġdads":5469,"Ġbatt":5470,"Ġwinds":5471,"Ġeffects":5472,"Ġgroan":5473,"Ġambition":5474,"Ġslipped":5475,"Ġmountain":5476,"Ġfabric":5477,"bid":5478,"eve":5479,"gal":5480,"rist":5481,"tical":5482,"Ġsac":5483,"Ġtab":5484,"Ġtie":5485,"itious":5486,"Ġorange":5487,"ups":5488,"Ġfeared":5489,"Ġboil":5490,"Ġquote":5491,"Ġscra":5492,"Ġcreated":5493,"Ġpainting":5494,"Ġdiagn":5495,"Ġattacks":5496,"Ġpassing":5497,"Ġdemands":5498,"Ġlawn":5499,"Ġpresident":5500,"Ġsitting":5501,"Ġmagic":5502,"Ġroman":5503,"Ġbirthday":5504,"Ġstroke":5505,"Ġbubble":5506,"Ġmodel":5507,"Ġoedilf":5508,"Ġdessert":5509,"aic":5510,"book":5511,"dep":5512,"eat":5513,"mark":5514,"sup":5515,"Ġcuts":5516,"Ġwoe":5517,"Ġtan":5518,"Ġdil":5519,"atoes":5520,"Ġtops":5521,"icles":5522,"Ġbells":5523,"Ġsomehow":5524,"reets":5525,"again":5526,"aceous":5527,"Ġscan":5528,"beat":5529,"Ġcheers":5530,"Ġholy":5531,"ashing":5532,"blood":5533,"Ġfeelings":5534,"lessness":5535,"Ġsniff":5536,"Ġdecor":5537,"Ġdefend":5538,"Ġcareful":5539,"Ġconsidered":5540,"Ġnormal":5541,"going":5542,"Ġleader":5543,"Ġwhether":5544,"Ġangry":5545,"Ġignored":5546,"Ġsneeze":5547,"Ġtropical":5548,"Ġdisgust":5549,"fts":5550,"ham":5551,"ien":5552,"lost":5553,"Ġthief":5554,"onents":5555,"Ġdamp":5556,"anth":5557,"Ġpays":5558,"Ġlump":5559,"omas":5560,"Ġinno":5561,"alt":5562,"adder":5563,"iders":5564,"Ġshor":5565,"Ġchase":5566,"Ġanx":5567,"Ġblade":5568,"Ġfeat":5569,"Ġfeather":5570,"Ġvit":5571,"Ġgramm":5572,"aven":5573,"Ġalready":5574,"Ġamount":5575,"Ġemotion":5576,"Ġkeys":5577,"Ġawful":5578,"Ġcaps":5579,"Ġdistance":5580,"Ġretreat":5581,"Ġleaders":5582,"Ġspray":5583,"Ġvalue":5584,"Ġprofessor":5585,"bad":5586,"die":5587,"ext":5588,"lord":5589,"Ġwary":5590,"Ġmates":5591,"Ġmild":5592,"anas":5593,"Ġpits":5594,"Ġpour":5595,"Ġnum":5596,"Ġnap":5597,"Ġeth":5598,"Ġere":5599,"riends":5600,"Ġreplace":5601,"ett":5602,"Ġdee":5603,"rooms":5604,"Ġorders":5605,"Ġpluck":5606,"Ġclar":5607,"Ġconvers":5608,"Ġaber":5609,"ept":5610,"Ġene":5611,"Ġacclaim":5612,"Ġjoints":5613,"Ġawake":5614,"Ġrepair":5615,"Ġcontain":5616,"Ġtrap":5617,"green":5618,"Ġhumans":5619,"Ġcooking":5620,"Ġslowly":5621,"Ġsmells":5622,"Ġpuzz":5623,"Ġurge":5624,"Ġdrove":5625,"Ġencoun":5626,"Ġrepeat":5627,"Ġtossed":5628,"Ġeurope":5629,"half":5630,"Ġkitchen":5631,"dist":5632,"named":5633,"uh":5634,"vest":5635,"Ġos":5636,"Ġape":5637,"Ġwarn":5638,"isf":5639,"Ġreaction":5640,"Ġforces":5641,"Ġliver":5642,"Ġliked":5643,"stick":5644,"akin":5645,"Ġexpected":5646,"Ġscare":5647,"next":5648,"Ġprices":5649,"Ġtwas":5650,"Ġslice":5651,"enses":5652,"Ġcarbon":5653,"Ġperch":5654,"Ġforest":5655,"Ġobsolete":5656,"Ġspots":5657,"Ġlucky":5658,"athered":5659,"Ġshocked":5660,"Ġincred":5661,"racted":5662,"Ġconcern":5663,"Ġstories":5664,"Ġpipe":5665,"Ġzeal":5666,"Ġinterest":5667,"Ġtube":5668,"Ġdetect":5669,"Ġfreedom":5670,"Ġjelly":5671,"fashion":5672,"jack":5673,"low":5674,"pull":5675,"Ġthirty":5676,"Ġbars":5677,"onym":5678,"Ġmug":5679,"attered":5680,"Ġpac":5681,"Ġlower":5682,"itar":5683,"Ġrail":5684,"Ġrug":5685,"Ġmeasures":5686,"Ġjun":5687,"Ġasc":5688,"Ġnobody":5689,"Ġvoc":5690,"ishing":5691,"Ġdisdain":5692,"ivity":5693,"Ġmoan":5694,"Ġmoving":5695,"Ġempty":5696,"Ġbreasts":5697,"Ġperfection":5698,"Ġfocus":5699,"Ġhighly":5700,"Ġaccess":5701,"Ġcutting":5702,"Ġhairy":5703,"Ġprescri":5704,"Ġdocs":5705,"Ġlegal":5706,"Ġteachers":5707,"doesnt":5708,"Ġtempt":5709,"Ġsuffice":5710,"Ġforgotten":5711,"Ġwashing":5712,"Ġcuisine":5713,"Ġsuffered":5714,"mouth":5715,"spr":5716,"Ġwand":5717,"Ġbail":5718,"onian":5719,"acid":5720,"Ġcham":5721,"Ġchances":5722,"Ġanswe":5723,"ifts":5724,"Ġfeature":5725,"Ġclosed":5726,"Ġtent":5727,"Ġseeing":5728,"bey":5729,"Ġapples":5730,"Ġstrings":5731,"Ġparis":5732,"aneous":5733,"Ġbehold":5734,"Ġcondem":5735,"keeping":5736,"didnt":5737,"Ġastound":5738,"Ġfortune":5739,"Ġdiscover":5740,"Ġcruise":5741,"Ġnarrow":5742,"Ġenemy":5743,"Ġanswered":5744,"iation":5745,"words":5746,"Ġthumb":5747,"Ġward":5748,"Ġmoms":5749,"Ġhaul":5750,"Ġfaint":5751,"Ġfuel":5752,"Ġtap":5753,"Ġnun":5754,"Ġnations":5755,"Ġink":5756,"Ġinn":5757,"aying":5758,"itted":5759,"Ġeld":5760,"thetic":5761,"Ġstocks":5762,"roll":5763,"ques":5764,"ulent":5765,"Ġatl":5766,"Ġattempt":5767,"ardon":5768,"agger":5769,"Ġguests":5770,"Ġmock":5771,"Ġfruits":5772,"Ġendure":5773,"Ġtraffic":5774,"Ġfreeze":5775,"Ġwindow":5776,"Ġpatient":5777,"Ġsaved":5778,"Ġcampaign":5779,"Ġexpression":5780,"Ġmodern":5781,"Ġpolitical":5782,"fic":5783,"hard":5784,"stop":5785,"uation":5786,"Ġawe":5787,"Ġfurn":5788,"ano":5789,"Ġnary":5790,"Ġeg":5791,"Ġbecoming":5792,"Ġstreets":5793,"Ġresearch":5794,"Ġmeets":5795,"Ġchow":5796,"Ġchir":5797,"Ġblown":5798,"iel":5799,"close":5800,"class":5801,"Ġpeas":5802,"Ġwaist":5803,"bris":5804,"brought":5805,"Ġremorse":5806,"Ġvet":5807,"Ġbloody":5808,"Ġstudies":5809,"true":5810,"Ġhumor":5811,"Ġfacing":5812,"Ġadmir":5813,"Ġgolden":5814,"build":5815,"saying":5816,"Ġweeks":5817,"Ġwreck":5818,"Ġquarter":5819,"Ġjesus":5820,"cular":5821,"saw":5822,"sometimes":5823,"wrote":5824,"yell":5825,"Ġaes":5826,"Ġmons":5827,"Ġhoo":5828,"Ġhint":5829,"atically":5830,"orical":5831,"Ġgolf":5832,"Ġintr":5833,"alo":5834,"Ġeaten":5835,"Ġstub":5836,"Ġdeft":5837,"Ġchim":5838,"Ġseveral":5839,"lind":5840,"Ġaller":5841,"Ġcomfort":5842,"Ġguarante":5843,"nothing":5844,"Ġspeaks":5845,"Ġpregn":5846,"Ġcarn":5847,"Ġdrives":5848,"creet":5849,"Ġwriter":5850,"Ġdecline":5851,"Ġcollection":5852,"Ġgreeks":5853,"Ġdeliver":5854,"Ġgroups":5855,"Ġbodies":5856,"Ġprepared":5857,"Ġsighed":5858,"Ġmillion":5859,"Ġrenowned":5860,"Ġissue":5861,"Ġthorough":5862,"dog":5863,"lines":5864,"pri":5865,"Ġsno":5866,"Ġthirst":5867,"outed":5868,"onia":5869,"Ġhunt":5870,"Ġdates":5871,"Ġditch":5872,"Ġdye":5873,"Ġpad":5874,"Ġgather":5875,"Ġnin":5876,"among":5877,"Ġrust":5878,"Ġshared":5879,"urance":5880,"Ġspice":5881,"forts":5882,"Ġexist":5883,"Ġscant":5884,"Ġadj":5885,"Ġenthr":5886,"Ġproved":5887,"Ġroam":5888,"ptic":5889,"Ġmarsh":5890,"Ġbadly":5891,"Ġattacked":5892,"Ġcolour":5893,"Ġdistinct":5894,"Ġfoods":5895,"Ġcriminal":5896,"Ġreturned":5897,"Ġabsor":5898,"exp":5899,"Ġadmire":5900,"Ġtypes":5901,"Ġproduct":5902,"prod":5903,"Ġburns":5904,"Ġtender":5905,"Ġanswers":5906,"Ġgerms":5907,"Ġbacon":5908,"uddle":5909,"Ġscrewed":5910,"writing":5911,"Ġegypt":5912,"Ġspirits":5913,"ban":5914,"la":5915,"takes":5916,"walk":5917,"incl":5918,"Ġcable":5919,"Ġfile":5920,"Ġtang":5921,"orious":5922,"Ġlend":5923,"Ġtoy":5924,"Ġwid":5925,"Ġweb":5926,"ifty":5927,"lights":5928,"Ġordered":5929,"Ġsuits":5930,"istle":5931,"Ġcompl":5932,"Ġgroo":5933,"Ġcrunch":5934,"Ġscoff":5935,"Ġalcoh":5936,"ysis":5937,"fell":5938,"Ġbrood":5939,"shaped":5940,"Ġmothers":5941,"Ġpeak":5942,"Ġspect":5943,"Ġbreathe":5944,"Ġperple":5945,"Ġstray":5946,"Ġending":5947,"Ġsurf":5948,"Ġsurround":5949,"Ġstayed":5950,"Ġdelay":5951,"headed":5952,"Ġcircle":5953,"formation":5954,"thanks":5955,"Ġcrops":5956,"Ġprotection":5957,"part":5958,"Ġaur":5959,"Ġsof":5960,"Ġstern":5961,"Ġsorts":5962,"Ġthrew":5963,"Ġwool":5964,"Ġmos":5965,"Ġhosp":5966,"ern":5967,"Ġdried":5968,"Ġdying":5969,"oric":5970,"Ġnatures":5971,"oting":5972,"Ġwire":5973,"Ġshad":5974,"seven":5975,"Ġliz":5976,"ules":5977,"Ġimpl":5978,"force":5979,"Ġcler":5980,"Ġcoin":5981,"Ġacute":5982,"Ġglue":5983,"Ġsteer":5984,"Ġgem":5985,"Ġpartner":5986,"Ġcaes":5987,"Ġcrab":5988,"Ġsouls":5989,"Ġadvent":5990,"Ġbraw":5991,"Ġtowns":5992,"Ġlatest":5993,"Ġbanks":5994,"Ġhappened":5995,"Ġcomplained":5996,"balls":5997,"Ġburning":5998,"Ġoccurred":5999,"Ġcombine":6000,"Ġfields":6001,"mission":6002,"Ġverses":6003,"Ġmurder":6004,"Ġpicture":6005,"despite":6006,"ere":6007,"him":6008,"ios":6009,"side":6010,"six":6011,"uity":6012,"Ġult":6013,"Ġcac":6014,"Ġbats":6015,"Ġbased":6016,"orrow":6017,"Ġgym":6018,"idae":6019,"cha":6020,"cel":6021,"Ġjane":6022,"quit":6023,"Ġnoticed":6024,"Ġflop":6025,"Ġcrass":6026,"Ġalk":6027,"Ġwhenever":6028,"ships":6029,"Ġpoe":6030,"plete":6031,"Ġpreach":6032,"Ġstem":6033,"ocr":6034,"Ġdefense":6035,"Ġprim":6036,"Ġerror":6037,"Ġreflect":6038,"Ġcrimes":6039,"Ġevents":6040,"Ġstraw":6041,"Ġgener":6042,"Ġglasses":6043,"Ġbotan":6044,"Ġpanic":6045,"Ġclouds":6046,"Ġfungus":6047,"Ġhabit":6048,"Ġshakespe":6049,"hit":6050,"rh":6051,"ubl":6052,"Ġoo":6053,"Ġmuse":6054,"Ġhid":6055,"Ġhind":6056,"Ġtape":6057,"Ġdat":6058,"Ġpic":6059,"leg":6060,"Ġante":6061,"lia":6062,"Ġplum":6063,"Ġbland":6064,"Ġbladder":6065,"Ġflav":6066,"Ġscul":6067,"Ġscorn":6068,"Ġlond":6069,"Ġridd":6070,"Ġprot":6071,"Ġemph":6072,"ggy":6073,"Ġassum":6074,"cope":6075,"Ġcorpor":6076,"Ġsimilar":6077,"clear":6078,"Ġminute":6079,"Ġclothing":6080,"Ġprofound":6081,"Ġfails":6082,"Ġtalent":6083,"Ġkissed":6084,"Ġreveal":6085,"istence":6086,"Ġmachines":6087,"Ġliquor":6088,"double":6089,"Ġtradition":6090,"cap":6091,"catch":6092,"looks":6093,"nis":6094,"oted":6095,"obs":6096,"sk":6097,"sur":6098,"turned":6099,"Ġq":6100,"Ġblight":6101,"Ġlur":6102,"irs":6103,"today":6104,"Ġangl":6105,"live":6106,"Ġimage":6107,"Ġextend":6108,"Ġgrad":6109,"pled":6110,"Ġscots":6111,"Ġdismiss":6112,"ogn":6113,"Ġende":6114,"Ġhandsome":6115,"Ġdecree":6116,"Ġviewed":6117,"Ġdamage":6118,"Ġfinished":6119,"Ġpersu":6120,"Ġjeans":6121,"raction":6122,"Ġwheat":6123,"year":6124,"Ġsumm":6125,"Ġdaughters":6126,"Ġoccasion":6127,"Ġdimin":6128,"Ġdentist":6129,"Ġcreep":6130,"Ġbait":6131,"Ġhungry":6132,"Ġradio":6133,"meaning":6134,"Ġslightly":6135,"Ġenergy":6136,"Ġdisguise":6137,"bits":6138,"bout":6139,"vas":6140,"Ġbib":6141,"Ġbaked":6142,"Ġhound":6143,"Ġhired":6144,"Ġfog":6145,"Ġfib":6146,"Ġfiction":6147,"Ġtort":6148,"arks":6149,"Ġwebs":6150,"Ġital":6151,"Ġsew":6152,"ols":6153,"Ġspit":6154,"Ġexceed":6155,"Ġlocked":6156,"Ġolder":6157,"Ġpeers":6158,"Ġsweep":6159,"Ġafford":6160,"gger":6161,"ancient":6162,"Ġcompound":6163,"Ġeverything":6164,"Ġattached":6165,"Ġconfusion":6166,"Ġcorp":6167,"Ġcolon":6168,"Ġfalling":6169,"Ġdevotion":6170,"Ġsexy":6171,"Ġmasses":6172,"Ġtaxes":6173,"Ġfrankly":6174,"Ġcomputers":6175,"Ġinstruct":6176,"Ġmovie":6177,"Ġcharacter":6178,"eating":6179,"gon":6180,"ipe":6181,"rum":6182,"Ġthy":6183,"Ġbos":6184,"Ġhaw":6185,"Ġtorn":6186,"ester":6187,"Ġlone":6188,"Ġtoil":6189,"itll":6190,"Ġstole":6191,"idents":6192,"Ġforty":6193,"Ġanat":6194,"Ġkate":6195,"Ġsoap":6196,"ously":6197,"Ġflaws":6198,"Ġcob":6199,"Ġdiscer":6200,"Ġbranch":6201,"Ġadam":6202,"Ġenv":6203,"ressing":6204,"Ġtreats":6205,"Ġbigger":6206,"box":6207,"common":6208,"Ġterse":6209,"Ġdipl":6210,"Ġcape":6211,"Ġreaders":6212,"Ġremote":6213,"Ġfishing":6214,"Ġvegg":6215,"Ġbraz":6216,"Ġbabies":6217,"Ġsexual":6218,"Ġodds":6219,"Ġthrive":6220,"Ġangle":6221,"Ġcircum":6222,"Ġlocation":6223,"Ġastray":6224,"Ġbereft":6225,"aft":6226,"ckets":6227,"lings":6228,"Ġsap":6229,"Ġfights":6230,"Ġdense":6231,"orys":6232,"enn":6233,"Ġgy":6234,"Ġgau":6235,"amic":6236,"white":6237,"Ġsher":6238,"Ġdebris":6239,"tock":6240,"Ġchosen":6241,"Ġank":6242,"seen":6243,"Ġlied":6244,"Ġpled":6245,"Ġtracks":6246,"oodle":6247,"Ġalert":6248,"needs":6249,"Ġamaze":6250,"Ġrig":6251,"Ġsmiled":6252,"Ġroyal":6253,"athy":6254,"underst":6255,"Ġwherever":6256,"Ġgeek":6257,"Ġanyone":6258,"Ġtrave":6259,"Ġtower":6260,"Ġkinds":6261,"Ġsettle":6262,"Ġhairs":6263,"point":6264,"Ġfreak":6265,"addle":6266,"Ġpatients":6267,"Ġgroom":6268,"Ġconstant":6269,"Ġwitness":6270,"Ġconclusion":6271,"Ġspanish":6272,"ribution":6273,"Ġrejoice":6274,"bill":6275,"gest":6276,"lim":6277,"tiny":6278,"vo":6279,"Ġfert":6280,"Ġgained":6281,"omen":6282,"omic":6283,"leaves":6284,"icult":6285,"Ġinfection":6286,"thered":6287,"Ġrates":6288,"Ġmeals":6289,"Ġoak":6290,"geons":6291,"uments":6292,"lier":6293,"Ġsocial":6294,"Ġspending":6295,"Ġtrunk":6296,"istics":6297,"Ġupper":6298,"Ġscott":6299,"Ġbran":6300,"belie":6301,"Ġpocket":6302,"Ġmanage":6303,"Ġmanners":6304,"Ġtwin":6305,"Ġskirt":6306,"Ġperf":6307,"Ġfinding":6308,"Ġwaiter":6309,"Ġtrial":6310,"Ġpasses":6311,"Ġchoke":6312,"Ġmuscle":6313,"Ġsquir":6314,"Ġcounting":6315,"Ġaffl":6316,"Ġaffairs":6317,"Ġcooked":6318,"Ġsatisf":6319,"Ġnervous":6320,"Ġequal":6321,"Ġdishes":6322,"Ġdesigns":6323,"athetic":6324,"Ġmarked":6325,"Ġbritain":6326,"Ġimmense":6327,"Ġanimals":6328,"Ġproduced":6329,"Ġhunting":6330,"Ġhorrible":6331,"Ġchagrin":6332,"cue":6333,"field":6334,"Ġbash":6335,"Ġfry":6336,"Ġding":6337,"Ġdice":6338,"Ġpizz":6339,"icity":6340,"Ġeli":6341,"Ġray":6342,"uncle":6343,"Ġdepl":6344,"Ġmechan":6345,"Ġitself":6346,"Ġcanned":6347,"Ġusually":6348,"icker":6349,"ilet":6350,"resses":6351,"Ġpotent":6352,"Ġslide":6353,"Ġthrone":6354,"Ġcrave":6355,"Ġrecords":6356,"Ġdemon":6357,"Ġesp":6358,"Ġminor":6359,"heads":6360,"adding":6361,"Ġentr":6362,"Ġhoped":6363,"Ġrequire":6364,"Ġterribly":6365,"Ġscrub":6366,"iety":6367,"Ġsuddenly":6368,"zer":6369,"Ġsake":6370,"Ġmiles":6371,"Ġdaw":6372,"Ġdarn":6373,"Ġdandy":6374,"Ġpressed":6375,"ening":6376,"Ġgour":6377,"Ġnurs":6378,"leave":6379,"ghast":6380,"Ġstam":6381,"Ġstain":6382,"amas":6383,"Ġshield":6384,"Ġanthrop":6385,"wearing":6386,"abet":6387,"Ġdock":6388,"Ġclin":6389,"Ġcrank":6390,"Ġyach":6391,"Ġshelf":6392,"ago":6393,"agged":6394,"clim":6395,"Ġfract":6396,"Ġswore":6397,"Ġtrem":6398,"Ġcorps":6399,"Ġpurpose":6400,"Ġclasses":6401,"greg":6402,"except":6403,"Ġwindows":6404,"Ġfilms":6405,"Ġpromised":6406,"Ġbaseball":6407,"Ġhealthy":6408,"Ġpursue":6409,"Ġinclude":6410,"Ġobscene":6411,"cir":6412,"late":6413,"pin":6414,"rick":6415,"Ġapl":6416,"Ġthou":6417,"Ġbunk":6418,"Ġbane":6419,"Ġdur":6420,"Ġdating":6421,"orial":6422,"Ġlat":6423,"Ġlent":6424,"oty":6425,"Ġstitch":6426,"Ġshorts":6427,"Ġchum":6428,"Ġanne":6429,"whenever":6430,"stuff":6431,"Ġleap":6432,"Ġtease":6433,"Ġard":6434,"Ġrife":6435,"Ġrooms":6436,"Ġhadnt":6437,"Ġgotten":6438,"perate":6439,"oded":6440,"Ġmarks":6441,"Ġpainful":6442,"Ġcharms":6443,"Ġsimpl":6444,"Ġwinner":6445,"Ġwriters":6446,"Ġgeneral":6447,"Ġbuying":6448,"Ġcere":6449,"Ġformal":6450,"Ġbilly":6451,"Ġruled":6452,"Ġcandle":6453,"Ġfarmers":6454,"Ġquestions":6455,"Ġcabbage":6456,"Ġarrange":6457,"Ġcharming":6458,"Ġdetermine":6459,"gment":6460,"Ġak":6461,"ref":6462,"Ġfist":6463,"erm":6464,"erving":6465,"Ġdict":6466,"ede":6467,"istent":6468,"Ġputs":6469,"ica":6470,"Ġinvented":6471,"Ġbeasts":6472,"utch":6473,"Ġheal":6474,"Ġwhack":6475,"Ġplates":6476,"Ġvital":6477,"Ġlevel":6478,"Ġclos":6479,"eled":6480,"Ġexcept":6481,"Ġcoy":6482,"agree":6483,"Ġlogic":6484,"Ġproc":6485,"Ġwholl":6486,"Ġrode":6487,"Ġcarried":6488,"Ġshoulder":6489,"Ġaffect":6490,"Ġbrim":6491,"Ġcompare":6492,"compl":6493,"brings":6494,"Ġaddition":6495,"Ġexpand":6496,"Ġsett":6497,"Ġdivide":6498,"Ġturkey":6499,"Ġengage":6500,"Ġtroubles":6501,"Ġfrog":6502,"Ġcosm":6503,"Ġdangerous":6504,"Ġincrease":6505,"Ġpredict":6506,"Ġremoved":6507,"Ġmystery":6508,"cers":6509,"drop":6510,"gie":6511,"pen":6512,"via":6513,"oust":6514,"Ġmens":6515,"Ġhence":6516,"Ġhitch":6517,"ingu":6518,"Ġinj":6519,"ghtened":6520,"osity":6521,"Ġreward":6522,"Ġshrew":6523,"Ġdeeds":6524,"rated":6525,"Ġasking":6526,"ilty":6527,"umping":6528,"Ġalle":6529,"Ġsunday":6530,"Ġscenes":6531,"Ġdiscreet":6532,"Ġads":6533,"Ġroast":6534,"Ġrolls":6535,"ighter":6536,"Ġpert":6537,"Ġsteak":6538,"Ġwrink":6539,"Ġparties":6540,"Ġactive":6541,"Ġtrim":6542,"Ġbegins":6543,"Ġdemise":6544,"Ġstudied":6545,"Ġobjects":6546,"Ġobserve":6547,"Ġchristian":6548,"Ġaudience":6549,"Ġprepare":6550,"Ġsympt":6551,"Ġreceived":6552,"Ġlawyers":6553,"Ġmethods":6554,"Ġobscure":6555,"Ġimagine":6556,"fashioned":6557,"Ġlondon":6558,"bus":6559,"dess":6560,"sing":6561,"va":6562,"ville":6563,"Ġaus":6564,"Ġaghast":6565,"Ġwars":6566,"Ġmour":6567,"Ġmile":6568,"Ġira":6569,"oral":6570,"ican":6571,"itution":6572,"Ġeigh":6573,"Ġbeak":6574,"rested":6575,"Ġattest":6576,"Ġworship":6577,"Ġflirt":6578,"uds":6579,"Ġaband":6580,"Ġgreet":6581,"Ġpoly":6582,"Ġpoem":6583,"Ġemp":6584,"bler":6585,"Ġswine":6586,"Ġplea":6587,"Ġcreed":6588,"Ġbarrel":6589,"Ġmarch":6590,"instead":6591,"Ġcompass":6592,"Ġremind":6593,"Ġveget":6594,"Ġbibl":6595,"Ġmonk":6596,"Ġceiling":6597,"Ġpenny":6598,"Ġheavens":6599,"Ġexplains":6600,"Ġpopular":6601,"Ġwalks":6602,"Ġspoken":6603,"Ġshopping":6604,"Ġpersonal":6605,"Ġchemistry":6606,"Ġfierce":6607,"cous":6608,"hen":6609,"mond":6610,"oons":6611,"rad":6612,"sen":6613,"Ġcul":6614,"Ġbil":6615,"Ġhike":6616,"Ġtart":6617,"Ġdive":6618,"Ġdime":6619,"Ġpoop":6620,"Ġlazy":6621,"heard":6622,"keys":6623,"Ġaside":6624,"Ġliber":6625,"Ġblu":6626,"Ġblur":6627,"Ġvall":6628,"oused":6629,"Ġloath":6630,"Ġadop":6631,"Ġadjust":6632,"Ġunable":6633,"Ġprint":6634,"Ġroads":6635,"Ġdrool":6636,"Ġslave":6637,"Ġneeding":6638,"Ġdesk":6639,"Ġfries":6640,"Ġplanet":6641,"Ġcompany":6642,"Ġseries":6643,"Ġserving":6644,"Ġparas":6645,"Ġparade":6646,"Ġgraph":6647,"Ġgrind":6648,"Ġfourth":6649,"Ġrelation":6650,"Ġharsh":6651,"Ġefforts":6652,"Ġsleeping":6653,"Ġbenign":6654,"Ġbags":6655,"Ġbreathing":6656,"Ġfootball":6657,"Ġembarr":6658,"Ġmembers":6659,"iques":6660,"warf":6661,"simply":6662,"Ġstretch":6663,"cas":6664,"har":6665,"ivers":6666,"lorn":6667,"loc":6668,"oys":6669,"rine":6670,"word":6671,"Ġarom":6672,"Ġarab":6673,"rels":6674,"Ġthesis":6675,"Ġtig":6676,"Ġdav":6677,"estern":6678,"llent":6679,"around":6680,"Ġlout":6681,"Ġluc":6682,"Ġnaked":6683,"adian":6684,"Ġbearing":6685,"ril":6686,"Ġrant":6687,"Ġsham":6688,"unks":6689,"start":6690,"Ġallowed":6691,"Ġplat":6692,"Ġattem":6693,"Ġblan":6694,"Ġvic":6695,"Ġvice":6696,"Ġcracked":6697,"ava":6698,"feeling":6699,"Ġbris":6700,"Ġbrut":6701,"ipping":6702,"Ġsmiles":6703,"meant":6704,"orns":6705,"Ġcouch":6706,"Ġslept":6707,"Ġsunny":6708,"ternal":6709,"Ġtomorrow":6710,"Ġdespite":6711,"Ġdomain":6712,"Ġconclude":6713,"Ġsentence":6714,"Ġgrammar":6715,"bas":6716,"gri":6717,"ials":6718,"ran":6719,"Ġae":6720,"really":6721,"Ġcakes":6722,"Ġwow":6723,"Ġbir":6724,"Ġborder":6725,"Ġhog":6726,"atives":6727,"Ġpaw":6728,"aries":6729,"Ġlark":6730,"Ġfors":6731,"Ġjune":6732,"pection":6733,"Ġvirt":6734,"Ġboats":6735,"ishly":6736,"Ġexotic":6737,"Ġarc":6738,"Ġark":6739,"agne":6740,"Ġproclaim":6741,"Ġacet":6742,"Ġslack":6743,"Ġyearn":6744,"Ġdrift":6745,"Ġaccounts":6746,"Ġantic":6747,"Ġvex":6748,"Ġadvise":6749,"Ġwinning":6750,"works":6751,"Ġbanana":6752,"Ġbusy":6753,"Ġbleak":6754,"Ġbelle":6755,"Ġfollowed":6756,"Ġcorner":6757,"Ġclubs":6758,"Ġemployed":6759,"Ġmillions":6760,"Ġpowder":6761,"Ġvirgin":6762,"Ġapplaud":6763,"Ġdeveloped":6764,"Ġfantastic":6765,"Ġlewd":6766,"against":6767,"aque":6768,"faced":6769,"lot":6770,"pol":6771,"pick":6772,"Ġsans":6773,"Ġcage":6774,"Ġtheme":6775,"Ġtails":6776,"Ġdial":6777,"Ġdorm":6778,"ora":6779,"Ġpump":6780,"Ġles":6781,"Ġlam":6782,"Ġlacked":6783,"Ġnail":6784,"acle":6785,"Ġbef":6786,"hearted":6787,"Ġstores":6788,"rog":6789,"pee":6790,"cture":6791,"Ġnoon":6792,"Ġspider":6793,"Ġfemin":6794,"Ġfeathers":6795,"Ġleak":6796,"Ġfluff":6797,"Ġarrow":6798,"Ġadject":6799,"bear":6800,"Ġrib":6801,"deep":6802,"Ġbucket":6803,"Ġoldfashioned":6804,"Ġslaugh":6805,"Ġcarto":6806,"Ġawry":6807,"Ġinspect":6808,"Ġafar":6809,"Ġcurves":6810,"loved":6811,"Ġwrites":6812,"twenty":6813,"Ġdelicate":6814,"Ġcrossed":6815,"Ġqueer":6816,"Ġforeign":6817,"Ġkilling":6818,"Ġrhythm":6819,"Ġfilling":6820,"Ġdanced":6821,"Ġbehavi":6822,"Ġcannib":6823,"Ġdefinition":6824,"Ġsurmise":6825,"Ġimportant":6826,"Ġbrazil":6827,"case":6828,"eyed":6829,"mons":6830,"sn":6831,"tri":6832,"uke":6833,"vi":6834,"zes":6835,"Ġcz":6836,"Ġmice":6837,"Ġhues":6838,"Ġhips":6839,"Ġfanc":6840,"Ġtut":6841,"Ġtame":6842,"Ġpardon":6843,"Ġlatter":6844,"lead":6845,"itors":6846,"amy":6847,"Ġrend":6848,"Ġrevers":6849,"Ġshark":6850,"Ġmexic":6851,"Ġnovel":6852,"Ġvest":6853,"Ġcling":6854,"Ġclout":6855,"Ġflush":6856,"Ġflatter":6857,"Ġguilty":6858,"active":6859,"Ġages":6860,"Ġthemselves":6861,"iously":6862,"fulness":6863,"Ġreside":6864,"Ġconfuse":6865,"Ġzip":6866,"Ġaccident":6867,"Ġwarned":6868,"Ġformation":6869,"Ġfairy":6870,"Ġcastle":6871,"Ġgreece":6872,"Ġpromise":6873,"Ġcritical":6874,"Ġgerm":6875,"Ġcurious":6876,"Ġdancer":6877,"Ġattractive":6878,"Ġculture":6879,"Ġlingu":6880,"Ġcrawl":6881,"Ġpictures":6882,"Ġdrowned":6883,"Ġdestroy":6884,"Ġbishop":6885,"Ġsculpt":6886,"Ġbiblical":6887,"aus":6888,"cest":6889,"eight":6890,"gas":6891,"net":6892,"pres":6893,"Ġais":6894,"Ġsins":6895,"Ġwolf":6896,"Ġthee":6897,"Ġhouses":6898,"Ġducks":6899,"Ġgiant":6900,"usions":6901,"Ġintell":6902,"Ġeup":6903,"osts":6904,"osoph":6905,"irteen":6906,"Ġweary":6907,"ilies":6908,"Ġkicks":6909,"Ġsepar":6910,"gee":6911,"Ġclot":6912,"Ġteens":6913,"Ġflick":6914,"Ġquaint":6915,"Ġexha":6916,"Ġexclaimed":6917,"Ġexerc":6918,"Ġdisplays":6919,"Ġloving":6920,"nered":6921,"beh":6922,"Ġbutton":6923,"Ġguitar":6924,"Ġcheeks":6925,"Ġpeer":6926,"Ġhoot":6927,"Ġills":6928,"Ġawa":6929,"Ġcourage":6930,"Ġdriver":6931,"Ġtrips":6932,"Ġlimbs":6933,"Ġtoward":6934,"Ġadvised":6935,"conf":6936,"Ġeditor":6937,"Ġsquat":6938,"Ġsalad":6939,"Ġtopic":6940,"Ġtens":6941,"Ġjew":6942,"Ġjews":6943,"Ġexciting":6944,"Ġeffort":6945,"Ġsolid":6946,"Ġexplos":6947,"Ġelectric":6948,"Ġhusbands":6949,"Ġhanging":6950,"Ġrubber":6951,"Ġdifference":6952,"Ġconnection":6953,"Ġstatus":6954,"Ġcherry":6955,"Ġvirus":6956,"Ġapplause":6957,"Ġpronounce":6958,"Ġthighs":6959,"Ġaverage":6960,"Ġelephant":6961,"Ġdiagnosis":6962,"Ġultimate":6963,"Ġiraq":6964,"ais":6965,"arest":6966,"bot":6967,"mus":6968,"oids":6969,"rition":6970,"son":6971,"uing":6972,"uted":6973,"rend":6974,"requ":6975,"Ġfid":6976,"Ġfade":6977,"Ġfiddle":6978,"erate":6979,"Ġdup":6980,"Ġduring":6981,"Ġpile":6982,"enc":6983,"asons":6984,"omp":6985,"icing":6986,"Ġell":6987,"Ġwives":6988,"osa":6989,"Ġstark":6990,"irls":6991,"Ġislands":6992,"Ġshirk":6993,"Ġforward":6994,"Ġchatter":6995,"Ġasks":6996,"Ġassem":6997,"Ġknot":6998,"Ġselect":6999,"quick":7000,"ummy":7001,"Ġleis":7002,"Ġgoals":7003,"ishment":7004,"Ġcoc":7005,"Ġcram":7006,"Ġalg":7007,"Ġabide":7008,"Ġbrow":7009,"Ġaffection":7010,"Ġtreated":7011,"Ġcoup":7012,"doing":7013,"Ġgee":7014,"Ġcontri":7015,"covered":7016,"ouncing":7017,"Ġadds":7018,"Ġsouthern":7019,"Ġrefers":7020,"Ġpurse":7021,"Ġminus":7022,"Ġrelated":7023,"Ġwishes":7024,"Ġexcite":7025,"Ġboyfriend":7026,"Ġsyll":7027,"Ġappearance":7028,"Ġdescribed":7029,"Ġrotten":7030,"Ġirish":7031,"Ġbutterfly":7032,"watching":7033,"Ġfluid":7034,"Ġpork":7035,"Ġinclined":7036,"Ġbunny":7037,"Ġcompete":7038,"Ġcelebr":7039,"Ġbastard":7040,"Ġtexas":7041,"Ġpoems":7042,"bone":7043,"burn":7044,"hab":7045,"iot":7046,"mined":7047,"vals":7048,"write":7049,"rene":7050,"Ġcass":7051,"Ġcache":7052,"Ġwoes":7053,"Ġdab":7054,"Ġdug":7055,"asia":7056,"Ġgoss":7057,"Ġintended":7058,"iron":7059,"Ġrats":7060,"Ġisle":7061,"Ġfork":7062,"Ġformer":7063,"Ġjames":7064,"Ġchau":7065,"Ġchlor":7066,"sequ":7067,"weight":7068,"stri":7069,"abe":7070,"Ġblowing":7071,"Ġvicious":7072,"estic":7073,"Ġsubs":7074,"Ġcontend":7075,"Ġfling":7076,"Ġjustice":7077,"Ġexchange":7078,"plant":7079,"Ġscent":7080,"Ġprotest":7081,"Ġwholly":7082,"Ġunknown":7083,"Ġapost":7084,"Ġriding":7085,"Ġtwins":7086,"Ġagent":7087,"ptions":7088,"blue":7089,"pher":7090,"Ġillness":7091,"Ġcompet":7092,"growing":7093,"Ġcarefully":7094,"load":7095,"Ġrefused":7096,"Ġshots":7097,"Ġdeeply":7098,"Ġsinger":7099,"Ġjewel":7100,"Ġdirector":7101,"Ġdispute":7102,"Ġregion":7103,"Ġborrow":7104,"bodys":7105,"Ġvictor":7106,"Ġdollar":7107,"Ġmovies":7108,"Ġpapers":7109,"Ġuncouth":7110,"Ġhospital":7111,"Ġshakespeare":7112,"bble":7113,"bott":7114,"dra":7115,"friends":7116,"gans":7117,"gian":7118,"pan":7119,"sal":7120,"wide":7121,"ya":7122,"Ġbred":7123,"Ġmars":7124,"Ġmirth":7125,"atical":7126,"isions":7127,"Ġpas":7128,"Ġinqu":7129,"alas":7130,"Ġbeating":7131,"rif":7132,"kew":7133,"Ġstinks":7134,"Ġwhore":7135,"Ġreject":7136,"whod":7137,"Ġchann":7138,"Ġkitten":7139,"Ġsecre":7140,"Ġlibr":7141,"Ġdoz":7142,"Ġblocks":7143,"forms":7144,"Ġteams":7145,"Ġflames":7146,"Ġpoker":7147,"Ġache":7148,"Ġchecks":7149,"Ġneedle":7150,"Ġdesc":7151,"ucky":7152,"Ġsteps":7153,"Ġpleasant":7154,"Ġbrits":7155,"Ġappall":7156,"Ġactors":7157,"Ġcorre":7158,"Ġtrapped":7159,"Ġgrape":7160,"Ġsquirm":7161,"Ġvoters":7162,"Ġabsence":7163,"Ġrestrain":7164,"Ġminutes":7165,"Ġwomb":7166,"Ġprofession":7167,"Ġdaft":7168,"Ġdaisy":7169,"Ġlabor":7170,"Ġalien":7171,"Ġlords":7172,"Ġtends":7173,"Ġsorrow":7174,"consider":7175,"Ġdomin":7176,"Ġpursuit":7177,"Ġconnect":7178,"Ġcontinue":7179,"Ġclients":7180,"Ġessential":7181,"Ġpurchase":7182,"Ġneighborhood":7183,"Ġaltar":7184,"Ġmultip":7185,"Ġalcohol":7186,"gone":7187,"mm":7188,"nine":7189,"uter":7190,"view":7191,"wal":7192,"Ġthunder":7193,"Ġmoo":7194,"Ġtad":7195,"Ġdyn":7196,"Ġlion":7197,"Ġlace":7198,"Ġlime":7199,"icient":7200,"Ġeagle":7201,"Ġbew":7202,"oscop":7203,"Ġruth":7204,"Ġforlorn":7205,"Ġchanging":7206,"Ġchanges":7207,"Ġassets":7208,"weed":7209,"Ġorig":7210,"Ġdozen":7211,"Ġconver":7212,"Ġgrasp":7213,"Ġsheer":7214,"agues":7215,"agging":7216,"Ġalter":7217,"Ġprick":7218,"aware":7219,"ighted":7220,"airy":7221,"Ġacne":7222,"actyl":7223,"Ġknowing":7224,"note":7225,"Ġslop":7226,"Ġperce":7227,"Ġawoke":7228,"Ġworkers":7229,"izzy":7230,"ahs":7231,"Ġcharged":7232,"Ġputting":7233,"Ġcalf":7234,"Ġtense":7235,"world":7236,"Ġearths":7237,"Ġdrawing":7238,"Ġwalt":7239,"Ġromans":7240,"Ġcomplaint":7241,"Ġbench":7242,"Ġsynd":7243,"Ġshooting":7244,"Ġbolt":7245,"Ġrelease":7246,"Ġbouquet":7247,"Ġvessel":7248,"Ġchallenge":7249,"Ġweapon":7250,"Ġsplendid":7251,"Ġexercise":7252,"ael":7253,"cave":7254,"glo":7255,"grab":7256,"hot":7257,"iums":7258,"lad":7259,"sir":7260,"Ġsixt":7261,"rely":7262,"Ġbisc":7263,"oner":7264,"Ġtips":7265,"Ġgap":7266,"Ġnit":7267,"icts":7268,"icit":7269,"Ġbeers":7270,"ota":7271,"ridge":7272,"Ġstal":7273,"Ġhem":7274,"Ġrud":7275,"Ġshred":7276,"Ġmeas":7277,"Ġjones":7278,"Ġchess":7279,"Ġseal":7280,"Ġallure":7281,"Ġherd":7282,"Ġsucks":7283,"Ġcomed":7284,"Ġabst":7285,"Ġunless":7286,"Ġample":7287,"Ġdrac":7288,"Ġski":7289,"Ġskilled":7290,"Ġspelling":7291,"Ġdeserves":7292,"Ġdesperate":7293,"uggle":7294,"Ġafl":7295,"Ġharder":7296,"cane":7297,"Ġcourts":7298,"Ġtribe":7299,"Ġlimb":7300,"Ġappealing":7301,"Ġcamel":7302,"Ġdepends":7303,"Ġrefrain":7304,"Ġpaying":7305,"Ġunderground":7306,"cially":7307,"Ġsupplies":7308,"Ġwarning":7309,"uctive":7310,"mothers":7311,"Ġqueens":7312,"Ġdispar":7313,"Ġprompt":7314,"Ġspoil":7315,"Ġopened":7316,"Ġconvin":7317,"Ġnational":7318,"Ġdescribes":7319,"Ġlaunch":7320,"Ġoccurs":7321,"Ġvictims":7322,"Ġfifth":7323,"Ġreceive":7324,"passed":7325,"Ġwelcome":7326,"Ġpurchased":7327,"Ġpirate":7328,"Ġtypical":7329,"toward":7330,"Ġfossil":7331,"Ġyacht":7332,"dig":7333,"mates":7334,"nut":7335,"nce":7336,"past":7337,"Ġathe":7338,"inet":7339,"Ġsan":7340,"Ġsket":7341,"Ġcaf":7342,"Ġwo":7343,"Ġbing":7344,"Ġbess":7345,"Ġmaker":7346,"Ġfrol":7347,"Ġdump":7348,"Ġpies":7349,"Ġpatch":7350,"Ġpounds":7351,"Ġpages":7352,"Ġtoll":7353,"alous":7354,"otions":7355,"utions":7356,"Ġwiz":7357,"osaur":7358,"Ġstake":7359,"Ġheap":7360,"amous":7361,"Ġrack":7362,"Ġroses":7363,"Ġshant":7364,"Ġshiny":7365,"unning":7366,"Ġjung":7367,"resp":7368,"Ġchains":7369,"sex":7370,"umbled":7371,"liance":7372,"Ġnoted":7373,"olves":7374,"aky":7375,"Ġsomethings":7376,"Ġcruc":7377,"Ġarose":7378,"Ġarrest":7379,"Ġbrash":7380,"Ġenjo":7381,"dev":7382,"Ġguilt":7383,"Ġglam":7384,"Ġinspired":7385,"Ġplayer":7386,"Ġhighest":7387,"Ġassign":7388,"Ġdoub":7389,"Ġzest":7390,"Ġfella":7391,"Ġshove":7392,"Ġtennis":7393,"Ġdaddy":7394,"Ġfactor":7395,"Ġinvolved":7396,"Ġstuffed":7397,"Ġhalt":7398,"Ġrelate":7399,"Ġcrossing":7400,"Ġgrounds":7401,"Ġpatience":7402,"Ġbuds":7403,"spread":7404,"Ġsailor":7405,"Ġopponents":7406,"Ġsurprised":7407,"Ġdetails":7408,"Ġenjoyed":7409,"Ġwitty":7410,"Ġmasse":7411,"Ġbuffalo":7412,"drink":7413,"Ġstroll":7414,"Ġvolume":7415,"Ġvictim":7416,"Ġestate":7417,"Ġfunds":7418,"Ġreligion":7419,"Ġeschew":7420,"Ġleisure":7421,"hi":7422,"tra":7423,"tried":7424,"za":7425,"Ġsavor":7426,"Ġcau":7427,"Ġbard":7428,"Ġhose":7429,"Ġhank":7430,"Ġfen":7431,"aria":7432,"Ġgorge":7433,"Ġnix":7434,"omatic":7435,"osure":7436,"Ġstout":7437,"Ġstance":7438,"Ġwhine":7439,"Ġreverse":7440,"Ġros":7441,"lyn":7442,"lys":7443,"Ġshoots":7444,"Ġshapes":7445,"Ġanger":7446,"Ġoer":7447,"Ġaskew":7448,"aining":7449,"Ġnod":7450,"ulted":7451,"Ġlemon":7452,"Ġclaws":7453,"anta":7454,"anti":7455,"oodles":7456,"Ġsomebody":7457,"Ġcoarse":7458,"Ġcrush":7459,"Ġcrushed":7460,"Ġabd":7461,"Ġadored":7462,"Ġroar":7463,"Ġslope":7464,"Ġgotta":7465,"Ġshoulders":7466,"Ġaward":7467,"Ġsweets":7468,"Ġresort":7469,"Ġbrid":7470,"Ġpainted":7471,"Ġwrist":7472,"Ġbroom":7473,"Ġdriven":7474,"Ġgoddess":7475,"Ġdevout":7476,"cited":7477,"Ġgrandma":7478,"Ġsubmit":7479,"ophag":7480,"Ġhurry":7481,"Ġpotatoes":7482,"Ġarchite":7483,"Ġdelights":7484,"Ġphysics":7485,"Ġproducts":7486,"Ġthousands":7487,"Ġcrystal":7488,"Ġpilot":7489,"Ġveggies":7490,"hon":7491,"mia":7492,"others":7493,"pay":7494,"wich":7495,"yll":7496,"Ġthw":7497,"Ġcoff":7498,"Ġwheres":7499,"Ġhunch":7500,"Ġfines":7501,"Ġtones":7502,"Ġdana":7503,"Ġlamp":7504,"Ġego":7505,"christ":7506,"imal":7507,"Ġmell":7508,"Ġjumped":7509,"road":7510,"Ġwithdraw":7511,"Ġalleg":7512,"Ġsod":7513,"Ġspill":7514,"Ġblush":7515,"Ġcloser":7516,"Ġflap":7517,"Ġgrub":7518,"Ġcrud":7519,"Ġcrooks":7520,"Ġsheets":7521,"few":7522,"Ġamuse":7523,"Ġnowhere":7524,"Ġmode":7525,"Ġslam":7526,"Ġstranger":7527,"Ġpleased":7528,"Ġcurren":7529,"Ġassured":7530,"Ġappalled":7531,"version":7532,"Ġreads":7533,"lope":7534,"Ġexpressed":7535,"Ġstrive":7536,"Ġgrate":7537,"Ġbury":7538,"flow":7539,"Ġbelieved":7540,"Ġflex":7541,"Ġwatched":7542,"Ġdigital":7543,"Ġspotted":7544,"Ġignor":7545,"built":7546,"Ġsailors":7547,"Ġpowerful":7548,"Ġeighty":7549,"Ġarray":7550,"Ġknocked":7551,"Ġuk":7552,"Ġwrecked":7553,"Ġfabulous":7554,"Ġbrandy":7555,"Ġincreased":7556,"Ġscreams":7557,"urious":7558,"small":7559,"piece":7560,"Ġopera":7561,"Ġchorus":7562,"Ġinnocent":7563,"Ġsymptoms":7564,"fed":7565,"fers":7566,"send":7567,"sto":7568,"Ġsid":7569,"Ġsung":7570,"Ġcen":7571,"Ġcue":7572,"Ġmike":7573,"Ġhare":7574,"Ġpout":7575,"Ġpairs":7576,"Ġgore":7577,"Ġgifts":7578,"Ġnie":7579,"Ġnip":7580,"ickets":7581,"acity":7582,"Ġeaster":7583,"Ġbeam":7584,"Ġwhip":7585,"Ġrays":7586,"unity":7587,"Ġdemean":7588,"iforn":7589,"Ġobey":7590,"Ġkent":7591,"Ġsection":7592,"quer":7593,"Ġvig":7594,"Ġclap":7595,"Ġtrout":7596,"Ġconced":7597,"Ġconcrete":7598,"Ġsomewhere":7599,"Ġusage":7600,"Ġgracious":7601,"Ġcoins":7602,"Ġcogn":7603,"Ġpots":7604,"Ġchees":7605,"Ġpeep":7606,"Ġprem":7607,"Ġperu":7608,"Ġswiss":7609,"Ġinspection":7610,"ucted":7611,"Ġassert":7612,"coll":7613,"ymph":7614,"Ġcharles":7615,"Ġballet":7616,"Ġsooner":7617,"Ġvein":7618,"Ġelation":7619,"Ġelegant":7620,"Ġtransl":7621,"Ġpenned":7622,"couldnt":7623,"Ġlaughter":7624,"Ġcrock":7625,"Ġnerd":7626,"Ġpalm":7627,"Ġcombined":7628,"Ġcircus":7629,"Ġphysic":7630,"Ġexperts":7631,"Ġunderstood":7632,"Ġheavenly":7633,"Ġprevail":7634,"Ġsuperb":7635,"Ġsample":7636,"Ġangels":7637,"Ġannoy":7638,"Ġannoyed":7639,"Ġscript":7640,"Ġpepper":7641,"Ġwrath":7642,"Ġwisdom":7643,"human":7644,"Ġdisappear":7645,"Ġdozens":7646,"aired":7647,"fted":7648,"uate":7649,"Ġhatch":7650,"Ġdy":7651,"Ġdwarf":7652,"anny":7653,"asm":7654,"Ġloop":7655,"vey":7656,"acted":7657,"ador":7658,"otch":7659,"ria":7660,"Ġstated":7661,"iring":7662,"americ":7663,"Ġov":7664,"Ġdots":7665,"Ġsperm":7666,"Ġblamed":7667,"Ġblunt":7668,"Ġimper":7669,"Ġclaw":7670,"Ġtrous":7671,"Ġconj":7672,"Ġconven":7673,"Ġboon":7674,"Ġcoke":7675,"Ġcovers":7676,"Ġcricket":7677,"Ġoutcome":7678,"Ġentered":7679,"Ġdrama":7680,"Ġjolly":7681,"Ġhotel":7682,"Ġawk":7683,"Ġstead":7684,"Ġpleas":7685,"grant":7686,"Ġreflection":7687,"Ġdistressed":7688,"Ġcalcul":7689,"Ġindul":7690,"Ġprofit":7691,"Ġsprings":7692,"Ġharvest":7693,"Ġdeclares":7694,"Ġfleet":7695,"Ġdraws":7696,"Ġsuccumb":7697,"Ġannual":7698,"Ġclimbing":7699,"Ġtricky":7700,"Ġfigures":7701,"uddled":7702,"Ġunfair":7703,"Ġhammer":7704,"Ġbonds":7705,"Ġphotos":7706,"Ġrabbit":7707,"Ġcigar":7708,"Ġpregnant":7709,"Ġconvinced":7710,"doc":7711,"fill":7712,"fine":7713,"fight":7714,"gies":7715,"gical":7716,"ige":7717,"thal":7718,"Ġay":7719,"Ġcush":7720,"Ġbamb":7721,"Ġmig":7722,"Ġfest":7723,"Ġdah":7724,"Ġlic":7725,"Ġgently":7726,"Ġtoxic":7727,"Ġstable":7728,"amph":7729,"Ġreb":7730,"imm":7731,"Ġshift":7732,"rots":7733,"Ġanaly":7734,"pets":7735,"stud":7736,"Ġsoar":7737,"Ġdove":7738,"oples":7739,"Ġclan":7740,"Ġsund":7741,"agers":7742,"Ġscales":7743,"oston":7744,"Ġunw":7745,"Ġaph":7746,"Ġbund":7747,"Ġhaste":7748,"angs":7749,"Ġnewly":7750,"Ġpeek":7751,"Ġholly":7752,"ashes":7753,"Ġfrost":7754,"Ġglare":7755,"Ġstrugg":7756,"orders":7757,"Ġresto":7758,"Ġplayers":7759,"Ġparticular":7760,"Ġdiver":7761,"Ġconfirm":7762,"Ġlimit":7763,"Ġchoir":7764,"Ġowner":7765,"Ġhorm":7766,"trans":7767,"Ġpresidents":7768,"Ġmonarch":7769,"Ġcircles":7770,"Ġregular":7771,"Ġkiller":7772,"Ġtomb":7773,"prov":7774,"Ġfollows":7775,"Ġfraud":7776,"Ġastute":7777,"Ġsqueez":7778,"Ġbuffet":7779,"Ġpractical":7780,"Ġdental":7781,"Ġattraction":7782,"Ġdragon":7783,"Ġsmoking":7784,"ulsion":7785,"Ġwealthy":7786,"Ġlabeled":7787,"Ġchampagne":7788,"Ġexcellent":7789,"Ġreckoned":7790,"Ġalphabet":7791,"Ġmammal":7792,"ophobia":7793,"Ġsisters":7794,"Ġblossoms":7795,"Ġprogram":7796,"Ġnuclear":7797,"cook":7798,"fire":7799,"ikes":7800,"phe":7801,"ster":7802,"tight":7803,"uk":7804,"Ġauss":7805,"teries":7806,"Ġcuss":7807,"Ġwanna":7808,"Ġbapt":7809,"Ġtuck":7810,"esome":7811,"Ġpals":7812,"Ġlumber":7813,"Ġgag":7814,"Ġgene":7815,"Ġtoys":7816,"ushes":7817,"Ġintest":7818,"anda":7819,"held":7820,"Ġheel":7821,"Ġreco":7822,"allow":7823,"Ġshir":7824,"Ġshiver":7825,"urt":7826,"Ġjet":7827,"sell":7828,"ila":7829,"Ġnoble":7830,"ola":7831,"apse":7832,"Ġdod":7833,"Ġblunder":7834,"Ġvap":7835,"Ġclog":7836,"Ġconn":7837,"Ġusual":7838,"Ġquack":7839,"Ġexcl":7840,"Ġexhib":7841,"Ġarise":7842,"Ġseeks":7843,"Ġabys":7844,"Ġlocks":7845,"Ġloaded":7846,"Ġsmack":7847,"Ġrolling":7848,"Ġmankind":7849,"ogue":7850,"Ġpea":7851,"Ġpeach":7852,"Ġfranc":7853,"Ġgoodness":7854,"Ġgreatly":7855,"Ġawfully":7856,"Ġlifest":7857,"Ġphony":7858,"Ġplanes":7859,"Ġcurved":7860,"Ġfunctions":7861,"Ġattic":7862,"Ġactually":7863,"Ġtraits":7864,"Ġrefle":7865,"employ":7866,"Ġedible":7867,"clean":7868,"goes":7869,"Ġskinny":7870,"Ġharry":7871,"Ġprayers":7872,"Ġthrilled":7873,"Ġarmor":7874,"Ġbuildings":7875,"Ġcatching":7876,"Ġpalace":7877,"Ġauto":7878,"Ġtightly":7879,"Ġcases":7880,"Ġoccur":7881,"Ġchickens":7882,"Ġmaine":7883,"Ġphysique":7884,"Ġconcur":7885,"Ġprecision":7886,"Ġsearching":7887,"Ġconcerned":7888,"Ġmodest":7889,"Ġhorns":7890,"ableness":7891,"handed":7892,"Ġinteres":7893,"Ġvarious":7894,"Ġlinked":7895,"Ġtunes":7896,"Ġamazing":7897,"Ġmental":7898,"Ġmirror":7899,"birds":7900,"baby":7901,"Ġowe":7902,"Ġdramatic":7903,"Ġbrilliant":7904,"bred":7905,"bought":7906,"eves":7907,"master":7908,"matic":7909,"nies":7910,"sor":7911,"town":7912,"tail":7913,"Ġsoo":7914,"Ġwins":7915,"Ġbach":7916,"Ġmuck":7917,"iser":7918,"Ġpim":7919,"Ġpate":7920,"Ġpant":7921,"leen":7922,"thet":7923,"Ġstol":7924,"Ġonto":7925,"cell":7926,"unate":7927,"Ġdew":7928,"urate":7929,"urity":7930,"Ġjan":7931,"raise":7932,"Ġasian":7933,"ometer":7934,"Ġsequ":7935,"Ġseats":7936,"Ġplug":7937,"Ġdoe":7938,"Ġfees":7939,"istically":7940,"Ġflute":7941,"ieu":7942,"Ġexec":7943,"plan":7944,"Ġunst":7945,"Ġapology":7946,"Ġrivers":7947,"ivorous":7948,"Ġburied":7949,"Ġacade":7950,"Ġaccompl":7951,"Ġmoist":7952,"angled":7953,"Ġslang":7954,"Ġcarries":7955,"Ġdescend":7956,"odes":7957,"Ġcompreh":7958,"Ġyeah":7959,"Ġdefines":7960,"Ġapplies":7961,"Ġsmaller":7962,"Ġreader":7963,"Ġbeds":7964,"Ġchoosing":7965,"Ġconserv":7966,"Ġschm":7967,"Ġfellows":7968,"Ġdepression":7969,"Ġvexed":7970,"Ġinvention":7971,"Ġretire":7972,"Ġprofits":7973,"worm":7974,"yeah":7975,"Ġobsessed":7976,"Ġspecific":7977,"Ġmovement":7978,"Ġtrained":7979,"Ġsaus":7980,"Ġfern":7981,"Ġfrag":7982,"Ġconcert":7983,"Ġgladly":7984,"Ġdollars":7985,"Ġblessing":7986,"Ġexactly":7987,"Ġholid":7988,"Ġweapons":7989,"Ġunlikely":7990,"Ġanchor":7991,"Ġelder":7992,"bin":7993,"ckey":7994,"dar":7995,"div":7996,"during":7997,"gra":7998,"graph":7999,"pat":8000,"van":8001,"Ġthirteen":8002,"rem":8003,"Ġwander":8004,"Ġbip":8005,"Ġhides":8006,"Ġtons":8007,"Ġdal":8008,"Ġdit":8009,"Ġdart":8010,"oray":8011,"Ġlen":8012,"Ġlung":8013,"Ġgast":8014,"Ġgosh":8015,"Ġtoad":8016,"Ġintend":8017,"itate":8018,"adv":8019,"Ġstash":8020,"Ġstored":8021,"Ġwhiz":8022,"Ġrue":8023,"Ġshouted":8024,"unes":8025,"verb":8026,"Ġker":8027,"Ġviv":8028,"Ġleague":8029,"ousing":8030,"Ġsomeones":8031,"Ġextens":8032,"Ġscand":8033,"Ġscored":8034,"bearing":8035,"Ġamp":8036,"aund":8037,"Ġdrought":8038,"Ġket":8039,"Ġthrust":8040,"Ġprez":8041,"Ġstrand":8042,"Ġmustard":8043,"brown":8044,"Ġcourses":8045,"seeking":8046,"Ġconfusing":8047,"Ġgirth":8048,"Ġzing":8049,"loat":8050,"Ġexposed":8051,"Ġrefined":8052,"Ġgrapes":8053,"Ġsalvation":8054,"Ġvoices":8055,"gery":8056,"Ġsuns":8057,"Ġobama":8058,"Ġboob":8059,"Ġfoolish":8060,"Ġfailure":8061,"idding":8062,"ophil":8063,"Ġhappens":8064,"Ġcleaning":8065,"Ġthrills":8066,"Ġmerry":8067,"Ġaims":8068,"Ġdelighted":8069,"Ġsoldier":8070,"Ġblocked":8071,"Ġbachel":8072,"break":8073,"Ġscreamed":8074,"Ġcamera":8075,"Ġswimming":8076,"Ġdeceased":8077,"Ġecst":8078,"Ġjudges":8079,"sweet":8080,"Ġexpertise":8081,"Ġcurtain":8082,"Ġstructure":8083,"cuz":8084,"Ġabdominal":8085,"Ġdiscern":8086,"Ġperfume":8087,"Ġsatisfaction":8088,"Ġvalley":8089,"Ġawkward":8090,"bul":8091,"cin":8092,"ew":8093,"ele":8094,"eur":8095,"fried":8096,"given":8097,"ij":8098,"kn":8099,"maid":8100,"norm":8101,"sub":8102,"Ġot":8103,"Ġum":8104,"Ġcert":8105,"Ġbands":8106,"Ġmutter":8107,"Ġhers":8108,"Ġhail":8109,"Ġfuzz":8110,"Ġts":8111,"Ġdated":8112,"Ġpall":8113,"omes":8114,"legged":8115,"Ġinch":8116,"Ġeb":8117,"ader":8118,"Ġheated":8119,"Ġwhim":8120,"Ġraid":8121,"Ġroles":8122,"unction":8123,"roach":8124,"Ġchal":8125,"Ġancest":8126,"ental":8127,"stay":8128,"Ġblacks":8129,"Ġuseless":8130,"Ġloot":8131,"iper":8132,"Ġrides":8133,"decl":8134,"Ġgull":8135,"Ġmanaged":8136,"Ġacce":8137,"Ġskins":8138,"Ġglum":8139,"Ġcarpet":8140,"Ġphase":8141,"Ġknack":8142,"Ġsnoo":8143,"Ġfriendly":8144,"ropri":8145,"Ġapparent":8146,"Ġdraft":8147,"Ġantique":8148,"Ġrecently":8149,"Ġrestaur":8150,"Ġcrying":8151,"Ġhitting":8152,"Ġhurts":8153,"Ġdealt":8154,"Ġpromote":8155,"Ġberries":8156,"Ġsticky":8157,"causing":8158,"Ġhyp":8159,"Ġsneez":8160,"Ġcircular":8161,"Ġfrail":8162,"Ġproudly":8163,"Ġbodys":8164,"Ġcosts":8165,"Ġpigs":8166,"finds":8167,"Ġconceal":8168,"ollen":8169,"Ġmicros":8170,"Ġstirred":8171,"Ġvillain":8172,"Ġdifficult":8173,"lifes":8174,"Ġpattern":8175,"Ġbleeding":8176,"Ġinternet":8177,"cen":8178,"eer":8179,"fold":8180,"ga":8181,"iop":8182,"mn":8183,"obe":8184,"rics":8185,"sad":8186,"thur":8187,"Ġsust":8188,"Ġsails":8189,"Ġced":8190,"Ġbim":8191,"Ġbile":8192,"Ġbites":8193,"Ġmoss":8194,"Ġhates":8195,"Ġhated":8196,"Ġta":8197,"Ġtide":8198,"Ġlis":8199,"Ġlore":8200,"Ġlens":8201,"Ġloser":8202,"Ġnative":8203,"Ġtoilet":8204,"Ġech":8205,"Ġsto":8206,"Ġstack":8207,"Ġstairs":8208,"Ġrely":8209,"Ġrand":8210,"Ġweeds":8211,"ceeds":8212,"unlike":8213,"Ġdean":8214,"Ġitll":8215,"Ġjazz":8216,"Ġchaps":8217,"Ġaspir":8218,"Ġsealed":8219,"umen":8220,"lips":8221,"ainted":8222,"Ġarea":8223,"Ġorn":8224,"Ġblend":8225,"Ġshells":8226,"Ġabode":8227,"outing":8228,"Ġenchant":8229,"Ġpeter":8230,"Ġcarb":8231,"mental":8232,"Ġswam":8233,"alex":8234,"Ġcompared":8235,"ucation":8236,"Ġrepute":8237,"ropos":8238,"Ġeveryones":8239,"Ġconfl":8240,"Ġaccent":8241,"Ġballoon":8242,"Ġsleeve":8243,"Ġpasta":8244,"Ġextinct":8245,"Ġsignal":8246,"Ġfleas":8247,"Ġprayed":8248,"join":8249,"proof":8250,"Ġspoon":8251,"Ġlayer":8252,"Ġwidely":8253,"Ġthreate":8254,"Ġphysician":8255,"Ġideas":8256,"Ġpaintings":8257,"Ġkicked":8258,"Ġchewing":8259,"Ġoxy":8260,"Ġscotland":8261,"Ġtemperature":8262,"Ġcrisp":8263,"craft":8264,"damn":8265,"Ġlungs":8266,"Ġchamber":8267,"Ġriddle":8268,"bish":8269,"bute":8270,"backs":8271,"cup":8272,"care":8273,"gled":8274,"gold":8275,"iat":8276,"mith":8277,"mel":8278,"pur":8279,"rors":8280,"sent":8281,"tis":8282,"tie":8283,"vious":8284,"Ġari":8285,"Ġsends":8286,"teem":8287,"regard":8288,"Ġbic":8289,"Ġmol":8290,"Ġhaz":8291,"Ġitems":8292,"erts":8293,"isters":8294,"Ġpathetic":8295,"arms":8296,"Ġlin":8297,"Ġlance":8298,"Ġga":8299,"Ġnails":8300,"usk":8301,"ita":8302,"Ġeel":8303,"rix":8304,"Ġrecl":8305,"Ġreasons":8306,"Ġrav":8307,"Ġratt":8308,"Ġshares":8309,"Ġjuly":8310,"star":8311,"stra":8312,"Ġplumb":8313,"abor":8314,"Ġherself":8315,"Ġspree":8316,"Ġsphere":8317,"Ġspaces":8318,"Ġclich":8319,"Ġclues":8320,"Ġboost":8321,"Ġgrouse":8322,"Ġscold":8323,"Ġscoop":8324,"Ġabused":8325,"Ġdisorder":8326,"Ġbrute":8327,"Ġunh":8328,"noon":8329,"Ġdrastic":8330,"Ġslur":8331,"Ġglands":8332,"Ġendorse":8333,"Ġsteady":8334,"Ġbarber":8335,"Ġfoundation":8336,"boys":8337,"Ġhello":8338,"grow":8339,"Ġcommer":8340,"Ġdeadly":8341,"Ġimplies":8342,"Ġaccused":8343,"Ġsetting":8344,"Ġstriking":8345,"Ġstrikes":8346,"Ġstatement":8347,"Ġleading":8348,"Ġcyst":8349,"Ġpicking":8350,"Ġangles":8351,"Ġmoral":8352,"gency":8353,"Ġjohns":8354,"Ġsneer":8355,"Ġpreparing":8356,"Ġcreek":8357,"Ġdetermined":8358,"Ġvillage":8359,"holy":8360,"Ġjacket":8361,"Ġnonsense":8362,"Ġopinion":8363,"Ġprivate":8364,"Ġeconom":8365,"spring":8366,"Ġcondemn":8367,"Ġalkal":8368,"yearold":8369,"Ġshrewd":8370,"Ġenjoys":8371,"bath":8372,"din":8373,"dish":8374,"eld":8375,"jud":8376,"mad":8377,"ois":8378,"pto":8379,"pop":8380,"rise":8381,"rations":8382,"Ġack":8383,"Ġsage":8384,"Ġsank":8385,"Ġthie":8386,"Ġthumbs":8387,"Ġbour":8388,"Ġmama":8389,"enda":8390,"Ġdow":8391,"Ġdand":8392,"Ġpian":8393,"Ġlick":8394,"Ġlouse":8395,"Ġlane":8396,"Ġgory":8397,"Ġtodd":8398,"Ġelf":8399,"otted":8400,"utation":8401,"Ġheels":8402,"ooted":8403,"Ġsharing":8404,"una":8405,"Ġdebut":8406,"Ġdeals":8407,"Ġjury":8408,"roit":8409,"Ġchape":8410,"rather":8411,"several":8412,"Ġkills":8413,"lived":8414,"Ġcane":8415,"Ġspied":8416,"igs":8417,"Ġcontest":8418,"Ġbov":8419,"Ġbother":8420,"Ġcrus":8421,"Ġyanks":8422,"pling":8423,"Ġabate":8424,"Ġdisse":8425,"Ġunion":8426,"Ġripe":8427,"ichael":8428,"dead":8429,"Ġponder":8430,"Ġtwitch":8431,"Ġslime":8432,"Ġdeserve":8433,"Ġinspire":8434,"Ġstepped":8435,"Ġstealing":8436,"Ġbroker":8437,"Ġassault":8438,"Ġreports":8439,"Ġactin":8440,"Ġsupreme":8441,"Ġconfessed":8442,"ounted":8443,"Ġcoral":8444,"Ġdepos":8445,"Ġnearby":8446,"Ġdevils":8447,"Ġelastic":8448,"chem":8449,"Ġfloors":8450,"Ġrelations":8451,"Ġevidence":8452,"Ġdining":8453,"Ġexplode":8454,"Ġshrug":8455,"Ġarchaic":8456,"Ġdelivered":8457,"Ġautumn":8458,"terior":8459,"Ġtrains":8460,"Ġdescribing":8461,"Ġneatly":8462,"Ġdetail":8463,"Ġdestr":8464,"Ġmemory":8465,"finding":8466,"Ġpinch":8467,"Ġaxe":8468,"Ġmidst":8469,"Ġestabl":8470,"Ġachieved":8471,"Ġjudgment":8472,"Ġruined":8473,"Ġpoisonous":8474,"Ġremarked":8475,"Ġperformance":8476,"Ġdestroyed":8477,"Ġvessels":8478,"Ġaugust":8479,"Ġaustralia":8480,"minded":8481,"Ġcaesar":8482,"Ġslaughter":8483,"Ġaisle":8484,"Ġgossip":8485,"Ġtrousers":8486,"agh":8487,"caught":8488,"capt":8489,"fact":8490,"hh":8491,"kins":8492,"later":8493,"tion":8494,"tles":8495,"xy":8496,"thed":8497,"Ġail":8498,"Ġsip":8499,"oup":8500,"Ġcinch":8501,"Ġbers":8502,"Ġbows":8503,"Ġbounce":8504,"Ġhag":8505,"Ġitem":8506,"Ġfizz":8507,"Ġfulf":8508,"isto":8509,"Ġporn":8510,"Ġlurch":8511,"Ġnavy":8512,"Ġintention":8513,"Ġwits":8514,"Ġstool":8515,"idly":8516,"idity":8517,"Ġreplaced":8518,"Ġrye":8519,"whatever":8520,"Ġforb":8521,"Ġmeek":8522,"Ġjaws":8523,"Ġchairs":8524,"entric":8525,"Ġwashed":8526,"Ġcanadian":8527,"Ġorgans":8528,"Ġatm":8529,"Ġdoomed":8530,"Ġspleen":8531,"Ġlex":8532,"ardly":8533,"Ġtract":8534,"Ġtrump":8535,"isting":8536,"Ġcracks":8537,"Ġbrun":8538,"Ġmoth":8539,"Ġcheating":8540,"armed":8541,"Ġsteve":8542,"Ġbarge":8543,"Ġbarred":8544,"Ġmarvel":8545,"uffed":8546,"Ġgeez":8547,"Ġcomments":8548,"Ġaccr":8549,"Ġtragic":8550,"Ġfishes":8551,"Ġexpense":8552,"Ġantib":8553,"Ġdepth":8554,"Ġgrill":8555,"Ġpresence":8556,"Ġmonkey":8557,"move":8558,"ception":8559,"Ġcouncil":8560,"Ġcookies":8561,"Ġdealing":8562,"Ġmagical":8563,"Ġraising":8564,"Ġmales":8565,"Ġsailed":8566,"Ġbacteri":8567,"Ġsilence":8568,"Ġcapture":8569,"Ġelectrons":8570,"Ġbottles":8571,"Ġhunger":8572,"Ġtummy":8573,"Ġtourists":8574,"Ġconstruction":8575,"Ġyields":8576,"Ġpronounced":8577,"Ġstreams":8578,"Ġopinions":8579,"Ġincredible":8580,"Ġperplexed":8581,"Ġstolen":8582,"cate":8583,"een":8584,"iar":8585,"iotic":8586,"tim":8587,"yp":8588,"Ġaard":8589,"inas":8590,"Ġsag":8591,"Ġsten":8592,"Ġsunk":8593,"oux":8594,"Ġbalk":8595,"Ġbaker":8596,"onent":8597,"onge":8598,"Ġfasc":8599,"Ġdave":8600,"Ġdud":8601,"anke":8602,"Ġnib":8603,"Ġtodays":8604,"omin":8605,"icide":8606,"Ġincome":8607,"acles":8608,"Ġrender":8609,"Ġrecomm":8610,"Ġrag":8611,"Ġdefect":8612,"Ġford":8613,"rock":8614,"rolled":8615,"Ġanth":8616,"raged":8617,"ifted":8618,"Ġoc":8619,"Ġseam":8620,"illes":8621,"pecially":8622,"liest":8623,"living":8624,"Ġcanvas":8625,"abbed":8626,"Ġconten":8627,"Ġarthr":8628,"inkle":8629,"Ġador":8630,"beware":8631,"Ġunit":8632,"Ġamen":8633,"Ġsmar":8634,"Ġsmith":8635,"Ġsmash":8636,"ighten":8637,"shine":8638,"Ġemail":8639,"Ġemper":8640,"Ġmayor":8641,"Ġglut":8642,"Ġglorious":8643,"Ġswollen":8644,"Ġinsurance":8645,"ods":8646,"Ġheading":8647,"Ġsnakes":8648,"Ġassure":8649,"Ġserge":8650,"ologys":8651,"Ġlightning":8652,"Ġcharges":8653,"Ġexpensive":8654,"Ġrecr":8655,"chet":8656,"Ġelection":8657,"Ġmineral":8658,"Ġdarkness":8659,"Ġcounts":8660,"Ġloudly":8661,"Ġrequires":8662,"Ġclimate":8663,"Ġsneak":8664,"Ġsenses":8665,"pretty":8666,"racts":8667,"Ġnutrition":8668,"Ġbubbles":8669,"Ġunfur":8670,"Ġdeceit":8671,"Ġargue":8672,"Ġwhiskey":8673,"Ġrhyming":8674,"Ġschemes":8675,"Ġtarget":8676,"choose":8677,"Ġmaiden":8678,"Ġironic":8679,"Ġinsect":8680,"uminous":8681,"Ġcigaret":8682,"Ġjapanese":8683,"Ġenhance":8684,"Ġanxious":8685,"Ġvitamin":8686,"Ġthoroughly":8687,"clearly":8688,"Ġaplomb":8689,"food":8690,"gi":8691,"hu":8692,"kids":8693,"ront":8694,"rows":8695,"yield":8696,"thank":8697,"Ġald":8698,"Ġara":8699,"Ġamy":8700,"inlaw":8701,"Ġcone":8702,"Ġcooks":8703,"Ġwrap":8704,"Ġbs":8705,"oning":8706,"Ġmound":8707,"Ġfowl":8708,"Ġties":8709,"erb":8710,"erie":8711,"Ġdose":8712,"Ġdiction":8713,"Ġpaste":8714,"engl":8715,"Ġlair":8716,"Ġlush":8717,"Ġgel":8718,"Ġnu":8719,"Ġnil":8720,"Ġnigh":8721,"alph":8722,"anding":8723,"Ġelite":8724,"Ġbeaver":8725,"kept":8726,"Ġstan":8727,"idal":8728,"Ġhears":8729,"whom":8730,"unts":8731,"ura":8732,"Ġoath":8733,"sea":8734,"selling":8735,"Ġsem":8736,"pelled":8737,"Ġherbs":8738,"Ġvary":8739,"open":8740,"Ġcontempt":8741,"Ġtee":8742,"Ġcrows":8743,"Ġyank":8744,"Ġsheen":8745,"Ġscope":8746,"Ġbrace":8747,"Ġadieu":8748,"been":8749,"Ġbutcher":8750,"Ġunt":8751,"Ġprud":8752,"Ġbully":8753,"shall":8754,"Ġmoll":8755,"ogical":8756,"Ġaged":8757,"Ġslug":8758,"pleasant":8759,"Ġthrong":8760,"Ġhowl":8761,"Ġbrig":8762,"Ġsnore":8763,"Ġrepubl":8764,"Ġdecre":8765,"Ġconsume":8766,"Ġantip":8767,"Ġlesson":8768,"Ġrecogn":8769,"Ġflowing":8770,"Ġburgl":8771,"Ġclassical":8772,"Ġfinanc":8773,"iffed":8774,"Ġnicely":8775,"played":8776,"Ġwished":8777,"Ġcolleagues":8778,"Ġbasic":8779,"Ġentire":8780,"ificent":8781,"Ġcasting":8782,"Ġexplo":8783,"Ġromantic":8784,"Ġengaged":8785,"Ġequip":8786,"Ġkissing":8787,"Ġdespise":8788,"Ġprovo":8789,"Ġprovides":8790,"Ġannounced":8791,"Ġhydro":8792,"Ġtongues":8793,"Ġmainly":8794,"Ġchopped":8795,"Ġessence":8796,"Ġcatholic":8797,"Ġjourney":8798,"Ġwrapped":8799,"Ġpearl":8800,"lovely":8801,"zzzzzzzz":8802,"Ġchronic":8803,"Ġencountered":8804,"Ġitalian":8805,"Ġcannibal":8806,"Ġczar":8807,"Ġsecrets":8808,"caveman":8809,"Ġberserk":8810,"dry":8811,"fin":8812,"haped":8813,"hole":8814,"mart":8815,"oer":8816,"pas":8817,"puts":8818,"sounds":8819,"Ġaye":8820,"inte":8821,"infl":8822,"Ġcinn":8823,"Ġcunning":8824,"Ġwag":8825,"Ġmend":8826,"Ġmim":8827,"Ġhym":8828,"Ġhiding":8829,"Ġire":8830,"enders":8831,"Ġfires":8832,"anne":8833,"anthrop":8834,"aser":8835,"Ġlac":8836,"Ġgist":8837,"Ġtoot":8838,"omat":8839,"Ġinher":8840,"alg":8841,"Ġeh":8842,"Ġeffic":8843,"adle":8844,"hea":8845,"Ġstared":8846,"Ġheir":8847,"Ġonline":8848,"ional":8849,"Ġren":8850,"unting":8851,"Ġanem":8852,"Ġasp":8853,"ometers":8854,"Ġkit":8855,"Ġseize":8856,"Ġallows":8857,"Ġspat":8858,"Ġvamp":8859,"Ġgoof":8860,"icken":8861,"Ġyo":8862,"Ġabund":8863,"Ġbrat":8864,"nets":8865,"Ġenli":8866,"Ġpoke":8867,"Ġswoon":8868,"venge":8869,"Ġfrightened":8870,"Ġstewed":8871,"therell":8872,"Ġtrek":8873,"ucts":8874,"comb":8875,"Ġyeast":8876,"tess":8877,"Ġattor":8878,"Ġappend":8879,"Ġconfir":8880,"Ġtripped":8881,"Ġcolumn":8882,"Ġlightly":8883,"Ġindust":8884,"Ġeleven":8885,"Ġceased":8886,"Ġclover":8887,"worms":8888,"guard":8889,"Ġconditions":8890,"moving":8891,"keeper":8892,"Ġwondering":8893,"Ġpops":8894,"Ġsatan":8895,"Ġcroc":8896,"Ġwarming":8897,"Ġmassive":8898,"Ġavoiding":8899,"Ġcombat":8900,"Ġgardens":8901,"Ġhundreds":8902,"breaking":8903,"Ġprecious":8904,"Ġastronom":8905,"Ġparent":8906,"Ġsystems":8907,"Ġacquired":8908,"Ġphilosoph":8909,"Ġresistance":8910,"Ġcousins":8911,"ogenic":8912,"Ġcrystals":8913,"Ġbeetles":8914,"Ġdiamonds":8915,"Ġcustomers":8916,"Ġsociety":8917,"Ġscientists":8918,"Ġmosquit":8919,"Ġsyndrome":8920,"Ġmellow":8921,"books":8922,"cour":8923,"cys":8924,"del":8925,"gage":8926,"hill":8927,"hope":8928,"lay":8929,"none":8930,"oos":8931,"rays":8932,"teous":8933,"Ġcot":8934,"Ġcly":8935,"Ġbatch":8936,"Ġmop":8937,"Ġmule":8938,"Ġhull":8939,"Ġfas":8940,"Ġfathers":8941,"Ġdall":8942,"Ġpipes":8943,"arp":8944,"arily":8945,"Ġlament":8946,"Ġgor":8947,"Ġgab":8948,"Ġgills":8949,"icion":8950,"almost":8951,"Ġbegg":8952,"Ġbeaten":8953,"hears":8954,"Ġstacked":8955,"Ġwhales":8956,"Ġwhirl":8957,"Ġreap":8958,"Ġrang":8959,"lying":8960,"Ġchol":8961,"Ġasia":8962,"Ġkl":8963,"Ġliar":8964,"wels":8965,"Ġplaster":8966,"uled":8967,"antage":8968,"Ġgob":8969,"Ġgrat":8970,"udder":8971,"agu":8972,"asses":8973,"Ġabo":8974,"Ġbricks":8975,"Ġadorn":8976,"became":8977,"Ġenem":8978,"Ġunfort":8979,"Ġsmirk":8980,"Ġguards":8981,"Ġtwit":8982,"Ġcheered":8983,"Ġpets":8984,"ossed":8985,"Ġoffense":8986,"Ġgland":8987,"Ġinsists":8988,"Ġstruggle":8989,"Ġfoam":8990,"ody":8991,"Ġafloat":8992,"Ġcompounds":8993,"boards":8994,"uces":8995,"Ġshower":8996,"Ġappet":8997,"Ġairs":8998,"Ġbedroom":8999,"loving":9000,"Ġowners":9001,"Ġtowards":9002,"Ġdisturb":9003,"Ġsleek":9004,"Ġfinest":9005,"Ġsubjects":9006,"Ġfailing":9007,"Ġhappily":9008,"Ġsplash":9009,"Ġpolish":9010,"Ġvisions":9011,"Ġobsess":9012,"Ġobserved":9013,"Ġpositive":9014,"Ġsmelly":9015,"joe":9016,"Ġpetals":9017,"Ġalig":9018,"Ġspreading":9019,"Ġcrowds":9020,"Ġberry":9021,"Ġsources":9022,"terious":9023,"californ":9024,"Ġtraining":9025,"Ġpulling":9026,"Ġbullet":9027,"Ġsandwich":9028,"Ġdiseases":9029,"Ġvalues":9030,"Ġembry":9031,"Ġportra":9032,"Ġmask":9033,"Ġmelt":9034,"cules":9035,"Ġprospects":9036,"Ġpoetry":9037,"colored":9038,"Ġswallowed":9039,"iticians":9040,"Ġlouis":9041,"Ġhabits":9042,"Ġjournal":9043,"Ġfavou":9044,"Ġmedicine":9045,"Ġaccording":9046,"Ġmammals":9047,"Ġchromos":9048,"etti":9049,"Ġmonster":9050,"Ġemphatic":9051,"Ġbranches":9052,"Ġpizza":9053,"Ġentrance":9054,"circ":9055,"Ġdavid":9056,"bore":9057,"coun":9058,"done":9059,"lam":9060,"laid":9061,"prom":9062,"pack":9063,"wait":9064,"Ġaj":9065,"inting":9066,"Ġmont":9067,"Ġmull":9068,"Ġmatt":9069,"Ġmrs":9070,"Ġha":9071,"Ġhos":9072,"Ġhunk":9073,"Ġfount":9074,"Ġtag":9075,"Ġdung":9076,"Ġduct":9077,"esis":9078,"ati":9079,"Ġpuss":9080,"Ġlinks":9081,"Ġnay":9082,"Ġnile":9083,"ustered":9084,"Ġinfect":9085,"Ġinform":9086,"along":9087,"kel":9088,"Ġwil":9089,"etys":9090,"Ġdetest":9091,"Ġchalk":9092,"raising":9093,"Ġlily":9094,"Ġatoms":9095,"Ġworried":9096,"Ġbluff":9097,"opl":9098,"Ġclutch":9099,"Ġexe":9100,"Ġexh":9101,"Ġexcited":9102,"Ġarmed":9103,"Ġdisagree":9104,"Ġadapt":9105,"Ġbutts":9106,"Ġprints":9107,"Ġbuys":9108,"Ġtwisted":9109,"Ġchewed":9110,"Ġjock":9111,"Ġsliced":9112,"Ġoffers":9113,"wasnt":9114,"ubber":9115,"iah":9116,"Ġstrut":9117,"arming":9118,"Ġknives":9119,"Ġcompose":9120,"Ġsnail":9121,"Ġcaus":9122,"grown":9123,"ymes":9124,"Ġadding":9125,"Ġfearful":9126,"throw":9127,"Ġcollar":9128,"Ġcollapse":9129,"Ġfallen":9130,"Ġdistur":9131,"conne":9132,"Ġvotes":9133,"otta":9134,"Ġbabys":9135,"Ġretired":9136,"Ġhumble":9137,"Ġfatal":9138,"Ġwheeze":9139,"Ġbringing":9140,"Ġmiser":9141,"Ġentw":9142,"Ġtalents":9143,"Ġbleep":9144,"Ġdiner":9145,"Ġlegit":9146,"Ġteaching":9147,"Ġdispers":9148,"Ġcandles":9149,"Ġshops":9150,"Ġchristians":9151,"Ġscram":9152,"Ġurine":9153,"Ġranks":9154,"Ġcentral":9155,"Ġimmers":9156,"cretion":9157,"Ġastron":9158,"Ġdwelling":9159,"Ġlandsc":9160,"commod":9161,"Ġexcel":9162,"Ġbeetle":9163,"Ġshriek":9164,"Ġnegative":9165,"Ġtests":9166,"Ġcandidate":9167,"Ġfarewell":9168,"Ġbombs":9169,"Ġsafety":9170,"Ġalternate":9171,"Ġlonely":9172,"Ġcloset":9173,"Ġseparate":9174,"Ġcocaine":9175,"Ġlifestyle":9176,"Ġholiday":9177,"Ġoxygen":9178,"aer":9179,"ben":9180,"bib":9181,"cation":9182,"dan":9183,"fing":9184,"gling":9185,"kno":9186,"mrs":9187,"nice":9188,"rayed":9189,"sch":9190,"serve":9191,"tons":9192,"tween":9193,"vae":9194,"wn":9195,"wash":9196,"yard":9197,"Ġsow":9198,"Ġsab":9199,"Ġthorn":9200,"ourage":9201,"Ġcate":9202,"ona":9203,"Ġil":9204,"Ġiv":9205,"Ġfaux":9206,"Ġdome":9207,"isation":9208,"ingle":9209,"Ġna":9210,"Ġnas":9211,"acet":9212,"otal":9213,"osph":9214,"iments":9215,"cephal":9216,"Ġjest":9217,"lib":9218,"Ġspun":9219,"Ġwilliam":9220,"Ġquer":9221,"Ġqual":9222,"Ġquiz":9223,"Ġgram":9224,"Ġcoco":9225,"Ġarrested":9226,"Ġscal":9227,"bears":9228,"Ġproced":9229,"Ġunus":9230,"Ġamorous":9231,"Ġprinc":9232,"Ġsmitten":9233,"shot":9234,"showed":9235,"Ġpoets":9236,"Ġpoetic":9237,"Ġpeoples":9238,"Ġagn":9239,"Ġglob":9240,"Ġcleans":9241,"Ġprefix":9242,"Ġcarved":9243,"Ġawait":9244,"Ġwaited":9245,"Ġstems":9246,"Ġthroughout":9247,"Ġbarbe":9248,"Ġident":9249,"Ġsnug":9250,"Ġassess":9251,"Ġdefl":9252,"ibility":9253,"Ġchoices":9254,"azing":9255,"Ġcork":9256,"Ġcharts":9257,"Ġdistract":9258,"Ġstride":9259,"Ġbiology":9260,"Ġesteem":9261,"Ġobvious":9262,"Ġstandard":9263,"worthy":9264,"Ġmaam":9265,"Ġentice":9266,"Ġpatrons":9267,"Ġposh":9268,"joined":9269,"iasis":9270,"Ġberlin":9271,"Ġsailing":9272,"Ġthinner":9273,"Ġsilent":9274,"ifferent":9275,"Ġfrogs":9276,"Ġcommonly":9277,"Ġdarwin":9278,"Ġvibr":9279,"Ġgarlic":9280,"Ġeffective":9281,"Ġoughta":9282,"Ġconcealed":9283,"Ġbeside":9284,"Ġmotor":9285,"Ġdismayed":9286,"Ġissues":9287,"turns":9288,"Ġhollow":9289,"Ġresponded":9290,"Ġreleased":9291,"Ġhenry":9292,"Ġgroove":9293,"Ġfrolic":9294,"Ġecstatic":9295,"Ġunfortunate":9296,"bys":9297,"corn":9298,"fo":9299,"fat":9300,"fred":9301,"gate":9302,"ii":9303,"ithe":9304,"oly":9305,"pot":9306,"wa":9307,"wri":9308,"wall":9309,"inv":9310,"inent":9311,"Ġsums":9312,"tere":9313,"Ġcum":9314,"Ġbart":9315,"Ġbaz":9316,"Ġboston":9317,"Ġmuff":9318,"Ġhounds":9319,"Ġtables":9320,"Ġdazz":9321,"eding":9322,"Ġpins":9323,"Ġlard":9324,"Ġlions":9325,"Ġgest":9326,"Ġgates":9327,"Ġnud":9328,"omorph":9329,"letes":9330,"kered":9331,"Ġheights":9332,"child":9333,"Ġforgive":9334,"Ġchump":9335,"Ġkil":9336,"Ġliter":9337,"upt":9338,"Ġalley":9339,"Ġplas":9340,"Ġlevels":9341,"Ġclocks":9342,"igent":9343,"Ġtele":9344,"amel":9345,"Ġcrashed":9346,"Ġarse":9347,"Ġarcane":9348,"Ġscor":9349,"avoid":9350,"Ġadhere":9351,"Ġguile":9352,"actic":9353,"mered":9354,"Ġhooray":9355,"Ġneednt":9356,"Ġdescent":9357,"Ġtherefore":9358,"Ġfriday":9359,"Ġsteed":9360,"Ġbargain":9361,"ggle":9362,"Ġknit":9363,"doctor":9364,"angel":9365,"Ġcaution":9366,"Ġactual":9367,"Ġsweetly":9368,"Ġhearty":9369,"Ġvel":9370,"concer":9371,"pective":9372,"strong":9373,"Ġbabes":9374,"Ġcellar":9375,"working":9376,"Ġsolved":9377,"Ġengra":9378,"carbon":9379,"Ġjuan":9380,"Ġapproached":9381,"Ġsighs":9382,"Ġauntie":9383,"Ġpossibly":9384,"Ġhalls":9385,"Ġfirmly":9386,"Ġexpecting":9387,"Ġrepeated":9388,"Ġconcerns":9389,"Ġimpressive":9390,"Ġclient":9391,"front":9392,"folk":9393,"Ġjerks":9394,"large":9395,"Ġbuddies":9396,"Ġorchest":9397,"Ġpacific":9398,"Ġguarantee":9399,"Ġexceedingly":9400,"Ġcorpse":9401,"Ġpotential":9402,"Ġcerebr":9403,"Ġfeminine":9404,"Ġreversed":9405,"Ġsixty":9406,"Ġfinesse":9407,"Ġsausage":9408,"afe":9409,"bare":9410,"bright":9411,"cule":9412,"dress":9413,"dressed":9414,"ect":9415,"fa":9416,"fy":9417,"fifty":9418,"hoo":9419,"hist":9420,"oqu":9421,"sam":9422,"vable":9423,"Ġll":9424,"thic":9425,"Ġsie":9426,"Ġsights":9427,"Ġthug":9428,"Ġthomas":9429,"Ġwage":9430,"Ġbaking":9431,"Ġbah":9432,"Ġbount":9433,"Ġmines":9434,"Ġtire":9435,"Ġticket":9436,"Ġdna":9437,"atious":9438,"enic":9439,"inged":9440,"arians":9441,"Ġgus":9442,"Ġnave":9443,"Ġinner":9444,"uting":9445,"Ġstale":9446,"Ġstyl":9447,"Ġrows":9448,"chron":9449,"Ġshines":9450,"Ġjacks":9451,"resent":9452,"robes":9453,"Ġouter":9454,"umns":9455,"style":9456,"ulus":9457,"ulting":9458,"Ġsob":9459,"Ġspur":9460,"Ġsponge":9461,"Ġbled":9462,"ounding":9463,"opp":9464,"tedly":9465,"Ġgoats":9466,"Ġgolly":9467,"Ġfloo":9468,"Ġcros":9469,"Ġshepher":9470,"Ġscam":9471,"Ġscree":9472,"Ġscraw":9473,"Ġalmond":9474,"iph":9475,"Ġuni":9476,"Ġrivals":9477,"Ġroy":9478,"Ġrolled":9479,"Ġrocket":9480,"psy":9481,"Ġemotions":9482,"ensed":9483,"phil":9484,"Ġilleg":9485,"Ġfris":9486,"Ġpercent":9487,"Ġperformed":9488,"Ġfrighten":9489,"berg":9490,"Ġstealth":9491,"ocy":9492,"boat":9493,"complete":9494,"Ġgems":9495,"Ġdefining":9496,"Ġattire":9497,"reading":9498,"Ġactress":9499,"Ġactiv":9500,"Ġconfined":9501,"Ġpriests":9502,"Ġremained":9503,"Ġwanting":9504,"Ġcaper":9505,"Ġcapit":9506,"Ġera":9507,"Ġfreely":9508,"Ġdepths":9509,"Ġartists":9510,"Ġveins":9511,"Ġinvite":9512,"Ġinviting":9513,"Ġelement":9514,"Ġgrandpa":9515,"Ġgenius":9516,"obia":9517,"atively":9518,"Ġlately":9519,"Ġsignals":9520,"Ġbalm":9521,"Ġfitting":9522,"Ġqueasy":9523,"Ġentry":9524,"Ġsolo":9525,"Ġcookie":9526,"Ġcomplains":9527,"Ġfollowing":9528,"Ġrisky":9529,"ographer":9530,"Ġbacteria":9531,"Ġhangs":9532,"Ġdecidedly":9533,"contin":9534,"ixture":9535,"Ġdumped":9536,"Ġconsumed":9537,"Ġholler":9538,"Ġcommittee":9539,"Ġreactions":9540,"Ġrussian":9541,"Ġwritings":9542,"Ġbeguile":9543,"quisite":9544,"Ġaggressive":9545,"extra":9546,"Ġstubborn":9547,"Ġenthrall":9548,"Ġscottish":9549,"Ġbachelor":9550,"brain":9551,"cock":9552,"cuss":9553,"dream":9554,"felt":9555,"gun":9556,"hung":9557,"nas":9558,"pid":9559,"pies":9560,"ss":9561,"tt":9562,"thin":9563,"Ġaft":9564,"inthe":9565,"Ġcres":9566,"Ġcuc":9567,"Ġcured":9568,"Ġtheft":9569,"Ġmint":9570,"Ġfad":9571,"Ġtat":9572,"Ġdc":9573,"Ġdared":9574,"Ġdaring":9575,"enny":9576,"asis":9577,"Ġlyn":9578,"Ġgad":9579,"Ġtox":9580,"Ġinept":9581,"acon":9582,"otomy":9583,"aments":9584,"Ġthatll":9585,"Ġracing":9586,"Ġshaft":9587,"unct":9588,"Ġmead":9589,"together":9590,"Ġchurn":9591,"Ġchased":9592,"Ġchilly":9593,"raught":9594,"Ġsells":9595,"Ġcanoe":9596,"Ġblot":9597,"soci":9598,"Ġclums":9599,"Ġsubt":9600,"Ġflown":9601,"Ġboards":9602,"ishness":9603,"Ġquake":9604,"ickers":9605,"Ġoutdo":9606,"plate":9607,"Ġscars":9608,"Ġscatter":9609,"aval":9610,"Ġloaf":9611,"ipal":9612,"Ġunseen":9613,"Ġamiss":9614,"Ġapropos":9615,"Ġgrease":9616,"Ġsmashed":9617,"Ġacted":9618,"Ġmoose":9619,"Ġslob":9620,"Ġhoard":9621,"Ġglows":9622,"Ġbacked":9623,"bster":9624,"Ġbarbar":9625,"Ġmarine":9626,"ancer":9627,"Ġbetty":9628,"Ġoverse":9629,"Ġsurgery":9630,"ucing":9631,"Ġassigned":9632,"Ġrepose":9633,"Ġdivers":9634,"Ġappreh":9635,"Ġreduce":9636,"Ġaddiction":9637,"Ġcorrupt":9638,"Ġscholar":9639,"Ġbiting":9640,"Ġfisher":9641,"Ġdistingu":9642,"Ġnorthern":9643,"Ġwhites":9644,"Ġlads":9645,"Ġclassic":9646,"Ġbikin":9647,"Ġreality":9648,"Ġstaying":9649,"Ġpresume":9650,"Ġavail":9651,"Ġcountrys":9652,"Ġsprout":9653,"Ġstronger":9654,"Ġaffirm":9655,"Ġdropping":9656,"Ġworthy":9657,"Ġannounce":9658,"Ġembro":9659,"Ġfamilys":9660,"Ġelectrical":9661,"Ġcolorful":9662,"thinking":9663,"Ġsafely":9664,"Ġquarrel":9665,"Ġruin":9666,"Ġtubes":9667,"Ġamazed":9668,"iliar":9669,"Ġextremely":9670,"Ġtissues":9671,"Ġcelest":9672,"Ġbattery":9673,"Ġnouns":9674,"Ġsolemn":9675,"Ġchallenged":9676,"Ġfirms":9677,"Ġmushrooms":9678,"Ġabstract":9679,"Ġeighteen":9680,"respond":9681,"Ġgorgeous":9682,"Ġmarvelous":9683,"Ġfavourite":9684,"blind":9685,"fits":9686,"log":9687,"pow":9688,"save":9689,"wow":9690,"wife":9691,"yer":9692,"thinks":9693,"Ġathen":9694,"Ġsax":9695,"Ġsulf":9696,"Ġcs":9697,"Ġcus":9698,"Ġcine":9699,"Ġcact":9700,"Ġbicy":9701,"Ġmaps":9702,"Ġhats":9703,"Ġtony":9704,"Ġtonic":9705,"Ġdens":9706,"Ġdizzy":9707,"Ġpli":9708,"Ġpel":9709,"Ġlure":9710,"Ġgender":9711,"Ġnag":9712,"Ġinhib":9713,"ida":9714,"Ġwhist":9715,"Ġwhistle":9716,"Ġrevel":9717,"Ġreeling":9718,"Ġramp":9719,"immer":9720,"Ġshades":9721,"Ġchaste":9722,"Ġaster":9723,"Ġplank":9724,"Ġspies":9725,"Ġspilled":9726,"Ġfeeds":9727,"Ġvin":9728,"Ġvul":9729,"onel":9730,"opping":9731,"Ġconcent":9732,"mys":9733,"Ġboiled":9734,"Ġexquisite":9735,"uding":9736,"Ġoutrage":9737,"Ġarteries":9738,"Ġscour":9739,"Ġdisk":9740,"Ġaden":9741,"Ġproclaimed":9742,"Ġunkind":9743,"shoot":9744,"Ġpointed":9745,"clock":9746,"meet":9747,"Ġslap":9748,"Ġsloth":9749,"Ġillusion":9750,"Ġcarri":9751,"Ġcarol":9752,"Ġawesome":9753,"teness":9754,"Ġinspir":9755,"ucking":9756,"Ġtread":9757,"manent":9758,"Ġbaron":9759,"uffle":9760,"Ġcurb":9761,"bob":9762,"ictions":9763,"Ġdecades":9764,"grad":9765,"Ġappoint":9766,"seem":9767,"Ġtriple":9768,"Ġconsult":9769,"Ġcolours":9770,"Ġowned":9771,"Ġdeparted":9772,"Ġstrips":9773,"Ġrecent":9774,"Ġcalend":9775,"Ġbrake":9776,"Ġlarvae":9777,"Ġgrandmother":9778,"Ġmonks":9779,"Ġpastor":9780,"Ġcement":9781,"Ġcounty":9782,"Ġotherwise":9783,"offs":9784,"minate":9785,"Ġtalks":9786,"Ġregions":9787,"Ġexplan":9788,"Ġmorph":9789,"Ġdressing":9790,"Ġplainly":9791,"Ġderision":9792,"Ġneighbours":9793,"Ġpossessed":9794,"Ġduke":9795,"Ġliquids":9796,"Ġvolcan":9797,"eeee":9798,"Ġimpression":9799,"Ġargument":9800,"Ġmotto":9801,"Ġinstance":9802,"Ġinflamed":9803,"Ġconstruct":9804,"define":9805,"Ġspinning":9806,"borne":9807,"Ġdunce":9808,"Ġcommitted":9809,"simple":9810,"Ġproceeded":9811,"Ġamphib":9812,"affeine":9813,"Ġbasketball":9814,"Ġbruised":9815,"Ġstrictly":9816,"Ġnumerous":9817,"Ġincredibly":9818,"onymous":9819,"Ġlizard":9820,"Ġcorporate":9821,"Ġlurk":9822,"Ġendeavor":9823,"Ġgauge":9824,"cousin":9825,"Ġadjective":9826,"Ġmultiple":9827,"brew":9828,"eli":9829,"listen":9830,"makers":9831,"paid":9832,"rowed":9833,"uent":9834,"west":9835,"Ġaide":9836,"Ġsession":9837,"tex":9838,"render":9839,"Ġcess":9840,"Ġcors":9841,"Ġcents":9842,"Ġbert":9843,"Ġborders":9844,"Ġmam":9845,"Ġmute":9846,"Ġmaim":9847,"Ġhass":9848,"Ġhawk":9849,"endent":9850,"Ġfou":9851,"aning":9852,"Ġpis":9853,"Ġgul":9854,"usts":9855,"Ġecc":9856,"rils":9857,"kety":9858,"ioned":9859,"Ġrect":9860,"imum":9861,"Ġmember":9862,"Ġjay":9863,"Ġjake":9864,"raised":9865,"Ġode":9866,"Ġselection":9867,"Ġsoak":9868,"Ġdoct":9869,"Ġspout":9870,"Ġlexic":9871,"Ġtroop":9872,"Ġconvert":9873,"Ġexem":9874,"Ġexistence":9875,"Ġoutfit":9876,"Ġupst":9877,"ongs":9878,"feit":9879,"Ġloads":9880,"Ġenorm":9881,"auth":9882,"Ġpeel":9883,"Ġjoan":9884,"Ġagility":9885,"Ġempl":9886,"Ġspells":9887,"Ġspelled":9888,"Ġgloss":9889,"onder":9890,"Ġbackwards":9891,"Ġfolly":9892,"Ġresour":9893,"Ġpharm":9894,"Ġmarie":9895,"ocrac":9896,"Ġearning":9897,"Ġcompact":9898,"Ġwrought":9899,"Ġsnoring":9900,"brit":9901,"Ġcontra":9902,"Ġcontains":9903,"Ġdrivers":9904,"itches":9905,"Ġanymore":9906,"Ġsounded":9907,"Ġconson":9908,"Ġaddressed":9909,"prof":9910,"Ġstripped":9911,"Ġburnt":9912,"Ġdevour":9913,"Ġedges":9914,"Ġsquash":9915,"Ġsaddle":9916,"Ġsalmon":9917,"Ġlanding":9918,"struct":9919,"Ġquicker":9920,"Ġstuffs":9921,"Ġafternoon":9922,"Ġgenetic":9923,"Ġfloats":9924,"pots":9925,"Ġfatig":9926,"nae":9927,"Ġadmired":9928,"Ġharbor":9929,"Ġbasis":9930,"Ġproduction":9931,"Ġmistaken":9932,"Ġdresses":9933,"Ġshroud":9934,"Ġtemp":9935,"Ġmalign":9936,"Ġpraises":9937,"Ġterrific":9938,"Ġbotany":9939,"Ġpropose":9940,"Ġinfin":9941,"Ġfeeding":9942,"holds":9943,"Ġseventeen":9944,"Ġunfold":9945,"Ġhooked":9946,"Ġarguments":9947,"Ġphoto":9948,"Ġbulb":9949,"Ġgrabbed":9950,"Ġresembles":9951,"Ġobtuse":9952,"Ġcontrolled":9953,"Ġnucle":9954,"Ġdeemed":9955,"Ġbibli":9956,"Ġaroma":9957,"Ġawaits":9958,"Ġtension":9959,"Ġcorrection":9960,"Ġaardv":9961,"aqu":9962,"bug":9963,"buck":9964,"fif":9965,"sat":9966,"tick":9967,"thand":9968,"thirty":9969,"rec":9970,"Ġwicked":9971,"onies":9972,"atus":9973,"isse":9974,"aned":9975,"Ġpoured":9976,"Ġlav":9977,"Ġlakes":9978,"Ġlaund":9979,"Ġgarn":9980,"learn":9981,"iche":9982,"Ġinfected":9983,"Ġbem":9984,"otrop":9985,"osy":9986,"osers":9987,"Ġstalk":9988,"chal":9989,"chief":9990,"changed":9991,"Ġshack":9992,"Ġdext":9993,"Ġdelect":9994,"Ġdeploy":9995,"Ġanew":9996,"ifer":9997,"Ġoy":9998,"Ġoli":9999,"Ġascend":10000,"Ġsev":10001,"Ġserene":10002,"Ġcanal":10003,"Ġatom":10004,"Ġheroes":10005,"Ġspar":10006,"forget":10007,"Ġclad":10008,"Ġclause":10009,"Ġcontem":10010,"Ġexclaim":10011,"Ġbye":10012,"Ġyog":10013,"Ġabort":10014,"Ġabroad":10015,"Ġunpleasant":10016,"Ġamounts":10017,"Ġdrone":10018,"Ġagrees":10019,"Ġneedles":10020,"Ġskunk":10021,"Ġthrowing":10022,"Ġfray":10023,"Ġinsisted":10024,"Ġstrang":10025,"Ġmarkets":10026,"Ġsurpass":10027,"Ġshowers":10028,"ictive":10029,"Ġfuneral":10030,"Ġnightly":10031,"Ġattach":10032,"Ġdoubled":10033,"Ġbegs":10034,"Ġcorne":10035,"umpy":10036,"Ġdepri":10037,"Ġdepra":10038,"prit":10039,"Ġdistraught":10040,"Ġgrav":10041,"Ġcalc":10042,"Ġverbal":10043,"Ġlarger":10044,"Ġwinters":10045,"grew":10046,"cript":10047,"Ġobli":10048,"Ġwallet":10049,"Ġharp":10050,"Ġflea":10051,"Ġoddly":10052,"Ġwooden":10053,"Ġcyn":10054,"Ġagreement":10055,"udgeon":10056,"Ġpositions":10057,"Ġfiles":10058,"Ġlaughs":10059,"Ġmaterial":10060,"Ġbagp":10061,"Ġaimed":10062,"Ġdesigner":10063,"Ġdonkey":10064,"Ġexamine":10065,"Ġhype":10066,"Ġranch":10067,"Ġportray":10068,"Ġarranged":10069,"Ġiran":10070,"Ġsavings":10071,"Ġsqueal":10072,"Ġamerica":10073,"Ġmembr":10074,"Ġremem":10075,"Ġalex":10076,"Ġsmoked":10077,"Ġoceans":10078,"Ġexcessive":10079,"Ġdubbed":10080,"Ġstunned":10081,"Ġbronch":10082,"Ġcitiz":10083,"Ġblossom":10084,"Ġbrooklyn":10085,"Ġstyles":10086,"Ġtaboo":10087,"yellow":10088,"Ġbrawl":10089,"Ġmexican":10090,"Ġchannel":10091,"Ġmeasured":10092,"Ġabstain":10093,"bie":10094,"easy":10095,"fare":10096,"hs":10097,"iency":10098,"mis":10099,"mers":10100,"nuts":10101,"oven":10102,"pic":10103,"pent":10104,"press":10105,"rice":10106,"ricks":10107,"sum":10108,"tre":10109,"witted":10110,"Ġowl":10111,"Ġsul":10112,"Ġsass":10113,"Ġsites":10114,"Ġsending":10115,"Ġcrest":10116,"Ġcoop":10117,"Ġcities":10118,"Ġwrest":10119,"Ġbaff":10120,"Ġmare":10121,"Ġirate":10122,"Ġdoo":10123,"Ġdairy":10124,"llar":10125,"orter":10126,"anic":10127,"Ġpud":10128,"Ġpunk":10129,"arl":10130,"Ġgents":10131,"Ġgale":10132,"theart":10133,"Ġbets":10134,"Ġbeagle":10135,"osal":10136,"Ġstim":10137,"Ġrump":10138,"Ġropes":10139,"whys":10140,"tering":10141,"Ġshrie":10142,"rag":10143,"ifies":10144,"ilst":10145,"liked":10146,"likes":10147,"Ġnoone":10148,"Ġnobodys":10149,"Ġplural":10150,"Ġsoda":10151,"Ġspins":10152,"Ġspices":10153,"Ġblog":10154,"opia":10155,"Ġcla":10156,"inder":10157,"Ġextent":10158,"Ġyaw":10159,"Ġyarn":10160,"Ġlogs":10161,"Ġrover":10162,"Ġbulls":10163,"orting":10164,"closed":10165,"Ġnewsp":10166,"Ġdrums":10167,"Ġjoking":10168,"blin":10169,"ully":10170,"perfect":10171,"Ġglac":10172,"Ġcargo":10173,"Ġperil":10174,"Ġpermit":10175,"Ġsweater":10176,"Ġrescue":10177,"Ġcurled":10178,"brush":10179,"Ġasses":10180,"quered":10181,"tests":10182,"Ġattain":10183,"Ġcommands":10184,"Ġtrite":10185,"Ġtribes":10186,"ologically":10187,"Ġopined":10188,"Ġcharlie":10189,"Ġartistic":10190,"Ġkindly":10191,"Ġhedge":10192,"Ġadvanced":10193,"Ġworldwide":10194,"Ġstudying":10195,"Ġbias":10196,"Ġlanded":10197,"Ġinvited":10198,"Ġextract":10199,"Ġfreud":10200,"worth":10201,"Ġwheez":10202,"Ġbusted":10203,"Ġcyber":10204,"Ġobsession":10205,"ometry":10206,"Ġignoring":10207,"Ġlouder":10208,"Ġcritters":10209,"Ġsyrup":10210,"Ġbasement":10211,"Ġmaligned":10212,"Ġborde":10213,"Ġprovoke":10214,"Ġclimbed":10215,"Ġfurry":10216,"Ġembark":10217,"Ġarrows":10218,"Ġfragrant":10219,"Ġfrozen":10220,"Ġphysical":10221,"males":10222,"Ġuh":10223,"remember":10224,"Ġgarbage":10225,"Ġcamer":10226,"Ġbooty":10227,"Ġpitcher":10228,"Ġacquire":10229,"Ġprospect":10230,"osphere":10231,"Ġtourist":10232,"Ġintact":10233,"Ġfaithful":10234,"Ġfetch":10235,"broke":10236,"Ġerratic":10237,"Ġbelongs":10238,"Ġcrustace":10239,"Ġrodent":10240,"Ġreferred":10241,"Ġrussia":10242,"Ġmagnificent":10243,"Ġodor":10244,"Ġsweeter":10245,"Ġpulse":10246,"Ġpuzzle":10247,"Ġninety":10248,"Ġaffliction":10249,"Ġembarrass":10250,"Ġblanket":10251,"politicians":10252,"Ġexhaust":10253,"Ġjungle":10254,"Ġcoffin":10255,"ropriate":10256,"Ġstench":10257,"Ġenemies":10258,"Ġunusual":10259,"bows":10260,"dest":10261,"dated":10262,"fur":10263,"ffe":10264,"fting":10265,"gles":10266,"oof":10267,"pal":10268,"spl":10269,"sters":10270,"tal":10271,"Ġsnot":10272,"Ġsacked":10273,"tein":10274,"Ġcuff":10275,"Ġwail":10276,"Ġwestern":10277,"Ġbung":10278,"Ġbudge":10279,"Ġthems":10280,"Ġmast":10281,"Ġhys":10282,"Ġfats":10283,"Ġfren":10284,"Ġtanks":10285,"ervation":10286,"Ġditty":10287,"Ġpiled":10288,"ener":10289,"Ġnost":10290,"Ġtobac":10291,"lected":10292,"usters":10293,"itous":10294,"itudes":10295,"Ġerect":10296,"hee":10297,"heavy":10298,"rill":10299,"Ġwield":10300,"Ġstur":10301,"Ġrex":10302,"Ġrevenge":10303,"Ġraz":10304,"Ġraces":10305,"Ġrapt":10306,"Ġshod":10307,"Ġshaking":10308,"Ġshirts":10309,"unge":10310,"Ġmete":10311,"Ġjab":10312,"Ġanten":10313,"ilitys":10314,"Ġoration":10315,"Ġplots":10316,"abol":10317,"aping":10318,"Ġspike":10319,"Ġblister":10320,"Ġimpe":10321,"Ġimped":10322,"Ġvault":10323,"opy":10324,"Ġcluster":10325,"Ġclaire":10326,"Ġcongr":10327,"ieval":10328,"Ġcox":10329,"Ġyawn":10330,"Ġarro":10331,"pless":10332,"inky":10333,"Ġalice":10334,"Ġabrupt":10335,"Ġadept":10336,"beth":10337,"Ġenth":10338,"Ġamber":10339,"Ġamused":10340,"ressive":10341,"Ġmanic":10342,"Ġwellknown":10343,"Ġcarrots":10344,"ugal":10345,"Ġpermanent":10346,"uber":10347,"Ġfoil":10348,"Ġplanets":10349,"Ġknights":10350,"Ġcurry":10351,"Ġsurgeons":10352,"Ġsurgical":10353,"Ġsurrender":10354,"Ġsnout":10355,"Ġcafe":10356,"Ġzoom":10357,"Ġchores":10358,"Ġexpound":10359,"Ġantid":10360,"Ġcutie":10361,"Ġcalam":10362,"Ġadvis":10363,"Ġdemocr":10364,"Ġviewers":10365,"zzle":10366,"Ġbio":10367,"Ġsingular":10368,"Ġgrandfather":10369,"Ġcrypt":10370,"Ġbananas":10371,"Ġdaff":10372,"Ġcycle":10373,"Ġpoles":10374,"Ġpolar":10375,"Ġdeaths":10376,"Ġmisunderst":10377,"Ġbosses":10378,"Ġclosely":10379,"Ġmagician":10380,"Ġmistakes":10381,"Ġaches":10382,"Ġwarmth":10383,"Ġboxer":10384,"Ġprovided":10385,"Ġpulls":10386,"Ġferv":10387,"Ġcask":10388,"Ġlayers":10389,"Ġbumps":10390,"Ġslipper":10391,"Ġconcise":10392,"Ġgraceful":10393,"Ġbulk":10394,"Ġgovernments":10395,"Ġvenus":10396,"knowing":10397,"Ġflipped":10398,"araoh":10399,"Ġcharacters":10400,"Ġobtain":10401,"Ġnonstop":10402,"Ġshorter":10403,"Ġsoftw":10404,"Ġprimary":10405,"Ġdismissed":10406,"Ġanatomy":10407,"Ġpledge":10408,"Ġbrutal":10409,"Ġcachet":10410,"Ġoriginal":10411,"Ġhollywood":10412,"Ġrandom":10413,"Ġcinnam":10414,"Ġaligned":10415,"bat":10416,"dire":10417,"fal":10418,"fet":10419,"gence":10420,"hence":10421,"iters":10422,"iod":10423,"kill":10424,"lack":10425,"liness":10426,"mpt":10427,"oter":10428,"prote":10429,"rost":10430,"wit":10431,"Ġsaves":10432,"Ġsaving":10433,"text":10434,"teach":10435,"Ġcuck":10436,"Ġcaffeine":10437,"Ġwench":10438,"Ġmes":10439,"Ġmah":10440,"Ġhone":10441,"Ġhick":10442,"Ġig":10443,"Ġfay":10444,"Ġfuse":10445,"Ġfates":10446,"Ġtou":10447,"Ġtatt":10448,"erted":10449,"Ġdia":10450,"Ġdips":10451,"ania":10452,"Ġpouch":10453,"Ġpaws":10454,"Ġpushed":10455,"ena":10456,"Ġlax":10457,"Ġtowel":10458,"Ġinches":10459,"acular":10460,"utz":10461,"rift":10462,"Ġreef":10463,"Ġrejection":10464,"Ġrehears":10465,"Ġrains":10466,"Ġrhet":10467,"Ġshocks":10468,"Ġchills":10469,"rates":10470,"Ġkh":10471,"umed":10472,"umbling":10473,"owned":10474,"apper":10475,"Ġspurn":10476,"Ġblasp":10477,"Ġvat":10478,"Ġclod":10479,"antis":10480,"Ġquell":10481,"Ġexit":10482,"Ġyup":10483,"Ġarbor":10484,"Ġdisapp":10485,"Ġloyal":10486,"bee":10487,"short":10488,"showing":10489,"cloth":10490,"Ġnewt":10491,"Ġdru":10492,"Ġjoys":10493,"Ġslaves":10494,"Ġslowed":10495,"Ġslumber":10496,"Ġempt":10497,"Ġperse":10498,"Ġswan":10499,"Ġrightly":10500,"Ġhowever":10501,"Ġphen":10502,"ocious":10503,"Ġhighway":10504,"Ġeyel":10505,"Ġundone":10506,"Ġcontact":10507,"coal":10508,"Ġattitude":10509,"seeing":10510,"Ġconfident":10511,"Ġcrabs":10512,"Ġlimits":10513,"Ġsounding":10514,"Ġconsol":10515,"Ġaddicted":10516,"Ġerotic":10517,"letter":10518,"Ġtowers":10519,"Ġkinda":10520,"Ġcatal":10521,"cium":10522,"Ġedit":10523,"Ġvoid":10524,"Ġfactory":10525,"Ġpresents":10526,"Ġgenerous":10527,"Ġavow":10528,"obic":10529,"Ġmetals":10530,"Ġfairly":10531,"Ġfamiliar":10532,"Ġaffix":10533,"Ġsecurity":10534,"Ġcounted":10535,"Ġcounters":10536,"Ġsleeps":10537,"Ġsincere":10538,"Ġwales":10539,"Ġdebts":10540,"Ġmorals":10541,"Ġpalms":10542,"Ġmovements":10543,"Ġtempted":10544,"Ġcasual":10545,"Ġrises":10546,"Ġkidneys":10547,"Ġhyper":10548,"Ġseconds":10549,"cutive":10550,"Ġhugh":10551,"Ġfraught":10552,"Ġconfession":10553,"Ġthrees":10554,"Ġamericans":10555,"Ġdroll":10556,"Ġsuggests":10557,"Ġmemories":10558,"Ġsearched":10559,"Ġsurvival":10560,"Ġcrowned":10561,"Ġpunct":10562,"Ġmidnight":10563,"Ġmodels":10564,"Ġimproved":10565,"Ġcaval":10566,"Ġcavity":10567,"Ġconsummate":10568,"Ġobjective":10569,"Ġbreeding":10570,"Ġcannon":10571,"runs":10572,"Ġbeliefs":10573,"Ġdolph":10574,"Ġathlet":10575,"Ġathletes":10576,"Ġcandidates":10577,"Ġbronze":10578,"Ġsocietys":10579,"Ġconventional":10580,"Ġanalysis":10581,"Ġnickname":10582,"Ġcompanys":10583,"Ġbattles":10584,"Ġatlantic":10585,"Ġassumed":10586,"Ġclinic":10587,"Ġcartoon":10588,"Ġbehaviour":10589,"Ġthieves":10590,"Ġsergeant":10591,"Ġcigarette":10592,"Ġuniverse":10593,"bush":10594,"cost":10595,"fig":10596,"gins":10597,"iw":10598,"jim":10599,"mir":10600,"ozo":10601,"pit":10602,"pour":10603,"pings":10604,"pple":10605,"rin":10606,"sol":10607,"ties":10608,"Ġumb":10609,"Ġaids":10610,"Ġailing":10611,"reg":10612,"rey":10613,"reci":10614,"Ġcep":10615,"Ġbale":10616,"Ġmund":10617,"Ġhire":10618,"Ġpious":10619,"Ġpadd":10620,"Ġpomp":10621,"arys":10622,"Ġlid":10623,"Ġgur":10624,"Ġgout":10625,"Ġgathered":10626,"Ġtome":10627,"omical":10628,"leading":10629,"themat":10630,"Ġbever":10631,"Ġstunt":10632,"amics":10633,"chants":10634,"Ġweave":10635,"Ġshave":10636,"Ġjig":10637,"Ġjug":10638,"Ġchub":10639,"Ġchord":10640,"Ġovation":10641,"Ġsel":10642,"Ġsep":10643,"Ġneut":10644,"george":10645,"Ġlighter":10646,"Ġsober":10647,"Ġblah":10648,"Ġvor":10649,"Ġvag":10650,"oped":10651,"opter":10652,"ishes":10653,"Ġarsen":10654,"Ġscores":10655,"Ġabe":10656,"feel":10657,"Ġloom":10658,"Ġadren":10659,"Ġunb":10660,"Ġamassed":10661,"awed":10662,"deli":10663,"Ġtwos":10664,"Ġtwent":10665,"Ġacres":10666,"Ġacrob":10667,"Ġcheated":10668,"ogist":10669,"zech":10670,"Ġempire":10671,"Ġcarriage":10672,"Ġperk":10673,"Ġswings":10674,"Ġswamp":10675,"Ġawed":10676,"Ġswelling":10677,"Ġwaits":10678,"Ġplead":10679,"Ġphones":10680,"someones":10681,"somethings":10682,"Ġoverly":10683,"Ġgeese":10684,"Ġrepent":10685,"Ġterrain":10686,"cold":10687,"Ġcommission":10688,"Ġlimp":10689,"Ġconsent":10690,"Ġcharity":10691,"Ġcollaps":10692,"Ġcollision":10693,"const":10694,"Ġhelpful":10695,"Ġbrag":10696,"Ġbrav":10697,"Ġcrib":10698,"Ġcereal":10699,"Ġfreight":10700,"Ġbillion":10701,"Ġfewer":10702,"Ġtransport":10703,"Ġyearning":10704,"Ġmedieval":10705,"Ġcowboy":10706,"Ġdirections":10707,"Ġdispatch":10708,"Ġpotato":10709,"Ġmagaz":10710,"Ġexploded":10711,"Ġbened":10712,"Ġcritter":10713,"Ġnerds":10714,"Ġmoron":10715,"Ġriches":10716,"Ġborne":10717,"Ġbanker":10718,"Ġconvince":10719,"causes":10720,"Ġbummer":10721,"Ġcardinal":10722,"Ġprophe":10723,"Ġelectron":10724,"Ġshouting":10725,"Ġpublish":10726,"Ġbuttons":10727,"Ġsuperior":10728,"Ġtumor":10729,"Ġdemanding":10730,"Ġpigeon":10731,"Ġauthors":10732,"Ġinstall":10733,"Ġinstalled":10734,"ulsive":10735,"Ġpushing":10736,"Ġinstrument":10737,"Ġcontrast":10738,"Ġflawed":10739,"Ġemerge":10740,"country":10741,"Ġshelter":10742,"Ġshelves":10743,"Ġprincess":10744,"Ġabsorb":10745,"Ġshadows":10746,"Ġtiger":10747,"Ġattempts":10748,"global":10749,"Ġwizard":10750,"Ġniece":10751,"Ġdemeanor":10752,"Ġunstable":10753,"Ġelderly":10754,"normal":10755,"Ġfinancial":10756,"aar":10757,"dys":10758,"different":10759,"girls":10760,"laws":10761,"mies":10762,"nat":10763,"pos":10764,"post":10765,"rr":10766,"rust":10767,"sin":10768,"sought":10769,"scre":10770,"singing":10771,"Ġaven":10772,"Ġatop":10773,"inis":10774,"Ġsiz":10775,"Ġcet":10776,"Ġwoke":10777,"Ġwob":10778,"Ġbong":10779,"Ġther":10780,"Ġmating":10781,"Ġfatter":10782,"Ġfighter":10783,"Ġtid":10784,"Ġdign":10785,"atics":10786,"llo":10787,"Ġpension":10788,"asingly":10789,"Ġlu":10790,"Ġnom":10791,"Ġnoses":10792,"Ġinformed":10793,"adays":10794,"Ġwires":10795,"Ġstatic":10796,"Ġheather":10797,"Ġrejected":10798,"Ġrated":10799,"Ġwept":10800,"Ġshook":10801,"Ġangu":10802,"Ġanagr":10803,"Ġaspire":10804,"Ġnephe":10805,"umph":10806,"olt":10807,"ulse":10808,"apers":10809,"Ġspiders":10810,"Ġblanc":10811,"Ġlect":10812,"Ġsug":10813,"Ġconform":10814,"Ġboor":10815,"Ġboiling":10816,"Ġquart":10817,"Ġquality":10818,"Ġgrands":10819,"Ġgrouch":10820,"Ġarthur":10821,"Ġdisci":10822,"Ġbrittle":10823,"Ġadul":10824,"Ġadult":10825,"Ġadams":10826,"Ġprol":10827,"Ġprojects":10828,"Ġwhove":10829,"Ġunits":10830,"Ġunite":10831,"Ġrobert":10832,"ivation":10833,"Ġpockets":10834,"Ġmane":10835,"Ġagents":10836,"Ġoffend":10837,"ensation":10838,"Ġspear":10839,"Ġdesired":10840,"Ġperpet":10841,"Ġswept":10842,"Ġheaded":10843,"Ġbrides":10844,"Ġbarley":10845,"Ġplanted":10846,"Ġbetray":10847,"Ġsnacks":10848,"rophe":10849,"Ġeverywhere":10850,"tested":10851,"Ġcareless":10852,"Ġprized":10853,"Ġcoron":10854,"Ġschn":10855,"Ġburs":10856,"Ġburden":10857,"Ġrounded":10858,"cience":10859,"Ġeducation":10860,"Ġsquad":10861,"Ġbloods":10862,"Ġsalute":10863,"Ġdivision":10864,"Ġfiner":10865,"Ġsupposed":10866,"twixt":10867,"Ġminer":10868,"obile":10869,"Ġbooth":10870,"Ġpersons":10871,"Ġdelusion":10872,"Ġsituation":10873,"Ġbowls":10874,"Ġmister":10875,"Ġcounsel":10876,"Ġpickle":10877,"Ġhops":10878,"Ġregal":10879,"Ġbudget":10880,"Ġdealer":10881,"Ġberth":10882,"Ġlaure":10883,"Ġexamples":10884,"mighty":10885,"Ġcircuit":10886,"Ġarrayed":10887,"Ġknocks":10888,"Ġdestined":10889,"Ġexperience":10890,"Ġfutures":10891,"Ġduties":10892,"Ġphrases":10893,"glected":10894,"Ġincreases":10895,"Ġbuns":10896,"Ġcontinued":10897,"Ġmaths":10898,"Ġproperly":10899,"Ġproperty":10900,"Ġerrors":10901,"Ġpollen":10902,"Ġpollution":10903,"Ġassistance":10904,"Ġnarc":10905,"Ġstunning":10906,"Ġneglect":10907,"Ġtested":10908,"Ġpatterns":10909,"Ġofficer":10910,"Ġinventor":10911,"mixed":10912,"Ġmystic":10913,"Ġbeguiled":10914,"Ġconversation":10915,"Ġvocation":10916,"Ġwashington":10917,"Ġvicar":10918,"Ġbirch":10919,"behind":10920,"Ġrestraint":10921,"Ġsketch":10922,"Ġdoubts":10923,"Ġconcede":10924,"Ġconservative":10925,"Ġclyde":10926,"Ġaboard":10927,"Ġemploys":10928,"cit":10929,"card":10930,"flies":10931,"girl":10932,"iable":10933,"ibr":10934,"rums":10935,"sit":10936,"served":10937,"wish":10938,"Ġaar":10939,"Ġalight":10940,"Ġsanta":10941,"Ġthong":10942,"Ġcerv":10943,"Ġwines":10944,"Ġbc":10945,"onys":10946,"Ġmand":10947,"Ġfable":10948,"Ġtout":10949,"Ġtug":10950,"eration":10951,"Ġdag":10952,"Ġdyed":10953,"isp":10954,"Ġpist":10955,"Ġpip":10956,"Ġlas":10957,"Ġloses":10958,"Ġlymph":10959,"leads":10960,"Ġinve":10961,"Ġinformation":10962,"acs":10963,"acent":10964,"Ġbeep":10965,"Ġbegging":10966,"oscope":10967,"Ġrick":10968,"chinese":10969,"etime":10970,"alline":10971,"Ġshouts":10972,"cere":10973,"Ġdeem":10974,"Ġdecomp":10975,"Ġjill":10976,"Ġchilled":10977,"Ġchili":10978,"raine":10979,"Ġsect":10980,"Ġnecks":10981,"pell":10982,"wears":10983,"aints":10984,"Ġplow":10985,"Ġdogg":10986,"Ġspurned":10987,"Ġbling":10988,"oseph":10989,"Ġclark":10990,"Ġconjun":10991,"Ġexped":10992,"Ġexpects":10993,"Ġcramp":10994,"Ġenl":10995,"Ġunner":10996,"Ġapes":10997,"Ġriot":10998,"Ġroared":10999,"Ġacro":11000,"Ġdowned":11001,"Ġhobby":11002,"ensions":11003,"phen":11004,"phone":11005,"Ġskim":11006,"Ġswords":11007,"Ġbackward":11008,"Ġlonging":11009,"Ġworker":11010,"Ġcurl":11011,"Ġcurls":11012,"Ġpainter":11013,"ucket":11014,"bringing":11015,"Ġunde":11016,"Ġfriendship":11017,"Ġyounger":11018,"Ġdiaph":11019,"colle":11020,"grass":11021,"Ġcommend":11022,"Ġcommander":11023,"Ġcraving":11024,"Ġfarms":11025,"Ġimply":11026,"Ġprior":11027,"Ġremarks":11028,"loves":11029,"Ġsched":11030,"Ġschism":11031,"Ġparad":11032,"Ġcolumns":11033,"Ġdistant":11034,"Ġelbow":11035,"Ġbrah":11036,"Ġdivided":11037,"wouldnt":11038,"Ġmenace":11039,"Ġturk":11040,"Ġelements":11041,"Ġhopeless":11042,"Ġgrandmothers":11043,"Ġsunshine":11044,"Ġminister":11045,"Ġbuyer":11046,"expl":11047,"expect":11048,"Ġpersian":11049,"Ġrelates":11050,"Ġjewels":11051,"Ġharb":11052,"Ġexcuses":11053,"Ġbowels":11054,"years":11055,"Ġdigging":11056,"Ġworthless":11057,"thesis":11058,"Ġbellow":11059,"Ġcroak":11060,"buying":11061,"Ġautom":11062,"Ġferns":11063,"Ġprotein":11064,"Ġprotected":11065,"Ġcabin":11066,"ographic":11067,"Ġneighbour":11068,"Ġsensitive":11069,"Ġpracticed":11070,"Ġrumor":11071,"Ġradical":11072,"incol":11073,"Ġhamlet":11074,"Ġwhispered":11075,"Ġreturns":11076,"Ġzeus":11077,"Ġashamed":11078,"Ġdrained":11079,"Ġlingers":11080,"Ġdiph":11081,"Ġintri":11082,"defin":11083,"Ġvenom":11084,"Ġcottage":11085,"broken":11086,"Ġcomplexion":11087,"Ġchefs":11088,"speak":11089,"Ġnaughty":11090,"Ġswiftly":11091,"aaaa":11092,"falls":11093,"Ġflora":11094,"Ġdickens":11095,"Ġfiery":11096,"Ġshrubs":11097,"Ġdeduce":11098,"Ġelephants":11099,"Ġstructures":11100,"standing":11101,"Ġmolecules":11102,"building":11103,"Ġallergic":11104,"Ġshadow":11105,"Ġadventure":11106,"Ġbotanical":11107,"Ġmechanic":11108,"Ġprocli":11109,"Ġabandoned":11110,"Ġattempted":11111,"Ġellip":11112,"Ġatheist":11113,"Ġignorant":11114,"Ġhormones":11115,"Ġaussie":11116,"ocracy":11117,"Ġtattoo":11118,"band":11119,"bag":11120,"bies":11121,"bene":11122,"billy":11123,"cac":11124,"cro":11125,"city":11126,"dim":11127,"date":11128,"fair":11129,"fathers":11130,"lady":11131,"mor":11132,"oose":11133,"sign":11134,"tain":11135,"vings":11136,"woman":11137,"western":11138,"Ġowed":11139,"Ġaunts":11140,"Ġsire":11141,"Ġsoften":11142,"tech":11143,"Ġcite":11144,"Ġwounds":11145,"Ġwages":11146,"Ġbh":11147,"Ġbould":11148,"Ġboun":11149,"Ġtheat":11150,"onious":11151,"Ġmit":11152,"Ġmcc":11153,"Ġhamm":11154,"Ġhaun":11155,"esus":11156,"Ġlag":11157,"Ġlux":11158,"Ġnook":11159,"Ġnause":11160,"Ġnarr":11161,"icable":11162,"Ġinit":11163,"iture":11164,"Ġecho":11165,"theless":11166,"Ġbeams":11167,"Ġbeads":11168,"Ġstif":11169,"ami":11170,"Ġrebel":11171,"Ġrave":11172,"Ġrook":11173,"Ġruse":11174,"chuck":11175,"etics":11176,"allel":11177,"Ġweights":11178,"Ġmeg":11179,"Ġjot":11180,"Ġjur":11181,"robe":11182,"Ġchime":11183,"Ġkitty":11184,"Ġlib":11185,"Ġnoah":11186,"Ġalls":11187,"Ġplag":11188,"Ġplague":11189,"ulations":11190,"Ġsoy":11191,"Ġblouse":11192,"sold":11193,"Ġtramp":11194,"Ġconsequ":11195,"achie":11196,"Ġyen":11197,"Ġyel":11198,"Ġyanke":11199,"Ġargu":11200,"Ġdismal":11201,"Ġdiscretion":11202,"Ġbrad":11203,"Ġunl":11204,"Ġamid":11205,"Ġamusing":11206,"Ġprost":11207,"Ġsmid":11208,"iva":11209,"Ġmanager":11210,"Ġacron":11211,"Ġmoz":11212,"Ġmonday":11213,"ogram":11214,"Ġpeaks":11215,"Ġdroop":11216,"Ġaglow":11217,"Ġslain":11218,"Ġhob":11219,"Ġmakeup":11220,"Ġspeeds":11221,"Ġglove":11222,"Ġcarrot":11223,"ubs":11224,"Ġresent":11225,"Ġcreator":11226,"Ġoverhead":11227,"Ġsurreal":11228,"comfort":11229,"Ġundressed":11230,"Ġreputation":11231,"Ġpartake":11232,"Ġclearing":11233,"Ġdefence":11234,"Ġletting":11235,"Ġcrate":11236,"Ġairpl":11237,"Ġappeals":11238,"Ġaccurate":11239,"Ġdearth":11240,"Ġstopping":11241,"Ġpurr":11242,"Ġadvances":11243,"Ġdamaged":11244,"Ġfactors":11245,"Ġstatements":11246,"Ġfloating":11247,"obi":11248,"Ġobese":11249,"Ġmoments":11250,"Ġsprung":11251,"guys":11252,"Ġfleeting":11253,"Ġaskance":11254,"cycl":11255,"Ġcollected":11256,"Ġtransfer":11257,"Ġqueue":11258,"Ġspeaker":11259,"descri":11260,"Ġequals":11261,"mented":11262,"Ġautos":11263,"zyme":11264,"Ġprotects":11265,"Ġchecking":11266,"Ġrising":11267,"Ġcups":11268,"Ġkidn":11269,"Ġsoftly":11270,"Ġthreats":11271,"Ġdrunken":11272,"Ġepic":11273,"Ġmastered":11274,"Ġtechnical":11275,"Ġsurvived":11276,"holding":11277,"Ġdecember":11278,"Ġhorny":11279,"Ġscreaming":11280,"Ġwhisper":11281,"Ġmurdered":11282,"rabble":11283,"evil":11284,"Ġlinger":11285,"ritious":11286,"Ġdummy":11287,"omeday":11288,"Ġlouise":11289,"Ġremarkable":11290,"Ġsalesman":11291,"Ġchampion":11292,"Ġtroll":11293,"Ġcathed":11294,"running":11295,"Ġreckon":11296,"Ġpirates":11297,"Ġtrendy":11298,"Ġmysterious":11299,"Ġgranny":11300,"Ġprecisely":11301,"Ġviolent":11302,"Ġsafer":11303,"Ġbeckoned":11304,"modern":11305,"Ġscrape":11306,"Ġencounter":11307,"Ġhauled":11308,"Ġstamped":11309,"Ġabandon":11310,"Ġexcitement":11311,"oscopy":11312,"Ġarchitect":11313,"Ġcurrency":11314,"fighting":11315,"Ġschmuck":11316,"Ġscandal":11317,"Ġsnooze":11318,"Ġconflict":11319,"Ġdeposit":11320,"Ġunfurled":11321,"Ġburglar":11322,"Ġcelestial":11323,"Ġcinnamon":11324,"Ġprolific":11325,"aust":11326,"bread":11327,"core":11328,"dies":11329,"diss":11330,"fro":11331,"gys":11332,"hows":11333,"ja":11334,"kiss":11335,"lined":11336,"mines":11337,"number":11338,"othe":11339,"tro":11340,"uition":11341,"vs":11342,"won":11343,"thro":11344,"thod":11345,"Ġsom":11346,"Ġsine":11347,"Ġsomeday":11348,"Ġthump":11349,"Ġcory":11350,"Ġwrench":11351,"Ġbums":11352,"Ġbounds":11353,"Ġbinge":11354,"Ġtheories":11355,"Ġmiffed":11356,"Ġhust":11357,"Ġhooks":11358,"Ġhither":11359,"Ġhaze":11360,"Ġhatched":11361,"Ġfaded":11362,"Ġtires":11363,"Ġdh":11364,"Ġdw":11365,"Ġdix":11366,"orters":11367,"edes":11368,"Ġpand":11369,"Ġphe":11370,"Ġpanc":11371,"Ġpacks":11372,"Ġgains":11373,"Ġgaffe":11374,"Ġinh":11375,"Ġinert":11376,"Ġinane":11377,"ghtest":11378,"across":11379,"itters":11380,"Ġbeth":11381,"Ġstag":11382,"idel":11383,"amar":11384,"Ġrept":11385,"Ġrestr":11386,"Ġrandy":11387,"imme":11388,"Ġshaken":11389,"urous":11390,"urry":11391,"tocks":11392,"Ġchis":11393,"Ġchur":11394,"Ġchant":11395,"Ġoz":11396,"Ġseiz":11397,"ately":11398,"Ġneglected":11399,"uma":11400,"Ġcanine":11401,"stones":11402,"Ġplump":11403,"Ġplains":11404,"Ġsock":11405,"Ġatomic":11406,"abby":11407,"Ġspam":11408,"Ġspines":11409,"Ġvom":11410,"Ġvowed":11411,"within":11412,"Ġleech":11413,"Ġtrum":11414,"Ġtether":11415,"Ġcomment":11416,"Ġquiver":11417,"Ġgranted":11418,"Ġoutlook":11419,"Ġyummy":11420,"avage":11421,"Ġaltered":11422,"Ġalright":11423,"Ġabac":11424,"neur":11425,"beyond":11426,"Ġenqu":11427,"Ġprogn":11428,"Ġamend":11429,"Ġrival":11430,"Ġsmarts":11431,"death":11432,"Ġmanh":11433,"Ġcheaper":11434,"Ġpean":11435,"Ġslender":11436,"block":11437,"Ġfrantic":11438,"Ġglide":11439,"Ġswish":11440,"Ġinscri":11441,"Ġpleasures":11442,"Ġpharaoh":11443,"Ġtreasures":11444,"ggin":11445,"ggers":11446,"Ġbestow":11447,"Ġbestowed":11448,"whereas":11449,"Ġearl":11450,"Ġearns":11451,"Ġcurly":11452,"cannot":11453,"grade":11454,"Ġappropriate":11455,"Ġtrials":11456,"Ġtriumph":11457,"Ġimpart":11458,"Ġchoked":11459,"Ġopine":11460,"Ġparrot":11461,"Ġexpire":11462,"Ġflowed":11463,"glass":11464,"Ġverve":11465,"Ġdemure":11466,"Ġsupplied":11467,"Ġespecially":11468,"Ġrealm":11469,"Ġcryptic":11470,"Ġpastry":11471,"Ġjets":11472,"Ġdrawer":11473,"Ġbowel":11474,"ylon":11475,"Ġsolve":11476,"Ġvisiting":11477,"Ġtalked":11478,"Ġexplaining":11479,"Ġbenz":11480,"Ġcritique":11481,"Ġengines":11482,"Ġequally":11483,"Ġmercy":11484,"Ġspoiled":11485,"Ġtemple":11486,"Ġrequested":11487,"Ġdescription":11488,"Ġbreezy":11489,"Ġrevere":11490,"Ġambig":11491,"Ġambitious":11492,"engers":11493,"engine":11494,"Ġfroze":11495,"Ġenjoying":11496,"Ġapproval":11497,"Ġmasters":11498,"Ġbuffoon":11499,"Ġsuggested":11500,"breath":11501,"Ġbeaches":11502,"Ġconcepts":11503,"Ġwreath":11504,"Ġnutritious":11505,"Ġcreeps":11506,"Ġrumors":11507,"marks":11508,"Ġstorms":11509,"horse":11510,"nearly":11511,"Ġcultures":11512,"Ġcustard":11513,"flying":11514,"Ġexcessively":11515,"Ġnormally":11516,"Ġremoving":11517,"Ġpilots":11518,"Ġshrimp":11519,"tology":11520,"Ġtrends":11521,"Ġreligious":11522,"Ġreigns":11523,"Ġforests":11524,"Ġsarge":11525,"Ġcompanion":11526,"Ġtemptation":11527,"Ġnuns":11528,"Ġperplex":11529,"Ġimplore":11530,"Ġwebsite":11531,"oustic":11532,"Ġliberal":11533,"Ġsyllables":11534,"Ġprofessional":11535,"Ġaflame":11536,"Ġpatent":11537,"Ġrestaurant":11538,"straight":11539,"Ġpiano":11540,"english":11541,"Ġilk":11542,"Ġcactus":11543,"Ġexplanation":11544,"Ġeccentric":11545,"Ġdelectable":11546,"Ġtobacco":11547,"Ġarrogant":11548,"base":11549,"bones":11550,"cream":11551,"cuts":11552,"fresh":11553,"hips":11554,"ih":11555,"mass":11556,"mister":11557,"ointed":11558,"pine":11559,"poc":11560,"suc":11561,"times":11562,"talk":11563,"tically":11564,"vil":11565,"Ġai":11566,"inse":11567,"Ġsard":11568,"Ġsult":11569,"Ġthud":11570,"reve":11571,"Ġbak":11572,"Ġbure":11573,"onics":11574,"Ġmu":11575,"Ġmater":11576,"Ġhush":11577,"Ġfash":11578,"Ġfeds":11579,"Ġtally":11580,"Ġtib":11581,"Ġtuss":11582,"Ġdast":11583,"Ġdusk":11584,"Ġpc":11585,"Ġpes":11586,"Ġpith":11587,"arium":11588,"Ġlor":11589,"Ġlil":11590,"Ġlists":11591,"Ġlumps":11592,"Ġnant":11593,"itable":11594,"Ġew":11595,"Ġethere":11596,"aders":11597,"Ġbegged":11598,"rip":11599,"rile":11600,"keting":11601,"Ġwig":11602,"Ġhealing":11603,"Ġreed":11604,"Ġreference":11605,"Ġreplete":11606,"chop":11607,"ooh":11608,"ettes":11609,"Ġitching":11610,"Ġmeats":11611,"respect":11612,"topped":11613,"rah":11614,"ilation":11615,"Ġsever":11616,"quest":11617,"Ġoughter":11618,"lian":11619,"Ġlique":11620,"ctive":11621,"ctomy":11622,"Ġnope":11623,"Ġnothings":11624,"Ġnovels":11625,"Ġplacid":11626,"Ġblurred":11627,"Ġblitz":11628,"Ġvide":11629,"opic":11630,"Ġclone":11631,"Ġclink":11632,"Ġtray":11633,"Ġtrusted":11634,"igation":11635,"Ġwillow":11636,"istical":11637,"Ġflask":11638,"Ġquad":11639,"Ġyum":11640,"Ġyore":11641,"Ġyol":11642,"ansas":11643,"Ġscat":11644,"Ġalumin":11645,"ysix":11646,"eps":11647,"Ġbrac":11648,"Ġbrine":11649,"Ġunreal":11650,"Ġammon":11651,"Ġribs":11652,"Ġsmut":11653,"shr":11654,"Ġpod":11655,"Ġpolls":11656,"Ġacids":11657,"Ġhash":11658,"angles":11659,"angular":11660,"Ġjoker":11661,"Ġaging":11662,"Ġagape":11663,"Ġslog":11664,"Ġdowns":11665,"blow":11666,"Ġskirts":11667,"Ġglowing":11668,"Ġcarl":11669,"Ġinsult":11670,"Ġendless":11671,"Ġcreates":11672,"Ġcreating":11673,"Ġbarr":11674,"Ġidle":11675,"Ġcompute":11676,"Ġsnag":11677,"Ġstarch":11678,"Ġhearse":11679,"Ġdrab":11680,"Ġcolumb":11681,"lette":11682,"Ġbitten":11683,"Ġexpose":11684,"Ġexposure":11685,"Ġantim":11686,"Ġantig":11687,"Ġlesser":11688,"Ġgravity":11689,"Ġsquawk":11690,"Ġsadness":11691,"Ġtasks":11692,"Ġstreak":11693,"Ġguessing":11694,"Ġsubtle":11695,"Ġmonkeys":11696,"expected":11697,"Ġboobs":11698,"Ġdelish":11699,"Ġextr":11700,"Ġreluct":11701,"worked":11702,"Ġbelieves":11703,"crack":11704,"Ġevolved":11705,"Ġyells":11706,"Ġboyfriends":11707,"Ġlargely":11708,"Ġtransp":11709,"Ġbaloney":11710,"Ġcyan":11711,"Ġpenis":11712,"Ġbowling":11713,"Ġsplat":11714,"Ġmisled":11715,"Ġcleaned":11716,"Ġdigit":11717,"Ġpopped":11718,"Ġspecs":11719,"ursion":11720,"Ġtesting":11721,"Ġspores":11722,"Ġsixteen":11723,"Ġmalice":11724,"Ġsufficient":11725,"Ġrichard":11726,"Ġdamnation":11727,"Ġdermat":11728,"Ġcostume":11729,"Ġvalid":11730,"Ġfreshwater":11731,"Ġreveals":11732,"Ġrevealing":11733,"cutting":11734,"prep":11735,"Ġcracking":11736,"Ġcrackers":11737,"Ġcaptured":11738,"Ġconstrain":11739,"Ġfanatic":11740,"Ġknob":11741,"Ġdelightful":11742,"Ġaudition":11743,"Ġgrasses":11744,"Ġscrews":11745,"Ġspeeches":11746,"Ġlosses":11747,"Ġbathing":11748,"Ġpursued":11749,"Ġsenate":11750,"Ġunsound":11751,"Ġfashioned":11752,"evolution":11753,"rophy":11754,"Ġafrica":11755,"Ġtickle":11756,"Ġmuttered":11757,"Ġremoval":11758,"Ġapproaching":11759,"Ġmentor":11760,"gods":11761,"Ġstretched":11762,"Ġterrorist":11763,"Ġdolt":11764,"Ġalpha":11765,"Ġfloral":11766,"Ġresemble":11767,"Ġcommunity":11768,"Ġhubby":11769,"Ġdigestion":11770,"Ġalternative":11771,"Ġemotional":11772,"Ġvocal":11773,"Ġtempting":11774,"Ġattempting":11775,"Ġguaranteed":11776,"Ġenthralled":11777,"Ġegyptian":11778,"Ġaura":11779,"Ġinstructions":11780,"Ġankle":11781,"Ġmourn":11782,"Ġbrisk":11783,"Ġfluffy":11784,"Ġappalling":11785,"Ġsloppy":11786,"Ġbamboo":11787,"Ġchapel":11788,"Ġgeezer":11789,"Ġillegal":11790,"brate":11791,"brained":11792,"cong":11793,"du":11794,"drew":11795,"footed":11796,"hands":11797,"jan":11798,"lacking":11799,"mid":11800,"nial":11801,"rade":11802,"rically":11803,"vial":11804,"wore":11805,"wild":11806,"Ġurn":11807,"thouse":11808,"Ġaa":11809,"Ġakin":11810,"inqu":11811,"Ġsos":11812,"tet":11813,"ofty":11814,"Ġwack":11815,"Ġbage":11816,"Ġbese":11817,"Ġbends":11818,"Ġmature":11819,"Ġfidd":11820,"Ġfudge":11821,"Ġfumes":11822,"Ġtis":11823,"Ġtickets":11824,"Ġdul":11825,"Ġdak":11826,"Ġdors":11827,"Ġdactyl":11828,"anal":11829,"Ġpans":11830,"Ġpail":11831,"asters":11832,"Ġlest":11833,"Ġlous":11834,"Ġgush":11835,"lee":11836,"lex":11837,"iculate":11838,"Ġincess":11839,"Ġelo":11840,"Ġeternal":11841,"utin":11842,"ride":11843,"Ġstamps":11844,"Ġwhipped":11845,"Ġreli":11846,"Ġrene":11847,"Ġrushed":11848,"Ġraven":11849,"whilst":11850,"lyph":11851,"Ġshin":11852,"Ġchas":11853,"Ġchops":11854,"rapped":11855,"Ġoven":11856,"Ġashes":11857,"Ġkat":11858,"Ġwasted":11859,"Ġwasting":11860,"illo":11861,"olis":11862,"Ġplaque":11863,"ulas":11864,"Ġsopr":11865,"Ġspacious":11866,"Ġspraw":11867,"Ġlef":11868,"Ġclosing":11869,"Ġtram":11870,"Ġtraces":11871,"Ġtrucks":11872,"Ġconverse":11873,"Ġflak":11874,"Ġbobs":11875,"Ġgrumble":11876,"Ġcoats":11877,"ickle":11878,"Ġcradle":11879,"Ġscum":11880,"Ġaloft":11881,"Ġaloof":11882,"Ġdisqu":11883,"Ġdisarr":11884,"becomes":11885,"Ġenz":11886,"Ġproves":11887,"ipher":11888,"Ġampl":11889,"Ġprow":11890,"Ġsmiling":11891,"Ġbuts":11892,"Ġbuoy":11893,"Ġaces":11894,"Ġacanth":11895,"Ġpeck":11896,"Ġhock":11897,"Ġhockey":11898,"Ġoffensive":11899,"Ġoffspring":11900,"ugn":11901,"vents":11902,"Ġinsults":11903,"Ġlifetime":11904,"Ġbrie":11905,"Ġtren":11906,"Ġtreating":11907,"wholl":11908,"Ġmarx":11909,"Ġfounded":11910,"Ġeyed":11911,"inside":11912,"Ġcompar":11913,"Ġdiverse":11914,"queen":11915,"Ġtelly":11916,"Ġtryst":11917,"Ġconfront":11918,"Ġimpact":11919,"Ġreduced":11920,"Ġzones":11921,"Ġdragged":11922,"Ġopens":11923,"Ġmusics":11924,"Ġantif":11925,"Ġrefine":11926,"ussed":11927,"Ġdevoted":11928,"Ġgripe":11929,"Ġunderneath":11930,"Ġedward":11931,"Ġtenor":11932,"Ġcrimin":11933,"cheon":11934,"iffs":11935,"Ġelected":11936,"astern":11937,"Ġhumming":11938,"Ġavian":11939,"Ġwomans":11940,"Ġboozing":11941,"Ġdelayed":11942,"Ġrelish":11943,"Ġsprayed":11944,"crow":11945,"Ġfaults":11946,"oidal":11947,"Ġdrawers":11948,"Ġpengu":11949,"Ġpenchant":11950,"helped":11951,"Ġmedia":11952,"forming":11953,"ificant":11954,"thesia":11955,"Ġreaches":11956,"Ġalign":11957,"Ġraft":11958,"amming":11959,"Ġequation":11960,"Ġequipped":11961,"Ġmusician":11962,"Ġtroubled":11963,"Ġkisses":11964,"Ġspreads":11965,"Ġaiming":11966,"Ġbern":11967,"Ġsuffix":11968,"Ġgases":11969,"Ġsharks":11970,"Ġringing":11971,"Ġoccup":11972,"Ġopport":11973,"Ġopponent":11974,"Ġcaptains":11975,"Ġprophet":11976,"Ġelectro":11977,"Ġdancers":11978,"Ġsqueak":11979,"Ġamericas":11980,"Ġintertw":11981,"Ġtouched":11982,"Ġaudacious":11983,"Ġdefeated":11984,"Ġswims":11985,"Ġmatches":11986,"Ġdusty":11987,"Ġfifteen":11988,"Ġwhisky":11989,"Ġrobbed":11990,"Ġreturning":11991,"Ġversion":11992,"Ġblokes":11993,"Ġlingo":11994,"Ġprosper":11995,"Ġscarred":11996,"thematic":11997,"Ġmicrobes":11998,"Ġsucceeded":11999,"early":12000,"turning":12001,"Ġintentions":12002,"Ġcelery":12003,"Ġwelsh":12004,"Ġfungi":12005,"Ġcurtains":12006,"Ġemergency":12007,"Ġingen":12008,"Ġracket":12009,"Ġholmes":12010,"Ġrapidly":12011,"culi":12012,"Ġgloat":12013,"Ġablaze":12014,"Ġgreedy":12015,"Ġaggression":12016,"Ġanxiety":12017,"Ġaberration":12018,"Ġaesthetic":12019,"Ġwidth":12020,"Ġpreacher":12021,"Ġflavors":12022,"Ġtraditional":12023,"Ġrendered":12024,"Ġjewish":12025,"Ġinquired":12026,"Ġbiscuit":12027,"Ġthwart":12028,"Ġgrateful":12029,"american":12030,"Ġindulge":12031,"Ġbundle":12032,"Ġsqueezed":12033,"Ġinteresting":12034,"Ġmoisture":12035,"Ġdestruction":12036,"aghetti":12037,"captain":12038,"Ġhassle":12039,"Ġaardvark":12040,"bos":12041,"bud":12042,"bark":12043,"egg":12044,"fancy":12045,"gia":12046,"gonna":12047,"happy":12048,"kate":12049,"lift":12050,"mur":12051,"pain":12052,"paul":12053,"rants":12054,"ser":12055,"squ":12056,"tor":12057,"twelve":12058,"uge":12059,"wy":12060,"Ġoodles":12061,"thomas":12062,"Ġauction":12063,"Ġster":12064,"Ġthugs":12065,"oub":12066,"Ġcic":12067,"Ġcull":12068,"Ġcolog":12069,"Ġcaves":12070,"Ġcowed":12071,"Ġbony":12072,"Ġmi":12073,"Ġmish":12074,"Ġmixture":12075,"Ġhens":12076,"Ġii":12077,"Ġick":12078,"Ġfated":12079,"Ġtush":12080,"Ġdir":12081,"Ġdined":12082,"Ġdrench":12083,"orms":12084,"Ġpony":12085,"Ġpests":12086,"enough":12087,"asive":12088,"Ġlisted":12089,"Ġlincol":12090,"Ġgums":12091,"Ġnought":12092,"Ġtots":12093,"iculous":12094,"Ġbea":12095,"Ġbemo":12096,"uttered":12097,"Ġwipe":12098,"Ġstained":12099,"amen":12100,"Ġrearr":12101,"Ġration":12102,"chair":12103,"changing":12104,"oooo":12105,"imo":12106,"term":12107,"unte":12108,"urst":12109,"Ġjailed":12110,"Ġchunk":12111,"Ġoint":12112,"sey":12113,"Ġko":12114,"Ġseaf":12115,"upp":12116,"Ġalliance":12117,"Ġatro":12118,"Ġherald":12119,"Ġdodge":12120,"Ġblades":12121,"Ġblubber":12122,"Ġfemales":12123,"Ġvows":12124,"Ġvague":12125,"Ġlecture":12126,"opher":12127,"estion":12128,"Ġtrice":12129,"igo":12130,"Ġconquer":12131,"Ġconquered":12132,"Ġflare":12133,"Ġflutter":12134,"Ġscout":12135,"Ġscrap":12136,"Ġscrabble":12137,"Ġours":12138,"Ġdism":12139,"feed":12140,"fear":12141,"Ġtheirs":12142,"Ġbrus":12143,"Ġbram":12144,"Ġbrink":12145,"Ġbutch":12146,"ilem":12147,"Ġprojection":12148,"Ġamass":12149,"Ġapolog":12150,"Ġrigh":12151,"Ġprat":12152,"ighters":12153,"Ġmanure":12154,"Ġtwixt":12155,"Ġmoor":12156,"Ġmoans":12157,"acty":12158,"actions":12159,"clad":12160,"Ġjoining":12161,"Ġdownhill":12162,"ensible":12163,"blers":12164,"Ġbreach":12165,"Ġpreced":12166,"Ġprefers":12167,"Ġtherell":12168,"elled":12169,"Ġlifted":12170,"iousness":12171,"Ġwares":12172,"Ġfoli":12173,"ordinate":12174,"Ġaffected":12175,"Ġknuck":12176,"Ġhells":12177,"Ġsnapped":12178,"Ġgears":12179,"Ġpartners":12180,"Ġeveryday":12181,"Ġcaut":12182,"Ġsermon":12183,"howd":12184,"Ġsmallest":12185,"itched":12186,"Ġtrigger":12187,"Ġpassage":12188,"Ġpassions":12189,"Ġpassengers":12190,"Ġtrav":12191,"Ġantis":12192,"Ġfeller":12193,"Ġcamels":12194,"Ġstripes":12195,"Ġpayment":12196,"Ġburp":12197,"Ġverbs":12198,"Ġwatery":12199,"Ġtenth":12200,"Ġturd":12201,"Ġinvade":12202,"Ġabsent":12203,"Ġcellular":12204,"Ġgrandmas":12205,"explain":12206,"Ġmetaph":12207,"Ġextre":12208,"Ġbrightly":12209,"Ġjean":12210,"Ġwonders":12211,"Ġafflic":12212,"Ġfitted":12213,"Ġfeline":12214,"Ġthrilling":12215,"Ġposts":12216,"Ġpopulation":12217,"Ġsatur":12218,"Ġpetite":12219,"Ġreaching":12220,"looked":12221,"Ġsickness":12222,"Ġmalt":12223,"Ġpraised":12224,"Ġbullets":12225,"Ġchemists":12226,"Ġcasc":12227,"Ġsurprising":12228,"Ġcombust":12229,"Ġarrives":12230,"Ġsavour":12231,"Ġepis":12232,"Ġmouths":12233,"Ġharmless":12234,"Ġcheerful":12235,"Ġjohnny":12236,"Ġpossible":12237,"Ġmelod":12238,"Ġduress":12239,"Ġtechniques":12240,"conscious":12241,"Ġfalter":12242,"Ġtorso":12243,"Ġweakness":12244,"Ġmansion":12245,"Ġdissent":12246,"Ġhistorical":12247,"Ġhooker":12248,"Ġargent":12249,"Ġsuggestion":12250,"Ġregrets":12251,"Ġrelieve":12252,"Ġlasses":12253,"Ġphilip":12254,"Ġcustoms":12255,"Ġmutt":12256,"Ġfetus":12257,"Ġmortar":12258,"earth":12259,"brother":12260,"winning":12261,"Ġtroy":12262,"charge":12263,"accord":12264,"Ġutterly":12265,"Ġvinegar":12266,"Ġgloomy":12267,"Ġvowel":12268,"Ġcrisis":12269,"Ġdisappeared":12270,"Ġdisgusting":12271,"Ġperchance":12272,"Ġwandering":12273,"Ġpeasants":12274,"Ġsurrounded":12275,"Ġsummers":12276,"Ġfertile":12277,"Ġgourmet":12278,"Ġsettled":12279,"Ġembarrassed":12280,"Ġduplic":12281,"Ġalgae":12282,"Ġsyllable":12283,"Ġcelebration":12284,"Ġdynam":12285,"Ġperceive":12286,"Ġcomedy":12287,"Ġpromptly":12288,"study":12289,"Ġthreatened":12290,"Ġacknow":12291,"Ġlexical":12292,"Ġattorney":12293,"Ġdallas":12294,"counter":12295,"Ġnaive":12296,"Ġbounty":12297,"Ġfrightening":12298,"Ġoverseas":12299,"Ġseventy":12300,"Ġrazor":12301,"Ġmisunderstood":12302,"Ġsoftware":12303,"Ġumbre":12304,"Ġmagazine":12305,"Ġnantucket":12306,"aes":12307,"aise":12308,"birth":12309,"bury":12310,"fs":12311,"home":12312,"horn":12313,"iries":12314,"ju":12315,"lit":12316,"mos":12317,"nn":12318,"sus":12319,"same":12320,"tails":12321,"ua":12322,"uet":12323,"uries":12324,"wants":12325,"women":12326,"yo":12327,"zab":12328,"Ġul":12329,"inth":12330,"iners":12331,"tells":12332,"Ġcym":12333,"Ġcamb":12334,"Ġbarm":12335,"Ġtheater":12336,"Ġmash":12337,"Ġmoses":12338,"Ġhuff":12339,"Ġicon":12340,"Ġtint":12341,"Ġdill":12342,"orr":12343,"isin":12344,"Ġpact":12345,"Ġlice":12346,"Ġlays":12347,"Ġtoler":12348,"leys":12349,"icans":12350,"ala":12351,"itute":12352,"thel":12353,"Ġstab":12354,"Ġstains":12355,"Ġwhit":12356,"Ġwhoop":12357,"Ġrepl":12358,"Ġrebu":12359,"Ġron":12360,"Ġrake":12361,"Ġisra":12362,"etically":12363,"Ġshamp":12364,"Ġshining":12365,"Ġshady":12366,"Ġdearest":12367,"Ġmeters":12368,"todays":12369,"Ġchasing":12370,"Ġanom":12371,"sees":12372,"ilage":12373,"quette":12374,"gered":12375,"lives":12376,"Ġligh":12377,"Ġliking":12378,"Ġlibid":12379,"Ġcans":12380,"Ġcanon":12381,"Ġnove":12382,"stream":12383,"sticks":12384,"Ġplumber":12385,"avement":12386,"above":12387,"apple":12388,"Ġdole":12389,"Ġdover":12390,"Ġvia":12391,"Ġvod":12392,"Ġtran":12393,"Ġcongreg":12394,"Ġcomical":12395,"Ġgrades":12396,"Ġcoax":12397,"Ġcocks":12398,"icking":12399,"Ġcrumb":12400,"Ġcrumbs":12401,"Ġoutof":12402,"Ġartery":12403,"Ġaback":12404,"Ġloans":12405,"Ġlobby":12406,"Ġlobster":12407,"Ġbruce":12408,"Ġbristle":12409,"Ġenzyme":12410,"Ġwhoa":12411,"Ġsmug":12412,"Ġrogue":12413,"ivil":12414,"ighed":12415,"aute":12416,"Ġjoes":12417,"Ġslut":12418,"Ġslides":12419,"Ġthrows":12420,"perse":12421,"Ġcaring":12422,"Ġdesir":12423,"Ġswinging":12424,"Ġinsight":12425,"berries":12426,"anky":12427,"odd":12428,"Ġresides":12429,"Ġcrews":12430,"Ġhandles":12431,"Ġcompressed":12432,"Ġcomposer":12433,"Ġsurve":12434,"Ġassaul":12435,"quets":12436,"Ġhelping":12437,"Ġdrilling":12438,"Ġdefer":12439,"seemed":12440,"Ġaircraft":12441,"Ġzinc":12442,"Ġaccuse":12443,"Ġfreezing":12444,"Ġmuster":12445,"Ġdearly":12446,"Ġrefuses":12447,"Ġcalcium":12448,"Ġdevote":12449,"Ġdemons":12450,"emer":12451,"Ġsquares":12452,"Ġdiving":12453,"Ġlargest":12454,"Ġtasted":12455,"Ġjealous":12456,"Ġfauna":12457,"Ġbalanced":12458,"Ġbasil":12459,"Ġcoward":12460,"Ġbleach":12461,"Ġdinners":12462,"Ġtomatoes":12463,"Ġdiscard":12464,"Ġmusicians":12465,"Ġsummon":12466,"Ġworkshop":12467,"Ġsinister":12468,"Ġsuccinct":12469,"Ġboxes":12470,"Ġlivestock":12471,"Ġurban":12472,"Ġdimension":12473,"Ġsilvery":12474,"person":12475,"Ġinfo":12476,"Ġcentre":12477,"Ġsuitable":12478,"Ġpaths":12479,"Ġemployment":12480,"Ġtorto":12481,"Ġmummy":12482,"Ġstorage":12483,"Ġsporting":12484,"Ġproduces":12485,"Ġpillow":12486,"Ġcultural":12487,"Ġdwells":12488,"Ġgrinned":12489,"Ġrattle":12490,"Ġsucceeds":12491,"Ġpacking":12492,"Ġchapter":12493,"Ġmaidens":12494,"rieve":12495,"Ġmuddy":12496,"Ġscarce":12497,"Ġpuppy":12498,"Ġpoisoned":12499,"frank":12500,"Ġauk":12501,"Ġvaried":12502,"surely":12503,"Ġamazon":12504,"Ġsucker":12505,"Ġperforming":12506,"Ġreviews":12507,"Ġinvestments":12508,"Ġtactic":12509,"Ġdashing":12510,"Ġpearls":12511,"Ġlogical":12512,"ophobias":12513,"Ġmarty":12514,"Ġoptim":12515,"Ġhiking":12516,"Ġniche":12517,"Ġgambling":12518,"Ġslips":12519,"Ġadmiration":12520,"Ġgymn":12521,"Ġbotanist":12522,"Ġflavour":12523,"Ġfertil":12524,"Ġdeplore":12525,"Ġvegetable":12526,"Ġkittens":12527,"Ġlibrary":12528,"Ġwaltz":12529,"Ġlaunched":12530,"Ġfrancis":12531,"Ġexecution":12532,"sadly":12533,"Ġrecommend":12534,"Ġemperor":12535,"Ġinherit":12536,"Ġvampire":12537,"Ġportrait":12538,"Ġstylish":12539,"Ġclumsy":12540,"Ġoutrageous":12541,"Ġenormous":12542,"Ġshoddy":12543,"Ġathletic":12544,"Ġadrenal":12545,"Ġproclivity":12546,"Ġprognosis":12547,"Ġfashions":12548,"Ġbeseech":12549,"Ġsaturday":12550,"bind":12551,"bugs":12552,"cab":12553,"cine":12554,"cool":12555,"det":12556,"dise":12557,"dirty":12558,"fil":12559,"fles":12560,"flo":12561,"gotta":12562,"hom":12563,"lose":12564,"mont":12565,"mist":12566,"nys":12567,"park":12568,"prop":12569,"sos":12570,"sme":12571,"sug":12572,"suff":12573,"ti":12574,"tan":12575,"tuce":12576,"uten":12577,"wo":12578,"worn":12579,"xual":12580,"inos":12581,"Ġsash":12582,"Ġsaints":12583,"tep":12584,"Ġcort":12585,"Ġcuddle":12586,"Ġczech":12587,"Ġwend":12588,"Ġbb":12589,"Ġbrom":12590,"Ġtherap":12591,"Ġmakin":12592,"Ġmichael":12593,"Ġhump":12594,"Ġhailed":12595,"Ġie":12596,"Ġfes":12597,"Ġfoots":12598,"Ġflights":12599,"Ġtween":12600,"Ġdic":12601,"Ġdich":12602,"Ġdale":12603,"atile":12604,"anim":12605,"Ġpam":12606,"Ġpung":12607,"inger":12608,"Ġlined":12609,"Ġgert":12610,"ications":12611,"veled":12612,"alis":12613,"alism":12614,"iti":12615,"itas":12616,"rily":12617,"Ġstings":12618,"Ġstair":12619,"Ġonions":12620,"amine":12621,"Ġwhiff":12622,"Ġreel":12623,"Ġretr":12624,"Ġrut":12625,"Ġrants":12626,"chrom":12627,"imag":12628,"Ġdeple":12629,"Ġchock":12630,"ifting":12631,"Ġoils":12632,"Ġkay":12633,"Ġhiss":12634,"peak":12635,"roman":12636,"Ġnoisy":12637,"olish":12638,"state":12639,"Ġploy":12640,"Ġspawn":12641,"Ġblat":12642,"Ġblab":12643,"former":12644,"Ġvase":12645,"oneys":12646,"arel":12647,"Ġtrot":12648,"igraph":12649,"Ġsuite":12650,"Ġsucked":12651,"Ġconch":12652,"ourse":12653,"achy":12654,"Ġcoma":12655,"Ġquir":12656,"Ġquits":12657,"Ġquotes":12658,"Ġcocon":12659,"Ġcrotch":12660,"Ġyards":12661,"Ġsheath":12662,"Ġuptight":12663,"Ġability":12664,"Ġbrows":12665,"Ġbrats":12666,"Ġado":12667,"become":12668,"Ġengr":12669,"Ġenvy":12670,"Ġproven":12671,"Ġgreeting":12672,"Ġprinted":12673,"Ġguine":12674,"Ġguff":12675,"Ġpoise":12676,"auts":12677,"Ġhades":12678,"cled":12679,"meal":12680,"notes":12681,"Ġpeasant":12682,"Ġsled":12683,"blings":12684,"Ġkel":12685,"orses":12686,"Ġbreeds":12687,"Ġfraction":12688,"Ġcarving":12689,"Ġperm":12690,"Ġswill":12691,"Ġswind":12692,"Ġswagger":12693,"tenance":12694,"Ġbacking":12695,"Ġfoc":12696,"oding":12697,"Ġresolve":12698,"Ġbrighten":12699,"ocation":12700,"Ġbetting":12701,"Ġsnar":12702,"Ġsnails":12703,"Ġdecry":12704,"Ġdecrees":12705,"cover":12706,"Ġeverythings":12707,"Ġdefault":12708,"Ġactivity":12709,"Ġcrafts":12710,"Ġbedding":12711,"Ġrunner":12712,"Ġaccus":12713,"Ġschol":12714,"Ġcolored":12715,"Ġcolonel":12716,"Ġerud":12717,"pray":12718,"prise":12719,"Ġburgers":12720,"Ġladys":12721,"Ġadvantage":12722,"Ġhorror":12723,"Ġsuppress":12724,"Ġmenu":12725,"Ġsingers":12726,"flower":12727,"lipse":12728,"Ġmommy":12729,"Ġcountries":12730,"Ġfatty":12731,"Ġchildhood":12732,"ophy":12733,"Ġhitler":12734,"Ġchrys":12735,"Ġtransgress":12736,"Ġcyto":12737,"ternation":12738,"Ġforebears":12739,"Ġcleaner":12740,"Ġmedium":12741,"Ġentre":12742,"Ġspeakers":12743,"Ġthrives":12744,"Ġlegend":12745,"Ġregime":12746,"Ġlabels":12747,"Ġlearns":12748,"Ġchurches":12749,"Ġignite":12750,"Ġbuilders":12751,"Ġaching":12752,"Ġsuffering":12753,"Ġconviction":12754,"Ġderived":12755,"Ġcorners":12756,"Ġgroans":12757,"Ġexamined":12758,"Ġambass":12759,"Ġrotation":12760,"preh":12761,"Ġsnows":12762,"Ġfigured":12763,"Ġweekend":12764,"Ġalaska":12765,"Ġcentury":12766,"Ġelsewhere":12767,"Ġtechnology":12768,"Ġbathroom":12769,"Ġpursuing":12770,"Ġlocale":12771,"Ġbeset":12772,"Ġkicking":12773,"Ġrobust":12774,"outside":12775,"Ġstatistics":12776,"Ġclowns":12777,"Ġseasons":12778,"Ġaccounting":12779,"Ġaux":12780,"ogenous":12781,"Ġtunnel":12782,"Ġdreary":12783,"Ġlitter":12784,"charles":12785,"Ġfeeble":12786,"Ġinvestors":12787,"Ġpooh":12788,"Ġaptly":12789,"Ġventure":12790,"Ġoperation":12791,"Ġfiend":12792,"Ġfiber":12793,"Ġjimmy":12794,"Ġsymbols":12795,"Ġgrains":12796,"Ġbinary":12797,"Ġinferred":12798,"Ġsweetheart":12799,"Ġdripping":12800,"electric":12801,"Ġscientist":12802,"Ġanchors":12803,"super":12804,"Ġdecorum":12805,"Ġjunior":12806,"Ġchimney":12807,"include":12808,"Ġgourd":12809,"Ġstitches":12810,"Ġbehaviors":12811,"quickly":12812,"Ġdisparage":12813,"employed":12814,"Ġdoeuv":12815,"Ġplumbing":12816,"Ġsmarter":12817,"Ġequipment":12818,"Ġhymn":12819,"Ġconfirms":12820,"Ġcrocod":12821,"Ġinfections":12822,"Ġprincipal":12823,"Ġbicycle":12824,"british":12825,"Ġinfinite":12826,"Ġpudding":12827,"Ġsturdy":12828,"Ġmeteor":12829,"Ġtoupee":12830,"Ġethereal":12831,"zabeth":12832,"bite":12833,"cot":12834,"cet":12835,"cult":12836,"camp":12837,"cott":12838,"fied":12839,"french":12840,"foll":12841,"fitting":12842,"gor":12843,"hail":12844,"iology":12845,"link":12846,"maker":12847,"nu":12848,"nels":12849,"oed":12850,"pus":12851,"rub":12852,"sans":12853,"tas":12854,"tys":12855,"tage":12856,"tailed":12857,"vies":12858,"inction":12859,"Ġsally":12860,"Ġsane":12861,"Ġbender":12862,"Ġmite":12863,"Ġmaw":12864,"Ġmaf":12865,"Ġmeds":12866,"Ġmoles":12867,"Ġmakers":12868,"Ġhints":12869,"Ġhilar":12870,"Ġful":12871,"Ġfath":12872,"Ġfug":12873,"Ġtrom":12874,"Ġdac":12875,"Ġduch":12876,"Ġdoff":12877,"Ġduel":12878,"Ġdazed":12879,"oria":12880,"isan":12881,"Ġply":12882,"Ġpint":12883,"Ġpicks":12884,"Ġpiles":12885,"Ġlull":12886,"Ġgird":12887,"adas":12888,"Ġstung":12889,"irled":12890,"amese":12891,"Ġwhys":12892,"Ġrails":12893,"chlor":12894,"Ġjoseph":12895,"verts":12896,"rolling":12897,"Ġchan":12898,"Ġanus":12899,"Ġanoint":12900,"Ġoys":12901,"second":12902,"Ġasunder":12903,"Ġseams":12904,"erson":12905,"umper":12906,"wee":12907,"Ġcany":12908,"Ġcanada":12909,"stands":12910,"Ġplatter":12911,"Ġattent":12912,"Ġattended":12913,"abel":12914,"forty":12915,"Ġvend":12916,"Ġvoy":12917,"Ġvio":12918,"astroph":12919,"sole":12920,"Ġtrough":12921,"antine":12922,"Ġflustered":12923,"iere":12924,"Ġgruff":12925,"Ġcovet":12926,"agles":12927,"Ġalchem":12928,"Ġbrist":12929,"Ġadores":12930,"Ġbutler":12931,"ostic":12932,"Ġenters":12933,"Ġunra":12934,"Ġunbear":12935,"Ġapace":12936,"Ġrods":12937,"ighe":12938,"Ġguides":12939,"Ġmoths":12940,"Ġcheery":12941,"nold":12942,"Ġwells":12943,"Ġagg":12944,"Ġagenda":12945,"Ġembell":12946,"issions":12947,"blown":12948,"Ġglitch":12949,"Ġglued":12950,"Ġpreference":12951,"Ġperp":12952,"Ġperth":12953,"Ġpermission":12954,"Ġifs":12955,"urnal":12956,"Ġresolved":12957,"Ġpleases":12958,"Ġpleading":12959,"mann":12960,"mannered":12961,"atson":12962,"Ġcomply":12963,"Ġoverdue":12964,"Ġsurvey":12965,"Ġsnort":12966,"Ġsnuff":12967,"Ġterminal":12968,"Ġcaress":12969,"Ġbadger":12970,"Ġcomma":12971,"Ġcraze":12972,"Ġstarred":12973,"Ġlimited":12974,"Ġconscious":12975,"Ġsweetie":12976,"Ġcharcoal":12977,"creation":12978,"Ġexpans":12979,"Ġdistraction":12980,"Ġnorms":12981,"ricted":12982,"Ġladder":12983,"Ġrounds":12984,"Ġveh":12985,"Ġvertical":12986,"Ġindo":12987,"Ġsquid":12988,"Ġsleeves":12989,"Ġshores":12990,"Ġbrakes":12991,"Ġtopped":12992,"Ġcello":12993,"Ġlotion":12994,"Ġstrate":12995,"Ġcrypto":12996,"Ġfacial":12997,"Ġfacility":12998,"Ġfourteen":12999,"Ġforming":13000,"Ġstandards":13001,"Ġspruce":13002,"Ġbillions":13003,"ophile":13004,"Ġadmin":13005,"calls":13006,"Ġwondered":13007,"Ġlively":13008,"Ġcowboys":13009,"Ġhurled":13010,"Ġthrift":13011,"Ġlaughing":13012,"Ġmorose":13013,"Ġrocky":13014,"Ġboxing":13015,"Ġsticking":13016,"Ġtruths":13017,"attan":13018,"Ġdreadful":13019,"ographers":13020,"Ġblocking":13021,"Ġvalu":13022,"Ġcracker":13023,"Ġknots":13024,"Ġmilky":13025,"Ġpigment":13026,"Ġsymph":13027,"Ġfluids":13028,"Ġpeaceful":13029,"Ġdomestic":13030,"Ġcocktail":13031,"Ġwret":13032,"Ġtitles":13033,"Ġtorment":13034,"Ġprevails":13035,"Ġbonnet":13036,"Ġmatched":13037,"Ġaxis":13038,"Ġunsur":13039,"Ġbesides":13040,"Ġdeceive":13041,"Ġnetwork":13042,"Ġsamples":13043,"Ġproducing":13044,"Ġcrappy":13045,"Ġduller":13046,"Ġbriefly":13047,"Ġnatives":13048,"Ġdrains":13049,"Ġstatue":13050,"Ġjudged":13051,"ospheres":13052,"Ġconstructed":13053,"Ġaerial":13054,"haired":13055,"Ġinstruction":13056,"Ġmacbeth":13057,"Ġrabbits":13058,"uvian":13059,"Ġdrowning":13060,"Ġearnest":13061,"Ġcontrary":13062,"Ġsuspicious":13063,"Ġdiscussed":13064,"Ġdiscussion":13065,"Ġpsychology":13066,"Ġassistant":13067,"Ġshrill":13068,"Ġscotch":13069,"Ġdubious":13070,"Ġsynthetic":13071,"Ġemerged":13072,"Ġwiser":13073,"Ġvowels":13074,"Ġbruise":13075,"Ġthreads":13076,"Ġgloves":13077,"Ġconductor":13078,"Ġwandered":13079,"Ġcondemned":13080,"Ġtangled":13081,"fellow":13082,"catching":13083,"Ġpersuasion":13084,"Ġardor":13085,"Ġsimplistic":13086,"Ġwrinkled":13087,"Ġeighth":13088,"Ġacetyl":13089,"Ġeuphor":13090,"Ġexplosive":13091,"laden":13092,"Ġbingo":13093,"Ġeastern":13094,"Ġcheeses":13095,"Ġlicense":13096,"Ġrestored":13097,"planned":13098,"Ġancestors":13099,"Ġaccepted":13100,"Ġsustain":13101,"alexander":13102,"Ġfulfill":13103,"Ġforbidden":13104,"Ġmollus":13105,"Ġbeggar":13106,"Ġbikini":13107,"Ġvulgar":13108,"Ġpharmac":13109,"Ġenthused":13110,"Ġmundane":13111,"Ġdiscipl":13112,"Ġcologne":13113,"bub":13114,"barr":13115,"brid":13116,"cars":13117,"casting":13118,"dot":13119,"haw":13120,"hanging":13121,"jor":13122,"lasting":13123,"mation":13124,"names":13125,"power":13126,"sil":13127,"south":13128,"toss":13129,"uan":13130,"uence":13131,"yan":13132,"Ġump":13133,"Ġcack":13134,"Ġcower":13135,"Ġbif":13136,"Ġbowed":13137,"Ġmd":13138,"Ġmong":13139,"Ġmuc":13140,"Ġmums":13141,"Ġhicks":13142,"Ġfists":13143,"Ġtilt":13144,"Ġdood":13145,"Ġdane":13146,"Ġdyes":13147,"Ġdilem":13148,"oration":13149,"organ":13150,"isons":13151,"Ġpus":13152,"ences":13153,"Ġlava":13154,"Ġgutter":13155,"Ġglib":13156,"Ġnome":13157,"Ġnate":13158,"Ġnav":13159,"lem":13160,"icul":13161,"icates":13162,"alds":13163,"acade":13164,"itus":13165,"Ġewe":13166,"Ġbead":13167,"osters":13168,"Ġstamp":13169,"Ġstumble":13170,"iduous":13171,"Ġhex":13172,"Ġheirs":13173,"aman":13174,"amus":13175,"Ġreass":13176,"church":13177,"alls":13178,"Ġforbid":13179,"Ġjog":13180,"tobe":13181,"rogen":13182,"Ġchass":13183,"Ġchile":13184,"Ġchort":13185,"Ġchimp":13186,"Ġcanary":13187,"Ġnobel":13188,"olent":13189,"stal":13190,"starts":13191,"ulk":13192,"Ġsocc":13193,"Ġsoaked":13194,"Ġthistle":13195,"Ġsped":13196,"Ġvie":13197,"opod":13198,"antial":13199,"igan":13200,"igate":13201,"igence":13202,"igma":13203,"Ġteles":13204,"Ġflushed":13205,"eline":13206,"Ġquant":13207,"Ġquail":13208,"Ġquery":13209,"Ġgramps":13210,"Ġcoot":13211,"Ġcodes":13212,"icky":13213,"Ġoutdated":13214,"Ġyon":13215,"Ġyall":13216,"Ġadrift":13217,"bean":13218,"beats":13219,"ipation":13220,"Ġamate":13221,"Ġapoc":13222,"Ġapril":13223,"Ġripped":13224,"Ġridge":13225,"Ġprude":13226,"Ġcallous":13227,"Ġrobe":13228,"awful":13229,"ightened":13230,"Ġtwain":13231,"Ġmocked":13232,"cloud":13233,"Ġslouch":13234,"Ġcleft":13235,"Ġcleavage":13236,"Ġcarte":13237,"Ġdesires":13238,"Ġbackground":13239,"Ġsteaks":13240,"Ġresign":13241,"Ġcreations":13242,"Ġbaro":13243,"Ġbarrels":13244,"Ġmarge":13245,"Ġmarred":13246,"Ġmarital":13247,"Ġcoul":13248,"Ġcomposed":13249,"Ġcurm":13250,"Ġcurses":13251,"Ġoverweight":13252,"Ġsurly":13253,"Ġpainfully":13254,"william":13255,"Ġparticle":13256,"Ġdecreed":13257,"Ġcater":13258,"aryn":13259,"Ġapparel":13260,"Ġconfidence":13261,"Ġcrazed":13262,"Ġreds":13263,"Ġairy":13264,"Ġlimricks":13265,"Ġconscience":13266,"Ġexpenses":13267,"Ġhotter":13268,"Ġlessons":13269,"Ġgraves":13270,"Ġvey":13271,"Ġvermin":13272,"Ġindia":13273,"Ġindex":13274,"Ġindians":13275,"Ġdames":13276,"Ġclassy":13277,"Ġhorde":13278,"zzled":13279,"Ġbragged":13280,"Ġdiva":13281,"clever":13282,"Ġsubmission":13283,"Ġbuyers":13284,"Ġmonstr":13285,"Ġcloak":13286,"tempered":13287,"Ġmetrical":13288,"Ġearthly":13289,"Ġjeez":13290,"Ġmadam":13291,"Ġdreaming":13292,"Ġtransmit":13293,"Ġevergreen":13294,"Ġdiets":13295,"Ġbask":13296,"Ġforehead":13297,"Ġdocument":13298,"Ġdirectors":13299,"Ġdinosaur":13300,"Ġposed":13301,"Ġtermites":13302,"Ġcastles":13303,"Ġpromotion":13304,"Ġdiscord":13305,"Ġmerc":13306,"Ġmerit":13307,"Ġfarming":13308,"Ġopening":13309,"Ġrevolution":13310,"Ġsuspected":13311,"Ġsandy":13312,"Ġensl":13313,"Ġensue":13314,"Ġdetract":13315,"related":13316,"Ġproposed":13317,"putting":13318,"Ġinfant":13319,"Ġcharmer":13320,"Ġsuccessful":13321,"Ġscreens":13322,"Ġpossession":13323,"Ġhallow":13324,"Ġpuns":13325,"Ġsenator":13326,"Ġconnected":13327,"woods":13328,"uria":13329,"Ġmotif":13330,"Ġeclipse":13331,"Ġcherish":13332,"Ġthanksgiving":13333,"Ġbulge":13334,"Ġhostility":13335,"Ġdisgraced":13336,"Ġapplication":13337,"Ġsmokes":13338,"Ġaccountant":13339,"Ġunclear":13340,"aurus":13341,"Ġcompelling":13342,"written":13343,"Ġannoying":13344,"Ġsuspension":13345,"Ġsuspicion":13346,"Ġcrystalline":13347,"Ġmirrors":13348,"daily":13349,"drive":13350,"Ġingred":13351,"Ġpierre":13352,"Ġskelet":13353,"Ġutmost":13354,"Ġgranite":13355,"Ġcontrols":13356,"towards":13357,"Ġcliffs":13358,"Ġbishops":13359,"blooded":13360,"Ġpuzzled":13361,"Ġenemys":13362,"Ġfurniture":13363,"Ġrigid":13364,"Ġmanagement":13365,"Ġcompassion":13366,"Ġvirtue":13367,"Ġexhausted":13368,"Ġcontrived":13369,"drinking":13370,"Ġbridges":13371,"Ġexhibit":13372,"Ġinterests":13373,"Ġpimple":13374,"Ġcomprehend":13375,"Ġcedar":13376,"golden":13377,"Ġtrumpet":13378,"Ġarthritis":13379,"Ġglutton":13380,"Ġprudent":13381,"Ġrecognition":13382,"Ġentirely":13383,"circum":13384,"Ġslippery":13385,"Ġcephal":13386,"Ġmozart":13387,"oubtedly":13388,"bond":13389,"baked":13390,"coc":13391,"ease":13392,"function":13393,"gues":13394,"gently":13395,"hr":13396,"hire":13397,"iors":13398,"ioc":13399,"jacks":13400,"lain":13401,"mag":13402,"match":13403,"path":13404,"paper":13405,"rat":13406,"rose":13407,"race":13408,"tos":13409,"uals":13410,"vir":13411,"vate":13412,"vah":13413,"ww":13414,"xie":13415,"yx":13416,"Ġoops":13417,"thick":13418,"reprod":13419,"Ġcest":13420,"Ġwatson":13421,"Ġbist":13422,"Ġbakers":13423,"Ġmous":13424,"Ġiq":13425,"Ġicy":13426,"Ġtai":13427,"Ġtangle":13428,"Ġdian":13429,"esc":13430,"anous":13431,"asions":13432,"Ġlug":13433,"Ġlaps":13434,"Ġlining":13435,"Ġlilies":13436,"Ġlofty":13437,"uscious":13438,"alone":13439,"alist":13440,"anders":13441,"accept":13442,"Ġeels":13443,"Ġstacks":13444,"Ġstoned":13445,"idian":13446,"Ġhebrew":13447,"Ġwhims":13448,"Ġrevered":13449,"Ġrit":13450,"ooch":13451,"Ġshag":13452,"Ġshattered":13453,"unked":13454,"urally":13455,"tore":13456,"Ġchi":13457,"Ġchast":13458,"Ġoption":13459,"section":13460,"Ġaston":13461,"Ġkilt":13462,"Ġseab":13463,"Ġselected":13464,"Ġneater":13465,"romes":13466,"Ġcance":13467,"Ġcancers":13468,"Ġplung":13469,"ulant":13470,"Ġsoot":13471,"apy":13472,"Ġherds":13473,"Ġherring":13474,"Ġdoze":13475,"Ġspaghetti":13476,"Ġblaze":13477,"Ġvon":13478,"Ġclash":13479,"antip":13480,"iger":13481,"Ġsuited":13482,"Ġflakes":13483,"Ġboa":13484,"else":13485,"Ġquirk":13486,"Ġexists":13487,"Ġexternal":13488,"Ġgraces":13489,"uda":13490,"Ġyam":13491,"Ġyak":13492,"Ġarach":13493,"agus":13494,"Ġourselves":13495,"Ġalarms":13496,"fere":13497,"Ġadults":13498,"Ġadverb":13499,"ipt":13500,"iped":13501,"Ġunited":13502,"Ġuniform":13503,"Ġapric":13504,"Ġapoll":13505,"Ġprinter":13506,"Ġsmear":13507,"Ġsmashing":13508,"deal":13509,"sharp":13510,"Ġnowadays":13511,"mson":13512,"acting":13513,"cling":13514,"Ġpew":13515,"Ġslot":13516,"Ġslate":13517,"Ġslices":13518,"Ġdownward":13519,"Ġthrall":13520,"ools":13521,"Ġdesist":13522,"Ġawl":13523,"Ġfridge":13524,"Ġendured":13525,"Ġmustnt":13526,"inton":13527,"ggles":13528,"ochem":13529,"Ġcouples":13530,"izer":13531,"izations":13532,"Ġbeta":13533,"Ġbroc":13534,"Ġsnatch":13535,"Ġgeor":13536,"bros":13537,"Ġrepet":13538,"Ġcontrite":13539,"gram":13540,"grows":13541,"tesque":13542,"Ġappreci":13543,"seek":13544,"Ġconfound":13545,"Ġimplied":13546,"Ġreduction":13547,"Ġzen":13548,"Ġrunny":13549,"Ġconspir":13550,"loid":13551,"Ġcolt":13552,"Ġballoons":13553,"appin":13554,"Ġantiqu":13555,"Ġflowering":13556,"Ġgrapple":13557,"Ġpurge":13558,"Ġgrowl":13559,"constr":13560,"Ġeditors":13561,"Ġpoorly":13562,"Ġfinance":13563,"Ġstrap":13564,"Ġminers":13565,"exc":13566,"Ġeyebr":13567,"Ġbattered":13568,"poken":13569,"Ġprofuse":13570,"Ġrelent":13571,"Ġearthqu":13572,"guarante":13573,"Ġsignature":13574,"Ġfaze":13575,"Ġyelling":13576,"Ġadmon":13577,"Ġharass":13578,"Ġmadness":13579,"Ġstrongly":13580,"Ġmessed":13581,"Ġdenote":13582,"Ġdais":13583,"Ġbases":13584,"Ġeffe":13585,"ylvan":13586,"Ġhurric":13587,"Ġsolutions":13588,"Ġdigits":13589,"Ġfilter":13590,"desert":13591,"Ġruler":13592,"Ġruling":13593,"Ġpuke":13594,"Ġcomplaints":13595,"Ġbuilder":13596,"Ġengender":13597,"Ġbaggage":13598,"proved":13599,"Ġcatches":13600,"Ġsickly":13601,"Ġsucculent":13602,"Ġdishon":13603,"Ġshallow":13604,"Ġborrowed":13605,"Ġgasp":13606,"onyms":13607,"Ġattacking":13608,"annel":13609,"annies":13610,"Ġcasket":13611,"Ġspeedy":13612,"Ġoppose":13613,"Ġsensible":13614,"Ġconstitution":13615,"Ġjuices":13616,"Ġenjoyment":13617,"Ġastrol":13618,"Ġinterpre":13619,"Ġimmature":13620,"Ġbodily":13621,"Ġtailor":13622,"kinned":13623,"Ġfutile":13624,"Ġmemorys":13625,"Ġstrokes":13626,"Ġfortunes":13627,"Ġtitanic":13628,"Ġcreeping":13629,"Ġvolunte":13630,"Ġunsure":13631,"Ġfrowned":13632,"hydro":13633,"Ġcadaver":13634,"Ġcontinues":13635,"Ġvanish":13636,"Ġbulbs":13637,"Ġpackage":13638,"Ġdumps":13639,"Ġruins":13640,"Ġcarrying":13641,"Ġcartilage":13642,"Ġalarming":13643,"Ġdetected":13644,"Ġpedal":13645,"absor":13646,"slow":13647,"Ġdregs":13648,"Ġgirlfriends":13649,"Ġlistening":13650,"Ġpooch":13651,"Ġgentleman":13652,"Ġsioux":13653,"Ġfavored":13654,"Ġprotecting":13655,"Ġgowns":13656,"volent":13657,"Ġtweet":13658,"Ġtess":13659,"Ġoptions":13660,"Ġofficers":13661,"Ġcitrus":13662,"Ġengineer":13663,"gainst":13664,"Ġinferior":13665,"Ġpulp":13666,"Ġchaotic":13667,"Ġabstruse":13668,"Ġbawl":13669,"Ġfossils":13670,"Ġeconomy":13671,"Ġbarbarian":13672,"Ġtanned":13673,"Ġclarity":13674,"Ġastounding":13675,"Ġadjour":13676,"Ġwidow":13677,"Ġmuseum":13678,"Ġfibers":13679,"Ġduration":13680,"Ġinjured":13681,"Ġallege":13682,"Ġaustere":13683,"habit":13684,"Ġconvenient":13685,"Ġtucked":13686,"Ġextensive":13687,"declared":13688,"Ġmicroscop":13689,"Ġestablished":13690,"Ġexploit":13691,"Ġenlighten":13692,"Ġqueried":13693,"children":13694,"Ġcitizens":13695,"Ġnewspaper":13696,"Ġtibet":13697,"Ġdisarray":13698,"Ġenzymes":13699,"Ġlincoln":13700,"Ġointment":13701,"Ġcautious":13702,"according":13703,"Ġshampoo":13704,"Ġvodka":13705,"Ġtranqu":13706,"Ġmafia":13707,"bank":13708,"bbles":13709,"cow":13710,"cake":13711,"cund":13712,"curs":13713,"dal":13714,"earn":13715,"irie":13716,"kings":13717,"lat":13718,"locks":13719,"leng":13720,"mi":13721,"male":13722,"milk":13723,"rising":13724,"sound":13725,"scr":13726,"touch":13727,"wre":13728,"wort":13729,"whel":13730,"third":13731,"Ġawhile":13732,"Ġaverse":13733,"invol":13734,"Ġsams":13735,"Ġsaul":13736,"tele":13737,"Ġthund":13738,"Ġbis":13739,"Ġbending":13740,"Ġmould":13741,"Ġmick":13742,"Ġfum":13743,"Ġfused":13744,"Ġfangs":13745,"Ġtam":13746,"Ġticks":13747,"Ġdally":13748,"Ġduff":13749,"Ġdavy":13750,"Ġpens":13751,"Ġpuck":13752,"Ġpater":13753,"enters":13754,"Ġlan":13755,"Ġlosers":13756,"Ġnour":13757,"Ġnub":13758,"Ġnaps":13759,"lexic":13760,"Ġintens":13761,"itical":13762,"itled":13763,"Ġepo":13764,"aden":13765,"ados":13766,"adors":13767,"Ġbeech":13768,"hemer":13769,"Ġstunk":13770,"Ġstares":13771,"Ġstages":13772,"amation":13773,"Ġisles":13774,"lymp":13775,"terous":13776,"Ġshatter":13777,"cele":13778,"Ġdex":13779,"Ġdele":13780,"urg":13781,"Ġjos":13782,"root":13783,"roid":13784,"Ġchaff":13785,"Ġanci":13786,"Ġoct":13787,"Ġolymp":13788,"seye":13789,"Ġasper":13790,"Ġkite":13791,"Ġkidding":13792,"Ġnect":13793,"lize":13794,"cting":13795,"oline":13796,"Ġallay":13797,"Ġalloy":13798,"abled":13799,"Ġdoth":13800,"Ġspry":13801,"Ġspends":13802,"Ġspicy":13803,"Ġblaz":13804,"Ġimbib":13805,"forced":13806,"Ġfeck":13807,"Ġfeign":13808,"Ġfeces":13809,"Ġvult":13810,"Ġvatic":13811,"Ġleaks":13812,"Ġlemons":13813,"opt":13814,"opat":13815,"opper":13816,"Ġclav":13817,"Ġclair":13818,"Ġclusters":13819,"Ġtrading":13820,"istine":13821,"Ġflore":13822,"Ġfloss":13823,"Ġcomics":13824,"Ġquo":13825,"Ġgrudge":13826,"Ġcrum":13827,"Ġyonder":13828,"Ġarres":13829,"Ġscowl":13830,"Ġalge":13831,"Ġabr":13832,"Ġabras":13833,"Ġdisclose":13834,"Ġadap":13835,"Ġadvert":13836,"beck":13837,"ipate":13838,"Ġuntrue":13839,"Ġuncommon":13840,"Ġrite":13841,"Ġprank":13842,"Ġwhence":13843,"Ġrooster":13844,"Ġburial":13845,"shire":13846,"shouting":13847,"Ġtwill":13848,"Ġtwould":13849,"Ġaccomp":13850,"Ġhasten":13851,"Ġmoons":13852,"meat":13853,"Ġchevy":13854,"angar":13855,"Ġagon":13856,"Ġslay":13857,"Ġneedy":13858,"Ġskis":13859,"Ġdaydream":13860,"Ġglaze":13861,"Ġglimp":13862,"Ġglitter":13863,"vested":13864,"Ġperverse":13865,"Ġperforce":13866,"Ġsworn":13867,"Ġawaken":13868,"Ġstrands":13869,"arma":13870,"Ġstellar":13871,"Ġmarched":13872,"Ġidiot":13873,"Ġfirstrate":13874,"Ġcompunction":13875,"Ġovers":13876,"Ġbiggest":13877,"door":13878,"bold":13879,"Ġrepairs":13880,"Ġpartys":13881,"Ġdecisions":13882,"Ġdiarr":13883,"Ġdefiance":13884,"Ġlasting":13885,"Ġsupers":13886,"Ġdoubles":13887,"getic":13888,"Ġchooses":13889,"Ġparli":13890,"Ġtrape":13891,"Ġerase":13892,"umbers":13893,"Ġmuscular":13894,"Ġfearing":13895,"Ġantit":13896,"Ġfelled":13897,"ateral":13898,"Ġgravy":13899,"Ġburg":13900,"Ġladen":13901,"Ġverd":13902,"Ġdevices":13903,"Ġinduce":13904,"Ġhoriz":13905,"zzard":13906,"Ġslew":13907,"Ġsalty":13908,"Ġturf":13909,"Ġturtle":13910,"Ġstrewn":13911,"Ġstrait":13912,"Ġsubd":13913,"Ġdelhi":13914,"Ġbatting":13915,"points":13916,"Ġextol":13917,"Ġrelative":13918,"Ġfooled":13919,"whyd":13920,"Ġdeclar":13921,"Ġdeclined":13922,"Ġbanner":13923,"Ġbanquet":13924,"Ġcollector":13925,"Ġmathematic":13926,"Ġfamilies":13927,"adds":13928,"mostly":13929,"Ġdenotes":13930,"Ġdaze":13931,"Ġpencil":13932,"Ġbowers":13933,"Ġbasin":13934,"Ġpolitic":13935,"Ġpicky":13936,"Ġpraying":13937,"Ġhopin":13938,"Ġhalfway":13939,"Ġworthwhile":13940,"Ġangst":13941,"Ġrhyth":13942,"Ġcroon":13943,"Ġraises":13944,"Ġdebon":13945,"cartes":13946,"Ġshrunk":13947,"Ġfixing":13948,"Ġmalicious":13949,"terial":13950,"Ġferment":13951,"Ġraining":13952,"Ġgermans":13953,"Ġshipped":13954,"Ġurgent":13955,"Ġfury":13956,"Ġkidney":13957,"Ġhypo":13958,"Ġhideous":13959,"prefer":13960,"Ġcuz":13961,"Ġportion":13962,"Ġensued":13963,"Ġtricked":13964,"Ġpropri":13965,"Ġaudit":13966,"Ġcosmet":13967,"Ġunderstands":13968,"Ġoutst":13969,"Ġsurviv":13970,"Ġsurvives":13971,"Ġporcel":13972,"Ġescaped":13973,"Ġstresses":13974,"Ġrepeats":13975,"control":13976,"ported":13977,"Ġtumors":13978,"Ġincreasing":13979,"Ġincreasingly":13980,"Ġwhisk":13981,"Ġpigeons":13982,"Ġtargets":13983,"passing":13984,"north":13985,"Ġstinking":13986,"Ġacquaint":13987,"Ġbehaved":13988,"Ġhunters":13989,"Ġseduce":13990,"Ġscarf":13991,"Ġfleece":13992,"step":13993,"Ġaquatic":13994,"Ġcubic":13995,"Ġbinding":13996,"Ġpaired":13997,"Ġsinking":13998,"Ġsuspended":13999,"Ġswitched":14000,"vette":14001,"burg":14002,"Ġchipper":14003,"Ġingest":14004,"richard":14005,"Ġattending":14006,"johnny":14007,"Ġofficial":14008,"Ġgigantic":14009,"Ġcooper":14010,"Ġgamble":14011,"Ġinfernal":14012,"Ġcranial":14013,"Ġtypically":14014,"Ġprograms":14015,"Ġaustralian":14016,"Ġneurotic":14017,"decided":14018,"Ġnumbered":14019,"Ġzealand":14020,"Ġprescribed":14021,"Ġfurnace":14022,"Ġmonsters":14023,"Ġassuming":14024,"Ġoccasional":14025,"Ġdiminish":14026,"Ġtorture":14027,"Ġsheriff":14028,"believe":14029,"Ġcranky":14030,"Ġfracture":14031,"Ġcosmos":14032,"local":14033,"Ġchaucer":14034,"Ġprickly":14035,"Ġarchitects":14036,"christmas":14037,"flowers":14038,"Ġvigor":14039,"Ġrestore":14040,"Ġocto":14041,"Ġcontents":14042,"Ġireland":14043,"Ġprocedure":14044,"Ġrepeatedly":14045,"Ġcerebral":14046,"Ġshepherd":14047,"Ġgulp":14048,"author":14049,"Ġresources":14050,"Ġfatigue":14051,"fifteen":14052,"Ġstrangers":14053,"Ġbordeaux":14054,"Ġbravado":14055,"Ġbenedict":14056,"Ġlectures":14057,"Ġperpetual":14058,"Ġcathedral":14059,"Ġaluminum":14060,"Ġsoprano":14061,"Ġunsurpassed":14062,"Ġglimpse":14063,"cam":14064,"cass":14065,"cure":14066,"cents":14067,"cision":14068,"dads":14069,"eys":14070,"famous":14071,"ibles":14072,"jane":14073,"james":14074,"len":14075,"lins":14076,"mong":14077,"michael":14078,"nin":14079,"non":14080,"nish":14081,"oir":14082,"pure":14083,"poss":14084,"paying":14085,"rans":14086,"sar":14087,"sang":14088,"serves":14089,"tied":14090,"uz":14091,"ufact":14092,"wright":14093,"inian":14094,"inty":14095,"Ġsut":14096,"Ġsands":14097,"Ġcd":14098,"Ġcys":14099,"Ġcider":14100,"Ġwaving":14101,"Ġbakes":14102,"Ġtheore":14103,"onous":14104,"Ġmun":14105,"Ġmace":14106,"Ġhives":14107,"Ġhugs":14108,"Ġip":14109,"Ġivy":14110,"Ġfax":14111,"Ġfawn":14112,"Ġfoster":14113,"Ġtides":14114,"Ġdj":14115,"Ġds":14116,"Ġdos":14117,"Ġdual":14118,"escent":14119,"attr":14120,"isive":14121,"anno":14122,"Ġpon":14123,"Ġpion":14124,"Ġpars":14125,"Ġpudd":14126,"Ġpsal":14127,"enger":14128,"arius":14129,"Ġlud":14130,"Ġlenses":14131,"Ġgait":14132,"Ġned":14133,"Ġnab":14134,"Ġnailed":14135,"Ġnaming":14136,"Ġnifty":14137,"Ġnymph":14138,"legs":14139,"ico":14140,"icting":14141,"user":14142,"ghe":14143,"Ġeu":14144,"Ġeins":14145,"Ġelope":14146,"Ġbeque":14147,"rig":14148,"rium":14149,"Ġstank":14150,"Ġstump":14151,"Ġhein":14152,"Ġhector":14153,"amid":14154,"Ġrein":14155,"Ġrenew":14156,"Ġrape":14157,"roy":14158,"Ġchit":14159,"Ġchad":14160,"Ġchamb":14161,"Ġanes":14162,"Ġobe":14163,"Ġoclock":14164,"ilian":14165,"iloqu":14166,"Ġkidd":14167,"illion":14168,"illery":14169,"Ġouch":14170,"umbered":14171,"Ġnotions":14172,"oughs":14173,"ainty":14174,"Ġnov":14175,"olving":14176,"Ġplunder":14177,"ulates":14178,"Ġspore":14179,"Ġsparks":14180,"Ġspikes":14181,"Ġblas":14182,"forward":14183,"Ġvand":14184,"opsy":14185,"astron":14186,"Ġclut":14187,"Ġclunk":14188,"estrian":14189,"Ġtrs":14190,"antgard":14191,"iginal":14192,"ista":14193,"Ġflir":14194,"Ġflake":14195,"Ġflung":14196,"Ġboos":14197,"Ġcomfy":14198,"Ġquot":14199,"Ġquib":14200,"Ġexor":14201,"uddy":14202,"Ġcrot":14203,"Ġcrme":14204,"Ġoutput":14205,"Ġarbore":14206,"plastic":14207,"Ġscents":14208,"Ġscattered":14209,"bec":14210,"Ġbuttocks":14211,"Ġunre":14212,"Ġunwind":14213,"Ġamour":14214,"Ġrifle":14215,"ortions":14216,"mem":14217,"Ġperen":14218,"Ġjockey":14219,"Ġsling":14220,"Ġslower":14221,"blo":14222,"Ġkeith":14223,"Ġdaylight":14224,"Ġframed":14225,"Ġfriction":14226,"Ġclearer":14227,"Ġthemes":14228,"Ġcarve":14229,"Ġawash":14230,"odyn":14231,"ordes":14232,"Ġheadache":14233,"Ġpleasing":14234,"Ġbribe":14235,"Ġphall":14236,"Ġbarg":14237,"Ġbartend":14238,"Ġmarketing":14239,"izing":14240,"ushing":14241,"uffs":14242,"Ġcurs":14243,"welling":14244,"comple":14245,"compreh":14246,"Ġsnip":14247,"Ġgeeks":14248,"Ġundo":14249,"Ġundoubtedly":14250,"Ġassass":14251,"Ġreplies":14252,"Ġrepresent":14253,"Ġcontag":14254,"Ġdecks":14255,"Ġhelen":14256,"Ġdefy":14257,"Ġcommence":14258,"Ġlettuce":14259,"Ġcareers":14260,"Ġsupper":14261,"Ġtrivial":14262,"Ġimposs":14263,"Ġlimrick":14264,"Ġzig":14265,"Ġzool":14266,"Ġbede":14267,"Ġappell":14268,"Ġdragging":14269,"Ġconsiders":14270,"Ġconsternation":14271,"loads":14272,"azi":14273,"Ġtravels":14274,"Ġcharter":14275,"Ġballistic":14276,"Ġmissile":14277,"Ġburger":14278,"Ġverte":14279,"conce":14280,"Ġgrime":14281,"Ġgrieve":14282,"Ġelbows":14283,"Ġsleigh":14284,"Ġsalts":14285,"Ġvoted":14286,"Ġinvaded":14287,"Ġstuffing":14288,"Ġretort":14289,"Ġretribution":14290,"Ġabscess":14291,"Ġpresented":14292,"Ġceases":14293,"Ġpersist":14294,"Ġperspective":14295,"Ġwishing":14296,"Ġyester":14297,"Ġjeff":14298,"Ġchilds":14299,"Ġmaze":14300,"Ġmessy":14301,"Ġdenial":14302,"Ġcooling":14303,"Ġpenn":14304,"Ġfelicity":14305,"Ġentreat":14306,"Ġhurting":14307,"Ġsolar":14308,"major":14309,"Ġpatrol":14310,"Ġdisputes":14311,"claims":14312,"Ġprominent":14313,"Ġpetty":14314,"Ġgalax":14315,"Ġmistress":14316,"Ġtomato":14317,"Ġequator":14318,"Ġmerge":14319,"Ġsinner":14320,"Ġarchae":14321,"Ġdelivery":14322,"Ġstrangely":14323,"Ġbankrupt":14324,"ueless":14325,"Ġterrier":14326,"Ġopposed":14327,"Ġhyd":14328,"Ġsneered":14329,"Ġfreshly":14330,"Ġpanache":14331,"Ġfrond":14332,"Ġcommonplace":14333,"Ġboldly":14334,"rounded":14335,"Ġsavage":14336,"Ġaudio":14337,"Ġimmune":14338,"Ġsymmet":14339,"Ġrubble":14340,"Ġrubbed":14341,"Ġyellowish":14342,"Ġporter":14343,"Ġtorch":14344,"Ġprevious":14345,"Ġmentioned":14346,"Ġdissolved":14347,"Ġapartment":14348,"Ġlocals":14349,"Ġxray":14350,"Ġbombard":14351,"Ġrobin":14352,"Ġrobot":14353,"Ġtarry":14354,"Ġmoods":14355,"Ġvacu":14356,"Ġauthent":14357,"Ġinstant":14358,"Ġinflation":14359,"Ġcavort":14360,"color":14361,"Ġconsumers":14362,"Ġpassionate":14363,"Ġmutual":14364,"Ġfleeing":14365,"Ġmortal":14366,"Ġremarkably":14367,"Ġsorely":14368,"Ġfrequent":14369,"ivalent":14370,"farious":14371,"Ġsucking":14372,"Ġchemicals":14373,"Ġscratching":14374,"Ġflawless":14375,"Ġfungal":14376,"rodite":14377,"Ġsparkling":14378,"Ġchuckle":14379,"Ġmodernday":14380,"Ġjello":14381,"Ġcollective":14382,"Ġathlete":14383,"ophobic":14384,"lifting":14385,"Ġresembled":14386,"Ġcuisines":14387,"Ġstomachs":14388,"Ġcommunist":14389,"Ġcustomer":14390,
[...]
